#version: 0.2 - Trained by `huggingface/tokenizers`
Ġ ì
Ġ ë
Ġ ê
Ġì Ŀ
Ġ í
Ġí ķ
Ġì Ĺ
ĭ ¤
Ġ .
ĠìĿ ´
Ĭ Ķ
Ġê °
ĠìĹ Ĳ
Ġë ĬĶ
Ġì ŀ
Ġê ³
ì Ŀ
Ġì ł
ì Ħ
§ Ģ
¡ ľ
Ġë ĭ¤
Ġì ķ
ĠìĿ ĺ
ĠìĿ Ħ
ë ĭ
ì ŀ
ë ĭ¤
Ġê ²
Ġíķ ĺ
¼ ë
¸ °
Ġê° Ģ
Ġì ľ
Ġ ,
ì ł
ë ¦
ı Ħ
Ġ 1
Ġë §
Ġë °
Ġê³ ł
Ĥ ¬
í ķ
ìĦ ľ
Ġ 0
ì ļ
Į Ģ
ëĭ Ī
Ġíķ ľ
ĠìĿ Ģ
ĭ ľ
Ĭ ¤
Ġë ¥
ĸ ´
Ġë Ĥ
ê °
Ġì Ħ
Ġë ĵ
Ġë¥ ¼
ê ³
Ġì §Ģ
Ġ 2
ìĿ ´
ë¦ ¬
Ġì ĺ
Ġê ¸°
ì §Ģ
Ġë ³
Ġë ıĦ
ëĭĪ ëĭ¤
Ġë ¶
ë ł
Ī ĺ
ê µ
Ġìŀ Ī
Ħ ì
Ġìľ ¼ë
Ġê ·
Ġë Ĳ
Ħ ë
¸ ë
Ġë ĮĢ
ì ķ
ê ²
ì Ĭ¤
ë Ĥ
ĥ ģ
Ġë ¡ľ
Ġë ª
Ġì Ĥ¬
Ġìľ¼ë ¡ľ
ë §
Ŀ ¼
Ġë ©
Ġì Ĭ
Ġ (
Ġë ĭ
Ġì ĭľ
Ġì ĸ´
ê ¸°
ĠìĹĲ ìĦľ
Ġ )
Ġê µ
Ġëĵ ¤
ì Ĺ
Ġë³ ´
Ġë ħ
ê³ ł
ĠìĿ ¸
£ ¼
Ġì Īĺ
Ġì Ļ
ìŀ Ĳ
Ġë ¬
ĠìĬ µ
ë ĵ
Ġ 3
Ľ Ĳ
Ġí ĸ
ĠìĬµ ëĭĪëĭ¤
Ġë į
ìŀ ¥
Ġíķ ´
ì Ĥ¬
ĠëĤ ĺ
Ġìķ Ħ
Ġìŀ Ĳ
ê° Ģ
ì ĭ
Ġê² Į
ë ¬
Ġê³ ¼
Ġ 5
ë °
Ġì ļ
ë ¶
ı Ļ
Ġì §
ì §
Ġê ±
Ġ 4
Ġí Ļ
ì ¹
Ġ 9
ì ĸ´
Ġìł ķ
Ġíĸ Ī
Ġì ¤
Ġë ²
ì ĺ
Ġì Ĩ
ì ĭľ
ë ıĦ
Ġí ĺ
í Ĭ
ĠëĲ ĺ
Ġ '
ĠìĿ ¼
Ġì ĭ
Ġë ¹
ì ľ
í ĥ
Ġê² ĥ
Ġì ²
í Ļ
ë ¥
ëĤ ĺ
ìĿ ¸
ë į
í ĺ
Ġ -
¡ °
Ġë§ Į
Ġ "
Ġë¶ Ģ
Ġì °
ìł ķ
Ġë© ´
Ġê ¹
¯ ¸
ë Ł
Ġëħ Ħ
Ġ :
íķ ´
Ġìł ģ
êµ Ń
Ġê· ¸
ë ŀ
ìļ Ķ
ë ¡ľ
ì ĥģ
ë ³
Ġìł Ħ
ĠìĹ Ī
íĬ ¸
Ħ °
ì ²
Ġ 6
Ġìĺ ¤
ĠìĻ Ģ
ì Ĩ
Ġ 8
ë Ŀ¼
Ġí Į
ìł ľ
Ġì ¹
Ġ #
Ġ â
ë ²
Ġìł ľ
ĠìĹ ¬
Ġë§ Ī
Ġì £¼
ë§ Į
Ġê³ µ
íķ ľ
Ġê² ½
Ġì ¶
í Ħ°
ê ¸
ì Īĺ
ļ Į
Ġ 7
Ġì Ĭ¤
Ġì ĥģ
ë ĮĢ
ĥ Ŀ
´ Ģ
Ġì¤ ĳ
Ġì Ľ
ëĵ ľ
ëį °
Ġí ı
ì ĽĲ
Ġë Ŀ¼
ë ª
Ġê· ¸ë
Ġëª ¨
Ġí ĥ
Ġê ¸
ìļ °
Ġìŀ ħ
ìł Ħ
ì °
Ġí Ķ
ķ Į
êµ ¬
Ġì ¡°
Ġìľ ł
Ġë¬ ´
ŀ Ī
ë¶ Ģ
ìļ ©
ĠìĦ ľ
í ĸ
ĠëĤ ´
ìĦ ±
Ġë ķĮ
ĠìĨ Į
Ĩ µ
Ġëĵ ±
Ġì ĸ
ê² Į
ì¹ ĺ
Ġíķ ł
Ġê± °
ë ©
ê ·
Ġê° ľ
Ġë Ħ
ê ±
ĠìĦ ±
Ġ c
Ŀ ¼ë
íĻ Ķ
ĠëĲ ľ
í Ķ
ĠìĽ Ķ
Ġì ¢
ĠìĹ Ĩ
ĠìĹ °
Ġí Ĭ
ë ıĻ
í ŀĪ
ë¬ ¸
Ĥ °
ë Ĭ
Ġìķ Ī
ìŀ ¬
ģ ¬
Ġ s
ê° Ħ
íķ ĺ
Ġíķľ ëĭ¤
Ġìľ Ħ
í ı
ìĿ ¼
¯ ¼
Ġìĺ ģ
ì £¼
Ġë ¯¸
ëł ¥
Ġìķ Ĭ
ĠìĦ ł
í Į
Ľ Ħ
ì§ Ħ
ìĦ ł
ĠìĦ ¸
ìĭ ł
Ġêµ Ń
Ġêµ ¬
Ġë ıĻ
ëł ¤
Ġì§Ģ ë§Į
Ġì ĽĲ
Ġìĭ ł
Ġì ´
Ġì £
Ġë° Ķ
ë ĬĶ
ë¥ ´
ì Ĭ
Ġëį ĺ
Ġë° ©
Ġìŀ ¥
Ġëĭ ¹
ë ¹
ëĭ ¨
íĥ Ģ
Ġë Ķ
ë ¡
Ġì ĥĿ
Ġê ´Ģ
ìĿ ĺ
ĠëĬĶ ëį°
ì ¤
Ġë ł
Ġê¹ Į
ìķ Ħ
Ġë ı
Ġìŀħ ëĭĪëĭ¤
Ġ. .
Ġìļ °
ĳ Ĳ
ìŀ ĳ
Ġë° ľ
ì Ļ
µ ľ
¦ ¬
ê² ©
ì ¦
ëŁ ¬
Ġëį Ķ
ë £
ì ĸ
Ġë Ŀ¼ë
Ġëª ħ
Ġê° ķ
Ġì° ¨
Ġë° °
ìķ ¼
ìļ ´
ìĨ Į
¶ Į
Ġìŀ ¬
ëĭ ¹
Ġì µľ
Ġê¹Į ì§Ģ
ê³ Ħ
Ġ m
ĠíĻ Ķ
ĳ ľ
ë ħ
Ġ /
ì Ľ
ë ¯¸
í ļĮ
Ġí İ
ìĭ Ŀ
íĸ ī
ìĺ ¤
Ĥ ¤
Ġê¹ Ģ
ì ¶
Ġ !
Ġí ļĮ
Ĩ ł
Ġë§ Ĳ
Ġë¹ Ħ
Ġë¬ ¸
ĠìĹĲ ê²Į
Ġë© °
Ġì Ĥ
½ Ķ
ì Ĥ°
ī ´
Ġì ĭ¤
Ġìł Ģ
ëł Ī
ë© ´
ë³ ´
ì ¡
ê¸ Ī
Ġë¶ Ī
ì² ´
Ġ t
Ġë Ĩ
Ġ ?
íı ¬
Ġê² ł
ë§ Ī
Ġëĭ ¨
Ġê° Ļ
Ġë ¨
Ġë ¦¬
Ġìķ Ħë
Ġì¹ ´
Ġ a
êµ Ĳ
ĠëĤ ¨
Ġëĭ¤ ê³ł
í ģ¬
ŀ ĺ
ë¬ ´
ĠíĮ Į
ìķ Ī
í Ĩµ
Ġìĺ Ī
Ġë° Ľ
ĠìĿ ¼ë
ìĹ ħ
ê ´Ģ
ê± °
ìĿ Į
Ġíĥ Ģ
Ġë° ĺ
Ġë¶ Ħë
ìĹ Ń
íķ Ļ
ìľ Ħ
ĠíĬ ¹
Ġë§ İ
Ġ k
ëª ħ
Ġê² °
í ĭ
Ġì ĥ
ĸ ¶
ê ¹
ë¹ Ħ
Ġìķ Ħì
Ġë©´ ìĦľ
Ī ¬
ëŀ Į
Ġì¶ Ķ
Ġê¸ Ī
ë ¯¼
Ġíı ¬
Ġë Ĭ
Ġê± ´
ī´ ìĬ¤
¥ ĺ
ĠëķĮ ë¬¸
ĠëĿ¼ ê³ł
ì ¡°
í ĽĦ
Ġ %
¸ Į
Ġìķ ĺ
Ġí Ĩµ
ê° ģ
Ł ¬
ë° ©
Ġ y
Ġíķ ©
ìľ ł
ì ĭ¤
Ġ w
Ġìļ Ķ
ì ĥĿ
ê³ µ
Ġìķ Į
ë¥ ¸
Ġìĺ Ģ
ìĺ ģ
ìĦ ¸
Ġêµ Ĳ
ĠìĹ Ń
ì Ī
ë¶ Ħ
Ġë² Ī
ê³ ¼
Ġëį °
Ġì Ī
ë Ħ
ìŀ Ħ
Ġë ĺ
Ġ ~
Ġë¶Ħë ¥ĺ
Ġì ¦
ë¦ °
Ġë Ī
ëĬ ¥
Ġì² ĺ
í ĳľ
ìļ ¸
ëĤ ľ
Ġëĭ¤ ëĬĶ
» ¤
í Ĥ¤
Ġëĭ ¬
Ġìŀ ĳ
Ġëĵ ľ
Ġí Ľ
Ġê¸° ìŀĲ
Ġì´ Ī
í Ĵ
Ġì¢ ĭ
ì¹ ´
Ġì¶ ľ
ìĹ ¬
Ġì ±
Ġíķ ¨
Ġê° Ĳ
ĠëĿ¼ë ĬĶ
Ġë° ķ
ë¬ ¼
ħ Į
Ġëĺ Ĳ
Ġëł Ī
ê² ½
Ġë ģ
ìĹ °
Ġ.. .
Ġë§ ¤
ìł Ĳ
Ġ d
Ġë ī´ìĬ¤
íĶ Ħ
ë¡ Ŀ
Ġí Ĺ
ë Ķ
Ġì§ Ħ
Ġâ ĸ¶
Ġìł Ħë
í İ
íĺ ¸
Ġ p
Ġì£ ¼ë
ëł ¹
ìĨ į
ì¦ Ī
Ġíķ Ļ
Ġëĭ Ī
Ġìľ¼ë ©
í Ĩł
Ġìĺ ¬
Ġí Ŀ
ëĤ ´
ë° ľ
ĠíĶ ¼
ê¹ Į
ê¸ ī
íĥ ľ
Ġíĺ Ħ
ì° ¨
Ġ i
Ġìł Ħì
Ġ b
Ġë ĳĲ
ìŀ ħ
ĠìķĦ ëĭĪ
Ġë¶ Ħ
Ġí ģ
ĠìĨ į
ĠëĶ °
Ġëħ ¸
ëŀ ĺ
ĠëĮĢ íķľ
ì ħ
Ġìķ ¼
Ġì¹ ĺ
Ġê ¶Į
ê± ´
ì ¢
Ġë¶Ģ íĦ°
Ġëª »
ìĭ ¬
ìĦ Ŀ
Ġc o
Ġì ½Ķ
ë£ ¨
ĠìĤ¬ ëŀĮ
Ġ =
t n
Ġìł Ĳ
ĠëĦ ¤
ì¤ ĳ
Ķ ¨
ĠëĲľ ëĭ¤
Ġí ĽĦ
ëĵ ¤
Ġy tn
íķ ©
e r
ì¤ Ģ
Ġë² Ħ
ëª ¨
Ġí ģ¬
ë¦ Ħ
ĠìĿ ¸ë
ĠìĤ ´
êµ °
Ġ f
Ġë¶ ģ
ĠíĻ ķ
Ġì º
´ ĳ
Ġíı ī
Ġê²½ ìļ°
ìĸ ĳ
ìł Ģ
ì¢ ħ
ĠìĦ ¤
ëĬ ĺ
í Ĺ
íĭ °
Ġì ĵ
b s
íĮ Į
Ġì§ ĳ
ìł ģ
Ġë¨ ¹
ĠìĿ Į
ê ¶Į
ë² ķ
ëł ¨
· ¨
Ġì° ¸
Ġíĺ ¸
ì ¼
ë ĳĲ
Ġíİ ¸
ë ı
ĠìĤ¬ ìļ©
íĴ Ī
Ġ l
Ġêµ °
Ġë Ĵ
Ġë³´ ëĭ¤
Ġì² ľ
ìĺ ¨
Ġì§ ģ
Ġíĸ ī
Ġì ¡
ĠëĤ ł
Ġë ŀ
Ġë ¯
Ġìľ Ħì
Ġì¢ ħ
ì ¸
Ġìĥ Ī
ëĵ ł
Ġë© Ķ
¶ Ģ
o n
Ĥ ĺ
Ġê°Ģ ëĬ¥
Ġí Ī¬
ì ´
Ġíķ© ëĭĪëĭ¤
ĠìĹ ´
Ġìłķ ëıĦ
Ġìļ ´
Ġë³ ¸
Ġâ Ģ
ê· ¼
Ġë ´
ê° ľ
ë ¸Į
Ġìĭľ ê°Ħ
Ġíķľ êµŃ
Ġ ã
ĠìĦľ ìļ¸
ĠìĿ´ íĽĦ
Ġìĸ ĳ
Ġê² Ģ
Ġê·¸ ë¦¬
ìĬ ¹
i n
ìĦ ¤
ĠíĶ Ħë
Ġ h
ì¶ ľ
Ġíĺ ķ
Ġ r
Ġìĺ¤ ëĬĺ
Ġìĭ ¬
ĠíĮ Ĳ
Ġìŀ ĺ
Ġë ĸ
Ġë ¯¼
ê »
ì° °
ìĬ µ
t h
§ Ī
Ġì² ´
Ġê° Ħ
íĶ ¼
Ġê³ Ħì
Ġì´ Ŀ
í Ŀ
³ ¸
Ġì² Ń
ĠìĻ ¸
ĠëĲ Ĳ
Ġë§ ŀ
Ġì ·¨
Ġëı Į
Ġë¹ Ħì
ĠìľĦ íķ´
ë³ µ
ë£ Į
ĠìŀĲ ìĭł
ì² Ń
Ġíķ´ ìĦľ
ì² ľ
íĮ Ĳ
ĠìķĦ ìĿ´
Ġ n
Ġìļ ©
Ġ Â
ëł ĩ
íĻ ©
Ġìĸ´ ë
ëĶ Ķ
Ġë £
Ġë³ Ģ
¿ ł
Ġì ¸
ì¡ ±
ìĪ ł
i d
ĠìĿ´ ëĤĺ
ì ½Ķ
Ġê± ¸
Ġê¸Ī ì§Ģ
Ġí Ĩł
Ġê³ Ħ
ĠìĿ¼ë ³¸
ĠëĴ ¤
Ġë¯¸ êµŃ
ìĨ ¡
ĠíĮ ¨
Ġã Ģ
ì§ Ī
Ł °
Ġë¬¸ ìłľ
ëŁ °
Ġëĭ¤ ë¥¸
ëłĪ ìĿ´
íĺ ķ
ìħ ĺ
ì ĥ
ìĽ Į
Ġê³µ ê²©
a n
ë° Ķ
ĠìĬ ¹
¸ Ķ
Ġì Ĥ°
ĠÂ ·
Ġ g
Ġëª ©
ìĻ Ģ
ë² Ħ
Ġìĵ °
Ġë³ µ
ĠíĶ Į
Ġìļ° ë¦¬
ìł ¸
ë° ĺ
ĠëĨ Ĵ
Ġìº Ĳ
Ġê²½ ê¸°
ëŁ ī
Ġìķ ŀ
Ġì¦ Ŀ
ê· ¸
íĹ ĺ
íĸ ¥
Ġìĭľ ìŀĳ
³ ´
ê² °
Ġìķ ł
Ġâ Ĺ
Ġíı Ń
ª ½
ë¦ ½
Ġë¬ ¼
Ġë°° íı¬
ì¡ Į
íĺ Ħ
ë§ ¤
ê» ĺ
ĠíĬ ¸
Ġì Ķ¨
ĠìĿ´ ìĥģ
íĻ ĺ
Ġì »¤
ĠìĤ¬ ìĭ¤
Ħì Ĭ¤
Ġ e
ĠìĥĿ ê°ģ
ì§ ģ
į °
Ġìķ ½
Ġí ħĮ
íĨµ ëł¹
ë¦ ¼
ĠëĪ Ī
ĠëĲ ł
ë Ŀ¼ë
í ħ
ìĬ¤ íĬ¸
Ġí ļ
ëĭ ´
Ġê·¸ë¦¬ ê³ł
Ġí ĳľ
ê° Ĳ
Ġì§ Ħì
ĠëĮĢ íĨµëł¹
Ġìĭ Ŀ
Ġâ ĺ
ĠìĿ´ ë²
Ŀ ½
Ġì ħ
Ġíķ¨ ê»ĺ
Ġíķĺ ëĤĺ
Ġíĥ ľ
ĠëĦ Ī
ĠìĨ Ĳ
ì§ ĳ
ĠíĽ Ħë
Ġë² ł
ì§Ģ ë§Į
ĠìĹ Ķ
ĠíĻ ľ
ĠìĪ ľ
Ĥ ´
Ġs bs
Ġëģ Ŀ
Ġê·¸ë Ł¬
ì »¤
Ġê ´ĳ
í ģ
Ġì¤ Ģ
Ġìĸ´ ìĦľ
ìķ Ħë
ë¶ ģ
ì ±
Ġë² ķ
Ġí ĮĢ
Ġëĭ¤ ê°Ģ
ĠëĦ ĺ
Ġ o
Ġ &
Ġê° ģ
Ġí Ĥ¤
Ġë ĥ
b c
Ġí Ĵ
í Ī¬
i g
Ġì§Ģ ëĤľ
Ġ +
¡ ł
Ġ j
ĠìĤ¬ ìĿ´
ìĻ ¸
ĠìĹ ħ
Ġëĭ¤ ìĭľ
Ġíķĺ ì§Ģë§Į
ìĸ ¸
Ġì¶ ©
Ġë¹ Ħë
Ġì£ ½
Ġìľ¼ë© °
ëħ Ħ
ĠëĶ Ķ
Ġë° Ŀ
Ġê³ ³
Ġë° ±
ìł Ī
Ġë³ ĳ
Ġì§Ģ ìĹŃ
Ġw id
Ġí ĭ
Ġwid th
ìľ ¼ë
a r
ëı ħ
Ġëı ħ
¬ ´
ĠìĬ¤ í
Ġë§ Ľ
Ġìłķ ë¶Ģ
Ġê·¸ë Ł°
ì¸ ł
a l
Ġëĵ± ìŀ¥
Ġëĵ ¯
į ¼
Ġëĵ¤ ìĸ´
ĠëĮĢ íķ´
Ġëł ¤
Ġíķ Ń
ĠìĤ ¼
Ġë£ ¨
Ġì¹ ľ
Ġë¬ ¼ë
ëĤ ¨
Ġë° ı
Ġëħ ¸ë
Ġìĸ´ë ĸ
Ġê²Į ìŀĦ
ìķ ½
Ġê´Ģ ëł¨
ĠìĬ¤ íĥĢ
Ġì§Ģ ê¸Ī
ĠëĬ Ĳ
Ġìľ¼ë© ´
ĠëĬĶ ëĭ¤
ĠëĮĢ íĳľ
Ġíİ ĺ
ëŀ ĳ
ĠëĤĺ ìĺ¤
ëŁ ¼
ëł ¸
° ĺ
Ġ å
ê° ķ
Ġë¬´ ëĭ¨
ë§ Ŀ
Ġì ½
Ġìĥģ íĻ©
ë Ŀ½
ìĹ Ĳ
Ġìĺģ íĻĶ
Ġìķ µ
íĥ Ŀ
ĠìĦ¸ ê³Ħ
ì ³
Ġë ¸Į
ĠëĶ° ëĿ¼
Ġë§İ ìĿ´
ĵ ľ
Ġë§Į ëĵ¤
Ġíķ Ħ
Ġë¯ ¸ë
Ġë§ ī
Ġì ¼
ë ģ
Ġëª¨ ìĬµ
Ġê°Ģ ìŀ¥
Ġì¤ĳ êµŃ
ĠëĤ ľ
Ġë¶ģ íķľ
ĠìłĢ ìŀĳ
o r
e n
ĠìĿ´ ëŁ°
ë ¨
Ł ģ
Ġì »
Ġâĺ ŀ
Ġê¸ ´
ĠìĿ¸ íĦ°
ë¦ Ń
Ĥ ¨
ëĭ ¬
ë³ ĳ
Ġìŀ ¡
ëĵ ±
Ġíģ ´
Ġìĺ ¨
Ġ Ġ
ĠíĻ ĺ
ŀ ¨
íİ ¸
í ļ
ìĿ Ģ
Ġí ŀĺ
ëĦ Ī
Ġëª¨ ëĳĲ
ĠíĺĦ ìŀ¬
Ġê¸ ī
Ġê°Ģ ì§Ģ
ĠìĿ´ë² Ī
Ġì¡ ´
Ġíĺ ĳ
Ġt v
ê² ¬
ìĥ ī
ĠíĶĦë ¡ľ
e s
Ġë³ ¼
Ġìĸ ¸
ëª ©
ë ·
ê² ¨
íĿ ¬
Ġ @
ìķ ħ
Ġì£ ł
íķ Ń
Ġì¤ Ħ
ĠìĻ ķ
Ġì° ¾
Ġíģ °
ĠìĿ´ ë¦Ħ
Ġë³´ ìĿ´
Ġí ŀĪ
ëŀ Ģ
ëį Ķ
Ġíķ´ ìķ¼
Ġê±° ëĤĺ
ë¥ ĺ
© °
ë© Ķ
Ġì²ĺ ëŁ¼
Ĩ į
ë° ķ
Ġíļ ¨
ĠëĪ Ħ
íĸ Ī
Ġë ¿
Ġê·¸ë ŀĺ
ĠíĹ Ī
ì± ħ
ë¡ ł
íİ ĺ
ĠìĿ¸ë į°
Ġt h
ìķ Ħì
Ġë Ł¬
Ġì² ł
a t
Ġê¸ ¸
Ġìĸ´ ìļĶ
ëłĩ ê²Į
Ġ v
Ġë°Ŀ íĺ
íķ ¨
Ġë ĳ
ë§ Ĳ
Ġì§ Ī
Ġê° Ī
ë§ ī
ĠëĤ ®
ìĬ¤ íĦ°
Ġìł Ī
Ġ *
ë³ ¸
Ġë² Į
ìĿ´ ìĬ¤
Ġê· ľ
Ġë¹ ł
Ġëĭ¤ ìĿĮ
ê¶Į ìŀĲ
i t
ĠìľĦì ĽĲ
© ëĭĪëĭ¤
Ġë ¸Ķ
Ġëĭ ´
ì´ Ī
ëħ ¸
Ġìĸ µ
¨ ìĸ´
ĠíĻ ©
ĠìĦł ìĪĺ
Ġëĭ¹ ìĭľ
í ħĮ
ĠìķĦ ëĭ
Ġìĥģ ëĮĢ
íĬ ¸ë
ĠëĮĢ íķĻ
Ġì ī
. .
Ġì² «
Ġì¶ ķ
Ġì¶Ķ ê°Ģ
ì ª½
Ġê²½ ìłľ
Ġë¶ Ħì
ĠìłĢìŀĳ ê¶ĮìŀĲ
Ġìĭ ¶
ìł ĳ
Ġí ľ
ìľ ¡
ĠëĬĶëį° ìļĶ
Ġê²½ ì°°
Ġìĥģ íĥľ
ë ĥ
¬ ¸
Ġì° ½
ĠìĻ Ħ
Ġâ Ĩ
ê² ĥ
ĠíĶ¼ íķ´
Ġí Ħ°
ĠíĨµ íķ´
Ġìĺģ ìĥģ
ìĽ Ģ
ĠíķĦ ìļĶ
ĠíĽĦë ³´
ĠëĬ ¥
Ġë°© ìĨ¡
ë° °
© ´
Ġëª¨ ëĵł
Ġëı ¼
Ġ æ
ìĿ´ íĬ¸
u n
ĠíĬ¹ íŀĪ
ì² ĺ
ĠëĲ ©ëĭĪëĭ¤
Ġì¡° ìĤ¬
Ġë ¡
íķ ł
ĠìłĦ ìŀ¬
Ġì¼ Ģ
ë· °
Ġê´Ģ ê³Ħ
Ġê³Ħì Ĩį
ĠìĿĺ ìĽĲ
Ġk r
Ġì ¿ł
ëĦ ¤
ì³ Ĳ
ĠëĦĪ ë¬´
´ ´
ìķ¼ ê¸°
Ġë Ń
s t
Ġë¯¼ ì£¼
Ġì¢ Ģ
ì Ĥ´
Ġì§ ¸
ì £
ì² ł
Ħ ´
íĥ Ħ
Ġì§Ģ ë°©
Ġë°Ķ ë¡ľ
ĠíĻ į
Ġì± Ħ
Ġë ľ
¬ ¼
ê ´ĳ
Ġê²° êµŃ
Ġìķµ ì»¤
Ġìķ ħ
¶ ģ
ë ´
ëĵ Ŀ
Ġê· Ģ
ì Ķ¨
ê¸ Ģ
ĠìĹ° íķ©
ĠìĤ¬ ê±´
ë³ Ħ
Ġìĭľ ìŀ¥
Ġê ¼
Ġìŀ Ħ
ĠëıĻ ìķĪ
ĠíĶ Ħ
ì¦ Į
ë¦ ´
Ġê·¸ë ŀ¨
ëŁ ½
ĠíķĻ êµĲ
ì¦ Ŀ
Ġì²ĺ ìĿĮ
ĠìĿ´ ìĸ´
§ ģ
Ġíĭ °
íģ ¼
ĠìĿ¸íĦ° ë·°
ë² Ķ
ëħ Ģ
Ġíĥ Ī
Ġìłķ ì¹ĺ
ìĻ Ķ
Ġìŀ ł
Ġì¸ ¡
Ġco m
Ġê³ ¨
ì¶ Ķ
Ġë³´ ìĹ¬
Ġí ħ
ŀ Ģ
Ģ ë¡ľ
Ġê¸° ìĤ¬
Ġëĸ ¨ìĸ´
e l
ĠìĿ´ ìľł
ĠêµŃ ê°Ģ
ĠëĨ į
Ġë° Ģ
íļ į
ĠìºĲ ë¦Ń
Ġê¸° ë¡Ŀ
Ġë² Ķ
Ġê· ¹
ì¡ ´
ĠëĺĲ íķľ
ĠëĨ ĵ
Ġì¹´ ëĵľ
ĠìĹ¬ ëŁ¬
ìĽ Ķ
ëĤ ł
ĠìĹ¬ ê¸°
ì¼ Ģ
ĠëĤ´ ìļ©
Ġëª °
ĩ ´
Ġíĺ Ħì
ĠìĿ´ ìļ©
íĶ Į
Ġìµľ ê³ł
ig h
Ġìľ ¼
Ġë°Ŀíĺ Ķ
Ġê·¸ëŁ¬ ëĤĺ
ĠëĬ¥ ëł¥
ĠìºĲë¦Ń íĦ°
ì »
Ġë³ Ħ
Ġì§Ħ íĸī
Ġìĭľ ì¦Į
Ġëĭ ĺ
Ġë¶Ģ ë¶Ħ
ì° ½
Ġì Ķ
Ġëĭ¤ ë©´
Ġìĭľ ë¦¬
Ġë¨ ¸
ª ħ
ĠíĮ Ķ
ĠâĹ Ĩ
í į¼
Ġë° ĸ
Ġíļ¨ ê³¼
a m
ĠëĬ ĺ
ĠíĬ ¸ë
Ġëĥ Ĳ
ê· ¹
ĠëıĦ ë¡Ŀ
ë¨ ¸
Ġê¸° ìĪł
Ġê°Ļ ìĿ´
ĠêµŃ ë¯¼
Ġì± ħ
Ġë³´ ëıĦ
ĠìĬ Ī
ë¯¼ êµŃ
i c
Ġë¿ Ĳ
ĠìĿ´ ë¯¸
ê° Ŀ
Ġê ½
ĠëĬĶ ì§Ģ
Ġê³ ¡
ìĿ ¼ë
Ġìł ĳ
igh t
Ġì·¨ ìŀ¬
ĠíĶĮ ëłĪìĿ´
ë¡ Ģ
¹ ĺ
ìĪ ľ
Ġ x
ì° ©
ì ½
Ġê²° ê³¼
ĠìķĦëĭ Į
ëĭĪ ê¹Į
l e
Ġëĭ¤ ë§Į
ĠìĿ¼ë ¶Ģ
Ħë ĮĢ
į ¨
Ġì§Ģ ìĽĲ
ĵ ¤
ê³ ¡
Ġ ]
Ġìĭ ¸
Ġth e
ĠëĮĢíķľ ë¯¼êµŃ
Ġê· ¼
ĠìĽ Į
Ġëı Ī
â ĸ¶
Ġìĥģ ëĭ¹
u s
ìĿ ĳ
ê· ¸ë
ĠìĿ´ ìķ¼ê¸°
ì° ¬
ë Ĥ¬
ĠìĹŃ ìĭľ
ì¹ ľ
ìĺ Ģ
íĻ ľ
Ġë¬¼ë ¡ł
íĭ Ģ
Ġìľ ¡
¼ë §Ī
ì¶ ķ
ĠëĤĺ ìĺ¨
ĠìĹ° êµ¬
íĺ Ģ
Ġìĭ¤ ìłľ
Ġìłķ ë³´
ĠëĿ¼ ìĿ´
ĠìľĦ íķľ
ĠìķĦ ìĦľ
ĠêµŃ íļĮ
Ġm bc
ĠëĤ´ ìĿ¼
ĠìĹĨ ìĿ´
ê¸ ¸
Ġë¨ ¼
Ġk bs
Ġë§Į íģ¼
Ġìĭľ íĤ¤
ĠìĦ ¸ë
ĠìĿ´ ëłĩê²Į
ì§ ķ
ì ¿ł
ìĿ Ħ
ĠíĻķ ìĿ¸
Ġëĳ ĺ
¥ ´
íĥ Ī
Ġì ĩ
e w
ë© °
ìļ´ ëį°
in g
Ġëŀ Ģ
íĮ ¨
ĠìłĦ êµŃ
ĠìłĦ íĪ¬
Ġê³µ ìĭĿ
ë¶Ģ ë¶Ħ
Ġìĭľë¦¬ ì¦Ī
ìķ ł
ĠíĴ Ģ
Ġì¡° ìĦł
Ġê¸ Ģ
ê° Ī
ĠìĨ ¡
e d
ĠãĢ ĭ
íĺ ľ
ĠìĿ¼ë °ĺ
ĠíĻľ ëıĻ
Ġë§¤ ìļ°
ĠìŀĲ ì²´
íĴ į
Ġíĸ ¥
ĠìĿ¸ ì§Ģ
Ġíķ µ
ëı Į
ĠìĬ¤í Ĥ¬
ìĻ ķ
ìĿ´ ì§Ģ
ĠãĢ Ĭ
í Ľ
ìľ¼ë ©°
ĠëĤĺ ëĿ¼
ê· ľ
ĠìĤ¬ íļĮ
ì¼ ľ
ë² ¨
ê±° ë¦¬
= =
Ġì¡´ ìŀ¬
ĠìķĦë ¬´
Ġë¶ Ļ
ĠëĮĢ ë¶Ģë¶Ħ
Ġ Ċ
ĠìĦ ¼
ĠìķĮ ëł¤
ĠìĤ¬ ê³ł
ë¶ Ī
Ġê°Ģ ìļ´ëį°
ĠëĤĺ íĥĢ
ëĬ Ĳ
íħ ľ
Ķ Ķ
Ġìĸ »
ë¦¬ ìķĦ
Ġì§ģ ìłĳ
Ġìµľ ëĮĢ
Ġìĸ ¼
ĠâĨ Ĵ
ë² Į
ëŀ ľ
ĠìĹ¬ ìĦ±
Ġìľ ¤
Ġê· ¼ë
Ġ á
ĠìĻ ľ
Ġìĺ¬ ëĿ¼
Ġì¡° ê¸Ī
Ġì£¼ ìĿ¸
Ġìŀħ ìŀ¥
Ġê¸° ìĹħ
Ġëĸ ł
Ġê·¸ ëłĩ
ĠìķĦì ¹
Ġìĸ´ëĸ ¤
Ġë¬´ ê¸°
Ġ... )
Ġëª» íķĺ
Ġëĵ ł
ì§Ģ ë§ī
Ġê¸° ì¤Ģ
Ġê² ©
ê¸ ´
ĠíĮ ¬
ĠíĹ ¤
Ġìļ ¸
Ġs t
íĺ ¼
Ġë ¦
ĠìĪĺ ì¤Ģ
Ġìľ¼ë Ĥĺ
Ġê±° ìĿĺ
ĠìłĦì ²
Ġì¦ ī
ĠíĻ Ī
* *
ë¦¬ ìĬ¤
Ġëĭ µ
ìļ ±
Ġìŀĳ íĴĪ
ĥ ¥
Ġë°ľ ìĥĿ
Ġëĭ¤ ìļ´
ĠëĤł ìĶ¨
Ġíķ´ ëĭ¹
í Ħ´
Ġê° ĸ
Ġê·¸ë ĥ¥
ĠìŀĲ ë¦¬
Ġê°ľ ë°ľ
Ġëį ķ
ìĿ¸ ëĭ¤
Ġ u
ĠëıĦ ìĭľ
ë³ Ģ
ĠìĿ´ ë
ĠíĺĦ ìŀ¥
Ġë° ¤
Ġì£¼ ìŀ¥
ĠìĦł ê±°
² Ħ
ìľ ¨
Ġë§Ī ì§Ģë§ī
Ġë´ Ĳ
Ġíıī ê°Ģ
c h
ë ī´ìĬ¤
Ġì¹ ¨
íı ī
Ġê³Ħ íļį
Ġê¸° ë³¸
Ġê°Ĳ ëıħ
i s
Ġê³µ ê°ľ
ĠêµĲ ìľ¡
ĠëĿ¼ë ©´
Ħì ²
Ġìĸ´ëĸ »
ĠìĥĪ ë¡ľ
Ġëª ĩ
ĠìĦ Ŀ
ĠìĦ¤ ëªħ
Ġì ª½
Ġê¸° ìĺ¨
Ġìķ Ķ
Ġíľ ´
ë ¸Ķ
§ Ŀ
Ġê²° ìłķ
ìĸ´ ëĤĺ
ìĺ Ī
ëĮĢ ë¡ľ
Ġíķ´ ëıĦ
Ġì½ ĺ
ĠêµŃ ëĤ´
ìĬ ¨
ìľ¼ë Ĥĺ
ìķ Ļ
Ġìłķ ë§Ĳ
ĠëłĪ ìĿ´
Ġëħ ¼ë
Ġê²Ģ ì°°
Ġê´Ģ ë¦¬
ŀ ĳ
ìłĦ íŀĪ
ĠìķĦì §ģ
Ġc h
Ġëª ¸
ĠìĺĪ ìĥģ
íı °
ìĿ´ ìħĺ
ĠëłĪ ë²¨
r e
íĽ Ī
ĠìĪĺ ìĤ¬
ĠìĹĲ ìĦł
Ġìķ ķ
ĠìĻ Ķ
Ġë¬¸ íĻĶ
Ġ é
ĠíĿ ¬
r o
Ġë°Ķ ëŀĮ
ĠìĺĪ ìłķ
Ġì¦Ŀ ê°Ģ
Ġi n
ë ĳ
Ġì¹ľ êµ¬
Ġë§Ī ìĿĮ
ĠìĤ¬ ì§Ħ
ìĿ µ
l l
Ġìĺģ íĸ¥
ì´ Ŀ
ĠìĬ ¬
ĠìĪ ¨
Ġë ķ
ĠìĹ¬ ìŀĲ
ë¦° ëĭ¤
Ġê°Ģ ê²©
ĠêµŃ ìłľ
ĠìľĦì ¹ĺ
Ġë´ ī
ĠëĮĢ ìĥģ
Ġ ç
ĠìĹ°íķ© ëī´ìĬ¤
ew s
ëħ Ĳ
ĠìĤ¬ ëŀĳ
ê³ ³
Ġìłķ ìĥģ
Ġìµľ ê·¼
ë´ ī
Ġì Į
ì¹ Ń
Ġìĸ´ ëĬĲ
Ġë¦¬ ê·¸
ë ¯
§ ľ
ĠìŀĲ ê¸°
Ġëĭ¬ ë¦¬
Ġíı¬ íķ¨
Ġê° ĳ
ë° ±
Ġê·¸ëŁ° ëį°
Ġi m
íķĻ êµĲ
Ġì ı
ĠìĶ ©
Ġíı Ĳ
Ġíķľëĭ¤ ëĬĶ
ĠìĦ± ê³µ
Ġë°ľ íĳľ
í Ĥ¨
Ġì§Ħì §ľ
Ĭ ·
Ġë§Ī ëĭ¤
ìĸ µ
Ġê³¼ ìłķ
Ġìłľ ìŀĳ
¾ ¸
ĠìłĦì Łģ
ĠëĦ £
ĠìĤ¬ ìĹħ
Ġíĺ ¸ë
Ġí ĳ
ĠìĦ¸ ìļĶ
êµ ´
Ġë¶Ģ ìĤ°
ĠëĤĺ ê°Ģ
ĠìĹ ĺ
ĠìĿ´ ìłľ
Ħ Ĳ
ĠìłĦì² ´
Ġë¹Ħì Ĭ·
í Ĩ
Ġíĺ ¼
o u
ĠëĤĺ ìĻĶ
ì¸ ¡
Ġì¦ Ĳ
Ġë§Ī ë²ķ
Ġê·¸ëŀĺ ìĦľ
ĠëĨ Ģ
ì ģ
Ġìŀ¥ ê´Ģ
ķ ¼
ìĹ ¼
o o
ìĭľ ìķĦ
íĨł ë¦¬
Ġ [
ĠíĽ Ħì
ìĺ ¬
ìŀ Ī
ĠìĿ¸ë ¬¼
íĺ ¹
Ġë² ĦìĬ¤
ìĹ ´
Ġê² ģ
ĠëĤ´ ëł¤
Ġp x
ĠëĭĪ ê¹Į
ĠìĿ¸ ê°Ħ
í ŀ
Ġë§ ¡
ë Ī
ĠëĮĢ ë¡ľ
Ġê·¸ë ĮĢ
ĠìĨį ëıĦ
ĠìĤ¬ ë§Ŀ
ì¹ ¨
ĠëĮĢ ìĭł
ë² ł
Ġëª ¬
ë¶Ģ íĦ°
Ġíķĺ ë£¨
ĠìĨį ë³´
ê ´´
Ġìĸ´ ìłľ
a d
ĠìłĦë ¬¸
Ġë§ Ŀ
Ġëħ ¹
ì§Ħ ëĭ¤
ìĬ ¬
Ľ °
a s
i on
Ġë ī´
Ġë¹ ¨
ĠëŃ Ĳ
Ġì¸ µ
Ġì°¨ ëŁī
Ġë§Į ëĤĺ
Ġë°© ìĸ´
ìļĶ ìĿ¼
Ġìī ½
ê· ł
Ġì¤ĳ ìļĶ
a c
Ġì° į
Ł ¼
ë¥ ł
ë ľ
Ġê³ł ìļĶ
ì Łģ
Ġì§Ģ ëĤĺ
Ġë¯¼ì£¼ ëĭ¹
Ġë°© ë²ķ
í ľ
Ġëĵ¤ìĸ´ ê°Ģ
íĮ ħ
íı¬ íĬ¸
ĠíĶ ¼ë
ĠìĿĺ ë¯¸
Ġìļ´ ìĺģ
Ĥ ¹
ìĿ´ ìĸ´
ĠìĿ´ ìłĦ
ë Ĩ
ĠíķĻ ìĥĿ
e t
Ġì°¸ ê³ł
Ġìĺ¤ íĽĦ
Ġìļ´ ëıĻ
§ Ĳ
Ġë¹ Į
ĠìĤ¼ ìĦ±
ĠìļĶ êµ¬
Ġê ¿
ë© ĺ
ĠâĹ Ģ
ë¯¸ ì§Ģ
ĠëĤ¨ ìŀĲ
ĠëĮĢ íļĮ
ĠìķĦì¹ ¨
Ġê°Ģ ì¡±
ĠëĮĢíķ´ ìĦľ
ê² Ģ
ĠâĢ Ļ
ìĹ Ĩ
ĠìĹŃ ìĤ¬
Ġëħ ¼
ê° Ķ
Ġë°° ìļ°
ëĿ¼ ìĿ´
Ġê°ķ íĻĶ
Ġëĭ¤ ë©°
ĠìĦł íĥĿ
Ġë³¸ ìĿ¸
ĠìĿ´ ëıĻ
ì Ķ
Ġë²Ħ ë¦¬
Ġì± Ħë
o s
Ġm b
ëĤĺ ëĿ¼
ĠìĨĮ ìĨį
Ġì¤Ģ ë¹Ħ
Ġìłķ ì±ħ
Ġë Ľ°
ìľ ¼
²Ħ ì§Ģ
Ġìĸ ĺ
Ġìĩ ¼
ëĶ ©
Ġìŀ Ħì
Ġë´ ¤
ĠëĦ¤ ìļĶ
Ġì¶ľ ìĭł
íı Ń
Ġìĥģëĭ¹ íŀĪ
Ġíķľëĭ¤ ê³ł
ëĦ Ĳ
Ġì¶ķ êµ¬
Ġê·¸ëĮĢ ë¡ľ
Ġ on
ìĿ´ íģ¬
Ġì£¼ìĿ¸ ê³µ
Ġì ¿
ħ ¸
ê· Ģ
Ġë³ ¸ë
ê± ¸
Ġì° ©
Ġëª¨ ë¥´
Ġw w
ĠìĿ ĳ
ĠìĿ¸ íķ´
ĠìĿ´ ê²ĥ
Ġíĥ Ħ
ĠìŀĲ ëıĻ
ĠíĪ¬ ìŀĲ
ìĬ¤ íģ¬
ĠíļĮ ìĤ¬
Ġë§ ¨
Ġê·ľ ëª¨
Ġa n
Ġê¸° ê´Ģ
Ġê±° ë¦¬
ìĿ ¸ë
Ġëŀ ĳ
ĠíĴ į
Ġìĥ ī
Ġëħ¼ë ŀĢ
Ġìľł ì§Ģ
Ħì² Ń
ĠìŀĲ ìľł
Ġë¨¸ ë¦¬
ĠâĢ ĺ
ĠìłĦë §Ŀ
Ġìĸ´ ëł¤
ĠíĥĢ ìĿ´
ĠëĬĲ ëĤ
Ġì¤ĳ ìĭ¬
Ġë¨¼ ìłĢ
ìķĦ ê°Ģ
ìľ µ
Ġìŀ Ķ
o w
Ġë°ľ ê²¬
Ġìĸ´ëĸ» ê²Į
ìŀ ¡
Ġê ¶ģ
Ġo f
.. .
Ġìĺ¬ íķ´
Ġë³ Ħë
Ġìłľ ìĻ¸
í ĩ´
Ġìĭľ ì²Ń
ĠìŀĲ ìĦ¸
Ġë¥ ĺ
Ġì¤ĳ ìķĻ
Ġëł¤ ê³ł
Ġë¬¸ ìĦľ
ĠíĽ Ī
Ġìĥģ ìĬ¹
Ġë¦¬ íı¬íĬ¸
Ġìĭľ ëĮĢ
Ġêµ¬ ì¡°
ĠìĿ¼ ëĭ¨
ĠëĮĢ ìĤ¬
Ġê¸° ëĮĢ
Ġë³´ ìĿ¸ëĭ¤
ĠìĹħ ì²´
Ġëľ »
ħ Ģ
ì¼ ĵ
ĠëĮĢ ìłĦ
ĠíļĮ ìĿĺ
Ġë¹Ħë ¡
ĠíĶĦë ŀĳ
Ġíĺ ĦëĮĢ
Ġí į¼
Ġìĭ¤ìłľ ë¡ľ
Ġí Ĩ
ê² ¼
ì¦ ĺ
Ġêµ¬ ìĦ±
ĠëĿ¼ë ©°
£ ¹
ĠíļĮ ìŀ¥
ëĿ¼ë ıĦ
Ġê³¼ ê±°
ê° ĳ
ĠìĥĿ íĻľ
Ġ è
Ġì» ¨
Ġì²ĺ ë¦¬
ĠìĨĮ ë¦¬
ĠìĹ Ħì²Ń
íĻ ķ
Ġíĺ ¹
ĠìķĦ ìļĶ
ĠìĿĮ ìķħ
Ġì°¨ ìĿ´
Ġí Ģ
Ġê¸° ê°Ħ
Ġê² ¨
ĠíļĮ ëĭ´
Ħì ķ
Ġëĵľ ëŁ¬
ĠíĮĲ ë§¤
ĠìĪ ł
ìĿ´ ëĵľ
Ġê²ģ ëĭĪëĭ¤
Ġê ´´
ĠìĽ Ģ
® ¤
Ġê¸Ī ìľµ
o l
Ġì ¯
it al
Ġìĭľ ìłĪ
Ġíİĺ ìĿ´ìĬ¤
ìŀħ ëĭĪëĭ¤
Ġd ig
Ġê°ľ ìĿ¸
ìļ ķ
Ġë°Ķ ê
Ġì£¼ ìļĶ
ëĭ Ŀ
§ Į
Ġì¶ľ ìĹ°
Ġmb n
íķľ ëĭ¤
ìĪ Ļ
Ġìłľ íĴĪ
Ġìĸ´ ìķ¼
ĠìĹ° ê²°
Ġ ;
Ġww w
ĠìĥĪë¡ľ ìļ´
Ġdig ital
íĶ ½
Ġìĸ¸ ê¸ī
Ġë¡ľ ìĦľ
Ġë§Į ëĵł
ëģ ¼
Ġìľł ëªħ
ĠìĦ ¬
ëŀ Ĳ
Ġì°¸ ìĹ¬
ĠìĽĲ ëŀĺ
ĠëıĦ ë¡ľ
Ġk m
Ġìĸ ¸ë
ĠìĻ ¸ë
ľ Ħ
Ġë°ĺ ëĮĢ
Ġë§Ľ ìŀĪ
° Ķ
ì£ Ħ
Ġìĺģ êµŃ
ì ĩ
Ġì£¼ ìĿĺ
Ġë³µ ìłľ
ĠëĤ´ ë¦¬
ĠìķĦë ĵ¤
Ġë ½
Ġt o
ĠêµĲ ìĪĺ
Ġìķł ëĭĪ
Ġìĸĺ ê¸°
ìķĦì ĺ
Ġê°Ģ ê¹Į
Ġë Į
Ġìĸ ¼ë§Ī
Ġëģ Į
Ġìŀ ĩ
ĠìĿ¸ ìĤ¬
ë©ĺ íĬ¸
Ġíĺ Ĳ
Ġëıħ ìĿ¼
íŀ Į
Ġê¹ ¨
Ġìłľ ëĮĢë¡ľ
Ġìī ¬
¨ ¸
³ Ģ
en t
ì£¼ ìĿĺ
ìĹ Ī
ĠìĬ¹ ë¦¬
ĠëĿ¼ ìĿ¸
Ġë³´ ìŀħëĭĪëĭ¤
ĠìľĦìĽĲ íļĮ
ĠëĮĢ êµ¬
ë Ģ
Ġë³ĳ ìĽĲ
ĠìĿĺ íķ´
Ġëĭ¤ ë¥´
ì į¨
Ġëĭ¤ ìĸĳ
íģ ´
Ġì£¼ë ¯¼
Ġê·¸ë ħĢ
Ł ī
Ġê·¸ ê²ĥ
ĠíĬ¹ ë³Ħ
Ġëħ¸ë ŀĺ
Ġë°© ìĭĿ
íħ Ĳ
ĠíĹ Į
Ġì±Ħë ĦĲ
Ġj t
Ġê¹Ģ ìłķ
ĠíļĮ ë³µ
i m
íĺ ĳ
Ġì¯ ¤
Ġìĭ ±
ë§ ģ
Ġìĸ´ ë¦°
íĺ ģ
i l
ë¡ľ ëĵľ
Ġê³ł ëĵ±
ëł µ
ĠìķĦ íĮĮ
ìĽ ħ
Ġë°Ķ ëĢ
ìķ ¡
ĠìĹ¬ íĸī
Ġjt bc
Ġë¹Ħ íķ´
ĠìĹŃ íķł
ĠìľĦìĽĲ ìŀ¥
Ġë§ ģ
a g
ĠìĦ¤ ìłķ
Ħë ĵľ
Ġíĥ ĳ
Ġë¬ ĺ
ì ·¨
ĠìĿ¸ ê¸°
ĠëĶ ¸
ĠëĴ ·
Ġì§ĢëĤľ íķ´
Ġë³´ ìĬ¤
ĠëĮĢíķĻ êµĲ
ĠëĿ¼ë ıĦ
ìĿ¸ íĬ¸
Ġë¹ Ī
Ġê°ķ ëł¥
Ġì²Ń ìĻĢ
Ġí ĩ´
ĠëĪĦ ë¦¬
ĠíĶĦ ë¦¬
Ġì²ŃìĻĢ ëĮĢ
Ġìĭľ ìĬ¤
ĠìķĦë ²Ħì§Ģ
Ġìĭľ ë¯¼
ê³ ¤
Ġìľ¼ ëĭĪ
a y
Ġs n
Ġê´Ģ ìĭ¬
v e
ĠëıĻ ìĭľ
ë§Ī íĬ¸
í ĥģ
Ġì¢ Į
ĠíİĺìĿ´ìĬ¤ ë¶ģ
Ġê º
Ġë§Ī ë¦¬
ê°Ģ ì§Ģ
ëĿ¼ë §Ī
Ġê·¸ë £¹
Ġìµľ ì¢ħ
Ġì£¼ë ³Ģ
¤ íĬ¸
Ġê°Ĳ ìĤ¬
Ġê¸° ì¡´
ëĭ¤ ê°Ģ
ëĿ¼ ê³ł
ĠíĶĦëŀĳ ìĬ¤
Ġì į¨
ĠëĤĺ ìĿ´
Ġìħ Ķ
Ġm m
ìĬ¤ íĥĢ
íļ ¨
Ġíĸī ìĤ¬
Ġìĥ ¤
ĠìĽĶ ëĵľ
Ġìĭľ ì¼ľ
ë² ½
Ġê¸´ ê¸ī
ĠìľĦíķ´ ìĦľ
Ġìŀ¥ ë©´
Ġìŀĳ ìĹħ
Ġë¹Ħ êµĲ
ī ìŀ¥
ĠìĦľ ë¡ľ
ë¥ ¼
ìĸ´ ëĤľ
Ġëĵ £
Ġê±´ ë¬¼
Ġì§Ģ ëıĦ
ëį ķ
ì³ ¤
Ġìķ ¨
Ĩ ŀ
ĠìĥĿ ìĤ°
Ġë¥ ł
ĠìĦ¤ ì¹ĺ
ĠìĻ¸ êµŃ
Ġìķ ¡
ĠìĤ¬ ëĿ¼
ĠìĬ¤ íĨłë¦¬
Ġë°© ë¬¸
ìĸ ¼
Ġë³´ ëĤ´
Ġë°ľ ìĤ¬
ì ¿
Ġëª» íĸĪ
Ġì¸ ł
ĠìĦ± ìŀ¥
Ġìĸ´ ëĶĶ
ëł Į
Ġê² ¬
ĠìĨ Ķ
Ġë© ¤
ĠìŀĲ ì£¼
ĠëĶ ľ
Ġë§Ī ìĿĦ
Ħì Ĺ
ĠìĽ ĥ
Ħ ¸
Ġìĺ¤ ìłĦ
ìĽ ł
Ġìłķ ìĭł
ĠìĦ¼ íĦ°
ĠíĿ ĳ
Ġì£¼ë ¡ľ
ĠíĬ¸ ìľĦ
Ġì° ¬
Ġê³µê²© ëł¥
° ©
ĠíĬ¸ìľĦ íĦ°
ĠìĿ´ ë£¨
ëŀľ ëĵľ
ì» ¬
ĠìĦ± ìļ°
ĠíķŃ ê³µ
ĠìĹ° ê¸°
Ġë¯ Ģë¡ľ
Ġë© Ģ
Ġëĭ¨ ì²´
Ġë§ ¥
ĠíĿ Ķ
Ġê±´ ê°ķ
ĠìĪĺ ëıĦ
ĠìłĦ íķ´
Ġì¡ Į
Ġëĭ¬ ëŁ¬
ìļ´ ëĵľ
Ġì»¤ ë©ĺíĬ¸
ĠìĿ´ ëŁ¬
ë¯ ¸ë
Ġì¦ Ī
ëĭ Ľ
ĠìłĦ íĻĶ
Ġìļ° ìĬ¹
ë² Ī
Ġí ŀ
ĠìĨĮ íĻĺ
Ġë³´ íĨµ
ë¹ ĦìĬ¤
ìľ ¤
â ĺ
ĠëĤĺ ìĻĢ
Ġì¡ ¸
Ġìĭ Ń
ĠìķĦì ĺ
ĠìĿĢ íĸī
Ġê·¸ëŀĺ ëıĦ
Ġì§ ľ
Ġìļ° ëł¤
Ġ ä
ì ©
ĠíĿ Ĳ
Ġëĵľ ëĿ¼ë§Ī
Ġw i
Ġë¶Ħì ľĦ
Ġë©¤ ë²Ħ
ª ¨
¢ °
ĠìĿ¸ ìłķ
ĠëĦĺ ìĸ´
Ġì¤Ģ ëĭ¤
ĠìķĦíĮĮ íĬ¸
Ġë¶Ģ ì¡±
Ġìĺ¤ ë¥´
ĠëĺĲ ëĬĶ
Ġì²´ ëł¥
ĠìĿ´ë² ¤íĬ¸
Ġs m
íķ Ħ
ĠìľĦ ê¸°
Ġìĺ¤ íŀĪ
ëĭ µ
e c
ìĥ Ī
Ġì§Ģ êµ¬
Ġë¶Ħ ìĦĿ
ĠíĺĲ ìĿĺ
ĠìĬ¤í ħĮ
Ġìĺ¤íŀĪ ëł¤
Ġë¶ĦìľĦ ê¸°
ìĨĮ ë¦¬
ĩ Į
Ġê°ľ ìļĶ
Ġê¸° ëĬ¥
Ġê° Ķ
ë¥ Ļ
Ġë°ķ ê·¼
ĠëįĶ ìļ±
ë°© ìĨ¡
ëį ¸
Ġë¹Ħ íĮĲ
Ġê·¸ ëłĩê²Į
ëª ¬
ê³ ¨
Ġìľł ëŁ½
ĠìĿ¸ ì²ľ
Ġëģ ¼
ĠìķĦë ŀĺ
ĠìĿĺ íĺ¹
ì¶ ©
Ġê½ ¤
Ġì°¸ ê°Ģ
Ġíŀĺ ëĵ¤
ìļ° ìĬ¤
ĠíĨµ íķ©
Ġìŀ Ħë
ĠìĭľìĬ¤ íħľ
ëĥ Ĳ
Ġìľ ¨
Ġìµľ ì´Ī
ê·¸ë ŀ¨
ĠëĤ Ļ
ĠìľĦ íĹĺ
Ġì§ ķ
Ġë ļ
Ġê ´
ĠëŁ¬ ìĭľìķĦ
Ġë¯¸ ìĤ¬
Ġë° ¥
ĠìĬ¤ ë§ĪíĬ¸
Ġë°ķê·¼ íĺľ
Ġì§ Ħë
ĠëĬĲëĤ Į
ìĺ ¥
ĠìķĪ ìłĦ
Ġì´Ŀ ë¦¬
o m
Ġëĭ¨ ê³Ħ
Ġë°Ķ ìĿ´
ĠìļĶ ì¦ĺ
ì± Ħ
ĠëĮĢ íĻĶ
Ġìĸ¼ êµ´
Ġìĵ ¸
Ġìłľ ë³´
Ġsn s
íĥ ķ
Ġë³Ģ ê²½
Ġì ¥
Ġê »
Ġë¥ ´
ĠëĶ ±
íķ ĳ
Ġìľł ëĭĽ
Ġìľł ìłĢ
Ġëĭ¤ìļ´ ë¡ľëĵľ
o t
ĠëĮĢ ì²´
ĠìĽĢ ì§ģ
Ġëį° ë¯¸ì§Ģ
Ġíı¬ ìĿ¸íĬ¸
Ġê±´ ìĦ¤
Ġì§ĳ ì¤ĳ
Ġíĸī ëıĻ
Ġíķ´ ê²°
Ġì±ħ ìŀĦ
ĠëĶ° ë¥´
Ġì§Ģ ì§Ģ
ì§ Ŀ
íĶĦ íĬ¸
ĠìĿĺ ê²¬
ĠêµĲ íĨµ
Ġìĭľ ìĦ¤
íĬ ¼
Ġíĺķ íĥľ
ĠìĿ¸ ê°Ģ
ĠëĤĺìĺ¨ ëĭ¤
Ġë²Ħ ìłĦ
Ġì½ ľ
ĠëıĦ ìĽĢ
Ġëª¬ ìĬ¤íĦ°
Ġì¶Ķ ì²ľ
Ġêµ īìŀ¥
ëĭ ¥
u b
ĠìķĦì £¼
Ġìļ° ì£¼
p y
ë° Ģ
Ġì²ł ëıĦ
ĠìĿĢ ëį°
Ġìłģ ìļ©
Ġê³¼ íķĻ
Ġì£¼ë §Ĳ
íħ Ķ
ì° ®
Ġëĭ¤ ëĭĪ
ĠâĢ ľ
ĠíĹ ¬
ìĿ´ íĦ°
¼ë ¦¬
ëłĪ ìĬ¤
Ġê³ ¤
Ġê°ľ ìĽĶ
ĠìĻ¸ êµĲ
Ġë ®¤
ŀ µ
ĠìĪ Ļ
ĠìĿ¼ ìłķ
Ġëħ¸ ìĦł
Ġì¶Ķ ì§Ħ
ĠìłĦë ¶Ģ
Ġì§Ģ íķĺ
ìĿ´ ë²Ħ
ìĨ Ĳ
Ġê°ķ ì¡°
Ġë°ĺ ìĿĳ
ĠíĬ¹ ìĪĺ
Ġëĭ¹ ìĹ°
Ġê¸° íĥĢ
Ħì Īĺ
== ==
ì Ĥ
Ġëĸ¨ìĸ´ ì§Ģ
ĠìĿĮ ìĭĿ
ĠìĤ° ìĹħ
Ġê´ĳ ì£¼
ëģ Ķ
Ġìĸ´ ëıĦ
Ġëĭ¹ íķĺ
Ġê±° ê¸°
ī ¬
Ġìłķ íĻķ
ëĨ ĵ
ĠìĥĿ ë°©ìĨ¡
ĠìĿ µ
n ews
Ġê³ł ëł¤
Ġì´ ī
Ġëª¨ ìĸĳ
ĠìĨĮ ìĭĿ
ĠìĹ Ħë
Ġìĭľ ê¸°
ĠëĤ¨ ìĦ±
Ġì ³
Ĺ ´
ª ©
Ġëķ ħ
Ġìłľ ì£¼
Ġì§Ģ ìĨį
u r
Ġê¿ Ī
ĠëĶ°ëĿ¼ ìĦľ
ì¹ ł
Ġíĳľ íĺĦ
Ġ q
ĠâĹĢ âĸ¶
ł ¤
Ġíĸī ìłķ
Ġì¡° ì§ģ
ë¦¬ ìĸ´
ĠëĮĢ ìĦł
Ġìŀ ĥ
ĠâĢ Ŀ
ķ ½
Ġê³µ ìĹ°
ĠìĹ° ìĨį
Ġì´Ī ë°ĺ
íľ ĺ
Ġê°Ģ ì§Ħ
ĠíĶĦë¡ľ ê·¸ëŀ¨
Ġíħ Ĳ
Ġë°© íĸ¥
Ġê²½ ìŁģ
ĠìĿĦ ê¹Į
ëĦĪ ì§Ģ
Ġëĭ¨ ë³µ
ĠëĤĺ ëĪ
ĠìĨĮ ê°ľ
ëĦ ·
Ġë¶Ģ ë¥´
Ġ `
Ġë°ĸ ìĹĲ
ĠëĮĢ ì±ħ
Ġë°ľ ë§¤
Ġë¶Ģ ëĮĢ
Ġìĺģ ìĸ´
ĠìķĦìĿ´ íħľ
¶ ľ
Ġìŀ¥ ë¹Ħ
Ġë§Ī ì°¬
Ġê´Ģê³Ħ ìŀĲ
Ġíķľ ëĤĺëĿ¼
Ġê³łëĵ± íķĻêµĲ
ĠíķľëĤĺëĿ¼ ëĭ¹
Ġìĸ´ ëłµ
ĠìłĦ íĺĢ
Ġìķ ±
ĠëįĶ ëĿ¼ëıĦ
Ġíķľ íħĮ
ĭ ł
ëĥ Ī
Ġì°¨ ì§Ģ
Ġíķ´ ìĻ¸
Ġ ð
Ġì§Ģ ìłģ
Ġëł¤ ëĬĶ
Ġë¹ Ľ
ĠìķĪ ìłķ
ĠìĨĮ ë¹Ħ
i r
Ġë³Ģ íĻĶ
Ġíĥ Ĳ
ĠíĽĪ ëł¨
Ġë¹ ¼
Ġë§Īì°¬ ê°Ģì§Ģ
Ġê¸° ìĸµ
Ġ _
Ġë¹Ħë¡ ¯
Ġìłľ ê³µ
Ġê³µ ëıĻ
ëŀ µ
Ġëħ¸ë ıĻ
ĠêµŃ ìłķ
¨¸ ëĭĪ
íħĲ ì¸ł
Ġë½ ĳ
Ġá Ĩŀ
Ġê·¸ ë¦¼
ĠìĤ¬ ë¬´
ĠíĪ¬ íĳľ
ë¥¸ ëĭ¤
ĠíĽĦë °ĺ
Ġëª¨ ëį¸
Ġìŀĳ ê°Ģ
ĠìĽ ¨
ĠíĮĮ ê´´
Ġë ¡ł
ëį ĺ
Ġêµīìŀ¥ íŀĪ
Ġì» ´
Ġíı ´
Ġëĵ Ŀ
Ġì¡° ê±´
ìĹ ĩ
ĠìĿ´ìĸ´ ì§Ģ
Ġë§Ī ëł¨
Ġìĺ¬ ë¦¼
ì£ ¼ë
ĠìĻ Ħë
ĠíĶĮëłĪìĿ´ ìĸ´
ĠíıŃ ë°ľ
e m
Ġíİ¸ ì§ĳ
ĠìĦľ ë¹ĦìĬ¤
Ġíķ© ìĿĺ
Ġíķĺ ëĬĺ
ĠìĪľ ê°Ħ
Ġëª¨ ëĵľ
Ġê¼ ¬
ĠìĹ¬ ìłĦíŀĪ
Ġì½Ķ ìĬ¤
Ġê½ ĥ
Ġê°ķ ìĽĲ
ëŀ Ļ
ĠìĿ´ íķ´
ĠìķĦë §Ī
ëª »
u m
ĠëĤ¨ ë¶ģ
Ġê´Ģ ê´ĳ
Ġíľ ĺ
Ġì£¼ íĥĿ
Ġë¯ ¿
Ġíķĺ ìĿ´
Ġê²° íĺ¼
° ¨
0 0
ĠíĻĺ ê²½
Ġëª» íķľ
Ġë²ł ìĿ´
ì¶ ĺ
ìĦ ¸ë
Ġs k
Ġê´ ľ
ë ¢°
ight s
Ġì¤ ĺ
ĠëĤ¨ ë¶Ģ
ĠìĬ¤ íĥ
ìĿ´ ëıĦ
ì¹ Ļ
ĠìłĦë ŀµ
ĠíĴ Ī
Ġì§ģ ìĽĲ
ëĤ ¸
Ġc m
Ġê°ķ íķľ
ĠíĿ ¥
ĠìĬ¤ íİĺ
Ġê³Ħì ķ½
Ġëĭ´ ëĭ¹
Ġìĺ Ĩ
ĠíĺĦì ĭ¤
ë¦¬ ì¹´
Ġâ ĸ
ĠìĬĪ íį¼
Ġíĺĳ ìĥģ
Ġim news
ĠëįĶ ëĭĪ
Ġê²Ģ ìĤ¬
¸ë ĵľ
ĠìĪĺ ë¡Ŀ
Ġìĸ¸ ìłľ
ĠíĻľ ìļ©
Ġìĭ¤ íĮ¨
ìĦ ¼
£ ¨
ĠìŀĲ ìĹ°
ê ¶ģ
Ĥ ľ
Ġëħ¼ ìĿĺ
ĠìķłëĭĪ ë©Ķ
Ġë§Ī ìĿ´
íĬ ľ
ĠëĬ ¦
Ġë³´ íĹĺ
ĠìķĦì ĭľ
Ġë² ¨
Ġê°Ĳ ìĨĮ
ĠìŀĲëıĻ ì°¨
ĠíĮĮ ìĿ¼
ì´ Į
ĠìĦ± ëĬ¥
¸ë ¡ľ
ĠëĤ´ ë¶Ģ
ĠìĿ´ë ķĮ
Ġë°ĶëĢ Į
ĠíĻķ ëĮĢ
Ġê¸° ëĭ¤
ì¼ °
Ġê±° ëŀĺ
ĠìĬ¤ë§ĪíĬ¸ íı°
ĠíĮĲ ëĭ¨
ìĻ Ħ
py r
ĠíĻķ ìĭ¤
Ġëĵľ ëŀĺ
ĠëĮĢ ìĿĳ
ĠìĿ¸íĦ° ëĦ·
ĠíĨµ ìĭł
ĠìĹ¬ ìķ¼
Ġh e
Ġì¡° ì¹ĺ
ĠëĶĶ ìŀĲ
Ġê°Ģ ìł¸
ĠìķĦì ķ¼
Ġë¯¸ìĤ¬ ìĿ¼
Ġë°Ŀíĺ Ģ
ĠìķĦìĺ Ī
ĠìłĦ ê¸°
Ġìĸ¸ë ¡ł
Ġì¤ ¬
Ġìĭľ íĤ¨
Ġë²Į ìĸ´
Ġco pyr
Ġì¹ ¼
ĠíĬ¹ ìĦ±
Ġë§Ľ ì§ĳ
Ġë¬´ ìĹĩ
Ġê¼ Ń
ĠíĸĪ ìľ¼ëĤĺ
ĠìĦ± ê²©
Ġìķ¨ ë²Ķ
Ġë¡ľ ë¶ĢíĦ°
ĠìĬ¤ ëŁ¬
Ġìķŀ ìĦľ
Ġìĭ¤ ìĭľ
Ġê¸° ìĥģ
ëĥ ¥
Ġìĭľ íĹĺ
ìĹ ĺ
ĠìĦ¸ íĬ¸
ì¶ °
b o
ĠìĿ ½
ìĦ Ń
Ġíķľ íİ¸
Ġìĺ¬ë¦¼ íĶ½
ìķ Ķ
Ġìĺ¬ ë¦¬
Ġìĺ ¥
ĠëĮĢ ë¹Ħ
ë ī´
Ġê²Į ëĭ¤ê°Ģ
ĠìķłëĭĪë©Ķ ìĿ´ìħĺ
ìĦ °
ĠìĻĦ ìłĦíŀĪ
Ġìľ¼ë¡ľ ìĦľ
Ġìłľ íķľ
Ġêµ¬ ìĨį
Ġan d
ìĬ Ī
ĠìĹĦë §Ī
Ġì°¨ ë¡Ģ
Ġíİ ¼
Ġê³µ ìĤ¬
ë¦½ ëĭĪëĭ¤
Ġíĭ Ģ
Ġì£¼ë ¬¸
ìŀĲ ê¸°
Ġë¯¸ë ŀĺ
Ġv s
ë§ ¹
Ġë Ŀ
Ġì§Ħì ¶ľ
Ġê° ¤
Ġê³ §
Ġìĺ ·
ë² ĦìĬ¤
Ġë³´ ìĺĢ
Ġë¹ µ
Ġìħ ¨
Ġë³´ íĺ¸
Ġë³¸ ê²©
Ġìľł ìĿ¼
Ġìľ Ħë
Ġëª© ìĨĮë¦¬
Ġì¹´ íİĺ
ĠìĦ¸ ìĥģ
ĠëĤ ©
ìķ ķ
ìłĦ ìŀĲ
Ġì§ ĵ
ìĹ Ķ
Ġêµ° ìĤ¬
Ġìĵ ´
Ġí Ħ´
i a
Ġìķ¼ êµ¬
Ġê°ģ ê°ģ
Ġê²½ê¸° ëıĦ
Ġëħ¸ ëł¥
Ġëľ ¨
ĶĶ ìĺ¤
Ġêµ¬ ê°Ħ
Ġìº ł
ĠìĤ¬ íĥľ
ĠëĪ Ħë
Ġëģ Ĭ
Ġìĭľ ê°ģ
Ġë²Ħ ëł¸
ë£ ¡
Ġë°ľ ìĸ¸
¹ Ħ
ìĭ ±
Ġìŀ¬ íĮĲ
ìŀĲ ë¦¬
ĠëĤ ¸
ĠìĨį ìĦ±
Ġì¦Ĳ ê¸°
Ġìł ¸
u t
ĠìĽĲ ìĿ¸
Ġê·¼ë į°
ĠíĻķ ë¥ł
ĠìĿ¸ëį° ìļĶ
ĠíķŃ ëª©
Ġì¡° ìłķ
ĠìĿ¸ ìĥģ
ëĭ¤ ëĬĶ
Ġë¶Ī ë¦¬
Ġìĭ¬ ì§Ģ
Ġë§Į íĻĶ
â Ĺ
ë° ¥
íĹ Į
Ġ" âĸ¶
Ġs p
Ġìĭľ ìłĲ
Ġp l
ì ĵ
Ġl v
ëł ī
ĠíĸĪ ìľ¼ë©°
ëĭĪ ìķĦ
Ġìĥģ ìľĦ
íĿ ¥
ì µľ
Ġs h
Ġìĺģ ìĽħ
Ġë°Ķ ëĭ¤
Ġì§Ī ë¬¸
a p
ĠëĿ¼ ìĦľ
Ġì¶ľ ìĭľ
Ġìłľ ê¸°
ĠìĿ´ë ¤
Ġë Ł°
Ġê ¾
Ġë ±
Ġë¬ »
Ġì´Ī ëĵ±
Ġìĭľ ëıĦ
Ġì¢ħ íķ©
Ġ z
Ġë »
Ġë§Į ëĵľ
ë§ ¨
Ġìŀĺ ëª»
Ġëĭ¹ êµŃ
c e
Ġëĭ¤ ìĿ´
Ġìĭ¬ì§Ģ ìĸ´
Ġì¹ ¸
Ġì¹ĺ ë£Į
ĠìĿĺ ìĤ¬
ĠìĬ¤íĥ ł
Ġì´Ī ê¸°
Ġë¡ ¯
Ġíĺ¹ ìĿĢ
Ġìĺ¤ ë¦¬
ĠìĿ¼ ìĥģ
Ġíĺ ģ
Ġìļ ķ
Ġy ou
Ġìħ Ģ
Ġì «
Ġìķ½ ê°Ħ
Ġíıī ê·ł
n a
Ġê²½ íĹĺ
ĠëĪĦ êµ¬
ĠíĿ ¡
Ġëįķ ë¶Ħ
Ġì¤ĳ ëĭ¨
ë¨ ¼
Ġì¶Ķ ìłķ
Ġíļ į
ĠìĦ¸ ëł¥
ĠìĿ´ ê²Į
Ġì¡ ±
ĠíĬ¹ ì§ķ
Ġ >
Ġìĸ´ë ¨¸ëĭĪ
ĠìĹ¬ ë¶Ģ
Ġëŀ ľ
ìĶ ¬
ĠìĦ¸ë ĮĢ
Ġì¡¸ ìĹħ
v er
Ġíģ¬ ë¦¬ìĬ¤
Ġ |
ĠìĿ¸ë ıĦ
Ġì¶© ë¶Ħ
§ Ħ
° Ģ
į ëĭĪëĭ¤
ì§ ¸
Ġn ews
Ġí ĥĿ
ì² Ļ
Ġìļ´ íĸī
Ġë¶Ģ ëĭ´
Ġì³ Ĳ
ĠëĦ¤ ìĿ´ë²Ħ
Ġë¸Ķ ëŀĻ
Ġë¹ł ë¥´
Ġë°° ì¹ĺ
Ġíĺ¼ ìŀĲ
Ġë©Ķ ìĿ´
Ġë°ĺ ë©´
Ġì¶© ê²©
Ġa ll
ĵ ¨
Ġë°ľ ìłĦ
Ġsm s
Ġìłľ ëıĦ
Ġì¤ĳ ê°Ħ
Ġí Ĥ¹
Ġê³µ íķŃ
ìĹĨ ìĿ´
ĠìĥĿ ìĥĿ
Ġë² Ĺ
íĬ¸ë Ŀ¼
Ġìĺ¤ ë¥¸
Ħìķ Ħ
íĭ ´
ĠìĿ´ ìĤ¬
Ġëª© ìłģ
Ġì§Ģ ìłķ
ë° Ľ
ìģ ĺ
Ġë¹Ħ íĸī
ĠìĿ´ ê³³
ì§ ľ
ĠíĬ¸ë Ł¼
Ġm a
ëŁ¬ ìĬ¤
í Ĥ¹
Ġìĭł ê²½
Ġíĳ ¸
Ġê³ł ê¸°
í Ĥ¬
ĠìĿ´ ëģ
ĠìĦł ë¬¼
ŀ ľ
Ġê°ľ ìĦł
ĠëįĶ ëĿ¼
ĠëĮĢ íĺķ
Ġìľł ë¦¬
ĠìĥĿ ëªħ
Ġì°¨ ëĭ¨
Ġíķľ ëį°
ĠìĪĺ ìĥģ
ĠëĶĶìŀĲ ìĿ¸
ĠêµŃ ë°©
ëħ ģ
ĠìļĶ ë¦¬
ìĬ¤ ë¡ľ
Ġì± Ķ
Ġì² Ļ
Ġê°ķ íķĺ
Ġìľ¼ë©´ ìĦľ
Ġë¬¸ ìŀ¬
ĠìĹ´ ë¦°
ëĭ¤ ê³ł
Ġê° Ĵ
Ġê³µ ê°Ħ
ħ ëĭĪëĭ¤
íı Ĳ
ĠìĹ¬ ë¦Ħ
Ġìłľ êµŃ
ê³ł ê¸°
Ġìĭ «
ĠíĬ¸ëŁ¼ íĶĦ
ë· Ķ
ĠìłĢ ëħģ
ĠìŀĲ ë£Į
Ġêµ ´
ĠëŃ Ķ
ì¿ Ħ
ĠíħĮ ëŁ¬
Ġê± ±
Ġëĵ± ê¸ī
ĠëĤĺ ë¬´
ĠìĿ´ ëªħ
Ġëªħ ì¹Ń
ĠìĮ į
Ġìĺ¤ ëŀĺ
Ġíıī íĻĶ
Ġê³ł ìĨį
ĠëıĻ ë¬¼
ĠìĤ¬ ìĥģ
ëĶ °
Ġì½ĺ íħĲì¸ł
Ġìļ° ìĦł
Ġë¿ Į
Ġê±± ìłķ
ëĭ ī
Ġë¶Ģ ìĥģ
ĠíĽ ¨
ĠíĶ¼ë ¶Ģ
Ġr e
ĠìĦ¸ ê¸°
ĠìłĦë¬¸ ê°Ģ
ì° Į
oo d
ì° ¸
Ġê´ľ ì°®
ë¹ Ī
ĠëįĶ ë¶Ī
ĠìĿ´ë¯¸ ì§Ģ
Ġìĺ¤ ë¸Į
Ġê¹ Ĭ
ìĿ¸ë ¬¼
ĠíĻľ ìķ½
Ġëį° ë·Ķ
Ġë§ µ
Ġìłķ ëĭ¹
ĠíĻĺ ìŀĲ
t a
Ġëª© íĳľ
ĠìĨĮ ìĦ¤
Ġíķ´ ìļĶ
ĠìĽĲ ìŀĳ
Ġë¬¼ë ¦¬
ĠìĤ¬ìĿ´ íĬ¸
ĠìĹ ĳ
Ġê°ĳ ìŀĲê¸°
Ġë¶Ħ ê¸°
ĠìĤ¬ìĭ¤ ìĥģ
Ġë¹Ħ ìļ©
Ġê° Ħì
ĠìĬµ ëĭĪê¹Į
ĠìĻĦ ìłĦ
ëłĪìĿ´ ëĵľ
** **
ĠìļĶ ì²Ń
Ġë¸Į ëĿ¼
ĠìĿ´ íĥĪ
k i
Ġíĸī ìľĦ
Ġëĵ Ģ
ĠìķĦ íĶĦ
t t
íĹ Ī
ĠìĿ´ ëĿ¼ê³ł
Ġì¡° ì°¨
Ġì¤ Ħì
ëľ ¨
Ġë ĩĮ
Ġëĺ ĳ
Ġë¶Ī êµ¬
ĠìŀĲ ê¸Ī
Ġë²Ī íĺ¸
Ġë§ ĳ
ĠëĤĺíĥĢ ëĤĺ
o c
ĠìłĦ ìŀĲ
ê ¼
Ġëĵ±ìŀ¥ ìĿ¸ë¬¼
ĠìķĦë ¥´
Ġëĥ ī
Ġë° ´
ĠíĬ¸ ë¦¬
r i
ë¦ ¿
íĨ ¡
ĠíĽ¨ ìĶ¬
Ġê¸° ëħĲ
Ġì¤ĳ ë¶Ģ
Ġëĭ¤ ìĿ´ìĸ´
Ġá Ħ
f f
Ġi s
ĠìĪľ ìľĦ
Ġê ¾¸
ĠíĻ Ģ
ëį° ìĿ´
ĠìĺĪ ìĤ°
Ġìĺ ®
ĠìĹĲ ëĦĪì§Ģ
íĶ Ī
ĠëıĦ ì¿Ħ
Ġë¹ ħ
ĠìĦł ìĸ¸
ĠìĿ¼ ìľ¼
ĠëĤ´ ëħĦ
Ġë² ½
Ġê°Ģ ìĪĺ
ìĪĺ ë¡Ŀ
ĠìĪĺ ìłķ
Ġì§Ģ ì¼ľ
Ġíŀ Ĳ
Ġìķ ¤
Ġê°ģ ì¢ħ
Ġê±° ëĵł
ëĳ ¥
Ġìłľ ìĿ¼
ĠìĬ¤ ëŁ½
Ġê¹ Ķ
ĠìĬ¤ íı¬
Ġë¡¯ ëį°
ìķĦë ĵ¤
ĠíĮ ©
ĠìĦł ë°ľ
ĠëĤĺ ë¨¸
ëł ¬
Ġì£½ ìĿĮ
Ġë°° ê²½
Ġíĥ Ħì
ĠëıĻ ìĿ¼
Ġíĺ Ī
Ġê·¸ë §Į
Ġê·¸ë Ĥĺ
ë¬´ ìĽĲ
ĠìĿ´ ê±´
ĠìĤ¬ ìŀ¥
Ġëĳ Ķ
ĠëĤľ ìĿ´ëıĦ
ĠíĺĦ ì§Ģ
Ġíĺĳ ëł¥
Ī ł
ĠâĹ ı
ĠëıĦ ìŀħ
ĠëĤĺë¨¸ ì§Ģ
ĠìĮ ĵ
ê°Ħ ëĭ¤
ĠìĬ¤ ìĬ¤ë¡ľ
Ġê³Ħì Ĺ´
Ġê³³ ê³³
an n
Ġë²Ķ ìľĦ
Ġe x
Ġì¡° íķ©
Ġìŀĳ ì¤ĳ
ĠìĪĺ ìŀħ
Ġëī´ ìļķ
Ġëĭ¨ ìĪľ
Ġì¢ħ ë¥ĺ
ê ½
âĺ ŀ
ĠìĨĮ ëħĢ
ĠëĤĺ ìļĶ
ĠíķĻ ëħĦ
Ġìŀĳ ìłĦ
Ġìŀ¥ ìĨĮ
Ġë§Ī ì¹ĺ
Ġ' ...
Ġìµľ ìĨĮ
ìł Ħì
íĺ Ī
ĠìĽĲ ëĤ´
ĠëıĦ ì°©
an d
Ġê²¨ ìļ¸
ĠìĨĮ ìŀ¬
ì¹´ ìĺ¤
Ġì°¸ ìĦĿ
^ ^
Ġìĥģ íĴĪ
ĠíĻķ ìłķ
Ġì± Ļ
Ġìłķ ì²´
ĠìķĮëł¤ ì¡Į
Ġìłķ ë¦¬
Ġë°ľ ëıĻ
ĠìĻ¸êµŃ ìĿ¸
ĠìķĪ íĥĢ
Ġl i
Ġë¶Ī ë²ķ
Ġë¬´ ìĬ¨
Ġr es
c t
ìĶ Ģ
Ġìĭł ê³ł
ĠëĬĲ ëĥĲ
Ġì´ ¬
Ġì£¼ë ª©
Ġë°© ìķĪ
Ġìĭ¤ ëł¥
ë¡ Ń
p s
Ġë¬´ ìĭľ
ĠíĻķ ë³´
Ġìĭľ ì¼°
Ġì°¸ ì¡°
ĠìºĲ ìĬ¤íĦ°
ìĭ Ń
ëł¤ ìĦľ
Ġë¦ °
Ġì§ §
ĠìĿ´ ë¥´
ĠìĥĪ ë²½
ìĨĮ ëĵľ
Ġëĸ ¡
ĠìĦ¤ ë¦½
Ġê·¸ëĤĺ ë§Ī
Ġë§Ĳ ìĶĢ
Ġìłģ ê·¹
Ġë¬´ ìŀ¥
ĠíĮ¨ ë°°
ìĩ Ħ
Ġë² ¤
Ġë Łī
Ġìŀ ĸ
ĠìłĦ ëł¥
Ġê² ª
ĠíĺĦì ĥģ
ĠíĻĶ ìŀ¥
ê° Ļ
ĠìķĮ ìķĦë
Ġë´ Ħ
ĠìłĦ ìļ©
Ġìı Ł
Ġìĸ´ë¦° ìĿ´
Ġì´¬ ìĺģ
Ġë ŀĺ
Ġë§¤ ìĿ¼
r a
Ġì¼Ģ ìĿ´
Ġíĺ ľ
ĠíĨµ ê³¼
ìģ ľ
Ġíĸī ë³µ
Ġëŀ Ń
ĠëĦ ĵ
Ġëł Į
Ġê³ł ìĸĳ
ĠâĢ ĵ
Ġê¸° íļĮ
Ġë§Ī ë¬´
íĻ į
ìĸ´ ëĤ¬
Ġêµ ³
ĠëĨĴ ìĿ´
Ġëĵ¯ ìĿ´
Ġë° ĳ
ĠíĹĪ ë¸Į
Ġìŀ¬ ë¯¸
t er
ĠëıĮ ìķĦ
Ġëĵľëŀĺ ê³¤
ì» µ
ĠëıĮ ìķĦìĺ
ĠìĹĲ íĶ¼
Ġê°Ģ ëŁī
ĠíŀĪ ë¡ľ
íĭ° ë¸Į
Ĩ Į
ëĭ ĺ
Ġê±° ë¶Ģ
į ¼ë
ĠìĤ Ń
at ion
Ġíģ¬ ë¡ľ
Ġì¹ ł
Ġf c
ëį ¤
Ġë¶Ħë ªħ
Ġêµ¬ ë§¤
Ġëıħ ë¦½
Ġëĭ¤ ë¦¬
Ġë²Ķ ì£Ħ
Ġë¹¨ ë¦¬
ìħ Ķ
ĠìłĢ íĿ¬
Ġíķľ ìłķ
ì¸ µ
Ġë¬´ ëĮĢ
Ġì¿ ¨
Ġíķĺ ëĿ½
os un
Ġì± Ħì
Ġë§ ĺ
Ġìĭ¸ ìĽĢ
ĠìĹĲ ìļĶ
Ġë²ķ ìĽĲ
Ġëĭ¹ ìĦł
Ġê³µ ê¸°
Ġ% ,
Ġë¶Ģ ëª¨
Ġì°¨ ìĽĲ
ëª °
íİĺ ìĿ´ì§Ģ
ķ Ī
Ġë§Ī ìĬ¤íĦ°
ĠêµĲ ì²´
ë¶ Ļ
Ġëĭ¹ ìĭł
ĠìĹ ¼
Ġë§Īë¬´ ë¦¬
Ġë¶Ģ ìĿ¸
Ġê» ĺ
ĠíĻĪ íİĺìĿ´ì§Ģ
Ġë³´ ìĥģ
Ġê²Ģ íĨł
ĠíĿ ĺ
íĶ Ħë
ĠíĨ ¤
ìĿ¼ë ¦¬
ĠìĿ´ íķĺ
£ Į
Ġë©Ķ ëī´
Ġí Ĥ¬
Ġìĸ¼ë§Ī ëĤĺ
ë° į
e a
Ġê°ľ ìµľ
Ġíĥ ±
ĠëĮĢ ê¸°
Ġê²½ ìĺģ
Ġëĭ¹ìĹ° íŀĪ
ĠëĤĺ ìĺ¬
ë³ ¼
Ġë°Ķê ¿
Ġìŀ¥ ê¸°
Ġë¶Ģ ìłķ
¤ ĳ
ë¦¬ ì¼Ģ
ĠìĿ¼ ìĸ´ëĤĺ
ĠìĿ´ëªħ ë°ķ
Ġë³Ģ íĺ¸
ĠëĤĺ ì¤ĳ
Ġl g
Ġíĥ ĵ
Ġë¶Ī ëŁ¬
Ġíķľëĭ¤ ë©´
Ġëĵ± ë¡Ŀ
ĠìĹĲíĶ¼ ìĨĮëĵľ
ĠìĹ¬ ëĭ´
ì´ ī
Ġë Ĥ¬
ĠìĿ´ ëŀĳ
Ġíķµ ìĭ¬
Ġë¶Ģ ëıĻ
ĠíĮĮ ìĽĮ
Ġìķ¼ ëĭ¹
Ġíİ Ģ
ëħ ķ
ĠìłĪ ëĮĢ
ĠìĬ¤íĥĢ ìĿ¼
ëĮĢ íĳľ
Ġë¬ ¸ë
Ġìŀ¥ ìķł
ĠíĸĪ ìĹĪ
Ġë¶Ħì ķ¼
ĠíĮĮ ìĿ´
ĠìĦ± ìłģ
Ġê³µ ìĽĲ
Ġë¹Ħë °Ģ
Ġa p
Ġê´ĳ ê³ł
Ġë§Į ìķ½
Ġëĭ¤ ìĨĮ
ìĽ ¨
Ġê³ ¼ë
Ġë°© ë©´
Ġìĭ¸ ìļ°
ĠëıĻ ë£Į
ĠëĶ° ë¡ľ
Ġê¸° íļį
íĬ¸ ë¦¬
ìķ ¼ë
Ġìłľ ëª©
Ġë¹ Ļ
Ġì¹ Ń
Ġíķ «
ĠìĿ¸ êµ¬
Ġi t
ĠíķŃ ìĥģ
ĠìĪĺ ìĦĿ
Ĥ ł
Ġìľ¼ë ł¤
Ġìĭł ì²Ń
ìĬ ´
ìĺģ ìĥģ
Ġë§Ī ìłĢ
Ġí Ħ¸
ĠìĹĦì²Ń ëĤľ
ĠíĢ ĺ
Ġn o
Ġë³´ ìľł
Ľ ĥ
íķ´ ìķĪ
Ġìŀł ìĭľ
ĠìĦł ìĥĿ
ĠìŀĲ ìĽĲ
Ġê±°ëĵł ìļĶ
ĠìľĦ íĺĳ
Ġìĸ´ ì©
ëĭ Į
ë´ ĩ
ìĦ ¯
íķĻ ìĥĿ
Ġê³µ ê¸ī
ë¹ Ħì
ì§ ĵ
Ġë¶Ī ê°Ģ
© Ķ
ĠìĹ Ħ
Ġíĥľ íĴį
Ġê·¸ë Ł¼
Ġíļį ëĵĿ
íķ µ
êµ¬ ìļĶ
ĠìĿ¸ ìĭĿ
ĠìĿ´ ê±°
ĠíĬ¹ ìłķ
Ġë ·
âĹ Ĩ
ĠìĹħ ë¬´
er v
Ġê¸Ī ë¦¬
ëŀĢ ëĵľ
Ġì£½ ìĿ´
Ġíģ Ĳ
ìĿĺ ìĽĲ
Ġíĳľ ìĭľ
ac k
Ġìŀ ī
Ġê°ľ íĺģ
Ġê°Ģ ì¹ĺ
Ġëħ Ģ
Ġìĭ¬ ê°ģ
Ġìĺ Ľ
ì ī¬
ĠíĬ Ģ
Ġëª© ë¡Ŀ
íľ ´
ìł ł
Ġë© ĺ
Ġëł¤ ë©´
ë¹ ł
Ġì±Ķ íĶ¼
Ġìĺģ ìĹħ
Ġì²´ ìłľ
Ġìĺ µ
Ġì§ģ ìĹħ
ë© ¸
Ġëĭ¨ ëıħ
ĠìĿĺ ìŀ¥
Ġê¸° ìĹĲ
ĠëıĻ ìĺģìĥģ
ì½ ľ
Ġì¶© ì²Ń
ĠíĮ¨ ì¹ĺ
ĠìĤ¬ íķŃ
a k
Ġìħ Ī
ĠìĦł ìłķ
Ġìłķ ê¶Į
ĠìĺĪ ìĪł
Ġì²ľ ë§Į
Ġh tt
Ġë¡ ¤
¯ Ģë¡ľ
ĠëĿ¼ ìļ´ëĵľ
Ġíı¬ ê¸°
Ġíĳľ ê¸°
Ġíħ Ķ
ĠëıĮ ìķĦê°Ģ
Ġì¹´ ì¹´ìĺ¤
ê» ´
Ġëł ¨
ĠíĮ¨ íĦ´
ĠìĪĺ ì¶ľ
ĠëĮĢ ë³Ģ
ĠìłĦ íĨµ
Ġì²Ń ìĨĮ
Ĺ Ń
ĠíħĮ ë§Ī
ĠëĮĢ ì¶ľ
Ġco n
ë¦ ī
Ġëĭ¨ ì§Ģ
Ġì£¼ ìĭĿ
ĠíĻĶ ë©´
Ġê°ķ ìłľ
ĠìĤ¬ ë¡Ģ
Ġë¡ Ŀ
íĬľ ë¸Į
Ġíĺ ¼ë
ĠëĿ¼ìĿ´ ë¸Į
² ķ
ĠìĤ¬ ê³¼
Ġìłľ ìķĪ
Ġ Ã
Ġk g
Ġìľł íĬľë¸Į
Ġëĺĳ ê°Ļ
Ġë³Ħë ¡ľ
Ġê³µ ìŀ¥
ĠíĥĢ ìŀħ
ê¹Į ìļĶ
¼ ì§Ģ
ĠìĿ´ ìŀ¬
Ġë¶Ī ìķĪ
Ġë¬´ ë¦¬
u l
Ġìłķ ìĿĺ
ìķĦì Ļ
Ġëį ±
ê½ ĥ
ĠìĹŃ ëĮĢ
Ġìł Ĭ
ĠìĬ¤íı¬ ì¸ł
ĠíĪ¬ ìĪĺ
Ġë§ ¹
ĠíĶ¼íķ´ ìŀĲ
ar d
Ġd e
Ġê³ł ë¯¼
Ġ.. "
Ġëĸł ëĤĺ
Ġa r
a b
ë¨ ¹
Ġëĭ¬ ëĿ¼
Ġâĺ ħ
Ġì» ¬
Ġëĭ¹ íĸĪ
ìĭ ¸
Ġë¨ ¸ë
Ł Ń
ĠìĹĶ ì§Ħ
Ġë¶ĢëıĻ ìĤ°
Ġë°© ì¹¨
ĠìķĦ êµ°
ì½ ĺ
Ġë³¸ë ¶Ģ
ĠëĬĲ ëģ¼
ĠíĥĢ ê²©
Ġë¹Ħì ĥģ
Ġë¬ĺ ìĤ¬
ĠìŀĲ ë©´
Ġì¤Ħì ĸ´
ìħ ľ
ĠêµŃ ë¬´
ann el
Ġê±° ëĮĢ
Ġê² ¸
Ġì¤ĳ íķĻêµĲ
ĠìĿ´ëģ Į
Ġê³µ íĻĶ
Ġa l
Ġê·¼ ì²ĺ
íĺ Ķ
ĠìĹ° ìŀ¥
Ġê¹Ģìłķ ìĿĢ
ĠìĹ¬ ë¡ł
ĠìķĦ ê¸°
Ġë¡ľ ë´ĩ
ìĤ ¼
Ġíıī ìĨĮ
an g
ĠìĥĿ ê¸°
Ġì§Ģ íĤ¤
Ġê°Ģ ëģĶ
Ġë©Ķ ìĿ¸
ĭ Ŀ
ìł ¤
Ġ <
ĠìĽĶëĵľ ì»µ
Ġë§Į ì¡±
on g
Ġëĵľ ë¦¬
ĠìłĦì ĭľ
ħ Ħ
Ġê°Ģ ìłķ
Ġìĭ¤ íĹĺ
Ġb y
Ġ' ,
ĠìķĪ ë³´
ĠìĹ° ì¶ľ
Ġì§Ģ íľĺ
ë°ĺ ëıĦ
íģ Ĳ
Ġìĺģ íķĺ
Ġê°Ģ ìŀħ
Ġì·¨ ê¸ī
ë¥ ¸ë
Ġíı °
ë ķĮ
Ġì§Ģ ìĪĺ
ëĿ¼ ìĿ¸
in e
ĠìĨĮ íĨµ
¾ Į
ë¡ ±
Ġì ĮĢ
Ġë¬¸ìŀ¬ ìĿ¸
ìĹ Ħ
- -
Ġì» µ
ìķ Į
Ġì§ Ĳ
Ġê°ķ ëĤ¨
ĠìĬ¤ íĮĮ
ĠìĽ ¹
ëł Ģ
Ġëĳĺ ëŁ¬
ëŁ Ń
ĠìĹĶ ëĶ©
ĠìķĦìĭľ ìķĦ
Ġë°Ķê ¾¸
Ġë¶Ī ê³¼
ĠëıĻ ìĥĿ
íķ´ ìĦľ
Ġìķ ī
Ġìĭ± ê¸Ģ
Ġëį ľ
ĠíĿ¬ ë§Ŀ
ĠíķĻ ìĽĲ
Ġíģ¬ ê¸°
ĠìĥĿ ì¡´
³ ĳ
Ġìľł ëĭĪ
ĠìĹ´ ì°¨
Ġë°Ľ ìķĦëĵ¤
ìł Ŀ
Ġíĺĳ ìĿĺ
ĠìĦ¸ ìĽĶ
ĠìĬ¤ëŁ¬ ìļ´
Ġë¹ł ë¥¸
Ġìŀĳ ê³¡
Ġì»¤ íĶ¼
o p
ê¹ Ģ
Ġì¢ħ ë£Į
Ġ un
ĠíĶ ½
ĠìĹ ł
Ġê°Ī ëĵ±
¸ Ĳ
Ġì½ ¤
ĠìłĦë °ĺ
ĠìļĶ ìĨĮ
Ġíķ´ êµ°
ĠìĤ ¶
Ġëª ½
Ġìľ¼ë¡ľ ìį¨
į Ķ
ĠëıĦ ìłĦ
Ġb l
ìķĦ ì§Ģ
ã ĥ
Ġì¶ľ ë°ľ
Ġìļ¸ ìĤ°
ìĹŃ ìĭľ
ĺ ģ
Ġë¡ Ń
Ġíı¬ ìĬ¤
Ġê°Ĳ ìłķ
Ġë¬´ ëł¤
Ġìĸ´ëł¤ ìļ´
r am
Ġìĺ¬ëĿ¼ ê°Ģ
Ġë¯¼ ê°Ħ
ìĪ ¨
Ġëĭ¬ ìĦ±
Ġíİ ľ
ĠìĿĺ ì§Ģ
Ġë³´ ê³ł
ĠíıŃ íĥĦ
Ġì§Ģ ìĥģ
ĠëŃĶ ê°Ģ
Ġíķľ ë°ĺëıĦ
Ġë°ĺ ë°ľ
ĠìĬ¤íħĮ ìĿ´ì§Ģ
ĠìĿĺ ìĭĿ
ìĿ´ ìķ¼ê¸°
Ġê¸° ë¶Ħ
ĠìĨĮ ëª¨
erv ed
í Ħ¸
ĠëıĦ ë§Ŀ
Ġë´Ĳ ìķ¼
ĠìĹ´ ë¦¬
ĠëĤĺ ìĦ°
Ġì¥ ¬
ìĹ ½
Ġìĵ° ëŁ¬
ĠìłĦ íĻĺ
ĠëıĦ ì¤ĳ
ì§ Ĳ
Ġres erved
Ġê°Ģê¹Į ìļ´
ĠìĽĲëĤ´ ëĮĢíĳľ
Ġíķ´ ìĦĿ
ĠìĥĿ ê¸´
Ġb e
Ġìľ¼ë¡ľ ë¶ĢíĦ°
Ġë¯¸ ë¦¬
Ġìı ĺ
Ġì£¼ ìłľ
Ġëł ¥
ĠíĪ¬ ìŀħ
Ġëĭ Ń
Ġë²Ħ ë¦°
Ġë¶ ķ
Ġwi ki
ĠëĴ· ìĿ´ìķ¼ê¸°
ĠìĤ¬ ê¸°
Ġk t
Ġë³´ ìĪĺ
Ġì§ģ íĽĦ
Ġì¡° ìŀĳ
Ġë² Ħë
ĠíĮĮ íĭ°
ìłĿ íĬ¸
ĠìŀĲ ëŀĳ
ĠìĤ¬ ìłĦ
íĬ ¹
Ġêµ¬ ë¦Ħ
ĠìĬ¤ ì¹´
ëĵľ ìĭľ
Ĭ ¹
ìľ Ħì
o g
ĠìĿ´íĥĪ ë¦¬ìķĦ
Ġë§Ī ìĭľ
Ġìĺ¤ ëŀľ
Ġ2 0
Ġìķ Ļ
ĠëĶ° ë¥¸
Ġìķŀ ëĳĲ
² ł
Ġê·¹ ìŀ¥
ĠíĮĮ ìķħ
Ġë°ĺ ëĵľìĭľ
Ġìĺ¬ ëł¤
ê² Ĳ
Ġì£¼ë ıĦ
Ġìłķ ìĭĿ
ĠìķĦë ıĦ
Ġw h
ĠëĮĢ ë¶ģ
ì¤ Ħ
ë¦¬ ìĺ¤
Ġm ar
ĠìĿ´ë£¨ ìĸ´
Ġëĥ Ī
ĠëĤĺíĥĢ ëĤ¬
íĶĮ ë¦¬ì¼Ģ
íĶĮë¦¬ì¼Ģ ìĿ´ìħĺ
ĠìĻĢ ìĦľ
Ġìľ¼ë ¯Ģë¡ľ
ĠìķĦìĿ´ ëıĮ
Ġë²Ħ íĶĦ
Ġìķ½ ìĨį
ĠìĤ¬ ìłķ
Ġ" ...
Ġì§ĳ ëĭ¨
ìĵ °
ëĤ Ļ
Ġìŀ¬ ìłķ
Ġëªħ ëł¹
Ġê± ¸ë¡ľ
Ġë°© ìĺģ
ĠìĪĺ íĸī
Ġë°° íĭĢ
Ġê°Ģ ëĵĿ
Ġê·ľ ìłķ
Ġìłľ ìĭľ
Ġìłľ ê±°
Ġìĭľ íĸī
ĠëĬĶ ê°Ģ
Ġìłľ ìŀ¬
Ġf or
¨ ¹
Ġê·¸ë¦¬ ìĬ¤
Ġê°ľ ìłķ
ĠëĮĢë³Ģ ìĿ¸
Ġëĭ¤ìĿ´ìĸ´ íĬ¸
Ġë¹Ħë Ĥľ
ĠìłĲ ìĪĺ
Ġpl us
ĠìłĦ ëĭ¬
ĠìłĦ ìĦ¤
Ġìŀĸ ìķĦ
Ġë¶Ģ íĻľ
Ġì£¼ ìĨĮ
ĠëĤ¨ íİ¸
Ġì¦Ŀ ìĭľ
Ġë© ĭ
í Ī
Ġëĭ¬ ëł¤
Ġëį° ìĿ´
Ġê¹Ģ ìĺģ
Ġíģ´ ëŀĺ
Ġìłĳ ê·¼
Ġë¯¸ ìħĺ
ĠëĬĲ ê»´
ĸ ĳ
Ġìĺ¬ ëŀĲ
Ġë§ģ íģ¬
Ġêµ¬ ìĹŃ
Ġì¶ķ ìłľ
Ġë²Ħ ë¦°ëĭ¤
Ġl e
Ġê³ Ħë
ë§ Ľ
Ġë¬¼ ê±´
i f
ìĭľ ë§Ī
ë©Ķ ëĿ¼
ĠìĺĪ ìłĦ
ê¹ Ŀ
ł ¥
Ġëĭ¤ íĸī
ľ ¨
Ġê³µ íı¬
Ġëª¨ ìķĦ
Ġ" (
o d
ĠëģĿ ëĤĺ
íĮ Ķ
Ġch osun
í ĵ¨
i e
ĠìĿ´ ê¸°
Ġìľ Ī
ĠìĹĺ ë¦¬
ë¹ Ļ
ĠìĪĺ ìĽĲ
Ġs e
ĠëĤ´ ëĨĵ
Ġë¯¸ ëĭĪ
Ġìŀ¥ ì°©
Ġì§Ħ íĻĶ
Ġë¶Ħë ħ¸
Ġì±ĶíĶ¼ ìĸ¸
ĠìķĦì Ĭ¤
ì½ ¤
e bo
Ġ ^^
ĠìĻĦ ìĦ±
Ġê¸° ê³Ħ
Ġêµ¬ ì²´
ë§Ī ìŀĲ
Ġë²Į ìĿ´
ĠëĥĲ ê³ł
ĠëįĶëĿ¼ êµ¬ìļĶ
Ġì¶ľ ìłĦ
ĠëĥĲ ëĬĶ
Ġìĭľ ëĤ´
Ġì¶© ëıĮ
Ġìĭľì²Ń ìŀĲ
Ġê°Ģ ìĿĦ
ìĿĢ íĸī
í ĳ
ĠìĿĺ ë£Į
ĠìĤ¬ ê²©
ĠìĻ ¼
ĠíĿ¬ ìĥĿ
ĠìłĢ ì§Ģ
Ġr ights
Ġíģ¬ ë¦¼
Ġh p
Ġì§ĢëĤľ ëĭ¬
Ġê°Ģ ë¦¬
Ġê¸ Ģë¡ľ
ì¢ Į
° °
ĠíĻĪ ëŁ°
ĠìĿ¸ íķľ
Ġì´Ŀ ìĦł
Ġíı¬ ì¼ĵ
ĠëĮĢ ë¯¸ì§Ģ
Ġë³´ìĹ¬ ì¤Ģ
Ġì į
ĠìĹ¬ëŁ¬ ë¶Ħ
ëĭ¤ ë©´
ĠëĤĺ ìĦľ
ëĶĶ ìĸ´
Ġë§ŀ ì¶°
ìł¸ ìĦľ
Ġì»´ íĵ¨
ĠìĿĦ ì§Ģ
Ġcopyr ight
Ġê°ľ ëħĲ
Ġê° Ħë
ĠìķĦ ë¦Ħ
Ġì¶Ķ ìľĦ
es t
Ġìŀ¥ ì¹ĺ
Ġì° Į
Ġê¸° ë°ĺ
ĠìĦ¸ ìĿ´
Ġê·¸ë ķĮ
Ł ´
Ġê³µ ì¤ĳ
íĺ Ħì
ĠìĪĺ ìĿµ
Ġë¹Ħ ìĦľ
Ġìľł ìĹĶ
Ġê·¸ ë¦°
Ġì§ģ ìłĦ
íķ Ģ
Ġë¶Ģ ë¬¸
ì° į
Ġê°Ģê¹Į ìĿ´
¼ë ĵľ
ĠìĿ¼ íĸī
Ġìķ ¼ë§Ī
ĠìłĲ ìłĲ
ĠìĤ¬ ëł¹
Ġìĭľ íĭ°
ĠëĲľëĭ¤ ê³ł
ĠìķĦë Ĥ´
Ġim bc
Ġê²½ ëĤ¨
Ŀ¼ ìĿ´
ĠìĪĺ ì¹ĺ
ëľ »
Ġê°Ģ ìĬ¤
Ġë²Ī ìĹŃ
Ġê³Ħ ê¸°
Ġê´Ģ íķľ
ĠíĻĶ ìŀ¬
² ½
Ġëĭ¹ íķľ
ĠíĥĪ ì¶ľ
ĠíĢĺ ìĬ¤íĬ¸
Ġy na
ĠëĤĺ ë¦Ħ
ĠìĤ´ ìĿ¸
ì£¼ë ıĦ
Ġê³µ ë¬´ìĽĲ
Ġë¶Ģ íĥģ
Ġê°Ģ ë¥´
ĠìĿ´ ìĬ¹
íĺ ¸ë
ĠíĻį ë³´
ĠìĦľìļ¸ ìĭľ
Ġë¹Ħì ĭ
Ġë¶ģ ë¶Ģ
ĠíĻ© ìłľ
ĠëĲľëĭ¤ ëĬĶ
ê¹ Ĳ
ëĿ¼ ìĬ¤
ĠíĮĲ ìłķ
ĠêµŃíļĮ ìĿĺìĽĲ
ĠÃ Ĺ
Ġìĭľ íĤ¬
Ġì»´íĵ¨ íĦ°
Ġìłľ ì£¼ëıĦ
ĠìĿ¸ ê·¼
Ġìķķ ë°ķ
Ġe n
Ħì ĭľ
Ġì¡° ìĦ±
Ġê°Ģ ìĬ´
ĠìĿ¸ ìĪĺ
Ġ% )
ĠìłĦì Ĥ¬
Ġë´Ĳ ëıĦ
ëł ´
Ġê±° ì³Ĳ
ĠìĺĢ ìľ¼ëĤĺ
ë¥¸ë °Ķ
ĠìĿ´ ë¥¸ë°Ķ
ì§Ģ ìħĺ
ì½ ©
ĠìĿĺ ìĭ¬
Ġo r
Ġìħ ĭ
y le
Ġë³µ ê·Ģ
Ġë¶Ģ ìĹ¬
Ġë³Ģíĺ¸ ìĤ¬
Ġíı ¼
ĠíĶĦ ëłĪ
Ġë· °
ĠìłĦì £¼
Ġìħ ĺ
Ġm e
Ġìĭľ ìľĦ
Ġìĸ´ íĶĮë¦¬ì¼ĢìĿ´ìħĺ
ĠìĺĢ ìľ¼ë©°
Ġìľ¼ ëĭĪê¹Į
Ġìłľ ì¡°
Ġì§Ħ ìłķ
Ġëĵ¤ìĸ´ ìĺ¤
Ġë¯¸ êµ°
Ġìŀĩ ëĶ°
Ġìŀ¬ ë£Į
Ġì¶ ĺ
Ġ...) .
Ġì§Ģ ìĭľ
ĠìĬ¤íĥł ëĵľ
íĭ ±
ĠìĨĮë¹Ħ ìŀĲ
Ġê±¸ ë¦¬
ĠìłĦì °¨
Ġë¹ ļ
ıĻ ìķĪ
Ġê·¸ë ıĻìķĪ
ĠêµĲ ìĤ¬
ê ¾¸
Ġë¹Ħì ¤ĳ
Ġìĥģ ê´Ģ
Ġê³ł ìļ©
ĠíĻķ ìĤ°
Ġê³µ ë¶Ģ
Ġê²½ ìĥģ
ìķ ¼ë§Ī
Ġìĺ¤ ë°Ķ
Ġëį ¤
Ġë¡ľ ë§Ī
ĠìłĦì ĽĲ
Ġì§Ģíķĺ ì²ł
ì º
ĠìĬ¤í Ĩ
ĠëĮĢ ì¤ĳ
Ġë³Ģ ìĭł
Ġë© ľ
Ġì£ Ħ
µ ëĭĪëĭ¤
es s
ĠìħĶ ìķ¼
Ġì¶©ë¶Ħ íŀĪ
¦ Ī
Ġëĭ ¥
Ġì½ ©
Ġì¹´ ìĿ´
ĠëıĦ ë°ľ
Ġì²´ ìľ¡
ĠìķĦì¹ ´
¹ ìĬ¤
Ġê²½ ë¶ģ
Ġ# !
ĠìĥĿ ê²¼
ĠìĨĮ ìľł
Ġê¹Ģ ìĦ±
Ġì§Ģ ê¸ī
Ġëį ´
ĠìĿ´ ëĤł
Ġëĭ¨ ìĸ´
ĠìĭĿ íĴĪ
ĠìĨĮ ë°©
Ġìĭł ë¬¸
ëĭĪ ìĬ¤
ëĵ Ń
Ġìĭ¤ ìŀ¥
ĠìŀĲ ë§ĪìŀĲ
ê° Ĵ
Ġë¬¼ ì§Ī
Ġíĺĳ íļĮ
Ġê³łìĸĳ ìĿ´
ĠíĶĦë¡ľ ìłĿíĬ¸
Ġìłķ ìŀĳ
Ġë°©ìĸ´ ëł¥
Ġì¹ ¼ë
Ġìŀ Ĭ
ĠìĬ¤íİĺ ìĿ¸
ĠëĪĦ ê°Ģ
Ġíľ´ ëĮĢ
Ġì¢ħ êµĲ
Ġìľł ì¹ĺ
Ġ }
Ġìķł ì´Ī
ĠìĤ¬ ê±°ë¦¬
Ġc l
ì²ł ìĪĺ
Ġì¦Ŀ ê±°
el l
ĠìĹ ī
Ġë°ķ ìĤ¬
Ġë°Ķ ëŀ
ìĥ ¤
er s
ĠëłĪ ëĵľ
Ġìĵ° ìĿ´
ìļ ¸ë
ĥ Ī
ĠíĨł ë¡ł
ĠëĲ ¨
ĠíĥĢ ìŀĦ
ĠìĤ´ íķ´
ĠíĻĶ ìłľ
ĠíĿ ī
ĠëıĻ íķ´
ĠëĨ Ī
Ġìł ¤
Ġì§ĳ íļĮ
Ġë³´ ìŀ¥
Ġë§Ī ìĤ¬
Ġ \
ĠìĿĺ ëıĦ
Ġíģ¬ ë¦¬
Ġêµ¬ ìŀħ
§Ĳ ë¡ľ
Ġë¡ľ ëĵľ
Ġê¶ģ ê¸Ī
p g
Ġê³ł ìŀĲ
Ġìłķ ê·ľ
Ġíĺ¸ íħĶ
Ġp c
ĠìĿ´ ìĻ¸
Ġê·¼ ìłĳ
ìĿ¸ ì§Ģ
Ġêµ° ëĮĢ
==== ====
Ġê°Ģ êµ¬
Ġíķ ĳ
ĠìķĦ íĤ¤
Ġê¸° ì§Ģ
al l
Ġìŀĳ ìĦ±
Ġë°Ķ ëĭ¥
ìŀ Ķ
Ġê³µ ì£¼
Ġê¹Ģ ì¢ħ
ĠíĻķ ìŀ¥
ëª ½
ĠìĹ° ìĬµ
Ġë¸Į ë¦¬
íĴ Ģ
ĠìĤŃ ìłľ
Ġê°Ħ ëĭ¨
ìĭ¬ íŀĪ
ĠëıĦ ìĻĢ
ĠíıĲ ì§Ģ
Ġë³´ ì¡°
Ġëĭµ ë³Ģ
ĠìĺĪ ìļĶ
Ġì¢ĭ ìķĦ
Ġë¶Ģ ë¶Ģ
Ġëħ¸ ì¡°
Ġêµ¬ íķĺ
Ġê°ľ ë´ī
Ġë¶Ī íİ¸
Ġê· ł
ĠìĹ° ëĮĢ
ĠëĵĿ ìłĲ
ĠìłĪ ë°ĺ
Ġì·¨ ìĨĮ
Ġíķ´ ìłľ
Ġêº ¼ë
Ġíļ¨ ìľ¨
ĠìłĦ ìŀĳ
Ġìľł íĨµ
Ġì´ī êµ¬
Ġi i
Ġëĭ¹ ìŀ¥
ĠëĮĢ ìŀ¥
Ġê¸° ëıĻ
Ġëĵ¤ìĸ´ ê°Ķ
ĠìĤ¬ ëĥ¥
ar t
Ġìľ¡ ìķĦ
Ġê³ł ìłķ
Ġê²° ìĬ¹
ëį° ìļĶ
ĠíĨµ ìĿ¼
n bc
Ġê°ľ ìĦ±
ĠíĬ¹ íĮĮ
Ġê¾ ¼
¨ ¼ì§Ģ
Ħ ¤
ìĦ¸ë ¨¼ì§Ģ
Ġëįĺ ì§Ģ
ĠëĪĪ ë¬¼
Ġë© Ī
Ġë¶ ī
ĠíĬ¹íĮĮ ìĽĲ
ĠíħĶ ëłĪ
ĠìĨĮ ëĵĿ
Ġë¯¸ ìĦ¸ë¨¼ì§Ģ
Ġìķħ ë§Ī
ìħ ī
Ġë¡ľ ìĬ¤
Ġì¡° ì¢ħ
Ġì¢ħ ì¡±
Ġíķ´ ìĥģ
ì£ ½
Ġìļ´ ìłĦ
§ ¨
Ġê²½ ìĦł
Ġíģ´ ëŁ½
ĠëıĮ íĮĮ
Ġë¯¼ ì¡±
ĠëĦ Ĳ
Ġä ¸
Ġíı¬ì¼ĵ ëª¬
Ġ1 0
íİ Ļ
Ġë³ĳ ëł¥
ĠìĦ Ń
Ġê¸° ì²´
Ġì§Ģ ì§Ħ
ëį° ìĿ´íĬ¸
ĠìĻĦë ²½
Ġë¶Ħ ë¦¬
ëĤľ ëĭ¤
Ġìľł ìĤ¬
ĠìĹħ ëį°ìĿ´íĬ¸
ĠêµŃ ë¦½
Ġê°ľ íİ¸
Ġë°Ķ ë¥´
Ġë°Ģ ë¦¬
Ġì§Ħ ìŀħ
ìķ Ĺ
ĠëĶĶ ì§Ģ
Ġë³µ ì§Ģ
Ġìĺ¤ë°Ķ ë§Ī
ĠëĮĢì²´ ë¡ľ
ĠìĪĺ ë¹Ħ
ĠìķĪ ì²łìĪĺ
Ġë°ĺ ë³µ
ĠìĿ¸ ìĥĿ
Ġìŀ¥ ê°ĳ
Ġíĺķ ìĭĿ
ĠìŀĦë ¬´
Ľ Į
Ġëª¨ ë°Ķ
Ġíħ ľ
ĠìŀĦë ªħ
ĠìĹĲ ìĸ´
Ġl o
Ġì§Ģ ë°°
Ġê³µ ëĭ¨
ŀľ ëĵľ
i p
Ġëį° ìĿ´íĦ°
Ġêµ¬ ëıħ
Ġë¸Į ëŀľëĵľ
Ġë¹Ħë ĶĶìĺ¤
Ġì² ¨
ĠìłĢ íķŃ
ê² ģ
Ġë°ĺ ìĺģ
ĠìĿĺ íļĮ
ĠìłĦ ê°ľ
Ġíķ Ħì
Ġìĭ¬ ë¦¬
ĠíĬ¹ ìĿ´
Ġíĳľ ìłķ
Ġê¼ ½
Ġê·¸ ê²Į
Ġìĩ ł
Ġê ¶
ĠìĽĮ ëĤĻ
ë ļ
Ġì« ĵ
ëĦĪ ìĬ¤
Ġë¯¸ ì¹ĺ
ĠêµĲ íļĮ
Ġìĥ ·
Ġíķľ ê¸Ģ
Ġë°´ ëĵľ
Ġë¨¹ ìĬ¤
ìķĦë Ĥ´
Ġë²ķ ìķĪ
Ġë¸Ķ ë£¨
Ġìĸ¸ ëĭĪ
un d
íĬ¸ë ¡ľ
Ġì²´ íı¬
Ġê¸Ģë¡ľ ë²Į
ê±° ìļ´
¥ ¸
Ġíĸ ĩ
Ġìº Ķ
ĠëĶ° ëľ»
Ġê¸°ëĭ¤ ë¦¬
ëĭ¤ ëĭĪ
Ġìķ ¼ë
ëĵ ¬
Ġë§Ī ë¥´
ĠíķľêµŃ ìĿ¸
ĠìłĲ ì°¨
ĠìłĦë ©´
Ġë» Ķ
Ġìĥ Į
Ġi p
ëħ ¸ë
ĠíħĮ ìĿ´
Ġì¹´ ë©ĶëĿ¼
Ġëª¨ë°Ķ ìĿ¼
Ġë º
Ġêµ¬ ë¶Ħ
Ġìĥģ ì§ķ
Ġë¦¬ ëįĶ
Ġëª¨ ìŀĲ
ë¨¸ ëĭĪ
Ġíĥľ ìĸĳ
ĠíļĮ ìĽĲ
Ġìŀ¥ ìłĲ
ĠìĹ° ê¸Ī
Ġìĭ¬ ìĤ¬
ĠìĿ´ ìĬ¤
Ġê°ģ ìĦ±
Ġíķľ ë¯¸
ĠëĽ° ìĸ´
ëŁ¬ ë¦¬
Ġêµ¬ ì¶ķ
ĠìĿ´ ìłķ
ìķ¼ë §Ĳë¡ľ
ĠìĿ¸ íķĺ
ĠíĹĪ ìļ©
ìĿ į
Ġëª© ìĪ¨
ìĽĮ ìĦľ
Ġa s
k e
ĠâĢ »
ĠìļĶ ê¸Ī
Ġìĭ¤ ì¢ħ
ĠíĨµ íĻĶ
Ġìľ¡ êµ°
Ġíİ¸ ìĦ±
ĠíĨµ ìłľ
í Ģ
Ġëı¼ ì§Ģ
ĠìĿ´ ê±¸
ĠíĦ° ë¯¸ë
ìĿĺ ìŀĲ
Ġê³¨ ëĵľ
ĠìĻ¸ë ¶Ģ
ĵ ł
Ġíŀĺ ëĵł
ĠìĹ´ ìĭ¬íŀĪ
Ġìŀ¬ ìĤ°
Ġëĵľ ë¦½ëĭĪëĭ¤
ĠìĪĺ ìļĶ
ĠíĻ© ê¸Ī
¡ ¤
Ġê·¼ë ¬´
ĠëĮĢ ê²°
ĠìķĪ íĮ
ĠìķĪíĮ İ
Ġì Łģ
Ġì½Ķ ëĵľ
Ġìĸ¸ ìĸ´
Ġëĭ¨ ìłĲ
Ġn am
ĠìĹĳ ìĬ¤
ĠëıĮ ëł¤
Ġê±´ ëĭ´
Ġìĺ¨ ëĿ¼ìĿ¸
ĠìŀĲ ìĤ´
Ġê·ľ ìłľ
at e
ë¹ Ľ
Ġì£¼ë ħĦ
Ġíı¬ ì§Ģìħĺ
Ħë ıĦ
Ġë³ĳ ìĤ¬
Ġë¯¸ë ĶĶ
Ġìĸ´ë ĳ
Ġíķľ ê³Ħ
ĠìĦł ë³´
Ġì§ľ ë¦¬
Ġëįĺ ìłĦ
ëį° ìĬ¤íģ¬
ĠìĭĿ ìĤ¬
Ġì¸¡ ë©´
Ġì į¼
Ġëī´ìĬ¤ ëį°ìĬ¤íģ¬
Ġst yle
Ġì§Ģ ëªħ
Ġíĺ¸ë Ĥ¨
Ġì§Ģ ìĤ¬
Ġë¹ Ĺ
Ġíķ Ħëĵľ
Ġê³µ ê³µ
Ġì¹´ íĨ¡
ĠíĥĢ ì¹´
Ġì¹´ ìļ´
Ġì¤ĳ ë°ĺ
Ġì£¼ë ł¥
ë§Ī ìĬ¤
Ġë¯¸ ìĪł
ĠìŀĲ ëĬĶ
ĠìĨĮ ìĨ¡
Ġëĭ¤ íģ¬
ëĳ Ķ
ĠìĿ´ íĭĢ
Ġëį §
Ġl a
ĠìĬ¤ ì½Ķ
Ġìŀ¥ ëĤľ
ã ģ
Ġê°Ģ ìĤ¬
Ġê¸° ìĽĲ
ĠìĹ¬ ëĭ¹
íĥ ĳ
Ġì°¨ ë³Ħ
Ġìļ´ ìļ©
ĠíĻĶ ëł¥
ĠìŀĦì ĭľ
i st
ĠìĤ¬ íĩ´
Ġê³µ ì²ľ
Ġë¬´ ìĹŃ
ĠìĹ° ì£¼
ĠëĮ ĵ
Ġê±´ ì¡°
Ġhe ight
ĠìĹĲ ìĿ´
ĠìłĦ íĸĪ
Ġíķĺ ëĵľ
Ġì¥ Ĳ
Ġíķ ĦìĪĺ
Ġíģ´ ë¦¬ìĸ´
ĠìĭĿ ëĭ¹
ĠìĿ¸ ìĽĲ
Ġë¶ģ ë¯¸
ĠëĶĶ ìĬ¤
Ġì´Ī ëĮĢ
Ġë°Ŀ íŀĪ
Ġë°Ķëŀ įëĭĪëĭ¤
ê¹ ¨
ëŁ ´
° ķ
Ġìłģ ìłĪ
Ġê°ķìĽĲ ëıĦ
ĠëĿ¼ë ĶĶìĺ¤
ĠìĽĢì§ģ ìŀĦ
ĠìĦ± ê³¼
ĠìĽĲ ìŀ¥
Ġìĭ¤ ìĪĺ
ĠëıĦ ìĦľ
ĠìĤ´ ìķĦë
ĠìĦ ŀ
ĠíĶ¼ íķĺ
ĠìĪ ²
ĠìĿ´ ìĿµ
Ġëļ «
Ġì§Ģ ìłĲ
ĠëĬĺ ìĸ´ëĤĺ
ĠìłĦë Ĥ¨
ĠìķĦë ¹
ì¡° ê±´
Ġì§ ±
ĠëıĻ ìĽĲ
Ġìĺ¤ íĶĪ
Ġëĭ¤ ìĪĺ
Ġë§ŀ ì¶Ķ
Ġëĸ ¼
Ġl t
Ġì¼ Ħ
Ġíħ į
ĠíĬ¸ë ŀ
Ġë¹Ħ íķĺ
Ġë©Ķ ìĭľ
Ġì²ĺ ë²Į
Ġíķľ ëķĮ
Ġê·¸ëŁ¬ ëĭĪê¹Į
Ġëĭ¤ ëħĢ
Ġì²´ ê³Ħ
Ġíİĺ ìĿ´
Ġê³µ ìłķ
ĠìłĪ ì°¨
Ġê± ·
ĠìĽĢì§ģ ìĿ´
Ġëĸ¨ìĸ´ ì§Ħ
Ġâĺ Ĩ
Ġë¹Ħì ľ¨
Ġì¶ľ ë§Ī
ìĸ´ ë¡ľ
ĠíĹĮ ë²ķ
ĠìļĶ ìĭľ
ĠíĬ¹ ê²Ģ
íĿ ĺ
Ġë¬¸ ìŀĲ
íİ ´
ĠìķĮ ë¦¬
ĠìĪ «
ĠíŀĪ ìĸ´ë¡ľ
Ġìłľ ì¶ľ
Ġê²½ ê³ł
ĠìĿ´ ìłģ
Ġë§¤ ì¶ľ
ĠíıŃ ëł¥
ľ ł
ĠìĪĺ ìĪł
Ġìĭľ ìĽĲ
ĠíĥĪ ëĿ½
Ġê³ł ê°Ŀ
ĠëģĮ ìĸ´
Ġíķ´ ì¡Į
ĠìĹ°êµ¬ ìĽĲ
Ġì²Ń ëħĦ
Ġm y
ĠìĨĮ ëħĦ
ĠëĤ´ ë¥Ļ
ĠìĿ´ ìª½
ëŀ «
Ġë¬´ íķľ
Ġê¾¸ ì¤Ģ
Ġì¶ľ ìĥĿ
ĠìķĦì ī¬
Ġìķķ ëıĦ
íı ´
ìĭ± íĦ´
Ġì¢ħ ëª©
ĠìĨĮ ëł¨
Ġë¬´ ì¡°ê±´
Ġp ro
Ġìº ¡
Ġìŀĳ ëħĦ
Ġs u
ĠìķĮìķĦë ³´
ĠìĿ¼ë Ł¬
Ġëį ®
Ġt r
Ġë§ º
íĨ ¤
Ġê³ł ê¸ī
Ġëħ¹ ì·¨
ĠëĿ¼ ìĿ´íĬ¸
ĠëģĿ ëĤ´
Ħ Ī
Ġa t
â Ĩ
Ġê°Ĳ ìĹ¼
ĠìĿĮ ë°ĺ
Ġë¹ł ì§Ģ
Ġê´Ģ ê°Ŀ
Ġìĭł ì²´
Ġë°Ķê¿ Ķ
ĠìĹ° ìĺĪ
Ġì§Ħì ĭ¤
ĠìŀĲ ê²©
Ġë¶Ģ ìŀ¥
ĠëĤ «
Ġê² ¹
Ġë³ ¼ë
ĠìĻķ êµŃ
ĠíĨµíķ´ ìĦľ
Ġê·¸ ê±¸
ĠìķĦë¬´ ë¦¬
Ġê¸°ìĤ¬ ë¬¸
ĠìĬ¤ íĬ¸
ĠìĺĪ ê³ł
ìĿ¼ë Ł¬
ĠìĪĺ ë¦¬
ĠìĹ°êµ¬ ìĨĮ
Ġíĺķ ìłľ
Ġ' âĺŀ
ĠíĦ°ë¯¸ë ĦĲ
Ġì¤ĳ ìĨĮ
ĠìĬ¤ íģ¬
Ġf ta
ĠìłķíĻķ íŀĪ
Ġê¹Ģ íĥľ
ĠëıĻ ë§¹
Ġs c
Ġìĭł ë¢°
ĠìŀĲ ê³ł
ĠìĿ´ë¤ Ħ
ĠìĹ ĩ
Ġìŀĳ ìļ©
ĠëłĪ ìĸ´
Ġìľ Į
Ġê°Ģ ë¬¸
ëıĦ ë¡ľ
Ġìŀ Ń
Ġì²´ íĹĺ
Ġíĳ ¸ë
Ġë¹ł ìł¸
ìĺ µëĭĪëĭ¤
ĠìĦ± íĸ¥
Ġìµľ ìķħ
Ġë¶Ħì ĸĳ
ĠëĤ ¼
Ġê°Ģ ë¡ľ
ĠëĬĶëĭ¤ ëĬĶ
ĠëįĶ ëĿ¼ê³ł
ĠìĿ´ ìĦ±
ĠìľĦ ëł¥
ĠìĻĦë £Į
Ġì£¼ ìĿ¼
ĠëĿ Ħ
Ġê±° ì§ĵ
Ġa m
ĠìĽĮ ìĭ±íĦ´
ĠìĹĲ ìĬ¤
Ġì¢ ģ
ĠìĪĺ ìļ©
Ġë Ŀ½
ë¹ ĦìķĦ
Ġëĭ¤ë©´ ìĦľ
ëª¨ íĨł
ĠìĤ´ íİ´
Ġì¹ĺ ì¦Ī
Ġìĭ¤ ì§Ī
ĠìķĪ ê°ľ
Ġìľł ê°Ģ
Ġíķł ìĿ¸
ĠìĹĲê²Į ìĦľ
Ġëħ¸ ë¦¬
Ġì¡° ê°ģ
Ġëĸ¨ìĸ´ ìł¸
Ġìľł ë¡ľ
Ġê³ł íĨµ
ĠëħĢ ìĦĿ
Ġìµľ ê°ķ
Ġhtt p
Ġíķ Ģ
Ġìļ° ìĪĺ
Ġì£¼ ì°¨
u e
Ġëĭ¨ ìĿ¼
ê°Ģ ëĿ½
Ġìľł ëıĦ
Ġcopyr ights
ĠíıŃ ìĹ¼
ĠëıĻ ìĿĺ
g e
Ġê¶Į ëł¥
ĠìĿ¸ë ¯¼
Ġíİ¸ ìĿĺ
Ġd a
ì² ©
Ġë°ķ ìĬ¤
Ġì¹ĺ ëªħ
Ġê¸´ ìŀ¥
ĠíĿĶ ëĵ¤
ĠíĽ Į
Ġê°Ĳ ìķĪ
Ġìĭł ìļ©
ë§ ¥
ë°ĺ ê¸°
ĠìłĲ íĶĦ
Ġ= "
ëĤĺ ìĿ´
ë¥´ íĬ¸
Ġìĺ¤ íĨł
Ġëħ¸ ìĿ¸
Ġê´Ģ ì¸¡
ĠìķĪ ëħķ
ë¹ Ħë
Ġì²ľ ìķĪ
ĠìĪĺ ìĹħ
Ġë¶Ļ ìŀ¡
Ġìĺģ ìŀ¥
Ġå ¤
ĠìĬ¹ ë¶Ģ
ì§ĳ ëĭĪëĭ¤
ĠìĿ´ ëĭĿ
Ġì¶Ķ ëĿ½
Ġë§Ī íģ¬
ëĭ Ĳ
Ġê·¸ ìķ¼ë§Ĳë¡ľ
ĠëĤ´ ëł¸
ĠìĿĺ íķĺ
ĠìĿ´ ëŀĢ
Ġëħ¸ íĬ¸
Ġìĩ¼ íķĳ
Ġê¸° êµ¬
ëŀĺ ëıĦ
ĠëĮĢ ëĭ¨
ĠìĪ« ìŀĲ
Ġê³ł ëĮĢ
d ing
ĠìĨĮ ìĬ¤
ĠìķĦë¹ ł
Ġê²½ ê³Ħ
Ġíĥľ ëıĦ
ĠìķĮëł¤ ìł¸
Ġj o
ĠìĻ¼ ìª½
Ġìĸ´ ìļ¸
Ġê±´ ì¶ķ
ëį ´
ĠìĿ¸ ê¶Į
Ġë¬´ ìĤ¬
ĠìķĦë¦Ħ ëĭ¤
ĠëĦĺìĸ´ ê°Ģ
Ġìķ¡ ìħĺ
Ġëĭ¤ ë£¨
ĠìĬ¤ íĶ
ĠìĽĲ ìŀĲ
Ġê²° ë¡ł
Ġë¬ µ
ĠìĪĺ ëĭ¨
ìķĦ ë¦¬
ëĤ ©
ëı Ī
Ġ {
ĠìĿĢ íĩ´
Ġì¡° ìĭ¬
ĠìĤ´ ì§Ŀ
ìĿ´ ì¹ĺ
Ġì¦Ŀ ê¶Į
Ġë§Ī ëĤĺ
ĠëĦ ¥
Ġê·Ģ ìĹ¬
ĠìľĦ íĤ¤
Ġd i
Ġëĭ Į
Ġêµ³ ìĿ´
Ġì²Ń ë¬¸
ë¦ ĩ
Ġin st
Ġì²ł ìłĢ
íĦ° ë¦¬
ë§ İ
ĠìłĦ ìĦł
Ġë¡ľ ì¼ĵ
Ġê²Ģ ìĥī
Ġë³Ħë ªħ
Ġë¯ ¼ë
ĠìĿ¼ ìļĶìĿ¼
ĠìĪĺ ë§İ
ê³ Ħì
ĠìĦł ê³ł
Ġì§ģ ìŀ¥
ĠëĤ´ ëĤ´
ìľ Ī
íİ ľ
Ġëį° ìĬ¤
Ġëķ Ĳ
Ġìłĳ ì´ī
Ġë¬´ ê²Į
Ġto p
ë£ ¬
Ġì±Ħ ìļ©
d er
ìĬ¤ ì½Ķ
ĠíĥĢìĿ´ íĭĢ
Ġê°ľ ìŀħ
Ġìĺ¤ë¥¸ ìª½
Ġì¶ ¤
ĠìĦľ ë²Ħ
ëĵľ ë¡ľ
Ġìĭľ ëĤĺ
Ġ' âĸ¶
Ġêµ° ìĿ¸
ĠìľĦë °ĺ
ĠìĦ± ìĿ¸
Ġìĭ¤ ìłģ
Ġê·¼ ê±°
ĠíĮĮ ë¦¬
ìĽ ĥ
Ġë¬¼ë Ł¬
Ġíĺķ ìĦ±
Ġê¸° ì´Ī
ĠìĨĮ íĶĦíĬ¸
ëĤĺ ëĭ¤
Ġê² Ł
Ġê¸ ¸ë
Ġëĭ ī
ĠìĨĮ ëĤĺ
ĠìĤ¼ìĦ± ìłĦìŀĲ
ĠìķĦë¬´ ëŀĺëıĦ
Ġë¶ķ ê´´
Ġê·¼ë ¡ľ
ĠíĮĲ ê²°
Ġì´Ŀ ìŀ¥
ĠíļĮ íĶ¼
Ġb o
an t
Ġë£¨ íĬ¸
ĠìĿĺ ë¬¸
Ġê±° ëĵŃ
ĠìĻĦ íĻĶ
ĠìłĲ ê²Ģ
or t
Ġë°Ķ íĥķ
ë¥´ íģ¬
Ġìĺ® ê²¨
Ġë¬´ ë£Į
Ġë°© íķ´
Ġìĸ´ëĳ ł
ìĨ Ķ
ĠëĤĺëĪ Ħ
Ġê¸ į
ĠëĪĦ êµ°
Ġíķł ì§Ģ
ĠíĿ¡ ìĪĺ
Ġìĥģ ì²ĺ
Ġw e
ĠìĨĮ ìŀ¥
Ġë³¸ë ŀĺ
ë¡ľ ìļ°
Ġìłķ ì§Ģ
Ġìĵ° ëłĪ
Ġê³Ħì Ĥ°
ë³ Ħìĭľ
ĠìĺĪ ë¹Ħ
Ġë³´ ê±´
Ġì·¨ ìĹħ
ĠìķĶ ìĤ´
Ġë³µ ìĪĺ
ìħ Ģ
Ġì° °
ĠìĥĿ ë¬¼
Ġì·¨ ìŀĦ
ĠìĹħ ê³Ħ
Ġìĸ¼ ìĿĮ
Ġìĭľ ìłĦ
Ġìĺµ ìħĺ
Ġì§Ģ ìĭĿ
ĠìľĦì ķĪ
Ġí ĥģ
ĠëĤ© ì¹ĺ
Ġë¯¸ ì¹ľ
Ġê³µ ëŀµ
Ġì²Ń ì£¼
ëĿ¼ë ³´
ì´Ŀ ë¦¬
ì» ¨
Ġëį° ìĿ¼ë¦¬
Ġa d
ëıĻ ìķĪ
ĠíķľêµŃ ìĸ´
ĠëĨĢ ëĿ¼
ĠìĪĺ ìĪĺ
Ġê³µ ìľł
o us
Ġì¶Ķ ìłģ
Ġë¬ ¶
Ġíıī ë²Ķ
¢ ħ
Ġìŀ¥ ë¥´
í į¼ë
ĠãĢ ī
ĠíŀĪ íĬ¸
ĠëĤ Ń
ĠíĻķìĭ¤ íŀĪ
ĠíļĮ ê²¬
íĶ¼ ìĬ¤
ĠíĻĶ íķĻ
Ġë²łìĿ´ ì§ķ
ĠìķĦíĶĦ ë¦¬ì¹´
ĠìĤ¬ ëĭ¨
Ġëĸ ¨
Ġê°Ħ ëĭ¤
ĠìĿ¼ëŁ¬ ìĬ¤íĬ¸
Ġëį ©
Ġì¹ĺ íĤ¨
ê·¸ ëłĪìĿ´ëĵľ
Ġê·¸ë Ł´
ĠìĹħ ê·¸ëłĪìĿ´ëĵľ
ë¬ ĺ
ĠìĤ¬ëĿ¼ ì§Ģ
ĠìĹ° ëĿ½
Ġëĵ¤ìĸ´ ê°Ħ
Ġí Ĥ
Ġì° ¸ë
Ġìŀ¬ ê°ľ
Ġì¶© ìłĦ
ĠìĽ ħ
ì§Ģ ì»¬
Ġj ebo
ĠìĿ´ ìĬ¬
ī ½
Ġì°© ìļ©
ĠëĮĵ ê¸Ģ
ĠëĤĺ ìĦł
Ġ us
Ġë§¤ ëł¥
ĠëĽ° ìĸ´ëĤľ
Ġê·¸ ëł¤
Ġë§¤ ìŀ¥
Ġê° ĵ
Ġíķ¨ ìłķ
ìĸ Ģ
ĠâĨ Ĳ
íŀ Ĳ
Ġê¼ ´
Ġìĭ¬ íķĺ
Ġíĥľ ìĸ´
ìĺ ·
ì¹ ¸
Ġìĥģ ìŀĲ
Ġ" âĹĨ
ĠëĤĺ ìĿ´íĬ¸
ĠìĿ¼ ìłľ
ĠëĤĺëĪ ł
Ġëıħ ìŀĲ
Ġëĸ¨ìĸ´ ì¡Į
Ġíķ© ë¥ĺ
ë ¸Ĳ
ëį ľ
ĠìĦ¤ ê³Ħ
ĠíĶĮ ëŀĺ
Ġìĺ ¹
ĠíĻľ ìĦ±
Ġê°Ģ ëĵľ
ìł ¸ë
Ġê±° ì£¼
ĠìłĲ ìĭ¬
ĠêµŃë°© ë¶Ģ
ĠìłĦ íķĺ
Ġì¡° ìłĪ
ĠìĹ° ë°©
Ġë³´ ì»¬
ĠìķĦì Ľĥ
ĠìķĮëł¤ ì§Ħ
Ġì¢ħ ì¢ħ
Ġìľł ì¶ľ
ĠìĿ´ë¤ Ħì
Ġíķ´ ìķĪ
Ġê³ł ìľĦ
ĠìĹ° ê³Ħ
Ġì¶Ķ ì¸¡
ĠëįĶëĿ¼ê³ł ìļĶ
ĠìŀĲ ì¹ĺ
Ġê¹Ģ ì§Ģ
Ġë©Ķ ë¥´
Ġë¡ľ ìį¨
Ġë¸Į ëłĪìĿ´
Ġëħ¸ë ¬´
Ġê³µ ë°©
ĠãĢ Ī
ê º
Ġëª¨ ë¥¸ëĭ¤
ìĽĮ ëĵľ
Ġì»¤ ì§Ģ
Ġë®¤ ì§ģ
ĠìĿ¸ íĺķ
Ġìĸ´ ì
Ġê³¼ ìŀ¥
¼ Ī
ëª ĩ
Ġê³µíĻĶ êµŃ
ë¡ľ ê·¸
Ġëªĩ ëªĩ
Ġìµľ ìłĢ
Ġíļ ¡
Ġt e
ëĤ ¼
ĠìĿ¸ ì¦Ŀ
Ġìĺ¤ë¦¬ ì§Ģ
ĠìĥĿ ìĿ¼
Ġì¤Ħ ìĿ´
Ġê³µ êµ°
ĠëıĮ ìķĦìĻ
ĠìĿĺ íķľ
i ll
Ġì²ŃìĨĮ ëħĦ
ĠìĹ¬ ê°Ŀ
ëĭ¤ ë¥¸
Ġë§Ī ìĿ´íģ¬
ĠìĽĲ ì¹Ļ
ĠìĿĳ ìĽĲ
Ġê±´ ì§Ģ
Ġìŀ¬ ëĭ¨
Ġìĺ¤ ë²Ħ
íĬ¸ë Ĥ¨
ê´ĳ ìĹŃìĭľ
ĠíĿĲ ë¦Ħ
Ġã ģ
Ġì¤Ħìĸ´ ëĵ¤
Ġê¶ ¤
Ġì²ľ ìĸµ
ĠíĮ¨ ìħĺ
Ġê·¸ë ŀ
Ġíİ¼ ì³Ĳ
ĠìķĦëĭ Ļ
Ġë°© ì§Ģ
ĠëıĻ ëĦ¤
Ġë¦ ´
Ġë¸ĮëĿ¼ ì§Ī
Ġë³¸ ìĦł
ĠíĥĦì ĥĿ
Ġë¹Ħ ë¦¬
ë »
ë¹ Į
Ġìŀ¥ êµ°
Ġìĺ¨ ëıĦ
ĠìķĦë Ŀ¼
íĨ ¨
ĠíĮ Ŀ
Ġìĵ°ëłĪ ê¸°
ĠêµŃ ìŀ¥
Ġëªħ ìĺĪ
ĠìµľëĮĢ íķľ
ĠíĹ¤ ìĸ´
Ġíĺģ ìĭł
Ġì£¼ ê°Ģ
Ġp s
ĠìķĦëĭĮ ê°Ģ
ĠíĪ¬ ëį°ìĿ´
ĠëįĶ ìľĦ
ĠíĽĦì ¿ł
ĠëŀŃ íģ¬
Ġì°¾ ìķĦë
Ġíĺ¼ë ŀĢ
Ġíıī ìĸĳ
Ġë¯¸ íĦ°
ĠìĦ¸ ê¸Ī
ĠíĻį ì½©
ĠìĿĺ ë¬´
ĠëĤ ³
Ġë¿Į ë¦¬
Ġíĭ° ìĸ´
ĠëĮĢ ìĽĲ
ëŀĺ íĶĦíĬ¸
Ġë¹Ħ ê³ł
Ġíķł ë¨¸ëĭĪ
ĠëĵľëŁ¬ ëĤ¬
ĦìĹ Ĩ
Ġëª¨ ëłĪ
Ġp r
ĠìĺĪ ë°©
ĠëĤĺ ë
Ġë¬´ ëł¥
Ġë§Į ëĤľ
íĿ Ĳ
Ġìŀł ê¹Ĳ
Ġìħ °
Ġg o
Ġìŀ ĦëĮĢ
Ġë©Ķìĭľ ì§Ģ
Ġíķ´ ìĸĳ
Ġë¬¼ ê°Ģ
ìĩ ¼
ĠìķĦë ²ł
ĠíĻĶ ë¬¼
ĠìĿ´ ìĬĪ
ĠíıŃ íĸī
Ġæ Ŀ
ìŀ ī
ĠìłĦë ¶ģ
ĠìĬ¹ ê°Ŀ
on t
Ġì²Ń êµ¬
Ġì§ĢëıĦ ë¶Ģ
íĹ ¤
Ġíĸ¥ íķ´
ĠëĮĢ ìļ°
Ġíķ´ ì§Ħ
ë°Ķ ë¡ľ
Ġê·¸ ì¹ĺ
Ġê·¸ë§Į íģ¼
Ġê° Ŀ
Ġê°ľ ì¡°
Ġë¶Ī ë§Į
Ġìĺ¤ íĶĦ
Ġëį ¸
ĠíĨµ ìĥģ
Ġë³´ ë³ĳ
ã Ĥ
Ġë³Ħë ıĦ
² ¨
ĠëĤĺ ìĺµëĭĪëĭ¤
ĠìŀĦ ê¸Ī
Ġê´Ģê´ĳ ê°Ŀ
Ġê¹Ģ ê²½
Ġë¡ ±
Ġc d
Ġêº ¼
Ġëĵľ ëĿ¼ìĿ´
Ġëª¨ ìĹ¬
ĠìĪĺ íķĻ
ĠíĶĦë Ŀ¼
Ġëĭ ®
Ġë²Ħ ê·¸
Ġì» ·
ĠìĪĺ ìĺģ
p er
ĠíĬ¹ ìľł
Ġì¶Ķ ìĦĿ
ĠíĽĦ ê¸°
Ġë± ħ
ĠìĹ° ìŀ¬
ĠìĿ¼ ì¢ħ
ĠìĻĢ ì¤ĳ
Ġë³´ ìķĪ
âĺ ħ
Ġë²Į ìį¨
ĠíĥĿ ìĭľ
Ġì Ł
Ń ī
Ġíİĺ ë¥´
Ġë°Ķ ëĿ¼
Ġì§ĳ íĸī
it y
ë¶ģ ëıĦ
ĠìĽĲ ìłķ
Ġë¯¸ëĶĶ ìĸ´
ĠìłĦíķ´ ì¡Į
Ġâĸ ł
ê¸° ìĹħ
Ġê¸° ë¦Ħ
ëŁ¬ ëĵľ
Ġë¡ľ ìļ´
ĠêµŃ ëĭ¹
Ġê¿ Ģ
Ġëį§ ë¶Ļ
ĠëĵľëŁ¬ ëĤĺ
ĠìĿ¼ ìŀĲë¦¬
Ġê³¼ ìłľ
ĠìĭĿ ëĭ¨
ĠìĹ° íľ´
Ġìľ µ
Ġì¼Ģ ìĿ´ìĬ¤
Ġíı¬ ë¥´
un g
Ġëģ ¼ë¦¬
Ġë¦¬ ì¹ĺ
p l
ĠìĬ¤ ì¼Ģ
Ġê°Ģ ë©´
Ġíĭ Ī
ĠíķĻ ë¶Ģ
¶ Ħ
ĠêµŃìłķ ìĽĲ
ĠìķĦëĭ Ĳ
Ġëļ ľ
Ġë¶Ģ íĴĪ
ĠìķĦë ©Ķ
Ġë¶Ģ íķĺ
íĿ ¡
ëĵľ ë¦¬
Ġì¶ľ ê·¼
ìķĦìĺ ¤
ĠëĬĶëĭ¤ ê³ł
Ġìĭł íĺ¸
ìľ¼ ëĭĪ
Ġìŀħ íķĻ
ĠìĺĪ ìĦł
Ġcon t
ê ¶
Ġì£¼ìĿĺ ë³´
Ġìł ł
ĠëıĻ ë°ĺ
Ġê¹ ľ
ĠìĿ´ ëŀĺ
Ġì¶© ëĤ¨
Ġìĺ¤ ë¹ł
Ġn e
Ġì§Ħì ĺģ
ë´ Ĳ
Ġê³¼ ìĹ°
Ġí Ī
Ġê¸į ìłķ
Ġë¶Ģ ì§Ħ
Ġê¾¸ì¤Ģ íŀĪ
Ġìĭł ê¸°
Ġë¬¸ íķĻ
Ġíĺģ ëªħ
Ġìµľ íĽĦ
ĠëıĻ ë¬¸
Ġë¹¼ ìķĹ
Ġë³´ ëĤ¸
ëľ¨ ë¦¬
Ġìłķ íķ´
Ġì§Ģ ìļĶ
ag e
Ġì§Ģ ëĮĢ
Ġê°Ģ ê²Į
Ġ20 1
ê ´
ĠëģĿ ëĤľ
Ġíĺķ ìĤ¬
Ġíĳ ¸ëĵľ
Ġìĭľ ìĭł
Ġê°Ģ ê¹Ŀ
Ġìĸ´ ì°Į
íĢ ´
ĠíĿ °
ìĬ¤ íĭ°
Ġêµ¬ ëĭ¨
Ġë²ł íĬ¸ëĤ¨
ë ®¤
Ġë§Īë²ķ ìĤ¬
ĠìĿ¼ë³¸ ìĸ´
ĠìĿ¼ ìĸ´ëĤľ
íĥĢ ìŀĦ
Ġê³ °
ëª¨ ë¦¬
Ġìĸ ¼ë
Ġê·¸ ìłĢ
Ġa c
ë ±
ĠìºĲ ëĤĺëĭ¤
ëħ ¼
ëıĻ ìĥĿ
a h
Ġíĸī ìĦ±
¡ Į
Ġm o
Ġê°Ģ ìĭľ
Ġìĭ¤ ìłĲ
Ġë°© ìĤ¬
ìŀ Ħì
Ġìłģ ëĭ¹
Ġìłģ ë°ľ
Ġê·¸ëŀ ¬
l d
Ġëį° ëł¤
Ġíĥľìĸ´ ëĤ¨
Ġìĺģ ìŀħ
Ġêµ¬ ëĤĺ
Ġê±¸ ì³Ĳ
ĠëıĻ ë¶Ģ
ĠíĨµ íķľ
Ġr ub
Ġê²Ģ ì¦Ŀ
Ġì¤ĺ ìķ¼
ĠìľĦì £¼
ë¬´ ëĿ¼
ĠìĿĦê¹Į ìļĶ
Ġì¤ĳ ê³Ħ
Ġë¬´ ìĦľ
Ġëŀ ©
íĻĶ ìłĲ
ĠìĬ¤ ìľ
ĠíĥĢ ìŀĲ
Ġë³´ ê´Ģ
ĠíĻĺ ìľ¨
Ġê³ł ìĨĮ
ĠìĦł ì§Ħ
ëĿ¼ë ¦¬
ĠëįĶ ë¸Ķ
ê ¿
Ġë§Ī ê°Ĳ
ìľ ĦëĮĢ
Ġíķľ íĻĶ
Ġë²Įìĸ´ ì§Ģ
Ġë²ł ìĿ´ìĬ¤
Ġìĺ¤ë¦¬ì§Ģ ëĦĲ
ĠìĿ´ ì¹ĺ
ëĤ¨ ëıĦ
ĠíĻĺ ìĺģ
Ġê°Ģ ì¡Į
Ġì½Ķ ë¯
ĠìĽ ¬
Ġì§Ģ ëĤ´
Ġìĭ¬ ìŀ¥
Ġê²½ ëł¥
Ġëŀ Ħ
Ĩ ¡
íĳ ¸
Ġë©Ģ ë¦¬
Ġì£¼ ìĹ°
ë² ¤
Ġê¹Ģ ë¯¼
Ġìĺģ ìĹŃ
ĠëłĪ ìĿ¸
Ġê° ±
Ġë© ķ
ĠìĿ´ ìŀĲ
Ġê°Ħë ¶Ģ
Ġìĺģ íĺ¼
Ġë° ¸ë
ĠêµĲ íĻ©
ĠìĪĺ ìĭŃ
ĠíĽĦì Ĩį
ĠíĻĶ ëł¤
ë°Ķ ìĿ´
ìĤ¬ ì¹´
ëĳ ĳ
Ħë Ł¬
Ġâ Ļ
ĠëıĮìķĦìĺ ¤
r y
Ġf l
ĠìĬ¹ ê°ķ
ĠêµĲ íĻĺ
ĠìłĦë Ŀ¼ë
ł Ī
Ġíģ´ ë¦Ń
ĠìĥĿ ê²¨
ĠëĤĺ ìģĺ
ĠìĦ± íıŃ
ĠìĤ¬ ì¿ł
Ġì§ Ŀ
Ġm p
Ġê¸° ê¸°
ĠíĮ¨ ëŁ¬
ĠìłĢ ê²©
Ġìĭł ê·ľ
ĠìķĦì Ĥ¬
Ġê°Ĳ ìĭľ
Ġêµ ¿
ĠëĪĦêµ° ê°Ģ
Ġëĭµ ëĭĪëĭ¤
ë¦¬ ìĬ¤íĬ¸
Ġê³ł íĸ¥
ĠíĬ¸ëŀ Ļ
Ġë¹Ħ íĬ¸
ĠìĪľ ìĦľ
Ġëª» íķľëĭ¤
ĠìĹĦì²Ń ëĤĺ
Ġê³ł ìľł
ĠìĿĺ ìĻ¸
Ġê°ľ ë§ī
ĠìĦ± ë¶Ħ
Ġë°ľ ìĿĮ
Ġì²Ńë¬¸ íļĮ
ĠìĿ¸ë ¥ĺ
Ġëħ¸ë¬´ íĺĦ
Ġë¬´ ëĦĪ
Ġê²Į ìĿ´
ë© į
ìĸ´ ëıĦ
Ġë²Ħ íĬ¼
Ġë³´ìĹ¬ì¤Ģ ëĭ¤
ĠìĹ ¼ë
Ġíĥĳ ìĬ¹
Ġê´ĳ ìŀ¥
Ġì°¨ ê´Ģ
Ġrub y
Ġìĸ´ëł¤ ìĽĢ
Ġê±´ ëĦĪ
Ġíĸī ë³´
ĠìĹĲ ê²Ĳ
Ġê°ľ íĨµ
Ġëª¨ ë¦¬
u st
ĠëĮĢ ë¦¬
Ġìŀ¬ ë°
ec t
Ġëħ¸ ì¶ľ
Ġì±Ħ íĥĿ
Ġìŀ¬ë° Į
ĠìļĶ ìĽĲ
ì§ Ħì
ĠíĬ¹ ë³´
ĠëĦ ·
ìĦľ íĬ¸
Ġë³´ ëĦĪìĬ¤
Ġíĺ¹ ìĭľ
ëĭĪ ìĸ´
ëłĪìĿ´ ìħĺ
Ġìŀł ìĪĺ
Ġì»¨ ìħī
ë¬ µ
ĠëĴ¤ ì§ĳ
Ġí į¼ë
Ġíģ´ëŀĺ ìĬ¤
Ġê¹Ģ ì¹ĺ
ĠëĤł ê°ľ
Ġì¤ĳ ëĮĢ
Ġëĭ¨ ìľĦ
Ġë§Ī ì¹¨
Ġë¯¸ë ĵľ
Ġëª» íķ´
Ġê°ľ ê·¸
ĠìĭľíĤ¨ ëĭ¤
Ġë°ķ ì§Ģ
Ġíİ¸ íķĺ
ĠìķĦë Ĥĺ
Ġíļ Ł
Ġë²Ħ ëł¤
ìĽ¨ ìĿ´
ĠìĿ´ ë¡ł
ëĿ¼ íģ¬
Ġêµ° ìļĶ
ëł ģ
ĠëĤ´ ë¦°
Ġìĺ¬ ëł¸
Ġu p
Ġêµ° ëĭ¨
ĠëĤ´ëł¤ ê°Ģ
Ġëı ķ
Ġê² Ĳ
Ġë´ ħëĭĪëĭ¤
Ġá ħ
ĠìĬ¤ íĭ°
Ġë²Ĺ ìĸ´ëĤĺ
ĠìĽĲ ìłĦ
Ġë£ Į
ĠëĤĺ ê°Ī
Ġìĥģ ìĥģ
ĠíİĢ ëĵľ
ĠíĮĮ ê²¬
Ġë©Ģ íĭ°
Ġå ħ
Ġë¶Ģ ëĵľ
Ġëľ ¬
Ġê»ĺ ìĦľ
Ġì§Ħ ëĭ¤
ëĭĪ íĭ°
Ġë¶Ī ëªħ
ĠíĽ Ķ
Ġg r
Ġì§Ħì Īł
ĠìĦľ ë¶Ģ
ĠìĹ° ëıĦ
ķ Ħ
Ġë°Ŀ íŀĮ
Ġë§¤ ìĪĺ
Ġë²ķ ìĿ¸
Ġëĭ¨ìĪľ íŀĪ
Ġs s
Ġëĭ¨ ìĨį
Ġê¹Ģ ëıĻ
Ġë§Į ëĤ¬
Ġì¶ľ íĮĲ
Ġë²ķ ë¥ł
ĠìŀĲ ìĤ°
Ġì§ĢëıĦ ìŀĲ
ì¶ ¤
Ġwi th
Ġì½Ķ ì¹ĺ
Ġë° Ł
Ġìĭ¬ íĮĲ
Ġë¹ ¼ë
Ġíĳľ ì¤Ģ
ĠíķĦì Ĥ´
Ġëĭ¹ ë¶Ħ
ìĺ¤ ìĬ¤
Ġw or
Ġëĵ¤ ìĹ¬
Ġëł ¹
Ġêµ¬ ìļĶ
ë§ ŀ
ìĤ Ń
ĠíĿĺ ëŁ¬
Ġì±Ļ ê²¨
Ġëĭ¤íĸī íŀĪ
ĠìĦľ ë¸Į
Ġi ch
Ġì¡° ì§Ģ
ĠìĿ¸ ê³µ
ĠìĻ¸ë ª¨
Ġê±° ëĳĲ
ĠìĭľëĤĺ ë¦¬ìĺ¤
Ġì¢ĭìķĦ íķĺ
ĠìĦ¤ ëĵĿ
Ġlt d
Ġëĵľ ëĶĶìĸ´
ĠëĮĢ ë²ķ
Ġf ood
i ve
Ġë§¥ ì£¼
ĠíħĮ íģ¬
ī ĺ
Ġch annel
ĠìĥģëĮĢ ë°©
ĠíĥĢ ìĽĮ
ar k
í Ĥ
ĠâĨ Ķ
Ġëĳ ¥
ĠìłĦì Īł
Ġì°½ ì¡°
ìĭľ ì½Ķ
Ł° ìĬ¤
Ġìĥģ ìĦ¸
ĠìĹ´ ëł¸
on e
Ġëĭ¹ íķ´
Ġì¡° ìļ©
ĠëıĦ ìĭ¬
Ġ Ð
Ġì½Ķ ìĬ¤íĬ¸
ìķĦë ²Ħì§Ģ
ic k
Ġë²ł ë¥´
ĠìĨĶ ë¡ľ
Ġì½Ķ ëĦĪ
ê¹ Ķ
Ġâ Ī
Ġìķ½ íķľ
Ġë³´ ê¸ī
Ġê²Į ìĭľ
Ġê¸° ìĨĮ
ë¡ ¤
ĠëĮĢ íķĺ
Ġëª¨ íĹĺ
ĠíĹ Ĳ
© ìĿ´
Ġê¸Ī ìķ¡
Ġê¹ İ
Ġìķł íĶĮ
Ģ ìĦľ
ĠìĭĿ ë¬¼
Ġìĺģ ëıĻ
ĠíĬ ľ
ë¦¬ íĬ¸
ë ¿
Ġê·¸ëŁ° ì§Ģ
ìĪĺ ìĪĺ
ĠìĹ¬ ìĦľ
Ġì¶ľ ìŀ¥
Ġëĵ± ëĵ±
ëłĪ ìĿ¸
Ġì´Ŀ ê¸°
i z
g in
ĠíĪ¬ ëªħ
ĠíķĦ ë¦¬
ĠíĽĦ ì§Ģ
Ġma x
Ġì¶ľ ìŀħ
ĠìłĲ ëł¹
Ġr o
Ġê´´ ë¬¼
ĠìķĮ ëłī
Ġêº¼ë Ĥ´
Ġíķľ ìŀĲ
Ġë°Ģ ëł¤
Ġëĭ´ ë°°
Ġë¦ ½
Ġë³´ ëĥĪ
Ġëª¨ ìľ¼
Ġì½ĺ ìĦľíĬ¸
á Ħ
ĠëŃ ĺ
Ġê²° ìĿĺ
ĠëŁ° ëįĺ
Ġs o
ë¨¸ ë¦¬
ĠëĤ¨ ìª½
Ġê²¨ ìļ°
ĠëĪĪ ì¹ĺ
ìĭľ ìĺ¤
Ġì²łëıĦ ìĹŃ
ĠëĮĢ ëĭµ
Ġê³ł ë¬¸
ĠìĤ¬ ë²ķ
Ġíİ¼ ì¹ĺ
ĠëĮĢ ë°ķ
Ġê¹Ģ ìŀ¬
ë¬¼ ê´Ģ
íĮ ¡
Ġìĺ¤ ìĬ¤
ĠìĨĮ ìĪĺ
ĠìĪĺ ìĥī
Ġì¡° ê¸°
Ġëĵł ì§Ģ
ĠìłĢ ëł´
Ġìķħ íĻĶ
ĠëĶĶì§Ģ íĦ¸
ĠìĤ ½
Ġê°Ģ ëıĻ
ĠìĿ¼ ê¸°
ĠëĤĺ ìģľ
ĠìŀĲ ëħĢ
ĠëĨĢ ìĿ´
Ġê² ī
ĠíĦ° ì§Ģ
Ġìµľ ìĪľ
ĭ ¬
ĠâĹ ĭ
ĠìĪĺ íĺ¸
Ġëĵ¤ ìĿ´
ëĳ ĺ
Ġíķ¨ ëĮĢ
ĠëĤĺ ì¹´
Ġëĭ¹ë¶Ħ ê°Ħ
Ġë²Ķ íĸī
Ġë§Ī ëł¥
Ġëĵľ ëł¸
ĠëĮ ĦìĬ¤
Ġë°± íĻĶìłĲ
Ġê¹Ķ ëģĶ
ë¥ Ń
íĻ Ģ
į ķ
Ġf e
Ġê³ł ìĦľ
ëŀ Ħ
Ġìĭł íĻĶ
Ġì½Ķ ìĸ´
Ġíķ Ħë
ĠêµŃ íĨł
Ġë§Ľ ìĬ¤íĥĢ
Ġíĺ¸ ì£¼
ĠíĤ¤ ìļ°
Ġìĺ¤ëŀľ ë§Į
ĠëĪĦë ¥´
Ġë¹Ħíĸī ê¸°
Ġë²ķ ìłķ
ĠìŀĲ ìĭĿ
Ġë´ī ìĿ¸
Ġì£¼ ìŀĲ
Ġê°ķ ë¦ī
Ġë¶Ļ ìĹ¬
ĠìŀĲ ê·¹
ë ĸ
Ġë© ¸
ĠìĺĪ ì¸¡
Ġë© į
ĠìĦľ ë¯¼
íĭ ¸
Ġ* *
Ġíķ© ëıĻ
ĠíĶĮ ëŁ¬ìĬ¤
ĠìĤ´ìķĦë Ĥ¨
Ġlo ve
Ġì§ĢëĤĺ ê°Ģ
Ġìĸĳ êµŃ
annel a
Ġich annela
Ġíķ´ ëªħ
ĠìĭŃ ëĭĪê¹Į
ĠìķĦ ë¦¬
ĠìĦ± ëĤ¨
íĿ ĳ
Ġê°Ī ìĪĺë¡Ŀ
ĠìłĦíĪ¬ ê¸°
Ġëª¨ ìŀĦ
ĠíĦ° íĤ¤
Ġíķĺ ê³ł
ĠìķĦ íĬ¸
i x
Ġe m
Ġë¯¸ ìĬ¤
Ġì§ĳ ìķĪ
Ġê·¸ ëłĪìĿ´
ĠìĬ¤íİĺ ìħľ
ĠìĽ¨ ìĿ´
Ġìłķ ê¸°
Ġìŀħ êµ¬
ĠëĮĢ ê°Ģ
ĠìĿ´ìĬ¬ ëŀĮ
i an
ĠìĿ¸ ëł¥
Ġê´Ģ ëŀĮ
u d
ĠìŀĸìķĦ ìļĶ
ìĩ ł
ĠëĮĢ ë¥Ļ
ĠêµĲ ê³¼
Ġê³µ ìĤ°
ĠíĻĶ ìĿ´íĬ¸
íĹ ¨
ĠìĿĮ ìĦ±
Ġíĥĳ ìŀ¬
Ġëĭ¥ íĦ°
Ġê°ľ êµŃ
Ġìĸ´ì ¨
ĠíħĲ ëį°
Ġë¯¸ë Ĥĺ
Ġìĥģ íķĺ
ĠíĪ¬ ìĸ´
Ġìĥ ĺ
Ġê²½ê¸° ìŀ¥
ĠíļĮ ìłĦ
Ġëŀ į
ë¹Ħ ìłĦ
ĠìķĦë¦Ħëĭ¤ ìļ´
Ġìŀĳ ìĤ¬
ĠëĮĢ ë§Į
Ġë°ķ ë¬¼ê´Ģ
Ġëı¼ ìĦľ
ĠìĹ¬ ìľł
ë©Ķ ëĭ¬
ĠëĤĺìĻĢ ìĦľ
ĠëıĦìĦľ ê´Ģ
ĠìĦ¸ ì¢ħ
ê´ Ħ
ĠìĤ¼ êµŃ
ĠëıĻ ê¸°
ĠìĬ¤í Ĥ¨
Ġìŀ¬ë¯¸ ìŀĪ
Ġíĸ¥ íĽĦ
ëĶĶ ìĺ¤
Ġìĸ´ì© Ķ
ĠëıĮ ë¦¬
Ġëª° ëł¤
ĠíĮĢ ìŀ¥
Ġë£ °
Ġì´ Į
ìŀ ĦìĬ¤
Ġf a
Ġëª ¹
Ġê°Ģ ìļĶ
Ħì ĥĪ
Ġa i
ĠìŀĲ ìłĦ
¡ Ģ
ĠìĦľ ìª½
Ġì ¾Į
ĠìĨĲ íķ´
ĠìĥĿ ìĦ±
ë Į
Ġë°ķ ìłķ
Ġë®¤ ì§Ģì»¬
ĠìłĦì ĹŃ
ìĸ´ ì§Ģ
ĠìķĪ ëĵľë¡ľ
Ġë¦¬ ìĬ¤
Ġì§ķ ìĹŃ
ë¯¸ íĦ°
Ġíĭ ±
ĠëĤł ë¦¬
ĠíķŃê³µ ê¸°
ĠëĤł ëł¤
¼ë ¦
ĠìłĦ ê³µ
ĠíķĻ ê³¼
Ġê°Ģ ë°©
ìĽ ¨ìĸ´
ĠìĦľ ìĪł
ì ¥
Ġê²¬ ìłľ
ĠìĬ¤ íĤ¤
ĠíĨł ìļĶìĿ¼
ìĸ´ ëĤł
Ġê°ľ ë°©
Ġêº ¾
ĠíļĮ ìĪĺ
ĠëĤ¨ ê¸°
Ġë§¤ ì¹ĺ
Ġê´Ģ íĨµ
Ġì¹ĺ ìĹ´
â ĸ
Ġë¹Į ë¦¬
Ġìľł íĺķ
Ġíı¬ ìŀ¥
ĠëĵĿ íĳľ
Ġë± Ģ
Ġê´ĳ ìĹŃ
Ġëĥ ĦìĥĪ
ĠíĮĲ íĥĢ
Ġê²½ ì£¼
ê» ı
il y
ìł Ħë
Ġëĭ¤ ìĦ¯
ĠëĮĢ íıŃ
ĠíĥĦ íķµ
Ħ ±
Ġíķ´ ìĨĮ
Ġìĸ´ì© Į
Ġíķĺ ìľĦ
ĠìķĪ ëĤ´
Ġê°Ģ ìĥģ
ĠìĤ´ ë¦¬
Ġíİ¸ ì§Ģ
ĠëĮĢ ì²ĺ
ĠìĹ° ìĦ¤
Ġê³ ½
ĠìŀĲ ìĿ´
Ġf r
Ġíķľ íĮĮ
Ġì¤ĳ íĻĶ
ĠìŀĩëĶ° ëĿ¼
Ġíģ¬ë¡ľ ìĬ¤
Ġë°© íĮ¨
ĠìķĦë ŀ
ìĬ¤ íĥĦ
Ġìĭ¤ íĸī
ĠíĺĦ ê¸Ī
Ġí ĵ¨
in s
Ġê³µ íķĻ
Ġê·¸ ê±´
ĠìĤ¬ìĿ´ ì¦Ī
Ġê²½ì°° ìĦľ
Ġëĭ «
Ġì§Ģ ëĭĮ
ĠíıŃ íĴį
ĠíĮ¨ ìĬ¤
Ġêµ¬ ìłľ
Ġì½ĶìĬ¤ íĶ¼
Ġíı¬ íķŃ
ĠìĦľ ìļ¸ë
ĠìĦ¸ ìļ°
ĠìĹĶ íĦ°
Ġê²½ ìľł
Ġê³µ íĨµ
íģ¬ ëŀĺíĶĦíĬ¸
ĠìĹ¬ ìĻķ
Ġìĭł ìĦ¸
Ġíİĺ ìĿ´ì§Ģ
ìĤ¬ ìŀĲ
ĠíĶĦë¦¬ ë¯¸
Ġê·¸ ê±°
íħ Ģ
Ġì¤ĳìĨĮ ê¸°ìĹħ
ĠìĿ´ ì§Ģ
Ġê³§ ë°Ķë¡ľ
ĠìĦłê±° êµ¬
Ġë°ĶëĢ Ĳ
Ġê°¤ ëŁŃ
ĠëĲľëĭ¤ ë©´
Ġëıħ ëıĦ
Ġe d
ĠëĶ± íŀĪ
ĠìĤ¬ ëĵľ
ĠìĪľ ìĪĺ
Ġëį° ë¦¬
o k
Ġíĥ ķ
ĠìĿ¼ ìĭľ
ìĤ° ë¬¼
ĠìĿ´ ì¢ħ
Ġìĺ¤ ìĹ¼
Ġë¹ł ì§Ħ
ĠíĿĶ íŀĪ
ĠëĤ ļ
ı Į
Ġë¶Ħëªħ íŀĪ
ĠìłĢ ëŁ°
Ġìĥ Ĳ
Ġë¯¸ ìĨĮ
a f
Ġë©ķ ìĭľì½Ķ
Ġì§Ģ ìĺ¥
Ġê³ł êµĲ
ĠìĦľ íķ´ìķĪ
ĠëĦĺ ê²¨
Ġë¬¸ìłľ ìłĲ
Ġíĺĳ ìłķ
Ġì¶ľ ë²Ķ
Ġê³µ ìŀĳ
Ġìĭľ ìĤ¬
ĠìĹ° ê·¹
Ġëĭ¹ ì´Ī
Ġê¹Ģ ëĮĢ
Ġê¸Ī ìļĶìĿ¼
Ġê±´ ê°Ģ
ĠìłĦ íĺķ
ĠëĮĢ íĶ¼
ĠíĮ ¡
ĠíĹ¬ ê¸°
ì ¾Į
Ġì»¤ íĶĮ
ĠìĬµ ê²©
ĠëŁ¬ ë¸Į
Ġíĺ¸ ìĨĮ
Ġíķĺ íĬ¸
Ġë§¤ ëħĦ
Ġê°ĸ ì¶Ķ
Ġê¶Į íķľ
Ġê¸° ëıħ
Ġë¦¬ ìĸ´
Ġìĥģ ëĭ´
Ġìłľ ë¡ľ
ë¦ ħëĭĪëĭ¤
ĠìĿ¼ ì°į
Ġê±´ ëį°
Ġìĸ´ì¨ Į
Ġê°¤ëŁŃ ìĭľ
íĶ¼ ìķĦ
ĠíĹ¤ ëĵľ
Ġìī¬ ìļ´
ĠëıĮìķĦìĺ ¨
ìĺ¤ ë¥´
Ġíķľ ë²Ī
Ġìĺ¤ ìĬ¤íĬ¸
ìĭľ ë¸Į
Ġìļ´ ìłĦìŀĲ
ĠëĿ¼ë©´ ìĦľ
Ġê¸° ìĸ´
ì© į
Ġë³µ ìŀ¡
Ġë¶Ģ ìĭ¤
ĠìĹŃ ìłĦ
Ġê·¸ëŀĺ íĶ½
ĠìĬ¤ íĬľ
e p
Ġë°± ë§Į
Ġë¶Ģ ë¥¸ëĭ¤
Ġë¶Ģ ë¦¬
Ġì¢ħ ìĿ´
¤ Ħ
Ġìľł ëŀĺ
Ġìľł íĤ¤
Ġê³µ ìĦ¸
ĠìĬ¤ íĨł
Ġìľł ìļ©
ĠíļŁ ìĪĺ
ĠìĦ¸ ìĽĮ
ĠìłĦì §ģ
Ġê±° ë¡ł
b er
íĬ¸ë ¡¤
Ġë³µ êµ¬
ĠëĮĢ ëĮĢ
ì´Ŀ ìŀ¥
Ġê¹Ģ ê¸°
Ġëĭ ¿
ĠìĿ´ ëĭ¬
ĠìĤ¬ëł¹ ê´Ģ
Ġìı ł
ëĶ ĺ
ĠìĻķ ìŀĲ
ĠíĽĮ ë¥Ń
Ġëł ī
íĪ °
Ġ! !
Ġìĺģ ëĤ¨
Ġì£¼ ìĦĿ
ĠíĬ¸ ëłĪìĿ´
Ġë§Ī íĬ¸
ĠíħĮìĿ´ ë¸Ķ
Ġp h
Ġë°ľ íľĺ
Ġê³ł ìĥĿ
ĠìĺĽ ëĤł
ĠëĨį ëıĦ
Ġíķľ ì§Ģ
ĠëıĦ êµ¬
íĪ¬ ëį°ìĿ´
Ġìķ½ ìłĲ
ì° ¾
Ġíķ ¸ëĵľ
Ġå ®
en d
ĠìķĦë ıĻ
ëĦ ĺ
Ġì¦Ŀ ëªħ
ê°Ģ ìĻĢ
c nbc
or e
Ġìĭľë¦¬ ìķĦ
Ġêµ¬ ëıĦ
ê ¾
Ġë ¼Ī
a v
Ġë²ł ìĬ¤íĬ¸
Ġê±° ìłĪ
ĠìŀĲ ë³¸
ëĿ¼ìĿ´ ëįĶ
Ġsbs cnbc
Ġì£¼ ê°Ħ
Ġìķ½ íķĺ
íķĺ ëĿ¼
Ġìŀ¥ ìĪĺ
Ġíģ¬ë¦¬ìĬ¤ ë§ĪìĬ¤
Ġìŀ¥ ë§Ī
ìĦ¸ ìļĶ
Ġíģ¬ ë£¨
Ġë İ
Ġìľł ìļ°
Ġê·¹ ë³µ
ĠìĪ¨ ê²¨
Ġì§Ħ ëĭ¨
ĠìĹ° ë§Ĳ
Ġì§Ħë ³´
Ġëª° ëŀĲ
ĠìĹĲ ìĿ´ìĬ¤
Ġëī´ìĬ¤ íĪ¬ëį°ìĿ´
Ġê±¸ ëł¤
ĠíĻĶìŀ¥ íĴĪ
Ġëª© ê²©
Ġë§Ī ì¸ł
Ġíľ´ ê°Ģ
Ġì»¤ ë²Ħ
Ġê°Ģ ì§ľ
Ġë§Ī ìĬ¤íģ¬
ê³µ ìĤ¬
ĠëĤ´ ë¦´
Ġë²Ķ ìĿ¸
ì¿ ¨
Ġë¦¬ ìĬ¤íĬ¸
ìłķ ë¶Ģ
Ġíİ ł
ag ram
Ġíķĺ ìļ°ìĬ¤
ë Ĳ
Ġë¬´ ëįĶ
Ġê¹Ģ ìĪĺ
Ġì¹´ ì¦Ī
Ġì§ ¤
ĠìĽĶ ìļĶìĿ¼
Ġë¶Ģ ê·¼
ëĶĶ ìħĺ
Ġë¹Ħìĭ ¸
Ġìĺģ ìĸĳ
ĠìĿĮ ë£Į
ĠíĮĮ ìĿ´íĦ°
ĠêµŃ ìłģ
ĠìķĦëĭĻ ëĭĪëĭ¤
ĠìĦľìļ¸ë ĮĢ
Ġê°ķ ëıĦ
Ġe u
Ġê°ķ ìĿĺ
Ġê¸° ìłĲ
íķµ íĻĶ
Ġë¬¸ë ªħ
Ġë°ĶìĿ´ ëŁ¬ìĬ¤
Ġë¹Ħ íķµíĻĶ
Ġì¦ī ìĭľ
ĠìħĶ ìĦľ
Ġìłķ ìĽĲ
Ġìĺģ ìĽĲ
ĠìĪ¨ ì§Ħ
Ġê°ķ íķ´
Ġëĵľ ë¦½
ìĪ Ń
ëł Ľ
Ġì·¨ íķĺ
Ġì§ Ļ
in d
a e
ĠìŀĲìĦ¸ íŀĪ
Ġë¬´ íļ¨
ì² ¨
ĠíĻĶìŀ¥ ìĭ¤
ĠíĿ ł
Ġë¦ Ń
Ġì²Ń ìŀ¥
Ġìķ¼ ê¶Į
ĠìĦł ì¶ľ
Ġë§¤ ì²´
ĠìĨĮ ìļ¸
Ġb r
ìķĦë Ĥĺ
ĠìĺĪ ìķ½
as s
ĠìĿ¼ìľ¼ íĤ¤
ĠíĶĮ ëĿ¼
Ġë¨¹ ë°©
Ġí Ĥ¨
Ġíĸī ìłģ
Ġìĺ¤ íķ´
ĠìĿ´ìĸ´ ì§Ī
Ġëªħ ëĭ¨
ì§ Ħë
Ġm s
Ġìĸ´ ì°¨
Ġíĺľ íĥĿ
² Ķ
ĠëĪ Į
ĠíĻĶ ìĦ±
Ġìļ´ ëªħ
Ġì¶Ķ ìĸµ
Ġê°¤ ëŁ¬ë¦¬
ĠìĿ¼ ìĸ´ëĤ¬
ëģ Ĺ
ĠëĳĲ ìĤ°
Ġì¶ľ ì²ĺ
ëĭ¤ ë¦¬
Ġë¶Ī ê½ĥ
ĠìĤ´íİ´ ë³´
Ġìĸ´ì°¨ íĶ¼
u c
Ġìŀ¥ ìĭĿ
ĠìķĦë¬´ ëŁ°
Ġìłľ ìķķ
Ġë³´ê³ł ìĦľ
ĠâĨ ĵ
Ġë¹Ħì Ĭ¤
Ġìļ© ìĸ´
Ġì°¨ íĬ¸
Ġì»¤ ë®¤
ĠíıĲ ìĩĦ
ĠìĬ¤íĮĮ ìĿ´
Ġê¹Ģìłķ ìĿ¼
Ġêµ¬ ê²½
Ġëŀľ ëĵľ
Ġë°° ìĭł
Ġì¶ľ ìĦĿ
Ġìłķ ë¹Ħ
ĠìŀĲ ê¾¸
ĠìĨĮ íĻĶ
Ġë°Ķ ë¥¸
Ġêµ¬ íķ´
t v
Ġìĭ¤ìĭľ ê°Ħ
Ġê¾ ¸ë
ĠëĮĢ ì§Ģ
ĠíĮ ½
ĠìĹ¬ ìĿĺ
ĠìĹĨ ìķł
ĠìĬ¤ íİĻ
Ġê¸°ëıħ êµĲ
ëıĦ ìļ°
Ġì§Ģ ëĭĪ
Ġëĸł ìĺ¬
ĠìĿ´ ëĤ´
Ġì§Ħì ĭ¬
ĠëĦĪë¬´ ëĤĺ
ĠìĬ¹ê°ķ ìŀ¥
Ġìķł ë§¤
ĠëĲĺ ì°¾
i v
Ġë§ŀ ìĿ´
Ġë§ŀ ìĦľ
Ġëªħ ì¤ĳ
Ġy es
ĠìŀĲìłĦ ê±°
ë£¨ ìĬ¤
Ġì»¨ íĬ¸ë¡¤
Ġë³Ģ íķĺ
ĠìĨĮ íĺķ
íķĻ ìŀĲ
e f
ìļ© ì°¨
Ġíĥ Ħìķ
ĠìķĦ ê°Ģ
ìĺ¤ ì¹´
Ġê·¸ë Ŀ¼
Ġìĭł ë¶Ħ
ĠìķĦì ī½
ĠëĮĢíķĻ ìĽĲ
Ġíı¬ ì°©
Ġë³ ¶
ĠëĤ´ ìĦ¸
Ġë¶Ģ ìľĦ
ìĭ ¼
Ġìļ© ëıĦ
ë¡ ¯
Ġë¶ģ ìª½
ĠìłĢ ì£¼
ĠëłĪ ìĬ¤
Ġíĺ Ħë
Ġê±¸ ìĸ´
Ġê·¹ìŀ¥ íĮĲ
ĠëĵĢ ìĸ¼
Ġs in
ĠëĭĪ ëĭ¤
ìľ¼ë ©´
ĠìłĦ ëĭ¹
Ġë³´ ë¬¼
ìĺ¤ ë¦¬
ì§ĳ íĬ¸
ë¡ľ ìĬ¤
ĠëłĪìĿ´ ìłĢ
ĠìĿ´ ì§ĳíĬ¸
Ġê¸° ìĹ¬
Ġìŀħ ìĪĺ
ĠìľĦ ìĦ±
§ ¤
Ġê¼ ¼
Ġì¿¨ íĥĢìŀĦ
a st
ĠìĦł ë°ķ
Ġë²ķ ë¬´
Ġcont ent
ĠíĮ ħ
Ġë·° íĭ°
ĠíĻĶ ìĹ¼
Ġìĸ´ ë¥¸
Ġìľ¼ë Ł¬
ĠìĦ± ëªħ
Ġa f
Ġë§Ī ì£¼
Ġë§Ī ìķ½
Ġìŀĳ ëıĻ
Ġìĺģ êµ¬
ĠìĪĺ ì§ĳ
íĭ° ëĤĺ
ìĦ¸ ìĿ´
Ġë²Į ìĺĢ
Ġh ub
ĠíķĦìĤ´ ê¸°
Ġê³Ħ ìłķ
Ġã ĥ
ĠìĿ´ ë¸Į
Ġíĺĳ ë°ķ
ĠìĦł ë°°
Ġé ĩ
ĠìĿ´ìĸ´ ì¡Į
Ġëª¨ íĭ°ë¸Į
ĠíĨµ íķĺ
ĠìĿ´ìĬ¤ ëĿ¼
ì Į
ĠìĿ´ ìĺģ
Ġìłķì¹ĺ ìĿ¸
³ µ
oc k
Ġê°Ĳ ëıĻ
ĠìĪľ ìĭĿ
ig n
ĠëĶ° ì§Ģ
Ġêµ° ì£¼
Ġëģ Ī
Ġê²½ íĸ¥
ê³ł ìĨį
Ġìĭł ìĦ¤
ĠìłĢ ìŀ¥
Ġìŀī ê¸Ģ
ĠíĶ¼ ìŀĲ
Ġêµ¬ ê¸Ģ
Ġì²ĺ ë¶Ħ
Ġìĺ¤ ë¥ĺ
Ġìŀ¬ ìĥĿ
Ġìºł íĶĦ
Ġëĭ¨ ìŀ¥
ì¹´ ëĵľ
ic e
ĠìĤ¬ë¬´ ìĭ¤
Ġë§Į ëĤ¨
ĠìĪľìĭĿ ê°Ħ
ĠìļĶ ìĥĪ
Ġìłķ ë©´
Ġë¬´ ëĤľ
Ġëª° ëŀĺ
Ġr ight
ĠíĺĦì ĹŃ
Ġìĸ´ ê¹¨
Ġì°¾ ìķĦê°Ģ
ì ĮĢ
Ġê³µ ê°Ĳ
Ġìĺ¬ ë¦°
ĠìļĶ ìĿ¸
ĠìĬ¤íĶ ¼ëĵľ
Ġ" ,
ĦìĹ ¬
ĠëĦ¤ íĬ¸
Ġëĭ¹ íĻ©
Ġì¹´ìļ´ íĦ°
ĠìĿĺ ë¢°
Ġì½Ķ ë¦¬ìķĦ
ĠêµĲ ì°¨
ĠíĬ¸ë ŁŃ
¤ Ģ
ĠíĬ¹ ì§ĳ
ĠìĬ¤ íĬ¸ëĿ¼
Ġìĺģ íĨł
ĠìĤ¬ ìļ°
Ġë³Ģ ìĪĺ
Ġìľ¡ ìĦ±
ĠìĽĲ ê±°ë¦¬
Ġmar gin
Ġi c
ĠíĨµ ë³´
Ġì»¬ ëŁ¬
Ġë¶Ģ ìŀĳ
Ġnam e
ĠìķĦìĿ´ íı°
Ġë¹Ħë¡ Ŀ
Ġê°ķ ê²½
Ġê±°ì§ĵ ë§Ĳ
ëł Ĳ
ĠìĿ¼ ìĽĲ
Ġë¶Ģ ì²ĺ
íļĮ ìŀ¥
ĠìĹĲ ëĭ¤
ĠíıĲ ê¸°
Ġìłķ ìĪĺ
Ġì ĳ
ĠìĨĮëĤĺ ê¸°
ëł ĺ
ĠìĹ° ìĥģ
ĠìĿ´ìĬ¤ëĿ¼ ìĹĺ
¸ µ
ĠìĨĮ ë¬¸
ĠíĽ ¼
Ġë© ¸ë
ĠãĢĭ (
Ġìĭ¬ íķľ
ķ ħ
ĠëĮĢ ëŁī
ĠìĿĢ ê·¼
ĠìĿ´ ìĽĥ
ª ¬
Ġëļ Ŀ
ĠëĤľ ëĭ¤
Ġëĭ¹ ìĿ¼
Ġê³ł ë¥´
ëįľ ëŀĢëĵľ
Ġê¹¨ ëģĹ
' '
ĠëĤł ì§ľ
ĠíķĻ ê¸ī
ĠëĦ¤ ëįľëŀĢëĵľ
Ġì²´ ê²°
ĠëĬĲ ëĿ¼
Ġìľł ëł¥
ê±° ëĤĺ
ĠìłĦ ê²©
ĠêµĲ ë¥ĺ
Ġìŀħ ì£¼
Ġíķ© ê²©
Ġì°¨ ê¸°
Ġíķ´ ìļ´
Ġë¨¼ ì§Ģ
Ġê²Į ìĿ´íĬ¸
Ġì£¼ ìľĦ
ĠíĬ¹ ê¸°
ĠìĪĺ ë°±
Ġìľł íĸī
ĠìĿ¼ë ĮĢ
Ġê·Ģ êµŃ
Ġn p
Ġìľ Ļ
ìļ° ëĵľ
ĠìĥĪ ëģ¼
Ġê³ ±
Ġìĸ´ëĸ ł
ĠìĹ° ê´Ģ
Ġì¹´ ë¥´
Ġë¬¼ë Łī
Ġp d
Ġíĸ¥ ìĥģ
Ġê²½ ë³´
Ġm c
Ġ3 0
ĠíĨł ìĬ¤
Ġìŀ ¦
Ġì¶© ë¶ģ
Ġw ow
Ġì°½ ìŀĳ
Ġë¨¸ë ¬¼
Ġo p
Ġì¢ħ ìĿ¼
Ġëľ ¯
Ġê³ł ë°ľ
ìĵ ¸
ĠêµĲ ìŀ¥
Ġë³´ ìĿ¼
ĠëĮĢ ë¦½
ĠëĤĺ ê°Ķ
Ġë¯¼ì£¼ ì£¼ìĿĺ
ìĭľ ìĬ¤
Ġìĭľ ì²´
ĠëıĻ ìª½
ĠíĮĮ ëŀĢ
ìĬ¤ ì¼Ģ
Ġì°¸ ìĤ¬
Ġê°ķ ìķĦì§Ģ
Ġê¹Ģ ìļ©
Ġë¹ Ķ
Ġê°Ħì ĭĿ
Ġë³ĳ ê¸°
ëħ Ķ
ĠíĮĮ íĬ¸
ĠìĪ¨ ì§Ģ
ëĤĺ ë¬´
Ġìłķ íĻ©
ĠìłĢ ì¶ķ
ĠìĪĺ ìĨ¡
ìĽĮ íģ¬
v p
Ġíģ´ ë¦°
ìĭ¤ íĹĺ
l y
er e
ĠíĮĮ ìĹħ
Ġd j
ĠìĦľ íķ´
ĠíĥĢìĿ´ ë°į
Ġíģ´ ë¡ľ
ĠëĬ ĳ
ëĭ¤ ìĪĺ
ĠëıĻ ìŀĳ
ĠëĲĺ ëıĮ
Ġì£ Ħì
ĠëĨį êµ¬
it e
Ġë¦¬ ìĸ¼
ĠìķĦ ìļ°
Ġê³¨ íĶĦ
Ġë¸Ķ ë¡ľê·¸
ad i
ĠìĿ´ ë¦¬
Ġìĭľ ìĦł
Ġëĭ¹ ë¶Ģ
ĠíĮĮ ëĿ¼
ĠìĦ±íıŃ íĸī
Ġê¸° ìļ¸
Ġíĥľ êµŃ
Ġíķ´ ì²´
ìĹ° íŀĪ
Ġë¨¹ ìĿ´
Ġìŀħ ëł¥
Ġê¸°ìĥģ ì²Ń
ĠìĹ° ë£Į
Ġíķµ ìĭ¤íĹĺ
Ġìĸ¸ìłľ ëĤĺ
Ġê³Ħ ê¸ī
Ġë©¸ë §Ŀ
Ġì£¼ë ¨¹
ĠìŁ Ī
a in
ĠìĹ¬ ìĭł
ĠìĤ¬ ì¹´
Ġê¶ģ ê·¹
Ġìľł íĿ¬
Ġíķ© ì³Ĳ
Ġìº ĺ
ĠìĨĮ ì¤ĳ
Ġìļ© ìĿ¸
Ġë¶Ī ëłĢ
ĠíĬ¸ ëłĪ
Ġìļ° ìľł
ĠìĦł íĺ¸
Ġê·¼ë¡ľ ìŀĲ
Ł ½
ĠìķĦìĺ ¤
Ġìĸ´ëł¤ ìĽĮ
Ġìłģ ìĸ´ëıĦ
ĠìłĦ ìŀ¥
ĠíĻ© ìĤ¬
Ġë²Ħ íĭ°
Ġë¶Ģ ì§Ģ
ĠëĬĺ ë¦¬
ĠíĪ¬ ìŁģ
Ġë°ľ êµ´
ì¹´ ìĻĢ
Ġë³´ ëĭ¨
ĠíħĮ ìĬ¤íĬ¸
Ġë¶Ģ ìĦľ
ĠëĮĢ ê³µ
Ġíĥ ¯
Ġc j
ìĸ´ ë¦¬
Ġë©Ķ íĥĪ
Ġíķ´ ë°©
Ġì²´ ê°Ĳ
ĠíķĦë¦¬ íķĢ
Ġì¡° ì¤Ģ
Ġb g
Ġëĥ ¥
ĠìĻĢ ìĿ´
Ġìĥģ ìĭĿ
ĠìĿ´ë¤Ħ ì§Ģ
Ġê°Ģ ë³
íļĮ ìĿĺ
Ġìļ© ìĿĺìŀĲ
Ġê³µ ìķ½
ķ ķ
Ġëĵ¤ìĸ´ ìĺ¨
ĠìĹ° ìķł
íį¼ ìĬ¤
ĠíĮĲíĥĢ ì§Ģ
Ġì¶ķ ìĨĮ
ĠëĤ¨ ëħĢ
íļĮ ìĤ¬
ĠëĿ¼ ìĬ¤
ĠìłĦë °©
Ġíĥľ íıī
ĠìĪ Ń
Ġê°Ģë³ į
Ġìĸĳ ìĤ°
ĠìĻ ł
ĠìĤ¬ ìŀĲ
Ġì§Ħ ì§Ģ
Ġìľł ê¸°
Ġìĭł ìĿ¸
Ġê·Ģ ì¡±
Ġë¬¸íĻĶ ìŀ¬
ĠëĮĢ ëĨĵ
Ġëĭ¬ íķĺ
Ġë©Ķ ê°Ģ
Ġëª ¸ë
ĠìĪĺ ëĬ¥
ĠëĳĲ ëł¤
ìĿ¼ë ŀľëĵľ
Ġ' âĹĨ
Ġ1 2
Ġìĥģ íĸ¥
Ġê²© íĪ¬
ë¶ ķ
ë» Ĳ
Ġb ack
ĠëĦ Į
ĠìĺĪ ìģĺ
ĠìĤ¬ ìļ´ëĵľ
Ġ ï
Ġê¹ ĥ
ĠìĦł ìłĦ
Ġìĥģ íĺ¸
ìķĦìĺ ¨
Ġj pg
Ġêµ¬ ë©į
Ġì²´ íģ¬
Ġíĥ± íģ¬
Ġê·¹ ëĭ¨
íı¬ íĦ°
ì į
Ġê°ľ ìĭľ
Ġì²ľ ìĤ¬
ĠìĿ¼ë¶Ģ ëŁ¬
y s
ĠìĹħ ì¢ħ
Ġíľ ©
Ġì§ĢëĤĺ ì¹ĺ
Ġë¶Ħì Łģ
ĠìĿ´ ëĿ¼íģ¬
Ġìĺ¤íĶĦ ëĭĿ
Ġìĺ¤ ìĤ¬ì¹´
ĠìĿĺ ìĥģ
ĠìĥĪ íķ´
ĠëŃ ī
Ġìłľ ìĿ´
ĠíĹĪ ê°Ģ
ĠìĬ¤íĬ¸ ëłĪìĬ¤
ìĤ¬ íĤ¤
ĠìĿĢëį° ìļĶ
ĠíıŃ ê²©
³ ¼
Ġë¯¸ ìķĪ
Ġê¶Į ë¦¬
Ġê°Ģë©´ ëĿ¼ìĿ´ëįĶ
Ġì§Ģ íĺķ
ĠìĽĥ ìĿĮ
ìĿ´ ëĦĪ
ĠíĶĮ ë¡ľ
Ġë¹Ħìĭ ¼
Ġíıī ì°½
q u
Ġë©´ ìłģ
Ġì ª
Ġëģ Ķ
Ġì§Ħì ĥģ
íİ ł
im e
ĠíĤ¤ ìĬ¤
Ġd is
ìĿ¼ë ³´
ĠíĶĦ ë¦°
ĠìĿ´ ëłĩ
Ġë¶Ģ ì±Ħ
Ġì» ¸
Ġìĺ¨ ê°
Ġê¸° ëıĦ
ĠíĹ¤ ìĿ´
Ġê³ł ìłĦ
Ġìµľ ìĦł
ëĳ¥ ìĿ´
Ġ" âĺŀ
Ġì£¼ ê¸°
Ġë°Ķ ë³´
ĠìĤ¬ëĿ¼ ì¡Į
st agram
ĠíĻĺ ìĥģ
Ġìĸ´ìļ¸ ë¦¬
¢ Į
Ġì°½ ìĽĲ
ĠëĬĲëĤ Ħ
Ġê·¼ ìľ¡
Ġìĭ¤ ë¬´
Ġë¶Ħ ëĭ¹
Ġë°¸ë Ł°ìĬ¤
Ġíĳ¸ë ¥¸
ĠíħĶëłĪ ë¹ĦìłĦ
Ġìµľ ìļ°
Ġìĺ¨ê° ĸ
Ġìĺ¬ëĿ¼ ìĺ¤
íĨ¨ ë¦Ń
íĺ Ħë
ĠëĤ¨ ê²¨
Ġë§Ī ìĻķ
ĠìĿ´ ë©Ķ
ĠìĨĶ ì§ģ
Ġê·ľ ì¹Ļ
ĠíĮ¨ëŁ¬ ëĶĶ
ëŁ¬ ìļ´
Ġsbs i
ĠìľĦ ìŀ¥
ĠìĻ¸êµĲ ë¶Ģ
á Ĩŀ
Ġê³¼ ìĿ¼
Ġê¼¬ ë¦¬
ĠëĪ Ħì
ìĦ¸ë ĮĢ
Ġìĥģ ìĿ¸
ìķĦì ĭľ
Ġì°© ìĪĺ
Ġë§Ī ëħĢ
ĠìĿ´ ë¯¼
êµ¬ ë¦¬
ĠìĦ¸ê³Ħ ê´Ģ
Ġëĭ¨ ê¸°
ë ĺ
Ġìłķ ë¥ĺ
Ġë£ ¸
Ġâĸ ²
i k
ìĿ¸ë ĵľ
Ġë²Ī ê°ľ
Ġf if
ĠìķĦë¬´ ê²ĥ
ê°Ģ ìĬ¤
Ġë°ĿíĺĢ ì¡Į
Ġì¶ĺ ì²ľ
ĠìľĦ íķĺ
ĠíĤ ¥
ë¡ ¬
Ġëĵľ ë¦´
ct v
ģ ¼
ĠìĬ¹ ìļ©ì°¨
ìĬ¤ íĨłë¦¬
Ġìĺ¤ ìĺ¤
Ġìĸ´ì¨Į ëĵł
Ġë³¸ë ªħ
Ġëħ¹ ìĿĮ
ĠìłĦ ìĦ¸
Ġì§Ī íĻĺ
Ġë°ľ ëĭ¬
Ġëį ¥
ĠëĦĺ ê¸°
Ġìĺ¤ ê°Ģ
ĠìĬ¤ì¹´ ìĿ´
Ġì²ľ ìĹ°
ĠíĮ¨ ìĭľë¸Į
ĠëĮĢ ëĭ¤ìĪĺ
ĠìĹ¬ ê²¨
ĠëķĮ ë¦¬
Ġíķ´ ë³ĳ
Ġìļ© ê¸°
Ġë°° ìłľ
ê¸´ ëĭ¤
ĠëķĮ ëł¤
Ġìļ© ë³ĳ
ĠìĿ´ ì£¼
Ġì·¨ íĸ¥
Ġk n
Ġë¶ģ ì¸¡
ê¹ ĥ
ë¯¸ë ĶĶ
Ġë°ĺ ë°ķ
ĠìłĦì² ł
Ġì¦Ŀ ìĸ¸
ë°Ķ ëŀĮ
ĠìĺĪ ìĻ¸
Ġc p
ìķĦë ħ¸
Ġíķł ìķĦë²Ħì§Ģ
ì¦Ī íĤ¤
ĠìķĦ ê¹Į
ĠìĬ¤ ìĽ¨
ìĹĲ ëıĦ
ĠìķĦ íĭ°
Ġìŀīê¸Ģ ëŀľëĵľ
ĠëĶľ ëŁ¬
Ġì¼ ľ
ĠìĿ¼ ìŀĲ
ì£ ł
Ġë©ĶìĿ´ ìłĢ
Ġê²Į ìĿ´ì§Ģ
ĠíķŃ ìĿĺ
Ġë¶Ģ íļĮìŀ¥
ou r
ĠíĻ Ģë¡ľ
Ġì¶ķ íķĺ
**** ****
° ½
Ġìľł ìŀħ
ĠìĬ¹ ìĿ¸
u re
Ġë³¸ ëĭ¤
ĠëĦ ī
Ġë¬´ ì²Ļ
Ġëŀ ¨
ë² Ħë
Ġë¹Ħë¡ Ģ
m a
ĠìłĦ íĽĦ
Ġë°ĺ ëŀĢ
ĠíĽĦì ĽĲ
Ġì¤ ĦìĹ¬
s e
ĠìĤ¬ìĿ´ ë²Ħ
Ġì¡° ëªħ
Ġì¹´ ëĤĺ
Ġë¹ł ìł¸ë
Ġë§Ī ì¼Ģ
Ġì´ Ľ
Ġìłķë§Ĳ ë¡ľ
Ġìĭľ ê³Ħ
Ġìĭł ìŀ¥
Ġê·¸ ê³³
ĠìļĶ ìłķ
ĠíĬ ¼
ĠìŀĦ ê¸°
íķ© ëĭĪëĭ¤
ĠëĮĢìĤ¬ ê´Ģ
ì§ģ ìŀĲ
Ġd o
ĠëĵľëŁ¬ ëĤ´
ê¹ ¥
ĠíĮĮ íģ¬
Ġë°° ëĭ¬
Ġë°Ķ ê¹¥
Ġì¶Ķ ê²©
Ġìĭł ëĿ¼
ĠíĿ¥ íĸī
ìĸ´ ë²Ħ
ĠìĥĪ ë¡Ń
Ġì°¸ê°Ģ ìŀĲ
ĠëĶ ©
Ġê²½ ë¹Ħ
Ġë¬´ ë¦
Ġì´Ŀ íļĮ
Ħ ë¦¬
Ġê°Ģ ìĨį
ĠìĹ°ìĺĪ ìĿ¸
Ġh d
ĠëĤĺíĥĢ ëĤ´
Ġëĵ¤ìĸ´ ê°Ī
Ġc ctv
Ġë¦ ¼
ĠëĬĺ ìĸ´ëĤľ
ic h
Ġëĭ¤ìĭľ íĶ¼
ëĵ ĢìĦľ
ĠíĶĦë¡ľ ëĵĢìĦľ
ĠìĤ¬ë§Ŀ ìŀĲ
Ġê³ł êµ¬
Ġìĭľ ëĵľ
Ġìłĳ ìĨį
f t
Ġê³ł ìĪĺ
ĠíĽĦë°ĺ ë¶Ģ
Ġê°Ģ íĨ¨ë¦Ń
Ġíĺ¸ íĿ¡
Ġëª¨ ìħĺ
ĠìĬ¤ì½Ķ ìĸ´
Ġê¸Ģ ìŀĲ
Ġëĭ¤ ìĬ¤
Ġëĳĺ ì§¸
Ġê¸Ī ê°ķ
Ġhtt ps
Ġì¦Ŀ ìĥģ
Ġìŀ¥ ìłĦ
Ġê¸°ìĽĲ ìłĦ
ĠëłĪ ìĺ¤
Ġì§Ģì¼ľ ë³´
Ġh a
Ġfif a
ĠìķĪëĵľë¡ľ ìĿ´ëĵľ
Ġì¿ł íĤ¤
Ġ- --
ĠìĹ¬ ëıĻìĥĿ
id e
ĠìľĦìķĪ ë¶Ģ
ĠìĿµ ìĪĻ
Ġìĭ¬ íķ´
Ġì²´ìľ¡ ê´Ģ
Ġíķ´ ê¸Ī
Ġëħ¸ëıĻ ìŀĲ
ĠíķĻ ìŀĲ
ĠìłĦë ĮĢ
ĠìĹ ¿
ĠëıĮ ì§Ħ
ĠíĬ¸ë Ŀ¼
ëĪ Ī
Ġë°ĽìķĦëĵ¤ ìĿ´
ĠëĤĺ ê°Ħ
Ġëį§ë¶Ļ ìĺĢ
Ġê¹Ģ ë¬´
Ġìĵ´ ëĭ¤
Ġê²° ìłľ
Ġv er
Ġê³Ħì ¢Į
ë² ¼
Ġê°Ģ íķ´
Ġë¸Įë¦¬ íķĳ
íŀĮ ëĭ¤
Ġìĥģ ìĹħ
ë ĩĮ
Ġì¡° ìĸ¸
ë²Ħ íĬ¸
ĠìĨĲ ëĭĺ
ĠìĤ´ ëł¤
ìŀ ł
ĠìķĦìĭľ ìķĪ
u p
Ġê±¸ ë¦°
ĠìĿ´ë©Ķ ìĿ¼
Ġíķ´ ìĦ¤
ĠìĪ¨ ì¡Į
Ġë°ľ íļ¨
Ġc v
Ġë§Į ëĤł
Ġì±Ļ ê¸°
Ġê³ ģ
Ġì§ĳ ê¶Į
Ġíķĺ ìĸĢ
Ġæ ľ
Ġíķ© ë³ĳ
ĠìĪľ íĻĺ
ĠìĪĺ ìľĦ
Ġë°ĺ ê²©
Ġë¬¼ ê²°
ê¼ ¬
Ġíŀ Ļ
ìģ ¨
Ġëħ¹ ìĥī
ìł Ħëĵľ
ĠìĻ¸ íĻĺ
Ġìī Ĳ
Ġê´ĳ ìĹŃìĭľ
Ġëŀľ ëį¤
Ġìłľ ë²ķ
ĩ ¨
Ġìĭľ ìķ¼
Ġìĺ¤ ë¡ľ
íĮ ©
Ġë§ĪìĿ´ íģ´
ĠëĭĪ ìĭľ
Ġë³´ ìłķ
e e
Ġë£ ¬
Ġë§¤ ëĭĪ
» ¿
Ġê°Ħ ê²©
ĠëĤ¨ íķ´ìķĪ
Ġìľł ìĤ°
Ġë¹ ¡
Ġìľ¼ëł¤ ê³ł
ĠíĻĶ ìĤ´
Ġê³Ħì Ĭ¹
ĠíĦ° ëĦĲ
ro m
Ġìŀ¥ ìķħ
Ġíĺĳ ì¡°
Ġëį° ìĿ´íĬ¸
ĠëıĮ ìŀħ
ì¤Ģ íĳľ
ê³ ±
Ġì§Ģì§Ģ ìľ¨
ëĵ¤ ìĿ´
Ġì²ł ìĪĺ
ĠëıĻ íĻĶ
Ġë°ĺ ì§Ģ
Ġj c
Ġon e
Ġìķ Ĺ
Ġìĩł ê³łê¸°
Ġìłķ ëł¹
Ġë°ľ íĸī
Ġë³Ħ ëĭ¤ë¥¸
Ġìłĳ ìĪĺ
Ġì¸¡ ìłķ
Ġë³µ ìĽĲ
Ġëħ¼ë ¦¬
ĠìĹ° ìĿ¸
or y
ĠíĿĶ ìłģ
ĠíĦ° ì¹ĺ
ìķĦë ¨¹
ìĬ¤ íĦ´
° ľ
ĠìķĦëĭĪ ë©´
Ġìłľ ìŀĲ
ĦìĹ °
íĶ Ķ
Ġì± ł
ĠíĽ¼ ìĨĲ
Ġëŀ Į
Ġm an
Ġê³ł ë°±
ĠíĻį ì¤Ģíĳľ
ìľł íĤ¤
Ġíķĺ ìĪĺ
Ġê¸° ë¶Ģ
s h
i al
Ġëı¼ ìķ¼
ĠìĿ¸ì§Ģ ëĿ¼
ĠëĤ´ ìłķ
Ġíĺ¸ ê¸°
ĠíļĮ ëıĻ
ac e
Ġì»¤ë®¤ ëĭĪíĭ°
Ġì²ĺ ì¹ĺ
ĠìĿ´ ìĭľ
Ġì»¨ íħĲì¸ł
ĠìłĦ ìłģ
ĠëıĮ ê²©
Ġë³¸ ìĤ¬
ĠìĤ¬ìĿ´ ëĵľ
Ġë¶Ģ ìŀĲ
Ġê³¨ ëĵł
ê¸ ĭ
Ġëħ¸ë ²¨
§ ī
ĠìĿ´ ì¤ĳ
ĠëĤ´ ê°ģ
Ġìłģ ìŀĲ
ĠíĮĲ ìĤ¬
Ð °
Ġë¯¸ë §Į
ìĺ ¹
Ġ1 1
Ġê¸ī ì¦Ŀ
Ġìļ° ìĬ¤
Ġë²Įìĸ´ ì¡Į
ĠìĦĿ ìľł
Ġì½Ķë¯ ¹ìĬ¤
Ġíı¬ íĬ¸
ëĭ¤ ì§Ģ
ĠíķĻ ìĬµ
ì¹ľ ëĭ¤
íĨ ±
Ġë°Ķ ëĿ¼ë³´
Ġê·ł íĺķ
Ħì² ł
Ġê±¸ ëł¸
ĠìĭľëĤ´ ë²ĦìĬ¤
ous e
Ġë¹¨ ëĿ¼
oo k
ĠìķĪ ê²½
Ġì°¸ ìłĦ
ĠíĹ ¨
Ġê¸° ìĬµ
ĠíĢ ¸
Ġc r
Ġìŀ¬ ëĬ¥
ëĭī ìĬ¤
Ġê¸° ìłĪ
Ġê¹Ģ ìĥģ
Ġíķĺ ë°ĺê¸°
Ġìĸ´ ì§¸
ë¸Į ë¦¬
íģ¬ ìĬ¤
th er
Ġëı ĭ
Ġì¤ĳ ëıħ
Ġìĭł ë¶Ģ
ĠìŀĲ êµŃ
Ġì´Ľ ë¶Ī
ìĪĺìĪĺ ìĥī
Ġì°¬ ìĦ±
Ġìķķ ìĪĺìĪĺìĥī
Ġê³ł ì§Ģ
Ġë¬´ ìĤ°
m an
ĠâĢ ¢
ĠìĿ¼ë °©
Ġëıħ íĬ¹
ĠìķĦìĿ´ ìĬ¤
Ł ¿
ĠìĬ¤ íĬ¸ë¦¬
Ġì ī´
ĠìĨĮ ì§Ģ
Ġíķľ ê°ķ
Ġë¹ĦìĦľ ê´Ģ
ĠìĿ´ íĸī
Ġì´Ī ìĽĶ
ë Ĩį
ĠìķĪ ìĭ¬
ĠëĬĶëĭ¤ ë©´
Ġëªħ íĻķ
m s
is h
ĠëıĻ ë°©
ĠíĮĮ ë¬¸
Ġa k
ĠæĿ İ
Ġìŀ¥ ìĦ±
Ġìľłì¹ĺ ìĽĲ
ĠíĨł ë¦¬
ĠìĿĢ íķĺ
ĠìıŁ ìķĦì§Ģ
ĠëĿ¼ìĿ´ íĶĦ
Ġë¶Ļ ìĿ´
ìľĦì ¹ĺ
Ġëª» íķł
Ġìµľ ìĥģ
Ġíĺ¸ ìļ°
ĠìµľìĨĮ íķľ
Ġìĸĳ ìĦ±
Ġê°Ģ ìĿ´
Ġë¯¸êµŃ ìĿ¸
ĠìĺĪ ìģľ
ëģ Ī
ĠìĪĺ ì§Ģ
ĠëĳĺëŁ¬ ìĭ¼
ĠìķĦ ìĿ¼ëŀľëĵľ
Ġìĺ¤ ëŀ«
íĬ¸ë ĦĪ
ĠìĹĲìĦľ ë¶ĢíĦ°
Ġíı´ ëŀĢëĵľ
Ġë³µ íķ©
ĠêµĲ ìĭ¤
Ġë§Ī êµ¬
ĠíĴĢ ë¦¬
ĠìķĦë ¨¸
ĠìŁģ ìłĲ
ĠêµĲê³¼ ìĦľ
Ġë¹Ħì ¶
Ġìĭł ìĨį
Ġë§Ī ìĪł
Ġêµ¬ íĺĦ
ĠíĹ ĺ
ĠìĶ ¹
ĠëĿ ł
Ġ Î
Ġìĭł ìĦł
Ġìĭ¤ ë§Ŀ
ĠëĮĢíķĻ ìĥĿ
Ġï »¿
ĠìĨĮ ë©¸
Ġìĭ¤ ëĤ´
Ġê°ģ ìŀĲ
ĠëĬĳ ëĮĢ
ĠíĨ ±
Ġë¹ł ì¡Į
Ġì¶Ķ ëª¨
Ġìĭ¤ ìĹħ
Ġíİ¸ ìŀħ
Ġëª° ëĿ¼
Ġë°Ģ ìĸ´
ĠìķĮ íĮĮ
Ġê±° ì¹ĺ
Ġê¹Ģë¬´ ìĦ±
Ġë©Ķ ëª¨ë¦¬
Ġëĵľ ë¦¼
Ġë§¤ ëĭ¬
Ġn ew
ìľĦì ĽĲ
Ġëģ Ħ
Ġíķľ ì°½
Ġì§Ģ ë¦¬
ĠëĦ¤íĬ¸ ìĽĮíģ¬
ĠëłĪ ìłĦëĵľ
Ġìłķ ìĦ¸
ĠëıĦ ë°ķ
Ġíı¬ ê·¼
Ġs d
Ġê¸¸ ìĿ´
ëĶ ª
Ġíģ´ ë¦¬
Ġë§¤ ê°ģ
ĠìĿ¸ ìļ©
ĠìĿ´ ëĵĿ
Ġìļ© ìĤ°
ë³´ ëĵľ
Ġìĭľ ìĿ¸
ĠìĹ° ë§¹
ĠìŀĦì ĭł
Ġê·¸ë¦¼ ìŀĲ
Ġë¸Ķ ë¡Ŀ
ë Ĵ
ĠìĪĺ ê¸ī
ĠëĮĢë²ķ ìĽĲ
Ġìĥģëĭ¹ ìĪĺ
Ġìĥī ê¹Ķ
Ġìłľ ìŀĦìĬ¤
ë³ ¶
ĠìĿĺ íķĻ
Ġìķ¼ ìĬ¤
ĠíĨ ¡
Ġë³´ ìĦĿ
ĠìŀĲ ë§¤
Ġê°ĳ ìĺ·
Ġì§Ģ íĳľ
Ġì§Ģ ìĹ°
ĠìĨĲ ê°ĢëĿ½
Ġìľł ìķĦ
ë£ ¸
íİĺ ìĿ¸
ĠíķĻ ìĤ´
ĠëĿ¼ìĿ´ ë²Į
ĠíĮĮ ìĿ´ìĸ´
ĠìľĮ ë¦¬
ĠìĤ¬ ìľł
Ġê³Ħë ŀĢ
Ġë¶Ī êµĲ
Ġc c
ĠìĦ¸ íı¬
Ġê³Ħ ëĭ¨
Ġìĵ ¸ë
ĠìķĦë©Ķ ë¦¬ì¹´
Ġs w
u g
ĠíĪ¬ìŀĲ ìŀĲ
ĠìĬ¤íĬľ ëĶĶìĺ¤
Ħ ·
ĠìŀĲ ìłľ
Ġì£¼ ìĤ¬
ĠìĿ¼ ì§Ģ
Ġìį ¬
ĠìĦ ¹
Ġíķľ ë§Ī
ĠëĨį ìĹħ
ë¹ µ
Ġì¹¨ ëª°
Ġë³µ ìŀ¥
Ġë°ķ ìĺģ
ĠìĹ¬ ì§Ģ
Ġëħ¸ëıĻ ëĭ¹
ĠëĮĢëĨĵ ê³ł
ê² ¹
ĠìĿ´ ëĿ¼ë
ĠëıĦ ëĭ¬
ĠëįĶ êµ°
ë¡ľ ìļ´
Ġíĸ¥ íķĺ
Ġëħ¸ ìĺĪ
ëħ Ħì
Ġìŀ¬ ê±´
Ġë©° ì¹ł
Ġç ¾
Ġi d
ĠìķĦìĿ´ ëĶĶìĸ´
Ġíĸī ì§Ħ
ëĭ «
ĠëıĦ ìļ°
Ġíĥľ ìĸ´ëĤľ
ëľ ©
ì²ł ëıĦ
Ġë³Ħ ê°ľ
ê³µ íķŃ
² ĦìĬ¤
Ġì¶Ķ ìĦ¸
ìĤ¬ ìĿ´
Ġê·¸ ëĭ¤ì§Ģ
Ġg s
ìħ ¨
ĠìĬ¤íĨ ¤
ĠìĿ¸ë ªħ
Ġëħ¸ë ¥´
Ġì¦ī ê°ģ
ì ·
ĠêµŃ êµ°
Ġìĭł ì¤ĳ
t e
Ġë¶Ģ ëĶª
ìĸ´ ì§Ħ
ĠìĥĲ ëŁ¬ëĵľ
Ġê°Ĳ ìŀĲ
Ġë¶Īê°Ģ íĶ¼
Ġì¹´ì¹´ìĺ¤ ìĬ¤íĨłë¦¬
Ġë°ĺ ëıĦ
ĠìĤ¬ íĨł
Ġë§ī íĮĲ
Ġìĭł ìĦ±
Ġìĥģ íķľ
Ġìŀ¥ êµĲ
ro und
Ġëª¨ ëĭĪ
ëį ©ìĿ´
Ġì½Ķ ë¯¸ëĶĶ
íı¬ ë¥´
Ġíķ© ìĦ±
Ġëĵľ ëĿ¼
ĠìŀĲ ëĿ¼
ĠìĨĲ ìĭ¤
Ġì¹´ ëĿ¼
ĠìĤ¬ íĿĺ
ì» ´
¸ ł
Ġa b
Ġê·¼ë ³¸
Ġì§Ģ ë¶Ħ
ìķ ĺ
Ġëĵ¤ìĸ´ ìĻĢ
ĠìĤ¬ë¬´ ì´Ŀìŀ¥
ĠìĥĪ ìļ°
Ġìľ¼ë ¡ł
ĠìĪĺ ìĬµ
Ġê·¸ëŁ¬ ë©´
ëĬ ¦
Ġì¸¡ ê·¼
Ġë°° íĦ°ë¦¬
Ġë°± ìķħ
Ġê°Ģ ê³µ
ĠìĿ¸ë ĶĶ
ĠìĹ ½
t s
ĠìłĦ íķ¨
Ġì§Ī ë³ĳ
ëĲ ĺ
Ġf i
ĠìĿ´ íĺ¼
Ġíĺ¸ ìĪĺ
Ġì±Ħì ĽĮ
Ġd r
Ġì¢ħ ìłĲ
ĠìķĪ ìĬµ
Ġê³µ ëª¨
Ġìłķ ì°©
Ġì§Ħì £¼
Ġíıī ìĿ¼
Ġê·¸ëŁ¼ ìĹĲëıĦ
Ġë²Ħ ë¦´
ĠìĿ´ ìłł
Ġìľł íķ´
ĠëĤĺíĥĢ ëĤľ
Ġì¶ľ íĺĦ
ĠëĨ Ķ
ĠìĨį íķĺ
Ġë¶Ģ ê°ģ
Ġ1 00
Ġì¶ľ ëł¥
Ġë¬´ ìłģ
Ġë¬¸ ìŀ¥
Ġíķľ ë°©
ĠíĨµ ìĿ¼ë
ĠëĮĢ íĸī
Ġëĭ ·
ĠíıŃ ìļ°
Ġëģ ĵ
íĬ¹ ë³Ħìĭľ
Ġë©Ķ ëĭ¬
Ġë³Ģ íĺķ
ĠìĿ´ ë³ĳ
ĠëĮĢ ëŀµ
ĠëĤ´ ìŀ¥
Ġìĭľ ëĭ¬
Ġë³´ ìĻĦ
Ġíı¬ ìĬ¤íĬ¸
Ġ* **
Ġìĺģíĸ¥ ëł¥
Ġìĭł ìĤ¬
ĠìĭĿ ëŁī
ĠëĽ° ìĸ´ëĤĺ
ĠâĪ ¼
ĠìĨĮ ìħľ
Ġëª¨ ëŀĺ
Ġì¢Į ìļ°
Ġë°ĶìĿ´ ìĺ¤
Ġth at
ĠëıĮìķĦìĻ Ķ
ĠëĪĦë Ĥĺ
Ġìłķ ìĦ±
ĠìĹĲ ëĵľ
ĠíĢ ´
ĠìĿ´ íĥľ
Ġì į°
Ġíķ´ íĤ¹
ĠìĦľìļ¸ íĬ¹ë³Ħìĭľ
ĠíĹĪ ë¦¬
Ġì¹ ©
Ġìłķ ëıĻ
Ġëĭ¹ íķľëĭ¤
ĠìŀĲìĿ´ ìĸ¸
Ġì¶ľ êµ¬
Ġì¤ įëĭĪëĭ¤
ĠëĤĺ ìķĦê°Ģ
Ġë¸ĮëłĪìĿ´ íģ¬
Ġëľ¨ ê±°ìļ´
ĠíĻľ ë°ľ
Ġíĥľ ìĸ´ëĤ¬
Ġê°Ģ ë²¼
Ġìŀħ ëĭ¨
ĠìŀłìĪĺ íķ¨
Ġëĵ± íĮĲ
Ġëħ¸ë ŀĢ
ê·¸ë Ł¬
Ġë§ī ìŀ¥
Ġê° ĩ
Ġìł¸ ìĦľ
Ġíıī ìĥĿ
Ġì£¼ íķľ
Ġë¬´ë¦ İ
ĠìĹ° ê°Ħ
ĠíĮĮìĿ´ ëĦĲ
Ġíİ¸ìĿĺ ìłĲ
ĠìĦľ ìĸĳ
Ġê°ľ ìĹħ
¶ Ī
ĠíĶĮ ëŀ«
Ġìķ½ íķ´
íķĺ ë©´
íķŃ ê³µ
Ġê¸ī ê²©
Ġìĥģ ìĭ¤
âĺħ âĺħ
ĠìĿ¸ìłķ ë°Ľ
Ġë¹Ħë ĮĢ
ĠìĿ¸ íħĮ
Ġí Ħ±
Ġì§ĳ ëĭĪëĭ¤
Ġê¸° ìłģ
ê³ ½
Ġì¼ Ī
Ġë¦¬ ë·°
Ġëĺĳê°Ļ ìĿ´
Ġê¹ľ ì§Ŀ
Ġë°° ì¶ľ
Ġì¤ĺ ìĦľ
Ġìĥģ ìłĲ
ĠìłĦì ĭł
ĠìĺĪ ë³´
ìº Ĳ
ìĦ ¬
ĠìĨĮ ìĽĲ
êµĲ ì°¨
Ġë°ĺ ìĤ¬
ĠíĿĲ ë¥´
Ġíķ¨ ìĦł
Ġê¶Į ì´Ŀ
ĠëĲĺ ê²Į
Ġìĸ´ ëĳĲ
ë¦Ń ìĬ¤
Ġê²° ì½Ķ
ĠëĿ¼ë ĵł
Ġëĭ¬ ë¦°
Ġsin ce
ĠìĬ¤ìĽ¨ ëį´
Ġì¹´ ìĬ¤
ìĿ´ ì¦Ī
ĠìļĶ ì½Ķ
ì£¼ ìĭľ
ĠãĢ Į
Ġë´Ĳ ìĦľ
ĠíĥĪ ëĭ¹
Ġìłľ ìłķ
ĠëıĻ ëł¥
Ġì± Į
Ġìļ© ìĤ¬
Ġìĭł ë°ľ
Ġë ®
ĠìºĲ ìĬ¤
ê°ĳ ëĭĪëĭ¤
ĠíıŃ ì£¼
Ġì£½ ìĹ¬
ìķĦìĭľ ìķĦ
Ġë ŁŃ
ĠêµŃ ê²½
ĠëłĪìĿ´ ëįĶ
Ġíķł ê¹Į
Ġli ve
Ġìľł ëĮĢ
Ġë©Ī ì¶Ķ
ëłĪ ëĤĺ
íĥĢ ë¡ľ
Ġì£¼ ìŀ¬
p e
ĠìĤ Ĳ
ĠíķĻ ê¸°
Ġê°ľ íĹĮ
ĠìĻķ ì¡°
Ġíķ´ ì§Ħëĭ¤
ĠìĿ´ìĸ´ ìĦľ
ĠìĬ¹ ê²©
Ġë§Ī ë¹Ħ
ĠíĺĦì ķĪ
ĠíĮĮ ëıĦ
Ġíİ ĳ
ĠíĨµ ê³Ħ
Ġê¸Ī ìĨį
ĠãĢ į
Ġì¤ĳ ëıĻ
ĠìĬ¤ íĶ¼
Ġë¶Ħë Łī
Ġë¶Ģ ìĤ¬
Ġì²ł ê±°
Ġíķľë§Ī ëĶĶ
ĠìĨĮ ìľĦ
Ġìľµ íķ©
ĠìĨĮ ì´Ŀ
Ġë¯¸ ìķ¼
ìĿ¼ë ĵľ
Ġì°¨ ëĿ¼ë¦¬
ĠíĨł ëª¨
Ġc nbc
Ġíģ´ëŀĺ ìĭĿ
Ġ' .
Ġê´´ ë¡Ń
ĠìĿ¸ ì§Ī
Ġêµ¬ ì¶ľ
Ġê·Ģ ì°®
Ġê°Ģ ë£¨
ĠìĨĮ ëĵľ
ĠìĿ¸ ìĹ°
Ġë¶Ģ ìĪĺ
ì¥ Ĳ
Ġíĩ´ ê·¼
Ġë¦¬ ë²Ħ
Ġê²° íķ©
ĠëĩĮ ë¬¼
Ġì§ĳ ê³Ħ
Ġìĸĳ ìª½
Ġê³¼ë ª©
Ġë£ ¡
Ġë£ ©
ĠëĭĮ ìŀĲ
Ġìľł ëł¹
Ġda ily
ĠëĮĢ ì¹ĺ
ìĺ¤ íĶĦ
ì¸ł íĤ¤
ĠìĿ¼ë³¸ ìĿ¸
ĠëĤĺ ë£¨
Ġì´Ŀ ìŀ¬
Ġìį¨ ìĦľ
Ġê³ł ê°ľ
Ġì¡° ìķ½
Ġê²© íĮĮ
Ġb b
¸ë Ŀ¼
p ort
Ġê³ł ë§Ī
ĠìĦł ìŀĦ
Ġn c
Ġê²Į ìĬ¤íĬ¸
Ġë©´ ìĹŃ
ī ģ
Ġì¶ľ ìĤ°
Ġw ar
íĮĮ ìĿ´ìĸ´
ĠìĤ¬ë¬´ ìĨĮ
Ġa g
Ġê²°ìĬ¹ ìłĦ
Ĥ ¸
ĠìĿ¼ êµĲì°¨
ĠìĶ »
Ġê²½ìŁģ ëł¥
Ġì´Ī ì²Ń
Ġì¶ ¥
i o
Ġìľł ìĬ¹
Ġë°ĺ ê¸°
Ġæ ĸ
Ġì¹¨ ì²´
Ġì½Ķ ì½Ķ
ĠìĻľ ëĥĲ
Ġíķľëĭ¤ ë©°
Ġnp c
ĠëĨį ë¯¼
ìŀ¡ ìĿ´
ĠëıĻ ìķĦë¦¬
Ġëħ¼ë ¬¸
ĠíĶ¼ ìĿĺìŀĲ
ĠìĬµ ëĵĿ
ëĭ ·
Ġìĭł ëıĻ
Ġf o
ĠìĤ¬ íĺķ
Ġê²½ ë¡ľ
Ġä º
Ġê²½ìĥģ ë¶ģëıĦ
ì¹ĺ ê¸°
Ġê³ł ë¦¬
¹ ĦìķĦ
Ġê·ĢìĹ¬ ìļ´
ë° ¤
ĠìĽ¹ íĪ°
ĠìĿĺ ì¡´
Ġë²Ī ì§Ģ
Ġì²ł íķĻ
Ġë©Ķ íĥĢ
Ġìłľ ìķ½
Ġê²½ì°° ì²Ń
Ġìºł íį¼ìĬ¤
ĠìĹĩ ê°Ī
Ġë§¤ ì§ģ
Ġìłķë¥ĺ ìŀ¥
Ġe p
ĠêµĲ ëıĦ
Ġë§Ī ë£¨
Ġë³Ģ ëıĻ
Ġì¢Į ìĦĿ
ĠìĤ ¼ë
ĠíĨł ë§Ī
Ġëª¨ ì§ĳ
Ġìłľ ìĸ´
ĠìĪĺ ë©´
Ġìłķ íķĺ
ĠíļĮ ì°¨
ĠìĤ¬ ìĸĳ
Ġë°Ķ íĢ´
Ġíľ´ ìĿ¼
Ġìĺ¤ëŀ« ëıĻìķĪ
ĠìĹ° ëł¹
Ġë³µ ë¬´
ê³ł ë¦¬
ĠëĿ¼ ëĭĪ
ĠìķĶ íĿĳ
ĠíĮĮ íĬ¸ëĦĪ
Ġë¶Ģ ìłģ
ĠíĻĺ ìĬ¹
ĠíĨł ì§Ģ
Ġë¨¸ ìĭł
ĠìĿ´ë£¨ìĸ´ ì§Ģ
Ġë¯¼ ìĥĿ
Ġê´Ģ íķł
ĠìĤ¬ ìłľ
Ġê°ķ ìĦ¸
Ġst ar
Ġìłģ íĺĢ
Ġìľ Ĺ
ìļ´ ëĭ¤
Ġì¶ľ ëıĻ
Ġê²° ìĦ±
ĠìĿ´ ë¥¸
Ġìĥī ìĥģ
ìŀĲ íĤ¤
íĭ° ì»¬
is s
Ġëĭ´ ê¸´
Ġëĭ¹ íķł
ĠíĿ¥ ë¯¸
ĠëĤł ìķĦê°Ģ
ĠëĤĺë īĺ
Ġê°ķ ìłĲ
Ġê¸Ī ë°©
Ġë°ķ ìĦ±
Ġê³ł ëıĦ
íŀĪ ë¡ľ
ĠìķĦ íģ¬
Ġìľ¼ ìĭľ
ĠíĥĢ ìłĲ
ì»¤ ìĬ¤
ĠìłĦë Ĥł
ĠêµĲìľ¡ ì²Ń
ĠêµŃë¬´ ì´Ŀë¦¬
áĦ ı
Ġì£¼ ìľł
Ġìºł íİĺìĿ¸
Ġìĸĳ ì¸¡
íı ¼
ĠìĽĲ íķĺ
ì© ¡
Ġë§Īì¼Ģ íĮħ
Ġë°±ìķħ ê´Ģ
ĠëĶ° ìľĦ
ĠìĤ¬ì¿ł ëĿ¼
ĠíĿ¬ìĥĿ ìŀĲ
Ġê²Ģ ê±°
ĠíĮ¨ ëĦĲ
Ġe s
Ġê·Ģ ìĹ½
Ġíķĳ íģ¬
íĥĢ ìĿ¸
ĠíĶĦë¡ľ íķĦ
ĠëłĪ ìĿ´ìĬ¤
Ġê°ĸ ì¶ĺ
ìķ ¤
Ġê·Ģ íĻĺ
Ġë§Ī ëĥ¥
Ġå Į
ĠìĿ´ ëª¨
ĠíĥĢìĿ´ ê±°
ĠíĶĦëłĪ ìŀĦ
ĠëĲł ì§Ģ
om e
ĠìĻ Ħì
ĠëĨį ìŀ¥
Ġëĸ¡ ë°¥
Ġêµ¬ ìĽĲ
Ġíĺ¸ íĻĺ
ĠìĮĢ ìĮĢ
Ġë°ĺ ìłĦ
Ġì§Ħì ķķ
ĠìĿ´ ì¦Ī
Ġë¬´ ëłµ
Ġìĸ´ ì§Ģ
ĠìĿ į
Ġì°¨ ìŀ¥
Ġëĭ¹ ìĽĲ
Ġap p
ìĽĮ íķĺ
íĶĦë Ŀ¼
ĠìĹ¬ìĿĺ ëıĦ
ĠìĹ¬ ìĪĺ
Ġíĥľíıī ìĸĳ
ac t
Ġìłķ êµŃ
Ġíİ¸ ê³¡
Ġì¿ Ħ
Ġë¯ ¹
Ġë¹łìł¸ë Ĥĺ
ìķĦì Ľĥ
ëĨ ¨
Ġìľł ë¹Ħ
ĠìĤ¬ëł¹ ë¶Ģ
ê·¸ë £¹
ĠëĮĢ ì¶©
h z
ĠëĮĢ ê±°
Ġë´ ĩ
Ġíķ ı
Ġíķľ ì°¸
ĠëĿ¼ìĿ´ ëįĶ
Ġìķķ ëł¥
¼ë ¡ľ
Ġëĭ¹ ëĤ´
Ġíĳľ ëªħ
ĠìĺģíĻĶ ìłľ
Ġì·¨ ì§Ģ
Ġê°Ħ ìłĳ
Ġìŀ¡ ì§Ģ
ĠìĤ° ê°Ħ
Ġë¸Ķ ëłĪìĿ´ëĵľ
Ġwor ld
Ġ1 9
Ġì·¨ ìķ½
Ġj r
Ġê¸° ì¢ħ
Ġë¯¼ ê°Ĳ
Ġë°Ķ ìľĦ
ĠíĬ¸ë ¡ľ
ìķ ī
ĠìĬ¤íģ¬ ë¦°
Ġê³ł ìŀ¥
i es
as h
Ġyou r
Ġìĭł ëĤĺ
Ġì²Ń ìĤ¬
ĠíĨ °
ĠêµĲ ìłĦ
ĠíĺĦëĮĢ ì°¨
Ġì£¼ì°¨ ìŀ¥
ĠìĤ¬ ìĽĲ
ĦìĹĨ ìĿ´
ĥ ī
ë°Ķ ì§Ģ
ĠìĽĮ ì¹ĺ
p h
Ġë§Īë¦¬ ìĺ¤
ĠëĦĲ ë¦¬
Ġë©´ íĹĪ
ì» ·
Ġê°ķ íĴį
Ġëĸ¨ìĸ´ ì§Ħëĭ¤
ë£ ©
ĠëĪĦ ìłģ
ĠìŀĲ ìľ¨
Ġíķ´ ë¦¬
ì¹ ¼
Ġë§Ī ëıĦ
ĠêµŃìłľ ê³µíķŃ
Ġì¢ħ ìĭľ
Ġì°½ ê³ł
Ġë¹Ħíķ´ ìĦľ
Ġì¹´ íĥĢ
² Ī
Ġê¹Ģ ì§Ħ
Ġë¶Ģ ê³¼
Ġë°ķ ìĥģ
Ġì¦Ĳ ê¸¸
ĠìĹ° ìĤ¬
Ġì¢ħ íİ¸
Ġëĵ¤ ëł¤
Ġì° ľ
Ġë¬¸ ê±´
Ġë³´ ì¡´
Ġp art
ĠìĿ¼ë°ĺ ìĿ¸
ĠìĿ´ ë§Ī
Ġìĸĳ ìĥģ
Ġë¬´ ìĿ¸
Ġê²Įìĭľ íĮĲ
ĠëĴ¤ ëĬ¦
Ġì°¸ë ª¨
Ġëķ ¡
ĠëĤł ìķĦ
Ġë½ Ģ
Ġê½ Ĥ
Ġê¹Ģ ìĬ¹
Ġs r
ĠìłĦíĪ¬ ëł¥
Ġë¬¸ êµ¬
Ġìļ°ë¦¬ ëĤĺëĿ¼
Ġê°ķ ìļĶ
Ġì§Ģ ìļ°
Ġì¡´ ëĤĺ
Ġìĸ´ ë¦´
Ġê°ķ íĸī
Ġëĭ¤ ë¥¼
ĠìĿ´ìĤ¬ ìŀ¥
Ġì¼ĢìĿ´ ë¸Ķ
Ġëĭ¤ ë¦
ĠëıĦ ì£¼
Ġë°Ķ ëĶĶ
ĠìĶ ¬
Ġë°° ìĥģ
Ġíİ «
l c
Ġìĭ¤ íĺĦ
Ġì° Ķ
======== ========
ëŀ Ń
Ġd ay
Ġéĩ ĳ
Ġìĥģ ë°ĺê¸°
ĠìĬ¤ìľ ĦìĬ¤
Ġ1 5
Ġë¬´ ìĸ¸
Ġëªħ ìĿĺ
ĠëıĻ ìĸĳ
Ġìµľ ìĭł
ĠìĿ´ ìĪĺ
ĠìĦľ ëªħ
Ġë©Ķë¥´ ìĬ¤
Ġì£¼ ìµľ
ë§ Ļ
Ġê³ł ë§Ļ
ĠëĮĢ ìĪĺ
Ġê³¼ ìŀĲ
Ġê¶¤ ëıĦ
i b
ëĪ Ħ
ĠêµŃ ìĦ¸
Ġì²´ ìĿ¸
ĠíĤ¤ ë¦¬
Ġíİ Į
ħ ìĬ¤
v el
Ġ' (
ĠëıĻ ê³Ħ
Ġì§ ļ
ĠëĮĢ ê°ķ
ìłĢ íĬ¸
an ce
Ġìŀł ìŀ¬
Ġì§Ģ ëĬ¥
íħ į
Ġêµ ½
Ġìĥģ ë¥Ļ
ìļ´ ìĦľ
Ġë³´ ì¢Į
ĠìĹ¬ ìłĦ
Ġíĥľ ê·¸
Ġë´ī ìĤ¬
Ġë°ķ ìĪĺ
ĠíĻĶ ë³´
or d
Ġì§Ģ ëª©
ĠìķĦëĤĺ ìļ´ìĦľ
Ġê²½ ìľĦ
ĠìĦ¸ë ¶Ģ
ĠìĦ¸ë ¥´
ĠìľĦì ĥģ
Ġê°ľ ìŀ¥
Ġg b
Ġìĥģ ë´ī
Ð ¾
Ġì§Ģ ìľĦ
ĠÂ °
Ġìĥ Ģ
Ġíķľ ê°Ģ
Ġê¸ī ëĵ±
ë°Ķ ëĿ¼
Ġì·¨ ë¯¸
Ġíı¬ë¥´ íĪ¬
ĠìĻ¸ë ¬´
Ġíĥľ ìĸ´ëĤĺ
Ġìķ¼ ìĻ¸
Ġë²Įìĸ´ ì§Ħ
ëª¨ ë¡ľ
ĠìĿ´ ê²½
Ġë¡ľ ì¦Ī
Ġë¬ĺ ì§Ģ
ĠíĺĪ ìķ¡
Ġli ke
Ġì¡° ë¦¬
ĠìĹ¬ ê¶Į
Ġê³¼ë ıĦ
ê° Ħì
Ġìĸĳ ëħĲ
ë¥ ľ
Ġë§Ī ì¼ĵ
ĠëĥĲ ë©°
Ġëĵ¤ ë¦¬
Ġíķľ ëıĻìķĪ
Ġë°© ì¹ĺ
ĠìĽ °
ĠìĻ¸ ì¹ĺ
Ġê´Ģ ìĦ¸
ê°Ģ ë¦¬
Ġê°ľìłķ ìķĪ
Ġê°Ģ ëł¤
Ġë°© ìľĦ
Ġë©Ķ ì¹´
Ġìĥģ ê³µ
ĠìĤ¬ìļ© ìŀĲ
n g
ëĤ ®
Ġë§Ī ë¦¬ìķĦ
ì²ľ ìĭľ
Ġì²ĺ íĺķ
Ġf m
Ġë§Į ë§Į
ë§Ī íģ¬
ĠíĹĮ íĦ°
Ġì¸ Ħ
Ġì§Ģ ìĿ¸
ĠëĤĺ ë¯¸
Ŀ ł
Ġìŀ¥ ë¡Ģ
ĠëıĻ ìĦ±
Ġìµľ ëĭ¤
ĠëĨ ¨
Ġëĭ¤ê°Ģ ìĺ¤
Ġì£¼ë ¶Ģ
Ġì¹ĺ ê°Ģ
ëŀĢ íŀĪ
Ġìľł ëıĻ
Ġë¹Į ëł¤
Ġì¹´ì¹´ìĺ¤ íĨ¡
ĠìĨĮíĶĦíĬ¸ ìĽ¨ìĸ´
m ent
Ġs l
Ġìĸ´ ìĦł
ĠëłĪìĿ¸ ìłĢ
Ġê¹Ģ íķ´
Ġê°ľ ì²´
Ġå ¥
ĠìĻ¸ ê³Ħ
ĠíĹ Ŀ
Ġco l
ĠíĨł ëģ¼
ĠìĿ´ ìĤ°
ìĦ± ê¸°
Ġì°© ê°ģ
ëĮĢ ë¬¸
Ġì²ľ ìŀ¬
â Ģ
Ġìĺ¤ ëĿ½
Ġë³´ ë³µ
Ġëł Ļ
Ġê³ł ì¡°
Ġê³µ ìĿ¸
Ġx x
Ġì§Ģíľĺ ê´Ģ
ĠëĪĮ ëŁ¬
Ġëĭ¤ ë£¬
Ġìŀĳê³¡ ê°Ģ
Ġìĺ¤ ì¹´
ĠìĬ¤íĥĢ íģ¬ëŀĺíĶĦíĬ¸
ë¨¸ ìĬ¤
ĠëĤ´ ì£¼
ĠìĺĪ ëĬ¥
ĠìķĦëŀ į
Ġìĭ ¹
ìĻ¸ ìĦł
Ġíķ´ ìĪĺ
Ġìľł ë°ľ
ĠâĢ Ķ
ì§Ģ ë§Ī
ê³µ íĻĶ
ĠíĮĮ ìĿ¼ë
ĠíĥĪ íĩ´
ĠìĿĮ ì£¼
Ġm in
ê°Ģ íı¬ë¥´
Ġë©ĭ ì§Ħ
ĠìĹ° íıī
Ġìĸĳ ìĭĿ
Ġì½Ķ ìĿ¸
Ġê°Ĳ ìĺ¥
Ġìĭ± ê°Ģíı¬ë¥´
Ġë³¼ íĬ¸
Ġo st
ĠìłĦ ìłľ
ĠìĹ¬ëŁ¬ ëª¨ë¡ľ
Ġìļ© ëŁī
ĠìĪĺ ë¶Ħ
ĠìĿ¸ ì¡°
ol d
Ġë¶Ģ ëĭ¹
Ġê°Ĳ ê¸°
ĠëĮĢ íķŃ
Ġíģ¬ë¦¬ íĭ°ì»¬
Ġìłľìŀĳ ì§Ħ
Ġy j
Ġìĵ° ìĿ¸ëĭ¤
Ġìľ ĦëĮĢ
Ġì¼Ģ ìĿ´íģ¬
ëĦ¤ ìĭľìķĦ
Ġíıī ëħĦ
Ġì¿ł ë¡ľ
Ġìŀ¥ ìĤ¬
Ġë¦¬ ë©Ķ
Ġê³ł ìĭľ
ĠíĥĢ ì¼Ģ
Ġìłķ ì°°
ĠìĤ¬ ë§Ī
ìĤ° ìĭľ
Ġìŀ¬ íĺĦ
êµ¬ ì¹ĺ
Ġë¯¸ ìĬ¤íĦ°
ĠíĮĮìĿ¼ë Ł¿
ĠìĿ¼ ëĭ¹
p m
Ġê¸° íĽĦ
ĠëĶ ´
ĠíĨµìĿ¼ë ¶Ģ
- ****
Ġê·ľ ëªħ
ëª ¸
ĠëĨį ê°Ģ
Ġê³łìĨį ëıĦë¡ľ
Ġì±Ħ ìļ°
Ġìį ©
ĠíĿĳ ìĿ¸
ë¶Ģ ë¥´íģ¬
ĠìĻĢ ìĿ¸
ëŀĢ ëĭ¤
Ġ er
ĠíĴį ê²½
Ġëº ı
ĠìĿ¼ ì¹ĺ
Ġì¤ĳ ìĪľ
íĻĶ ë¬¸
Ġëªħ ìĦ±
ĠìķĦë °Ķ
Ġë°© ë¶ģ
Ġì¶Ķ êµ¬
Ġëįĺ ìł¸
ë°° ìļ°
Ġìľł íķĻ
Ġê°ķ ì²ł
ĠìĨĲ ìĥģ
Ġì¡° ë§Į
ĠìĦľ êµ¬
Ġëª° ë¦¬
Ġê°Ģìł¸ ê°Ģ
ĠìķĪë³´ ë¦¬
Ġìĸ´ íĥĿ
Ġc ent
Ġì°½ ìĹħ
ĠìĽ¬ ë§Į
Ġìºĺ ë¦¬
Ġê°ľ ë³Ħ
Ġë¸Į ë¡ľ
Ġg am
Ġìĺģ ë¬¸
ĠíĶ¼ ìķĦëħ¸
Ġë¶Ģ ì´Ŀë¦¬
Ġì£¼ ìłĦ
ê¶ Ĳ
Ġìĸĳ ìŀĲ
ĠìłĪ ë§Ŀ
} }
Ġìłķ ë³µ
a w
ĠíħĲ ëį°ìļĶ
Ġìłķ ë°Ģ
ar y
ĠìĤ¬ ìķĪ
ĠíĢ Ħë¦¬
ĠìĨ ľ
ĠìĤ° íķĺ
ĠíĹ Ľ
Ġìłģ ìĿĳ
Ġë°ľ ëĿ¼
Ġë¯¼ ìĭ¬
Ġì¡° ì¡°
ĠíĬ¹ ë³Ħìĭľ
ìĨ Ł
ĠíĬ¸ë ŀľ
Ġìľł ìĦ¸
Ġëª© ìļĶìĿ¼
Ġëĭ¨ ì¶ķ
ĠìļĶ ê´´
ĠëģĮ ëł¤
ĠìĬ¬ ë¡¯
ĠìĬ¤íĥł ëĶ©
Ġë§¥ ìĬ¤
Ġë¡ľ ë¹Ħ
Ġíľ´ ìĭĿ
Ġë¿ ľ
ĠíĨµ ì¹ĺ
Ġê°Ģ ê³Ħ
ëį° ë¯¸
Ġì¹Ń ì°¬
ĠíĥĢ ë§Ī
ĠêµŃ ë¬¼
Ġæ °
Ġë¹Į ëĶ©
Ġë¶Ģ ìĭľ
ĠìĪĺ ìŀ¥
Ġì¤ Į
ì§Ģ ìĤ¬
ĠìłĦë ıĻ
Ġì§Ģ ëĥĪ
Ġì Ńī
© Ģ
Ġm us
Ġêµ¬ ìĥģ
Ġìĭľ ì¦Ī
ĠìĬ¤ ë¯¸
ĠìĿ¸ê°Ģ ìļĶ
or m
Ġíģ¬ ëĿ¼
ëĤ¸ ëĭ¤
Ġê·¸ ë¦ĩ
Ġë°ľë§¤ ëĲĺ
ì· Ħ
Ġíķ´ ìłģ
Ġíĺ¸ íıī
ĠëĤ¨ ê²¼
Ġc f
Ġë¬´ìĸ¸ ê°Ģ
ĠìĦł ìĽĲ
ĠìĨĮ ëĭī
Ġë¶Ī ëŁī
Ġë¶Ħì Ĺ´
Ġbg m
Ġë¯¸ ì¸ł
Ġë°ķ ìĤ´
Ġì°¾ ìķĦìĻ
Ġìľł ìĿĺ
ĠìĪĺìĪĺ ë£Į
Ġë¹¨ ê°Ħ
ĠëĪĪ ê¸¸
ĠíĺĦì §ģ
ĠìĤ¬ ì°°
Ġë² ¼ë
ĠíĨł ëĮĢ
re am
ëĦ ¬
ëĭ¤ ëŀĢ
íĶĦ ë¦¬
ĠìĥĿëªħ ëł¥
Ġë¯¸ ì¹´
ĠìĻ Ī
¸ë Ł¬
ĠêµŃ ìĻķ
Ġê°Ģ ëĿ¼
Ġíķľ ìª½
Ġ--- -
Ġëĵľ ë¬¼
íĶĦ ëłĪ
ëĶ ±
ĠëĮĢ êµŃ
Ġê²Ģ ì¶ľ
ì¹ «
Ġë§ī ëĮĢ
ĠìĦ¸ ìĽł
ĠëıĻ ëĤ¨
Ġê°Ħ íĺ¸
ĠíĶĦë¦¬ë¯¸ ìĹĦ
Ġk o
Ġê¹ ¡
Ġê°ģ êµŃ
Ġìĭ¬ ìĿĺ
ĠëłĮ ì¦Ī
ëłĪìĿ´ íĦ°
Ġf ol
Ġì§ľ ì¦Ŀ
Ġìł ĸ
Ġìĥģ ë¬´
ĠíĬ¹ íĻĶ
ìĭľ ë¡ľ
Ġê¸¸ë ŀĺ
Ġë§Ī ëĿ¼
Ľ Ķ
Ġìĺ¨ ëĭ¤
Ġìłķ ìľł
Ġin ter
ĠìķĦì¹´ ëį°ë¯¸
ĠíĻĶ ìĤ°
ĠìĥĮ ëĵľ
Ġì¡° ìĹ°
ìĹ¬ ìĦľ
Ġê°ľ êµĲ
Ġì²« ëĤł
ë ķħ
Ġëħ¸ë ©Ģ
ĠìķĦ ìłĢ
ĠìĿ¸ ì¹ĺ
Ġë²łìĿ´ ë¹Ħ
ĠìľłíĿ¬ ìĻķ
Ġê³¨ ëĿ¼
ĠìĹĺ íĶĦ
ĠìĤ¬ëĿ¼ ì§Ħ
ê¼ Ī
ë¦ ¼ë
Ġc an
ĠìķĦìī¬ ìļ´
íģ °
Ġíİ ¸ë
Ġíı¬ ê²©
Ġêµ¬ ë¯¸
Ġm vp
Ġå ı
Ġëĺ ¥
or n
Ġê°Ī ëĿ¼
ĠëĤľ ë¯¼
Ġë§¤ ìļ´
ĠìºĲìĬ¤ íĮħ
Ġê³Ħ ìłĪ
Ġì´Ī ì½Ķ
ë¹ ¨
Ġëĵ¤ìĸ´ ìĻĶ
Ġíıī ë¡ł
Ġì»¤ ë§¨
Ġê¸° ìĬ¹
íĮ ½
ìĦ¸ ìĬ¤
Ġg m
Ġë¬´ ëį¤
Ġå¤ §
Ġíıī íĥĢ
ĠìķĦìłĢ ìĶ¨
ìĸ´ ìĬ¤
ĠëĬĲ ë¦¬
ĠëĦ¤ ìŀĦ
ĠìĿ´ëĿ¼ë ĵł
ĠëıĮìķĦ ëĭ¤ëĭĪ
ì¤Ģ ëĭ¤
Ġìļ° ìłķ
Ġê¹Ģ ì¤Ģ
Ġë¹Ħì £¼
Ġë£¨ ìĭľ
Ġì±Ħ ê¶Į
en s
ìłĦì °¨
Ġëħ¸ë ¶Ģ
ĠìķĪ ìĸĳ
ë Ń
Ġì° ¢
ë ¤
Ġê³µ ë£¡
Ġìĭł ìŀĦ
ĠëĤ¸ ëĭ¤
ĠíĮĲë§¤ ëŁī
ĠìĪĺ ìļĶìĿ¼
Ġì§ķ ê³Ħ
Ġê³łìĨį ëıĦ
ĠìĽĲ ìĨĮ
Ġìĭľ ìľĦëĮĢ
Ġê¹Ģ íı¬
Ġê¹Ģ ìĦł
ëĭ¤ ìĿ´
Ġê½ ī
ĠìĪĺ ì²ľ
Ġëį°ìĿ´ ë¹
Ġë¦¬ë©Ķ ìĿ´íģ¬
Ġìĸµ ì§Ģ
Ġì¹ ¼ë¦¬
Ġìŀ ¼
Ġìĭľ íĬ¸
Ġë³´ ëĵľ
Ħì ĭł
ow n
ĠíĥĢ ìļ´
Ġíķ© ë¦¬
Ġì¡°ë§Į ê°Ħ
ĠêµŃ ìĸ´
ĠíĢĦë¦¬ íĭ°
Ġd ram
ĠìķĦíĭ° ìĬ¤íĬ¸
ĠìĥĿì¡´ ìŀĲ
Ġë¹Ľ ëĤĺ
ëĭ¤ ë³´
ĠíĴĪ ì§Ī
ĠìĽĲìŀĲ ëł¥
ĠìĭĿ ë¯¼
ë° Ń
Ġjo ins
Ġëª© ìĤ¬
Ġë¬´ ê´Ģ
Ġíĸ Ħ
ĠíħĮ ìĿ¼
ëħ¸ ìĬ¤
Ġìĭľ ë§Ī
ĠëĦĺ ì¹ĺ
Ġë¶Ģìŀĳ ìļ©
Ġì¹¨ íķ´
íİĺ ìĿ´
Ġê·Ģ ìĭł
Ġê³µ ìĹħ
ì¡° ë¦¬
ĠëĶĶ ìłĢíĬ¸
Ġë£¨ íĥĢ
ĠìĿ¼ë ł
in k
Ġìĥģ ìŀ¥
ĠìĿ¼ìľ¼ íĤ¨
ĠìĬ¤íĨ °
ìĤ¬ ê³ł
ëĨ Ģ
Ġê³µ ì§Ģ
Ġìłģ íķ©
êµŃ ìĪĺ
íİĻ íĬ¸
ĠìºĲ ë¦¬
Ġëª¨ ëª¨
Ġëĭ¹ ìĤ¬ìŀĲ
Ġì¹ĺ ìĨŁ
ĠìĦľ ë¥ĺ
ĠìĤ¬ íĽĦ
Ġê°ľ ìĦ¤
Ġë§Ī ì¹ľ
Ġp ad
Ġë¦¬ ëĵ¬
Ġíĭ° ì¼ĵ
Ġì²łìłĢ íŀĪ
Ġìĭ± íģ¬
Ġì¹ĺëªħ íĥĢ
ĠìĻľ ê³¡
Ġë¬´ ì§Ģ
Ġë¹Ħ íĥĢ
êº ¼
ë¦¬ ê·¸
Ġë³´ ìĿ¸
µ ¸
Ġë¡ľ ê·¸
Ġf rom
Ġë©Ķ ë¦¬
Ġìłģ ëĮĢ
ĠíĹĪ ìľĦ
Ġê²° ìĭ¬
Ġë°ķ ìĽĲ
Ġë§Ī íĤ¤
Ġë°Ķ ì§Ģ
ĠìĺĪ ìĪĺ
ª¬ ëĵľ
Ġëĭ¹ìĦł ìĿ¸
ĠìĹ´ ìĩł
Ġê°ģ ë³¸
g round
v d
ĠíĥĢ ìĿ¸
ĥ Ĳ
© ¸
ĠìĦ± ë³Ħ
ĠìĦ¼ ìĬ¤
Ġê²© ì°¨
Ġë°° ì°¨
Ġìĭ¤ ëĵľ
Ġì¤ĳ ë¦½
Ġìķ¼ ìĥĿ
ĠìķĦë§Ī ëıĦ
ë°Ģ ë¦¬
ĠíĶĦë Ŀ¼ìĿ´
ĠìŀĲ ì±ħ
Ġìĺ ³
íĪ ¼
Ġìļ ¸ë
Ġìĸ´ ë§Ī
ĠíĮ Ł
a i
Ġì¿ ¼
ĠíķĻë¶Ģ ëª¨
Ġì¹´ ë¯¸
į ĺ
ĠìŀĶ ëľ©
ĠíĶĮ ëłĪ
ĠíĶ¼ ìĬ¤
ĠìĮį ëĳ¥ìĿ´
ĠëŀŃ íĤ¹
ĠìĹ ®
ĠëĬĲëĤ Ģ
ĠíĽĦë °°
Ġë²Ħ ìĦ¯
Ġìŀħ ì¦Ŀ
Ġìŀ¡ íĺĢ
Ġ $
Ħë ¹Ħ
ëł ·
Ġê¹Ģ íĺķ
ĠìĦ± ìĤ¬
ĠìĿ¸ëıĦ ëĦ¤ìĭľìķĦ
Ġë°ĺ ì§Ŀ
ĠìķĦëĭ ĺ
Ġë¶Ģ ëŁ¬
Ġë¬¼ ê³łê¸°
Ġì¤ĳêµŃ ìĿ¸
ĠëĨį íĺĳ
Ġì¹ĺ ëŁ¬
Ġëĵ¤ìĸ´ ìĦľ
ĠíĿ¬ ê·Ģ
í ĮĢ
Ġìĺ¤ìĬ¤íĬ¸ ë¦¬ìķĦ
ĠìĨĮ ìĿĮ
ĠìĹ¬ ìĤ¬
ĠìĤ¼ ì§Ħ
Ġê²½ íĺ¸
ĠìĤ¬ ë¦½
ìĭ¸ ìĽĢ
ĠìķĦë¥´ íĹ¨
Ġêµ¬ ë¦¬
ĠëĶĶ ìĬ¤íģ¬
ĠìĻ¸ ì¶ľ
Ġë°© ì¶ľ
ĠìĥĿ íĥľ
ĠìĿ´ ê²¨
íķ Ħë
Ġë³¶ ìĿĮ
Ġë§Ĳ ëłĪìĿ´
ĠìĹ¬ ì£¼
Ġë¯¸ ì¹ł
ë¬ ¼ë
Ġíķ´ íĶ¼
ĠëĮ Ħ
ë¨¼ íĬ¸
Ġìį¨ ìķ¼
Ġê°ķ ìĤ¬
Ġë§Īì¹¨ ëĤ´
¾ ¼
ëĦ¤ ìĬ¤
Ġfol ding
Ġìŀ¥ ê±°ë¦¬
Ġì¹ľ ìłĪ
Ġë²ł ëĦ¤
ĠìĦĿ ë°©
Ġìłģëĭ¹ íŀĪ
ìĦ¼ íĬ¸
Ġê´Ģ ì°°
íĥ Ħì
ĠìĿĺ ìŀĲ
Ġìľł ë¬¼
Ġìŀĺ ëĿ¼
Ġëª¨ ë¥¼
Ġ~ ^^
ĠíĥĦìķ ½
ĠìĦ± ë¦½
ĠíĶĮëłĪìĿ´ ìĺ¤íĶĦ
Ġìĺ¬ëĿ¼ ìĺ¨
ë³¶ ìĿ´
ĠíĨł ë¥´
ĠíĿĺ ë¦¬
Ġìĥģ ìŀĦ
Ġìĥģ ìĺģ
Ġì§ĢëĤľ ì£¼
Ġì¢ħ ë¡ľ
Ġë°Ķê ¾¼
Ġìľ¼ ìĭł
ow er
Ġêµ¬ ì²Ń
¬ ĺ
Ġë§¤ ë§¤
ĠìĿĮ ìĽĲ
Ġëĭ¤ ì³¤
Ġì£¼ íĸī
Ġíı¬ ëŁ¼
ĠëıĻ êµ´
ĠìĬĪ íĬ¸
Ġm l
Ġë¸Ķ ë¦¬
Ġe v
Ġë³´íĹĺ ë£Į
ĠìłĢ ê¸°
Ġë¦¬ ìķĦ
Ġíģ´ ëĿ¼
Ġìŀ¬ ë¬´
¶ Ļ
ĠìĤ° ì±ħ
ĠìķĦë¥´íĹ¨ íĭ°ëĤĺ
Ġì´Ī ì½ľ
ĠêµĲíĨµ ìĤ¬ê³ł
Ġê¹Į ëĭ¤
Ġíıī íĥĿ
Ġëĭ¨ ëĭ¨
Ġì§ĳ ìĸ´
ì°½ ê¸°
ê±¸ ìĿ´
Ġê²½ì°° ê´Ģ
ĠìĹ¬ íĮĮ
Ġì¦Ŀ ìĿ¸
Ġê²½íĹĺ ì¹ĺ
ĠìłĦ íĮĮ
Ġë³´ ì¦Ŀ
ĠëĵľëĿ¼ìĿ´ ë¸Į
ĠìıŁ ìķĦì
Ġì¹ĺ ë¥´
Ġì² ©
st er
Ġìĸ´ëł¤ ìļ¸
Ġê¸ ¸ëĵľ
Ġë¹Ħì ķĦ
ĠìĹ¬ ìļ°
ìŀ İ
Ġê°Ģ ë§Į
Ġëĸł ìĺ¤ë¥´
ĠìĿ¼ ê°ģ
Ġëķ Ģ
ĠëĤĺ ìĦ¤
Ġs y
Ġk ia
Ġê³ł ì¶Ķ
Ġìŀħ ì§Ģ
Ġì¹¨ ê³µ
Ġë§Ī ìĬ¤
Ġê·¸ ì³¤
Ġo h
ë ®
ĠíĽ Ĺ
Ġìĺ® ê¸°
Ġëĸ¡ ë³¶ìĿ´
Ġìļ° íģ¬
Ġë¦ ¿
ĠëĤļ ìĭľ
Ġìĺ ´
ĠìłĦì §Ħ
Ġë²ł ë¦¬
Ķ Ģ
Ġìŀ¡ íŀĪ
ì¦ Ĳ
ĠìĿ¸íħĮ ë¦¬ìĸ´
Ġìĺ¤ íĤ¤
ĠëĤĺ ì¹ĺ
Ġê´Ģ ìĹ¬
Ð ¸
Ġìļ° ìļ¸
ĠíĶĦë ŀĢ
Ġìĭ¤ ë²Ħ
ĠìłĢ ì§Ī
Ġê·¸ëłĩ ì§Ģë§Į
Ġë¹Ħì£¼ ìĸ¼
Ġëĭ¨ íĸī
Ġëĭ¨ íİ¸
Ġëĸł ëĤ¬
ê°Ģ ë£¨
Ġìĭł ì§Ģ
Ġg l
ĠåĮ Ĺ
ĠëĤ¨ ê¸´
m e
ĠìķĦì ķ
Ġq u
ĠìĬ¤ íĶĦ
ë³ ¼ë
Ġêµ µ
ĠìĿ´ëģ Ħ
an c
Ġg re
ĠìĬ¹ ë¬´ìĽĲ
Ġì²ł íļĮ
ëļ Ŀ
ak e
Ġê³ĦìĹ´ ìĤ¬
on d
Ġì³ ¤
Ġì±Į ë¦°
ĠìĤ¼êµŃ ì§Ģ
ĠìĹŃ ìŀĦ
ĠëĮĢ ìķĪ
Ġê¹Ģ ë³ĳ
Ġë¶ Ĳ
Ġë³´ ëĿ¼
ìĬ Ĳ
ê±° ì§Ģ
Ġì°½ ì¶ľ
Ġê¸° ìŀ¬
ì³Ĳ ìĦľ
ĠìķĦëĭĮ ëį°
Ġíĳľ ì§Ģ
Ġìĭ¤ ìłĦ
Ġn a
Ġìľł ìłģ
ĠëıĻ ë¶ģ
ĠìĿ¼ë³¸ êµ°
Ġëĭ Ŀ
Ġìĭ ¼
Ġìı ´
Ġìĥ µ
Ġíķ´ ìĹŃ
ĠëĶ ĺ
Ġëĭ Ľ
ĠìĬ¤ íĦ°
Ġê²° ë§Ĳ
Ġì´Ŀ ê²©
Ġìķ ĵ
êµ¬ ë¦Ħ
Ġìľł íļ¨
Ġ~ )
ĠìĦľ ìĦľ
Ġìļ´ íķŃ
Ġm f
ĠìĹ° ë´ī
Ġê·¸ë ¡ľ
Ġíıī ìłĲ
b a
Ġë¹Ħ ìłĦ
Ġh y
Ġìļ° ìľĦ
Ġd s
ĠìĦ¸ìĿ´ ë¸Į
Ġë°Ķ ëĭ·
ĠëĤ´ ìĦ±
Ġëł Ľ
ĠíĿ Ļ
Ġë¯¸ë Ŀ¼
Ġëª¨ ìĿ´
Ġìŀħ ë²ķ
ĠáĦ ı
Ġì§Ħë £Į
ë¯¼ ì£¼
Ġìļ¸ íĬ¸ëĿ¼
Ġd f
´ ī
Ġìĺģ ê´ĳ
ĠìĻł ì§Ģ
Ġíĭ ´
Ĥ¨ ëıĦ
êº ¼ë
Ġìª ¼
ĠìłĦëĿ¼ë Ĥ¨ëıĦ
ĠìĨĮ ê¸Ī
ĠìĤ¬ ëıĦ
ĠìĦ¸ë ¸Ĳ
Ġë° į
ĠëĭĪ ì½Ķ
ĠìĤ¬ ìĭł
Ġs el
Ġê¸Ī ë©Ķëĭ¬
Ġëħ¸ ìĤ¬
Ġìĥ ´
Ġëıħ ìŀ¬
Ġc g
Ġì°¾ìķĦë ³´
Ġìľł ëĤĺìĿ´
Ġìķŀ ëĳĶ
Ġìķ¼ ê°Ħ
Ġk e
Ġê°Ĳ ì§Ģ
Ġìºĺë¦¬ íı¬
ĠìĦ± ì¶Ķ
Ġì¤ĳ ê³ł
Ġíķĺ íķĦ
Ġìŀł ìĭ¤
ĠìĤ¬ ë§ī
Ġì´ī ì´ī
ëĵľ ëĿ¼
Ġìľł ìłĦìŀĲ
ĠìĬ Ľ
ì²ĺ ëŁ¼
ĠíĴį ë¶Ģ
ĠëıĦ ëĳĳ
i i
ĠìĿ´ ê¸¸
ĠìľłëĤĺìĿ´ íĭ°
Ġìĭł ìŀħ
ad e
ì¤ ĺ
ĠìĬ¤ ìº
Ġìļ© íĴĪ
Ġë¶Ī ë¦°ëĭ¤
Ġìĭł ìĥģ
Ġ Ñ
Ġì¹¨ ëĮĢ
ĠíĨµ ìĤ°
Ġê¸°ëĮĢ ê°Ĳ
§ ĳ
Ġê¹Ģ ìĿ¼
ĠíĽĦ ê³Ħ
Ġìĸ ĩ
Ġì·¨ ëĵĿ
ìķĦì £¼
Ġì²¨ ëĭ¨
Ġìĭľ ì¹´
ëļ ±
ìĮ į
Ġìķł ìłķ
ĠìĺĪ ëħĦ
Ġëħ¼ ìŁģ
Ġìŀħ ìĽĲ
Ġìļ° ìĹ°íŀĪ
Ġë©Ģ ì©¡
ëŁ ¿
ĠìĿĮ ëª¨
ĠëĶ¸ ê¸°
Ġt w
íĶĮ ëłĪìĿ´
ĠìĥģìĬ¹ ìĦ¸
Ġc ar
Ġë§Ī ëĶĶ
ĠâĨ ĳ
Ġê°ĳ ìŀĳ
Ġìŀ¬ ëĤľ
Ġìľł ëıħ
Ġìĭľ ìķĦ
ĠìĿ´ ì¤Ģ
ĠìĿĳ ëĭµ
Ġë§Ĳ ë¦¬
Ġìĺ¤ íĥĢ
Ġì£Ħì Ĩ¡
Ġê° ļ
ĠìĦ Ģ
Ġëĭµ ëĭµ
an s
Ġì¤Ħìĸ´ ëĵł
Ġìĭł ë¹Ħ
ë³´ ìĿ´
ĠíĬ¸ ìľĪ
ĠëĬĺ ìĸ´ëĤ¬
Ġê³¤ ëŀĢ
Ġ- >
ĠíĪ¬ êµ¬
Ġf ff
Ġëĵľ ëłĪ
ĠìĤ¬ ìĿ¸
ŀ Į
Ġëĵ¤ìĸ´ ê°Ħëĭ¤
ĠìĦł ìŀ¥
ĺ ¤
! !
Ġê¹Ĭ ìĿ´
Ġn h
ĠìĬ¹ ìłĲ
Ġê°Ĳ ìĥģ
Ġpad ding
Ġëįĺ ëį°
ëĦĲ ëĵľ
Ġëĭ ¦
Ġê¸° ë³ĳ
Ġìĭł íķľ
Ġe c
¼ë¦ °
ì¡ ¸
Ġë°ĽìķĦëĵ¤ ìĹ¬
Ġp er
ëĳĲ ë¥´
Ġë¡ľ ìļ°
Ġë¡ľ ê³ł
ĠìĪĺ ëł¨
Ġk im
Ġì²´ ì¤ĳ
ĠìķĪ íĭ°
Ã ©
ĠëĮĢ ê°ľ
Ġìĺ¤ ë§Ī
ĠëłĪìĿ´ ëĵľ
ĠìĽĲ ë³¸
Ġnam u
Ġì»¤ ëĭ¤ëŀĢ
ëģ ĦëŁ¬
Ġë§¤ ì£¼
ìĬ¤íģ¬ ë¦¼
ĠìĺĪìĤ° ìķĪ
Ġë¸Į ë£¨
Ġìŀ¥ ë¯¸
ì¶Ķ ìľĦ
Ġå Ń
Ġfe at
ìłĦì ĨĮ
Ġíķ¨ ìĪĺ
Ġa re
Ġíı¬ íĥĳ
ĠìĦ±ì¶Ķ íĸī
Ġìľł ì¡±
Ġëª¨ëĭĪ íĦ°
Ġëªħ ìłĪ
Ġê´ĳ íĻĶë¬¸
ĠíĶ¼ ê²©
íģĲ ìĸ´
Ġì´Ī ë¡Ŀ
Ġíİ ´
ĠìĿ¼ ê°Ģ
Ġíķ´ ê²½
Ġíı¬ë¥´íĪ¬ ê°Ī
Ġ... ..
Ġíķĺ íĸ¥
Ġê°Ģ íķĺ
Ġë²Į ê¸Ī
ĠìĿ¸ ì¢ħ
Ġë¡ ¬
Ġì°¾ ìķĦìĺ¤
Ġì´Ī ìłĲ
ëĬ ¬
Ġëĵł ëĭ¤
ìłĦì Ĥ¬
Ġì¹ĺ ìľł
Ġì¤Ħ ê¸°
Ġë²Ħ ê±°
ĠìľłìĬ¹ ë¯¼
Ġì±Ħì ĨĮ
ë£ °
Ġì¤Ģ ìĪĺ
ĠìĿĢ ì§Ģ
Ġìľ¤ ë¦¬
Ġë§¤ëĭĪ ìłĢ
ĠíĶ¼ íĦ°
Ġìĭ¤ ì²ľ
Ġê±° ìłĲ
ê³łìĨį ëıĦë¡ľ
Ġíĳľ ë©´
Ġëĭ´ ë³´
ĠìĹ´ ìłķ
Ġë¹Ħ ìłķ
Ġë¬´ ìļ©
ĠìķĮëłī ìĤ°
Ġë¦¬ ìĬ¤íģ¬
Ġëĭ¹ ì²¨
ĠëįĶ ëįĶ
ĠìľĪ ëıĦìļ°
ĠëĤ´ ìĪĺ
ĠëĤ´ êµ¬
ĠìłĪ ëĮĢë¡ľ
Ġë¬´ìĦľ ìļ´
Ġë°ľ ëª©
Ġëª¨ íĨł
ĠëĦ¥ ìĦ¼
ĠëĦ¤ íĭ°
Ġìĭľ ì¤ĳ
Ġê·¸ë Ĥł
ĠìĬ¤í Ħ´
ĠëŁ¬ ìĭľ
Ġê²½ìĥģ ëĤ¨ëıĦ
Ġìĭľ ìĥģ
Ġback ground
Ġìĭľ ë²Ķ
Ġë§¤ íĬ¸
Ġê´Ģ ìłĲ
ĠìĹ° ìĩĦ
Ġê·¸ ëłĪ
Ġì¶© ìĦ±
Ġë¬´ ìĥģ
ĠíĮĮ ìĬ¤íĥĢ
Ġc e
ê± ¸ë¡ľ
Ĭ ¬
Ġëª¨ íĦ°
Ġë©ĺ íĥĪ
Ġíĸ¥ íķľ
ĠìķĦì ¿ł
Ġê¹¨ ëĭ«
Ġìŀ¬ ë²Į
Ġëª© íı¬
ĠêµĲì°¨ ë¡ľ
Ġëĭ¤ëħĢ ìĻĶ
Ġê¸° ìļ´
ĠëĨį ëĭ´
Ð µ
i le
Ġë¹Ħ ìŀĲ
ĠíĻĶ ìļĶìĿ¼
Ġê¹ĢëĮĢ ì¤ĳ
Ġm k
v a
Ġì§Ģ ìŀĲ
Ġìŀħ íŀĪ
Ġë§Ī ì³¤
Ġíĥ± ì»¤
ĠìĻľëĥĲ íķĺë©´
ĠìŀĦì ĽĲ
Ġì¦Ĳ ê±°
Ġê¸Īê°ķ ìĤ°
Ġp o
ĠìĿ´ ëŁ´
ëĤĺ ê°Ģ
Ġìľ¡ ìĥģ
Ġë£¨ ìĿ´
Ġê¹Į ì§Ħ
íĤ¤ ìĬ¤íĥĦ
Ġìķħ ìĹŃ
Ġëĭ¤ ì¹´
Ġê°Ĳ ê°ģ
Ġê±´ êµŃ
Ġëĭ¤ìĿ´ìĸ´ íĦ°
Ġì¦Ĳ ê²¨
ĠíķŃê³µ ìĤ¬
Ġì´Ī ì°½ê¸°
Ġê¸° ìĪĻ
Ġìĥģ ìĽĲ
Ġê°Ĳ ìĦ±
Ġëħ¸ ìĬ¤
Ġìĺ¬ ë¦´
Ġêµ¬ ìĦĿ
ëĿ¼ ìĿ´íĬ¸
ĠëĦ¤ ìĿ´
ĠíĬĢ ìĸ´ëĤĺ
ê°Ģ ìĭľ
ĠíıŃ ìĦ¤
ë¬´ ê¸°
ĠìĦ¸ ìĿ´ë²Ħ
ı Ī
ĠìĬ¤ ìĬ¹
ĠìĨĮ ì§ĳ
ĠìĦł íı¬
Ġìĸ¸ ìłł
Ġyj ebo
ë ½
ĠìĿĺ ìłķë¶Ģ
Ġê¸ī ìĭĿ
ah ouse
ĠëĤ´ëł¤ ìĺ¤
Ġìŀ¬ ë°°
Ġì°¨ ì§Ī
Ġdram ahouse
Ġëĸ¨ìĸ´ ì§Ī
Ġë§¤ ëıĦ
Ġì£¼ ì²´
íĮ ¬
Ġëł¤ ëįĺ
ĠíĴĢ ëł¤
Ġê¸°ëĭ¤ ëł¤
ĠíĽĪ ìŀ¥
ĠëĦ¤íĭ° ì¦Į
Ġíķ´ ìĤ°
ìļ´ ëıĻ
ĠêµŃ ë©´
ĠìĹ´ ê¸°
Ġìĺ¤ëĬĺ ëĤł
Ġì¤ĳ ë³µ
Ġë² ļ
Ġë°ĺ ìĦ±
ĠëĮĢ ìĻķ
ĠíķĻ ëł¥
Ġê³¨ ëª©
ì£¼ë ¯¼
Ġëª½ ê³¨
íĶĦë §ģ
ĠíĤ¬ ë¡ľ
íĤ¤ ì§Ģ
Ġìķ½ íĻĶ
Ġíĺ¸ë ŀĳ
Ġì£¼ë ¥ĺ
Ġìļ© ìĦľ
Ġì¡°ì¢ħ ìĤ¬
Ġíĺ¸ ê°Ĳ
ëĭ´ íļĮ
re e
ĠëįĶëįĶ ìļ±
Ġì¤ĳ ì§Ģ
ĠìĽĲ ë¦¬
Ġìĭł ì¢ħ
êµ¬ ëĤĺ
ë°© ìļ¸
Ġê±° ìļ¸
ĠíĶ¼ íķł
Ġìĸ´ ëĿ¼
Ġìĭ¬ ìĭ¬
Ġê´Ģ ì¤ĳ
ĠìĬ¤ íħĶ
Ġs a
Ġìĭł ëıĦ
Ġê²°íĺ¼ ìĭĿ
Ġíģ´ ëłĪ
ĠíĨł ëĦĪ
ĠìŀĲ ë§ī
Ġíı¬ ë¡ľ
ĠìĽĲ ìľł
Ġë³´ìĿ´ ìĬ¤
Ġíķ´ ì§Ī
ĠëģĶ ì°į
Ġê³Ħì ĭľ
ĠëĮĢíķ´ ìĦł
ê±° ëŀĺ
Ġìĸ´ ìĬ¤
Ġë¬´ ëĦĪì§Ģ
Ġêµ° ë¶Ģ
ĠìĿĢê·¼ íŀĪ
Ġíıīë¡ł ê°Ģ
Ġë°© íķĻ
Ġê°Ħ íĺ¹
ĠìĻĦ ê³µ
Ġë²ķë¬´ ë¶Ģ
Ġëĸł ëĤľ
Ġê±° ìĦ¸
ĠìĹ° ìĪĺ
ë Ŀł
ĠêµĲ ìĦŃ
ŀ Ń
Ġëĵ± ì§Ģ
Ġë¦¬ ëĵľ
ĳ Ķ
Ġìĭ¸ ìĿ´
Ġc at
ĠêµŃ ëıĦ
Ġìĺ¤ ì§ģ
Ġì¹¨ ë¬µ
Ġíķľ ëĳĲ
Ġìľł ìĿ¸
Ġo ut
Ġê¸ī ëĿ½
Ġìľ¡ ì²´
ê²Į ìļĶ
Ġëĭ¤ ëĭĮ
ĠíĻį ëĮĢ
ĠëĤ´ ë³´
ĠëıĦë§Ŀ ì¹ĺ
Ġe l
Ġì¡° ìľ¨
Ġd vd
ĠìĹħ ìłģ
ë İ
ĠíĮ¨ íĤ¤ì§Ģ
Ġë§Ī ë¸Ķ
Ġì»¤ ìĬ¤
ĠíĨµ íĸī
ê³µíĻĶ êµŃ
Ġg u
Ġì¹¨ ìŀħ
Ġë¶Ģ ë¥¸
¡ Ŀ
Ġì¶ľê·¼ ê¸¸
Ġìĭ¸ ìļ¸
ëĿ¼ë ħ¸
ĠêµĲìľ¡ ë¶Ģ
Ġê±¸ ë¦´
er o
ĠìĹĲ ë¦¬
ĠìĭŃ ìĭľìĺ¤
Ġã Ĥ
ĠëıĻ ëªħ
ëħ ĦëıĦ
i ver
ĠíĺĦ íĸī
Ġwow tv
ëĶ ľ
ĠìĦ¸ ìļ´
ĠìĿ¸ íĶĮ
Ġë²Į ìĿ¸
ĠíĴĢ ìĿ´
ì½Ķ ëĵľ
Ġìŀ¥ ë§Ľ
Ġì¤Ģ ìļ°
ìĭľ ëĭ¤
Ġ0 00
Ġíķľ ìļ°
Ġë¡ľ ë²ĦíĬ¸
ir l
Ġì¤ĳêµŃ ìĸ´
Ġë¬´ ëĿ¼
Ġëĭ´ ê²¨
ĠìľĦë ¡ľ
Ġì´Ī ë³´
Ġì´Ī ê³¼
Ġë³¼ë Ħ·
ĠíĿī ê¸°
al e
ĠìĿ´ë£¨ìĸ´ ì§Ħ
Ġíķĺ ìĽĲ
ĠìĿĳ ê¸ī
Ġìłķ ê¸Ģ
Ġd lc
ĠíĪ ´
ĠìĹ¬ ê³ł
Ġë¬¼ íĴĪ
Ġëł¤ ëĭ¤
Ġëªħ íĴĪ
Ġë¯¸ë ¬ĺ
Ġì§Ħ ìłĦ
êµĲ ìľ¡
Ġê²½ ë¶Ģ
Ġê²¨ ëĥ¥
ì¼ Ī
Ġìĭľ ì§Ħ
Ġë¬¼ë ł¤
ĠìĨĮ ìļĶ
ë¯¸ ëĭĪ
Ġìľł ìĿ´
Ġëĭ¨ ìĽĲ
Ġal ign
Ġìľł ìĦ±
Ġì£¼ìľł ìĨĮ
Ġìĺ¬ëĿ¼ ìĻĶ
ĠíĬ¸ ìľ
ĠìĦ± ëĭ¹
Ġë°ľ ê¸ī
ĠíĮĢ ìĽĲ
Ġìĥģ ê°Ģ
ĠëĿ¼ìĿ´ ìĺ¨
ĠìĤ¬ìĹħ ìŀĲ
ĠìĥĿ ëŀµ
ĠëĤ´ ì§Ģ
Ġë§ī ì°¨
Ġì¡° ì¹´
ĠìĿ¸ ìŀ¬
ĠíĬ¸ ëłĪìĿ´ëĵľ
Ġê³Ħ íĨµ
ìł ¯
Ġë¬´ ìĦŃ
ĠìĿ¸ë¯¼ ê³µíĻĶêµŃ
ĠíķĺìĪĺ ìĿ¸
ìķ ĦìĬ¤
Ġìļ´ëıĻ ìŀ¥
ĠëĳĺëŁ¬ ìĭ¸
Ĩ Ĳ
ĠìĪĺ ë¦½
Ġì§Ģ ê²½
Ġìŀ¬íĮĲ ë¶Ģ
Ġëªħì¤ĳ ë¥ł
ĠìĭŃ ìŀĲ
Ġê³Ħì ¸µ
ĠìķĪíĥĢ ê¹Į
Ġì½Ķ ìļ°
ëħ¸ ìļ°
Ġg ood
Ġk or
a z
ĠíĥĿ ë°°
Ġê°ľ ëŁī
Ġêµ° ìĪĺ
Ġë²ĦìĬ¤ íĦ°
Ġíİ¸ ìķĪ
ĠìłĪ ìłķ
Ġê³ł ëł¹
íķĻ ê·ľ
Ġìĭł ìķĻ
Ġê³ł ìĿ¸
Ġk b
en ce
Ġìŀ¥ëĤľ ê°Ĳ
Ġì¤ĳ ëıĦ
Ġë¬´ëįĶ ìľĦ
ĠëĤ¨ ë§¤
ê°Ģ ìļ´
Ġíķ© ì²´
ĠëĤ´ ìłĦ
Ġìłķ ìłĦ
Ġn ot
Ġë°ĺ ì°¬
ĠëıĦìĭľ ëĿ½
Ġìłķ íĻĶ
Ġëĥ īìŀ¥
ĠìĮ Ī
Ġë°©ìĨ¡ êµŃ
Ġìĺ¤ ìĿ´
Ġì¤ĳ íĺķ
ic al
Ġìĺģ ìĦľ
Ġê¸° ìķĦ
Ġë°° ìłķ
Ĺ Ħ
ĠìĿµ ìĬ¤
Ġìŀ¥ë§Ľ ë¹Ħ
Ġë¬´ ì£Ħ
ĠìķĦë ģ¼
ë²ł ë¥´
Ġë°° ëł¤
en th
Ġë§Ī ìĿ¸
ĠíŀĪ ë©Ķ
Ġì§Ģ ë¢°
Ġìŀħ ëĭĪê¹Į
Ġì§Ģ ë¥´
ìłĢ íŀĪ
Ġìĸµ ìłľ
an k
ĠíĶ¼ë ¡ľ
Ġë°Ķ ë¦¬
Ġth is
ĠìķĦìĿ´ ìĬ¤íģ¬ë¦¼
Ġd m
ĠìĦŃ ì·¨
Ġê¸° ìŀ¥
ĠìĬĪ íĮħ
Ġê¸° ìĦ¸
Ġë°ķì§Ģ ìĽĲ
íĻĺ ê²½
Ġêµ¬ ìĤ¬
ĠìłĲ ìľł
Ġs f
t le
Ġê°Ħ ëĭ´íļĮ
ĠìĪ¨ê²¨ ì§Ħ
Ġì¼Ģ ìĸ´
ìĬ¤íĭ° ë²Į
ĠìĹĦ ê²©
Ġêµ¬ íĺ¸
Ġíİĺ ìĬ¤íĭ°ë²Į
Ġê·¸ë ŀľëĵľ
ĠìĹ¬ ìĿ¸
Ġëª¨ ìķĺ
ĠíİĢ ì¹ĺ
ĠëĬĺ ëł¤
Ġë¹Ħì ¹ĺ
ĠìłĢ ê·¸
Ġë²Į ëłĪ
ĠëıĻ íķ´ìķĪ
Ġì£¼ ìĹŃ
Ġì°½ ë¬¸
ĠíĥĲ ìĤ¬
ĠëıĦ ëĿ¼
Ġ? ?
Ġå °
ĠìķĪ ìª½
ĠìĨĶì§ģ íŀĪ
Ġì£¼ ê´Ģ
ĠìķĦì ¦Ī
Ġì»¤ë§¨ ëĵľ
Ġë¸ĮëĿ¼ ìļ´
Ī Ħ
m er
Ġìŀħ êµŃ
Ġë± ĥ
Ġì°¾ ìķĦ
Ġìŀ¥ ìĿ¸
ĠìĦ¸ ìłľ
Ġì¶© ìĭ¤
ê³ Ħë
Ġd c
Ġë¶ ĵ
ã Ģ
Ġl c
ĠíĽĦìĨį ìŀĳ
ĠìĬ¬ ë¡ľ
Ġë¡ľ ë§¨
Ġë²ł ë¥
Ġëĭ¤ íģĲ
ĠëĭĪê¹Į ìļĶ
ĠëįĶ ëŁ¬
¯ ¸ë
ĠìĻ¸ íĺķ
Ġë¹Į ëĵľ
ìĸ´ ëĵ¤
Ġì²Ń ìķ½
Ġíľ ł
Ġë±ħ íģ¬
ĠíķľêµŃ ìĿĢíĸī
Ġê±° ì¹ľ
ê³µ ìĹħ
Ġíı¬ ëĵľ
Ġii i
ĠíĻĶ íıĲ
Ġb or
ì¹´ ìĿ´ëıĦ
x t
ĠìĿĺíķ´ ìĦľ
ĠìķĦëĭĲ ê¹Į
Ġìľ¼ë Ŀ¼
ĠìĨĲ íķĻê·ľ
ĠìĦľ ìĭĿ
Ġë¦¬ ë¹ĦìķĦ
Ġê°Ģë²¼ ìļ´
ĠìĬ¤ íĶĦë§ģ
Ġì½ĶìĬ¤ ëĭ¥
Ġë¶Ģ íĮ¨
Ġìłľìŀĳ ìŀĲ
Ġä ¹
ĠìĤ´ ìķĦê°Ģ
Ġì§Ģ ì£¼
Ġì± ķ
ĠìŀĲ ìĻ¸ìĦł
ê³ ¼ë
Ġìĭľì§Ħ íķĳ
ĠìĽĲ ìĪĺ
Ġê¸° íĺ¸
ĠëĽ°ìĸ´ ëĦĺ
Ġê°ĳìŀĳ ìĬ¤
Ġëªħ ë°±
ĠìĿ´ íĦ°
Ġëª° ëĿ¼ëıĦ
Ġç¾ İ
Ġìĩ Ħìĭł
Ġëª «
Ġëª¨ ìĬ¤íģ¬
ëĦ £
Ġë°ĺ ëł¤
Ġë¶Ī ì°¸
Ġå į
Ġìľłê°Ģ ì¡±
ìļ° ë¦¬
Ġì´Īì½ľ ë¦¿
ĠëıĮ íĴį
Ġìį¨ ë¨¹
ĠíĶĦë¦¬ íģĲìĸ´
Ġëĭ¤ê³ł ìļĶ
íĬ¸ë §¨
ĠìĽĲ ì¡°
Ġíį¼ ì§Ģ
Ń ëĭĪëĭ¤
Ġë°ľ ìłĦìĨĮ
Ġå ¯
Ġì¤ĳ êµ¬
Ġë¿ Ķ
íĤ ·
± ħ
ĠíĪ¬ ê¸°
Ġë¬¼ëŁ¬ ëĤĺ
Ġìĸ´ ë¦¬
Ġìĥģ ê¸ī
ĠëłĪ ìķĮ
ģ ëĭĪëĭ¤
Ġë²¨ íĬ¸
Ġê°Ī ë¹Ħ
ĠìĦł ìłľ
Ġìĭľ ê³µ
ĠìĦľ ê¸°
Ġs ch
Ġì¹¨ ëŀµ
ë°ķ ìĬ¤
Ġê¹Ģ íķľ
Ġì µ¸
Ġë©Ķ ìĿ´ëĵľ
ĠìĦł ëĳĲ
Ġê³łê¸° ìķķ
ĠêµŃ ìĤ°
ĠëĮĢ ëª©
Ġë°Ķ ëĤĺ
ĠìĿ´ ëĵľ
ĠìĥĿ ê¸¸
ĠìĪĺìĥģ ìŀĲ
Ġëļľ ëł·
Ġìº £
Ġìłķ ë¬´
± ±
Ġìļ´ ìĨ¡
Ġìķ °
ĠíĿĶëĵ¤ ë¦¬
Ġê°Ģ ì§Ī
Ġë³ĳ ìĹŃ
Ġìłľìŀĳ ìĤ¬
ĠëıĻ ìķĦ
ĠìĦł ìĤ¬
Ġìĸ´ëĸ ¨
ĠìłĦ ìĿ´
Ġë¶Ģëĵľ ëŁ½
ĠëĤ´ ìĹŃ
ĠìĿ´ ë¡Ģ
íĥ Ĳ
Ġê´ľ íŀĪ
ĠíĮĮ ìŀ¥
Ġë£¨ ìĪĺ
ìłĢ ìĬ¤
Ġíķ© ê³Ħ
ĠíķĻ ëĮĢ
Ġë§ĲëłĪìĿ´ ìĭľìķĦ
Ġëį° ëĵľ
Ġë¶Ģ ì²ľ
ê¼ ¼
Ġë¯¸ë Ħ¤
ĠíĬ¹ íĹĪ
Ġì¶ľ êµŃ
ë°Ķ ëĭ¥
ĠêµĲìľ¡ ê°Ĳ
Ĩ Ģ
Ġìķħ ê¸°
Ġë³¸ ì²´
Ġìĭľ ê¸ī
ĠíĻ© ëĭ¹
ĠìĦľìĦľ íŀĪ
Ġì°¾ ìķĦìĺ¨
k im
Ġíĺ¸ëŀĳ ìĿ´
ĠìĹĲ ëĭ¤ê°Ģ
ĠëĨĵ ì¹ĺ
Ġì§ ¬
ĠíĽĦ íļĮ
ĠìĬ¤íħĮ ìĿ´íģ¬
Ġìĺ¤ ë¥¼
Ġìĺģ ì£¼
Ġì½Ķ íĬ¸
ĠìĬ¤íİĺ ìĿ´ìĬ¤
Ġä¸ Ń
ĠëıĦ ëįķ
ĠíļĮ ìĥģ
Ġì ¨
ĠìĦ¸ ìĿ¼
Ġë§Ī ìĭł
Ġëĭ¹ ëĭ¹
as e
ĠíĽĦ ìŀĦ
Ġu ef
ĠìĦ¸ íĥģ
ĠëĤĺ ë¦¬
ĠëĤľ ìĤ¬
Ġíŀ Į
Ġê» į
ĠíĺĲ ìĺ¤
ĠìĦłë³´ ìĺĢ
ĠíĬ¸ëŀľ ìĬ¤
Ġê¶Į ê³ł
{ {
Ġë¶ģ ìĥģ
Ġê±¸ ìĿĮ
Ġì¹´ ìĺ¤ìĬ¤
ì ĳ
Ġë¯¸ ì¦Ī
ĠëĮĢ íı¬
Ġíķĺ ëĭ¨
ĠëĬĶì§Ģ ëĿ¼
Ġì±ķ íĦ°
am p
Ġst r
Ġë²ļ ê½ĥ
ìķ ŀ
ë§¤ ë§¤
ĠíĦ° ìł¸
ìĸ Ħ
ì¹´ ë¦¬
ĠìĬ¤ ì¿¨
Ġë°° ìĪĺ
ĠìĹ¬ íķĻìĥĿ
f e
Ġì¤ĳ ëŁī
Ġê¸° ì¡°
Ġìłķ íĨµ
ĠíĬ¹ ìľĦ
Ġíķ´ ì¹ĺ
ĠìĦł íĮĶ
ĠíĹĪ ëĿ½
Ġâĸ ·
ĠìĿ¼ ê¹Į
ĠíĮ ģ
o on
Ġíķ´ë³ĳ ëĮĢ
Ġ. "
Ġê°ľ ìĪĺ
ĠíĤ¤ ì¦Ī
ĠëĿ¼ ê¸°
Ġin t
ĠìłĦì Ĺ
ê°Ģ ì¡±
Ġì¶Ķ ìĽĮ
ĠíĬ¹ ìłĦ
Ġë¯¸ë ģ
ĠëĶĶ ì¦Ī
Ġê¸°ìĤ¬ ëĭ¨
Ġë¯¼ ìłķ
ìĬ¬ ëŁ¬
Ġëĭ¬ëĿ¼ ì§Ģ
ĠìłĦë ¬´
ĠëĶ°ëĿ¼ ê°Ģ
Ġì§Ī ìĦľ
Ġê¹Ģ íĺĦ
Ġì£Ħ ëĭ¤
Ġo c
ë¬ ¸ë
Ġk bo
Ġìŀħ ëĮĢ
ĠìĽĮ íģ¬
Ġì§Ģ ì¶ľ
ĠëĮĢ ê²Ģ
Ġì¿ ¡
Ġg d
ct ion
ĠëĮĢ ìĻ¸
Ġì§Ģ ë¶Ī
ĠìķĦìĿ´ ì½ĺ
Ġê²¹ ì¹ĺ
Ġì¡´ ì¤ĳ
ëĵ Ī
Ġë» Ĺ
Ġì§ĢìŀĲ ì²´
Ġv ol
Ġìķ¼ ì±Ħ
ĠíĤ¤ ìĽĮ
ĠìĿ¸ì§Ģ ëıĦ
ĠìľłëĭĪ íı¼
Ġt ime
Ġê°Ī ë¦¬
Ġë§Ī ëĭ¹
Ġì¡´ ê²½
Ġìĭł íĺ¼
Ġì§ģ ë¬´
ĠìĬ¤ íĭ¸
ĠìĤ¬ ë©´
ĠìĪĻ ìĨĮ
Ġì¹´ ì¸ł
íķĺ ëĤĺ
Ġë°Ķê¿ Ģ
ĠìĹ Ħì
ĠìĪĺ ëªħ
Ġ1 8
Ġê¸°ìĪĻ ìĤ¬
ĠìĬ¤ ë¦¬
Ġìŀ¥ ë³ĳ
ĠìĦł íĸī
Ġë¯¸ë £¨
íĪ¬ ìĬ¤
ĠëıĻ ê²°
ĠìĿ¼ ìĤ°
ĠëĭĪ ìĬ¤
Ġìĭ¤ ìĤ¬
íĭ° ìĬ¤
ĠìĿ´ ìĦĿ
Ġë¹ĦíĥĢ ë¯¼
ìĬ¤ íĤ¤
íĥĢ ìļ´
Ġìŀĥ ìĸ´ë²Ħ
Ġê°Ħì ĭł
ĠìĦłë³´ ìĿ´
ĠíĹ¤ ë¹Ħ
ĠëĦĪ íĿ¬
Ġë§Ī ëĵľë¦¬
ë´ ¤
Ġìļ° ìĦ¸
ĠìĿ´ ìľ¤
Ġì¿ł ë¦¬
pl ay
Ġê³ł ê³ł
ĠíĨµ ë¡ľ
ĠìĦ¤ ë¹Ħ
ĠìĿ¸ ê²©
Ġæ ĺ
Ġìĸ¸ë įĶ
Ġìĥģ ëĭ¨
ĠìĪ¨ ê¸°
Ġë¬´ ë°©
Ġì°© íķľ
ìĸ´ ë§Ī
íķĺ ë§Ī
Ġë¸Į ëłĪ
ĠëĮ Ĳ
Ġd d
ĠìĿ´ìĸ´ ì§Ħ
Ġë°ĺëıĦ ì²´
Ġë§Ŀ ì¹ĺ
ìĪŃ ìĿ´
ĠíĬ¹ë³Ħ íŀĪ
ĠìĽĮ íĦ°
Ġê·¹ ìĭ¬
Ġë¯ ¹ìĬ¤
ĠíĽĹ ëĤł
ĠìĹ° íĥĢ
Ġuef a
Ġæ ´
Ġë¶Ģ ì°©
Ġìı ľ
Ġíķĺ ê³Ħ
Ĭ ĺ
ĠíģĲ ë¸Į
Ġì£½ ìĿ¸
Ġê³łêµ¬ ëł¤
Ġë§Īëĵľë¦¬ ëĵľ
Ġêµ¬ íķł
ìľł ëŁ½
ĠìĹ° ìĬ¹
ĠìĿ´ ìĭĿ
ll ow
Ġë¬´ ìĦł
ch osun
§ ŀ
Ġíı´ ë¦¬
Ġtv chosun
¼ Ģ
ëĳĺ ëŁ¬
Ġë¶Ī íĥĢ
ĠíĥĢ ê²°
íĥ Ħë
Ġì½ľ ëĿ¼
Ġìŀ İ
Ġìĸ´ë§Ī ìĸ´ë§Ī
Ġì¶©ì²Ń ëĤ¨ëıĦ
Ġìº¡ íĭ´
Ġíľ´ëĮĢ íı°
Ġíİ¸ ë¦¬
ĠíĬ¹ ìĤ¬
ìĦ¸ íı¬
Ġìĥģê´Ģ ìĹĨ
ĠëģĬ ìŀ
Ġê¹Ģ íĿ¬
Ġì¡° íķŃ
ëĶĶ ìķĦ
Ġíķĺ ì°¨
¹ ´
Ġì ©
ĠíŀĪ ëį°
Ð ½
Ġê³ł ìĤ¬
Ġëª» ì§Ģ
Ġìĭľì¼ľ ìĦľ
Ġêµ¬ ìĽĮ
ĠíĽĦë °©
Ġì¦Ŀ ìĦ¸
Ġíģ´ë¦° íĦ´
Ġì« Ħ
ĠëıĻ íĸī
Ġë³´ íĺ¸ë
Ġìĸ¸ìłł ê°Ģ
Ġå Ĳ
ĠìłĦìĭľ íļĮ
Ġêµ¬ ìĬ¬
Ġíĸī ìļ´
Ġê±° ìĿ¸
ĠëıĻ ì°¸
Ġëı Ķ
Ġê± į
Ġë¹Ħë ¹
ĠíķŃ êµ¬
ĠìĭĿë¯¼ ì§Ģ
í ŀĺ
Ġìłģ êµ°
ë²ł ìĿ´
ĠìłĦë ³µ
Ġíķ´ ê³ł
ĠíĶ¼ ìķĦ
Ġë¬´ ìŀĳ
Ġjc ont
enth ub
Ġjcont enthub
Ġê°ķ ì§Ħ
Ġìŀħ ë§Ľ
Ġsk t
ĠìĤ¬ ìĹ°
ê²¹ ìĤ´
íĶĦ ë¦¬ì¹´
Ġë³´ ì¶©
Ġê³µ ë¦½
íĥ ±
ĠíĮ¬ ëį¤
ëĶ §
ĠëĬĲ ê¼Ī
Ġë¬´ìĤ¬ íŀĪ
Ġê¹Ģ ëıĦ
Ġë§¤ ë²Ī
ĠíĶ¼ íĬ¸
Ġp ar
ê°Ģ ë¯¸
Ġìĸ´ ëĵľ
ĠìĬ¤ëŁ¬ ìĽĮ
ë¦¬ ìķĪ
Ġç Ķ
ĠíŀĪìĸ´ë¡ľ ì¦Ī
Ġíı¬ ìĪĺ
Ġê±° ë¯¸
Ġì½Ķ ëłĪ
ĠìĹĲ ë¥´
ì£¼ êµĲ
ĠíĥĲ ì§Ģ
ìķĦì °¨
Ġê³¼íķĻ ìŀĲ
Ġì¦Ĳ ê±°ìļ´
Ġë¶Ī ê¸¸
Ġê³ł ìĬ¤íĬ¸
Ġìĺ¤íĨł ë°ĶìĿ´
ìŀ ĩ
ĠìĤ¬ ìĤ´
Ġëĭ¤ ëħĶ
ì¹´ ìĿ´
ì½Ķ íĨł
Ġìľł ê°Ĳ
ĠëĤ® ì¶Ķ
ĠìĤ¼ ê²¹ìĤ´
Ġë°ľ ëłĪ
Ġê¸°ëĭ¤ ë¦½ëĭĪëĭ¤
ĠìĹ¬ ê±´
ĠêµŃìĦ¸ ì²Ń
Ġs un
Ġìŀħ ìĭľ
ìŁģ ìĿ´
Ġê³ł ìŀĳ
Ġë°° ìĨ¡
Ġof f
Ġìłľ ë°ľ
Ġëĭ¤ìĿ´ ìķĦë
Ġìŀ¬íĮĲ ìĨĮ
ĠíĬ¹ ê¸ī
Ġ" "
ĠíĶĦ ëłĮ
ĠìĿ´ íĨł
Ġìĸ Ģ
Ġë¨¸ ëĭĪ
ĠíļĮ ê³Ħ
Ġíĺ¸ ìľĦ
Ġíķ´ìļ´ ëĮĢ
Ġê±´ ëį°ìļĶ
Ġ ^
Ġëĵľ ë£¨
ro w
Ġì§ĢìĹŃ êµ¬
Ġì°© ë¥Ļ
Ġíĥ Ħë
Ġì£¼ë ĳĶ
Ġìĭľ íķľ
Ġë²Ħ íĦ°
Ġê³ł ìĦ±
iz e
Ġê³µ ìļ©
Ġíķ´ ëĿ¼
Ġë³¸ ìŀĳ
ĠìĿ´ ìĨĮ
ĠíĿ ©
Ġê±´ê°Ģ ìļĶ
Ġíķľ ì¸µ
Ġìĸ¸ë įķ
Ġì½ľ ëĿ¼ë³´
Ġì´Ŀ ê´Ħ
Ġìĸ´ë ¢°
ĠêµĲ íĨł
ĠìĿ¼ ê²©
Ġê°ĲìĤ¬ ìĽĲ
ĠìĬ¤ìº Ķ
ĠíĮĮ ëıĻ
Ġë§¤ ìŀħ
ĠëĤĺ ëĵ¤
Ġì£¼ë °©
Ġê´´ ìĪĺ
íĽ Ħë
ĠëıĦ ëĦĲëĵľ
Ġìĸµ ìļ¸
Ġìłķ ì°¨
ì²ľ êµ°
ìĸ¸ ìĬ¤
ĠíİĺìĿ´ ì¦Ī
Ġì§Ģ íĸ¥
ĠìĹ´ ë§¤
ĠëĤĺëĵ¤ ëª©
ĠìķĦ íĶĪ
ĠíĿ° ìĥī
ëĤĺ ì¹´
c l
ëŀ į
Ġê°ķ ëıĻ
Ġê³µ ì¡°
ìĸ´ ì¡Į
ĠíĨł íģ¬
ĠìłĦ ìĦ±ê¸°
Ġìłľ ìĿĺ
ìĿ´ íĮħ
Ġcp u
Ġë¹Ħìłķ ê·ľ
ĠìĦľ ì´Ī
Ġë¸Į ëĿ¼ë
u k
ë® ¬
ĠíĹĪ ëĤĺ
Ġå¥ ³
êº¼ë ²Ī
Ġíķľ êº¼ë²Ī
Ġíķľêº¼ë²Ī ìĹĲ
ĠíĻĶ ìĥģ
Ġë°ĺê¸° ë¬¸
Ġíĥ ĦëıĦ
íĿ Ķ
íĬ Ģ
Ġê°ģ ë³Ħ
Ġë§Į ìĿ¼
Ġl ine
ĠìĿ´ìĸ´ ìł¸
ĠìĺĪ ìĭľ
ĠíĺĳìĿĺ íļĮ
ĠìŀĲ ë¥´
ou l
íĥĢ ìĿ´
Ġì¢ħ ìłĦ
Ġë¿Į ëł¤
Ġì Ń
Ġc s
ëĤ ©ëĭĪëĭ¤
Ġwi ll
ëįĶ ìĬ¤
ĠìĦł ìĦł
Ġíģ¬ ëłĪ
ĠëĭĪ ì½ľ
Ġì»¤ ìĦľ
Ġê³µ ë°±
ĠíĴ ĭ
ĠìĬµ ê´Ģ
ĠëģĮìĸ´ ìĺ¬
ĠìĪĺ ë¥ĺ
Ġê¸° ìļ©
Ġê²½ ë§¤
ĠìĬ¤ ëª¨
ë¨¼ ìĬ¤
Ġë§Ī ë¦°
Ġë°©ìĤ¬ ëĬ¥
ĠìºĲ ëħ¼
ĠëıĻ êµ¬
Ġê¹Ģ ê´ĳ
Ġì£½ ìĿ¼
Ġì¡° êµŃ
Ġê¸° ì°¨
ĠíĽĦì ĨĲ
Ġë°± ìĿ¸
Ġíĳ ¹
ĠìķĦë¬´ íĬ¼
ëĸ ¡
ë²ł ë¦¬
Ġê¹Ģ ëªħ
Ġëª° ëĿ½
Ġíķĺ ë§Ī
ìŀĲ ì¹ĺ
Ġë¹Ħì ¦Ī
ĠìĻ ĵ
ê·¸ë §Ī
íĮ¡ ìĿ´
ĠëĶĶ ìł¤
Ġìļ° ìĤ°
Ġë´Ĳ ìļĶ
Ġ{ {{
ĠíķĻ íļĮ
ìłĢ ê¸°
Ġíľ´ ê²Į
ĠìķĪíĥĢ ê¹Ŀ
Ġëĭ¬ ì½¤
Ġëħ¸ íĬ¸ë
ĠìĿ´ ëĮĢ
ĠìĤ° íĥĢ
Ġê³ł ë¦½
Ġê´ĳ ëªħ
Ġëĭ¤ìĿ´ìķĦë ª¬ëĵľ
ĠìĪĺ ìĤ°
Ġë§¡ ê¸°
Ġë°± ìĦ±
Ġf f
ĠìļĶ ê±´
Ġì¤ĳ ìŀ¬
Ġcent er
ĠìķĦ íħĮ
ë³ ķ
Ġìĸ´ ëĶĺ
Ġì£¼ë ¦
l ine
Ġë¯¸ìĪł ê´Ģ
Ġë¯¸ íĤ¤
ĠìĤ¬ ë¡ľ
ĠìĹ°íķ© êµ°
ĠëĤ´ ëĨ¨
ĠëĤ´ëł¤ ì§Ħ
ĠëĨį ì´Į
Ġë§Ī ëĬĺ
Ġëį°ìĿ´ë¹ Ħëĵľ
Ġíķ´ ìŀĦ
Ġê³ł ìĬ¤
Ġê°Ģ ëĶĶ
Ġë£¨ ì¹´
ĠìĤ¬ ë¦¬
ĠìĨĮ ëĭĪ
Ġo s
ê¸° ìĹĲ
ĠìĹŃ ëŁī
ĠìĹ¬ê¸° ìłĢê¸°
ìļ´ ìłĦ
Ġê¸Ī íĴĪ
b m
ĠìĬ¤ ëŁ°
ĠìłĢì§Ģ ë¥¸
Ġ.. '
Ġê³ł ê°Ģ
ĠìķĦë ĥĲ
Ġíı¬ íĨł
Ġëį´ ë§Īíģ¬
Ġìĸ´ëĳĲ ìļ´
ĠíĴĪ ëª©
¥ ¨
Ġëªħ ëª©
ĠìĮĵ ìĿ´
e ar
Ġë¶Ģ ìŀĦ
ĠíıŃ ìĬ¤
Ġìŀħ ê±´
Ġê°ģ ìĺ¤
u ll
Ġë¹Ħìłķê·ľ ì§ģ
Ġë³¸ ê´Ģ
Ġëª¨ ëħ¸
ĠìĿ´ë¤Ħì ¡Į
Ġíĸīìłķ ë¶Ģ
íİĺ ëĿ¼
ĠìħĢ ì¹´
ou t
ë³ ¸ë
ĦìĹ Ń
Ġê¼½ íŀĪ
Ġìĥģ ìĦ±
Ġê²¬ íķ´
Ġê°Ģ ìĿ´ëĵľ
ìĺ¨ ëĭ¤
ĠìĤ° ë¶Ī
Ľ ¸
¬ ¼ë
ìķĦ ìĿ´
ĠìŀĲìĿ´ìĸ¸ ì¸ł
Ġë°©ìĨ¡ ìĤ¬
ìļĶ ìĭľ
ĠëĮĢì§Ģ ì§Ħ
Ġìĭ¤ì¢ħ ìŀĲ
ĠìĹ° ìĿ¼
Ġë¯¸ ì§Ģ
Ġe ver
Ġê¼¼ ê¼¼
Ġì²« ì§¸
Ġë§Ī ìļ°ìĬ¤
Ġê³ł ë¬´
ĠìľĦì ¡°
Ġê± ¸ë
ĠìĪĺë¥ĺ íĥĦ
Ġë³Ģ íĻĺ
Ġíĺķ ìĥģ
ì§ ±
ĠìĦ± ìĭ¤
Ġë°ķìĽĲ ìĪľ
ëĿ¼ìĿ´ ìĸ¸
ĠìĬ¤í ĮĢ
ĠíĨł ëĭĪ
Ġì°Į ë¥´
ĠìŀĲ ë¬¸
Ġkt x
Ġë§ī ëĤ´
ĠìĿ´ë£¨ìĸ´ ìł¸
âĹ ĭ
ìĭľ ê°Ħ
Ġì¦Ŀ íıŃ
Ġê°Ħ ì§Ģ
ĠìĬ¹ ì°¨
ĠëĤĺ ë¹ł
Ġìłķ ëª½
Ġìħ ľ
ĠìĤ¬ ëªħ
ĠëĤ¨ ìĸĳ
ĠíĥĢ ìĿ´ìĸ´
Ġë©´ ìłľ
ê·¸ë ŀĺ
Ġíķµ ë¬´ê¸°
Ġìłľ íĬ¸
Ġr adi
ĠëĤĺ ê°Ħëĭ¤
Ġë¬¼ ì²´
¶ ķ
ĠìĿ¼ ê´Ģ
ĠìĨĮìľł ìŀĲ
ĠëĿ¼ìĿ¸ ìĹħ
Ġëĵľ ëŁ¼
Ġê´ĳ ë³µ
ìĸĳ íķ¨
ĠëıĦ ëĮĢ
ĠìĿ´ íĺ¸
Ġì£¼ íı¬
Ġìľł ìĹ°
Ġì´Ī ê°Ħ
ĠìĨĲ ìŀĲ
Ġë°± ìłľ
Ġìķ¡ íĭ°ë¸Į
ĠëĤĺ ìĬ¤
ĠìĨĮ ëĿ¼
Ġr ed
Ġì¤Ģìļ° ìĬ¹
íĭ° ìķĦ
Ġì¦Ĳ ê²ģ
Ñ Ģ
Ġëĵľ ëłĪìĬ¤
Ġë§Ī ìĤ°
ĠìĹ° ìĦ¸ëĮĢ
ìħ ĭ
Ġìł¤ ë¦¬
ë´Ĳ ìķ¼
ë¡ľ ëĶĶ
p t
ĠìĿ´ìĤ° ê°Ģì¡±
Ġì¤Ģ ê³µ
ëĨ Ī
ĠìĿ´ ìĿ¸
ìĹ ī
ĠìĤ¼ ê°ģ
Ġëª¨ ì¡°ë¦¬
Ġë£¨ ìĿ´ìĬ¤
Ġê³µìĤ° ëĭ¹
Ġìĸ´ì§Ģ ê°Ħ
Ġm od
Ġê¹Ģ íĺľ
ĠêµŃë¬´ ë¶Ģ
Ġë¶Ī ìĤ¬
ĠëıĦ ëģ¼
ĠíĥĦ ëł¥
Ġãĥ »
Ġë²łë¥ ¼ë¦°
ìł¤ ëłĪìĬ¤
ĠìŀĲ íıŃ
Ġt y
ĠìĦľ íı¬íĦ°
Ġd on
Ġíģ¬ë¦¬ìĬ¤ íĥĪ
Ġìĭ¸ ìĽĮ
Ġì´Ŀ ìķĮ
ĠíĬ ķ
Ġíķ´ ë³Ģ
ë© ľ
Ġì¹ľ íĻĺê²½
Ġì¹Ń íĺ¸
k y
Ġìĸ¸ ìĬ¤
ĠìĹ¬ ìĦ¯
Ġëªħ ë¶Ħ
Ġëĭ¤ë¦ ĦìĹĨ
ĠìľĮë¦¬ ìĹĦ
Ġë©Ī ì¶°
ĠìĬ¹ ìŀĲ
ĠëĤ´ëł¤ ì¡Į
ĠëĤĺ ë§Ī
ĠìĺĪ ìĸ¸
Ġì§Ħë ıĦ
Ġê³µ ìĦ±
Ġæ Ĺ
ĠíĥĢ ìľ¨
Ġê°Ģë§Į íŀĪ
Ġë¯¸ ìļ©
ëĭ Ń
Ġì¡° íĻĶ
Ġìĭ¬ ìĥģ
Ġë¶Ģ ë¥¼
Ġíķĺ ìķ¼
Ġìĩ¼íķĳ ëª°
ĠìĹ° íĮ¨
Ġg irl
Ġê°Ģê¹Į ìĽĮ
ĠíĽĦ íĩ´
Ġê³Ħì ĭł
ĠíħĮ ëĿ¼
ĠëĵľëŁ¬ ëĥĪ
ĠëĮĢ ìĦ¸
ìĤ¬ íĥľ
ìĤ¬ ìĬ¤
ĠìĺĪ ê¸Ī
Ġì°¨ìĿ´ ìłĲ
ë² ħ
Ġë§ī íŀĪ
Ġë¦¬ ëª¨
Ġbo ard
Ġì¤ĳ ìłĲ
ë²ł ìĬ¤
Ġê¹ĢìĿ¼ ìĦ±
ar e
Ġì£¼ ê±°
Ġì§Ģ ë¶ķ
Ġêµ° ëį°
Ġê¸° ìĥĿ
Ġíĸī ë°©
Ġì»¤ ë¦¬ìĸ´
Ġìļ° ìĹĲ
Ġíį¼ íı¬
Ġì§Ģ ìĦł
Ġíķľëį° ìļĶ
Ġíį¼íı¬ ë¨¼ìĬ¤
Ġê¹Ģ ì£¼
ĠíĮĮ ë¥´
Ġë©´ ëĭ´
ìħĶ ëĦĲ
Ġt ra
í īģ
Ġf ont
íĮ© íĬ¸
Ġë©Ķ ìĿ¼
Ġê³µ ìĬµ
ë¬¸ íĻĶ
Ġê¸° ëĳ¥
ĠíıŃ ë¡ľ
Ġì¤ĳ ìŀ¥
ĠìĹ¼ë ĳĲ
ĠëĨĴ ìĹ¬
Ġì£¼ ì¶¤
ĠìĪľ ì²ľ
Ġêµ¬ìłľ ìĹŃ
ĠìĬ¹ ì§Ħ
ab y
Ġì´Ī ë°¥
Ġë¶Ģ ìĸĳ
Ġíķł ê¹ĮìļĶ
Ġìļ° íļĮ
Ġìľł íĺ¹
Ġbl ack
Ġëĭ¹ìĦł ìŀĲ
ìĥĿ íĻľ
Ġëįĺ ê°Ģ
Ġë³µ ìĤ¬
ĠìķĦì ¼Ģ
ê²Į ìĿ´
ìĿ Ħë
c o
Ġíķľ ì¤ĳ
Ġìķ¨ ë¦¬ìĬ¤
Ġê°Ħìĭł íŀĪ
ĠìĻ¸ ìłĦ
Ġê³¡ ëªħ
Ġíĥľ ìĦ¸
ìĻĢ ìĦľ
ĠëĶĶìŀĲ ìĿ´ëĦĪ
Ġc n
¦ °
Ġìļ ±
ĠìĤ¬ìļ° ëĶĶ
ĠìĹ¬ê°Ŀ ê¸°
ĠìķĪ ëıĻ
Ġê°ķ ìĪĺ
Ġëıħ ìłĲ
ĠíĨłë§Ī íĨł
ìŀ ĸ
ĠíĻķ ìĭł
ĠìĿ¼ìľ¼ ì¼ľ
Ĩ Ī
ĠìĬ¹ ë¥ł
ĠíĥĦì °½
Ġë³¸ íļĮìĿĺ
ĠíļĮ ê´Ģ
ĠíĽĦê³Ħ ìŀĲ
ĠìķĦ ìĿ¸
Ġb m
ĠíĤ¤ ë¡ľ
ĠìļĶ ìķ½
íħĮ ë¥´
Ġë¥ ľ
Ġì½Ķ ëĤľ
Ġëĥīìŀ¥ ê³ł
ĠëĤ© íĴĪ
ĠëĮĢëĭ¨ íŀĪ
Ġëĵľ ë¡ł
Ġì½ľ ë¡ľ
ĠëıĦëĮĢ ì²´
ĠìłĦë ĳĲ
íĤ¤ ìķĦ
h y
Ġì²« ì°¨
ĠìĿ¼ë ŀĮ
Ġì¹ĺ ìļ°
ìľ Ħë
ĠìĶ Į
Ġì¹´ ëłĪ
ĠíĻĶ íķ´
Ġê°Ģë¦¬ íĤ¤
Ġê°ľ ìĭł
Ġê³Ħ ê³¡
Ġíĥľ ìļ°
Ġìĭł ìĥĿ
ëĿ¼ë ĵľ
Ġíĳ ¼
ĠëĤĺ íı´
ĠëĿ¼ íĭ´
Ġìķħ ëĭ¹
ìľ¼ë ¡ľ
ĠëĤĻ íķĺ
Ġìĸĳ ë³´
Ġé Ŀ
Ġìĭ¤ ì²´
Ġ} }}
íĶ Ħì
Ġë°° ê¸ī
ĠíĬ¸ë Ŀ¼ìĿ´
ĠíĬ¸ ëłĮ
Ġê·¼ë ĮĢ
Ġê´Ģë¦¬ ìŀĲ
Ġê²© ëł¤
Ġex t
ĠëıĻ íĸ¥
Ġì´Ŀ ëł¥
Ġê°Ģ ì£½
ëĭ¨ ì²´
ĠíĶĮëŀĺ ìĭľ
Ġìĭ¤ ë¦¬
Ġëª¨ ìĭľ
Ġìĺģ ëĵ±
ì¹´ ëĿ½
Ġë°ķìłķ íĿ¬
Ġê±° ë¶ģ
Ġì´Īëĵ± íķĻìĥĿ
Ġìĥģ ìĤ¬
Ġìĭľ ëĦĪì§Ģ
ìĹ £
Ġê°Ħëĭ¨ íŀĪ
ë² ³
Ġë¨¸ë¦¬ ì¹´ëĿ½
ìļķ ìŀ¥
ĠìĹ´ ëł¤
Ġë§ĪìĿ´ ëĦĪ
Ġd og
Ġê±° íĴĪ
ĠìĬ¤íĨł ìĸ´
ë°Ķ ëĭ¤
Ġë²ķ ì¹Ļ
Ġi f
ĠíĽĦì¿ł ìĭľë§Ī
Ġëª¨ ìĿĢ
Ġë¹Ħ ê·¹
ĠìĺĪ ìĿĺ
Ġë¬¼ ìĸ´
Ġëĵ± ìĤ°
ĠìĹ´ ëĮĢ
ĠíĻ ĭ
Ġìĺ¤ íĶ¼ìĬ¤
Ġìĺ¤ ìĿ¼
Ġì¦Ŀ ìĺ¤
Ġå ·
Ġì¶ľ ê°Ħ
Ġì§ĳ ì°©
ĠëĶĶì§Ģ ëª¬
ĠìĦ¸ë ¬´
ĠëĳĺëŁ¬ ë³´
ĠëĤĺ ëĤĺ
ĠìĪĺ ê°Ĳ
ĠìłĦë ©¸
Ġì§ ł
Ġëħ¸ íķĺ
ë¶ģ ìŀĲ
ê³¡ ëıĻ
ĠìĦ¬ ìľł
ĠìĿ¼ ìĸ´ëĤł
Ġì±Įë¦° ì§Ģ
Ġë² Ħì
ĠìĹ° ê³ł
Ġëª¨ìŀĲ ëĿ¼
ìķ¼ ìĪĺ
Ġê¸° ëŁī
Ġë¶Ħì Ĥ°
ĠìĺĢ ìĿĦ
Ġìļ° ì¦Ī
ĠìĹ° ë£¨
Ġì¹´ìļ´ íĬ¸
Ġë¶Ħ íķ´
íĭĢ ëŀľëĵľ
ĠíķĻ ìĤ¬
Ġíı¬ì¼ĵëª¬ ìĬ¤íĦ°
Ġìŀ¬ê±´ ì¶ķ
Ġìĸ´ ëł¸
Ġë°ĿíĺĢ ì§Ħ
ĠìĬ¤ íı°
Ġì±Ħ íĮħ
Ġê´ĳ ìĤ°
Ġww e
ĠìĿ´ ìĪľ
Ġn ight
Ġìĭł ìŀĲ
ĠëĶ ķ
Ġíķĺ íķĺ
Ġê°Ģ ëĭ´
Ġìĸĳ íĮĮ
ĠíĹĿ ê°Ģë¦¬
Ġë¸ĮëĿ¼ë įĶ
Ġê¼¬ ë§Ī
Ġëĭ¬ ëĭ¬
ëģ Ħë
ì§ķ ìĸ´
ĠìĨĮ ëĮĢ
Ġë Ł¼
ĠìĦłì§Ħ êµŃ
Ġë²¨ ê¸°ìĹĲ
Ġê¸Ģ ëŁ¬
Ġìķ½ ë¬¼
ĠíķĺëĤĺ íķĺëĤĺ
Ġp e
Ġê°Ģ ëĤľ
Ġìĭľëĭ¬ ë¦¬
Ġëĥī ëıĻ
Ġêµ¬ì¶ķ íķ¨
ĠíĶ¼ ê³¤
ĠëĳĲ ëĵľ
Ġìĺ¤ ëłĮ
ë¦¬ ëĤĺ
ìĥ ĺ
Ġëª° ìķĦë
ĠíĨ ¨
is e
Ġíķ´ ë²ķ
Ġf w
ĠíĶĮ ëŀľ
ĠëĬĲ ë¦°
Ġë¡Ŀ ë§¨
Ġëľ¬ ê¸Ī
Ġë§Ŀ ê°Ģ
Ġë£¨ ë¹Ħ
ĠìĦłíĥĿ ì§Ģ
ĠìĿ¼ìľ¼ ì¼°
Ġíķľ ìĿ¸
Ġíİĺ ìĸ´
Ġìľł ê¶ĮìŀĲ
Ġìłķ êµĲ
ĠìłĢ ìŀĲ
Ġíı¬ìĬ¤ íĮħ
Ĺ Ĳ
Ġëĸłìĺ¬ ë¦¬
Ġìī¬ ìĽĮ
Ġëł Ĳ
Ġë² ¡
ĠìķĦëĭĮ ì§Ģ
Ġëľ¨ ê²ģ
Ġíĥ Ķ
Ġê³ł ì¹ĺ
Ġì¡° ë³Ħ
Ġë¶ĪìķĪ ê°Ĳ
ĠìĹ° ìĸ´
ëĴ Ģ
Ġëĵ¤ìĸ´ ìĺ¬
ĠëıĮ ìĹ°
Ġìĸ´ì§¸ ìĦľ
ĠíĥĢ ë¡ľ
Ġì°½ ëĭ¹
ë¶ Ħë
ĠìłĦ ëĭ´
Ġíı¬ ëıĦ
Ġë²ł íĥĢ
Ġëª¨ìĬ¤íģ¬ ë°Ķ
ìĭľ íĥĢ
ĠìĨį ì¶ľ
Ġë§Į ëĳĲ
Ġì§Ģ ë£¨
Ġíĺ Ģ
Ġê¹Ģ ìľ¤
Ġëı¼ ìļĶ
ìĬ¬ ë§ģ
ĠëĦ¤ ìĺ¤
ĠìĿĮìĭĿ ìłĲ
n e
ĠíŀĲ ë§ģ
ĠìĽĶ ê¸ī
ĠëĶĶì¦Ī ëĭĪ
Ġì¶Ķ ë°©
ìĿĢ ìĿ´
ĠìĤ½ ìŀħ
Ġìĭľìĥģ ìĭĿ
Ġíĥľ ê·¹
Ġì¤ĳ ìĭľ
ĠëĥĲ ë©´
Ġì¤ĳ ëł¥
ĠìĿĺ ê²°
Ġê°ĳ ëĭĪëĭ¤
ĠìĿ´ ìĺ¨
Ġco r
ĠëĳĶ íĻĶ
Ġì°½ ìĦ¤
ĠìłĦì Ĭ¹
Ġm ag
Ġë§ī ìĥģ
ĠëıĻ íı¬
Ġëĵ ¬
Ġê°Ħì £¼
Ġë°ľ ëłĮ
Ġë°ĺ íķ´
Ġíİ¼ ì³¤
Ġì¤ĳ ìĥģ
Ġë©´ ëª¨
Ġì¡´ìŀ¬ ê°Ĳ
ĠëıĦë§Ŀ ê°Ģ
ĠìĬ¤íĬ¸ëĿ¼ ìĿ´íģ¬
Ġdis play
Ġëħ¸íĬ¸ë ¶ģ
ĠëĤĺíĥĢ ëĤľëĭ¤
ìĦ¸ ìĦľ
Ġìļ° ëĵľ
Ġë¯¼ ìĺģ
Ġìĵ° ìĹ¬
Ġë§Ī ëķħ
ĠëĮĢíĳľ ëĭ¨
ĠìĬ ¨
Ġê³ł ë¡ľ
Ġë¹Ļ íĮĲ
Ġëª¨ ê¸°
Ġê³¼ ìĭľ
ëıĦ ë¥´
Ġìĭ¤ ìĿĢ
Ġbor der
Ġì§ģìŀ¥ ìĿ¸
Ġê°Ģë¥´ ì³Ĳ
ĠìĻ¸ê³Ħ ìĿ¸
Ġìĸ´ ìĿ´
ĠìĪĺ ìłľ
Ġa v
ĠëĤ¨ íķľ
Ġc a
ìĸ´ ìļĶ
ìĹĲ ìĿ´
Ġì² ¼
Ġê²© ì¶Ķ
ĵ ±
ĠìĿ´ ë§Į
Ġì²ĺ ì§Ģ
ëĦ¤ ìŀĦ
ê¸° ìĤ¬
ìĻĢ ìĿ´
Ġê½ ģ
ĠìĦ± ì§Ī
Ġëİ Ģ
b le
Ġkor ea
Ġcom p
ĠíķŃ ë³µ
ĠìĽĮ ì»¤
ĠìĺĪ ë»Ĳ
Ġìºĺë¦¬íı¬ ëĭĪìķĦ
ĠìŀĲ ì¹«
Ġìŀ¥ ëĤ¨
ìĹ° íķ©
Ġíĺĳ ìķ½
Ġê²½ ìķħ
Ġíı¬ ìĬ¤íĦ°
Ġíħį ìĤ¬ìĬ¤
Ġìĺ¬ëĿ¼ ê°Ķ
Ġd ream
Ġì¡¸ìĹħ ìĭĿ
Ġëªħ ìĭľ
ìĸ´ ë¶Ļ
ĠíķĻ ìľĦ
Ġë°ķ ì¢ħ
Ġì§Ħ íķĻ
Ġì²ľ ì²ľ
Ġë¡ľ ë¦¬
Ġìĭľ ìłķ
Ġì§Ģ ëĤ¸
Ġëĵľ ë¡Ń
Ġíļ¡ ëł¹
ĠíĿ¡ ìĹ°
Ġíķľ ëıĦ
Ġë§ŀ ì¶¤
Ġê°Ħì Ĥ¬
ĠìĥĿ ìĦł
ĠìĤ¬ë¡ľ ìŀ¡
Ġìĺ¤ íİĺëĿ¼
ĠìĨĮ ê³łê¸°
Ġë©Ķ íĬ¸ë¡ľ
Ġì§ĳ ê°Ĵ
Ġë©´ ìłĳ
Ġë¦¬ íĥĢ
ĠìĿ´ë¤Ħì §Ħ
Ġ0 0
Ġê°Ĳ ì¶Ķ
¶ģ ëıĦ
Ġìłľ ëĦ¤
ĠìłķìĿĺ ëĭ¹
Ġì§Ħë ıĻ
° ±
Ġê²Ģ ìłķ
ĠìĻ¸ ê³½
ĠëĤĺ ëħ¸
ĠíĮĮ ì¸ł
ĠìłĦëĿ¼ë ¶ģëıĦ
ĠíĹ¨ ë¦¬
ĠëıĮìķĦìĻ Ģ
Ġdi et
Ġêµ¬ ë¡ľ
ĠìĿ´ ë£¬
ê¼ ½
Ġê°ķ íĥĢ
ĠìĦ± ë§¤ë§¤
İ Ħ
Ġì§Ģ ë¶Ģ
Ħ ĺ
Ġå ľ
ĠìĥĿëªħ ì²´
Ġë£¨ ëĤĺ
ĠíĮĮ íİ¸
Ĭ Ħ
ĠëłĪ ì§Ģ
ĠìŀĦ ìĿĺ
Ġë°Ķ ëĳĳ
Ġê¶Į ìľł
ĠëĮĢìĥģ ìŀĲ
ë ĩ¨
Ġë°ľ ëł¹
Ġì¶Ķ ì¢ħ
Ġë¨¸ë ¬´
Ġê¹¨ ëĭ¬
ĠìĤ ¿
ê´Ģ ë¦¬
ĠìĦ¸ë ¡ľ
Ġì°¬ ë°ĶëŀĮ
Ġìĭľ íģ¬
ĠíķĦ ë¦Ħ
ëıĮ ìĿ´
Ġg t
ĠìķĮ ë°Ķ
Ġìĩ¼ íģ¬
Ġê¹ ¨ìĸ´
ĠìĹĺë¦¬ íĬ¸
Ġíķľ ëĤ®
Ġmus ic
ĠìĦł ëĮĢ
Ġì¶Ķ ì¶ľ
ĠëĵľëĿ¼ìĿ´ ë²Ħ
Ġìĭľ ê°Ģ
Ġê¹Ģ ìŀ¥
Ġìĵ¸ë ª¨
Ġê°Ħ ê°Ħ
Ġëŀ įëĭĪëĭ¤
ĠëıĦ ìŀ¥
Ġê¿Ī ê¾¸
Ġê°ķ ìŀĲ
Ġê¸°ê´Ģ ì´Ŀ
Ġê¹Ģ ìĹ°
ĠìķĮ ëłĪ
Ġìĺ¤ ëĶĶìħĺ
Ġìµľ ìłģ
ĠìķĦì ¸ł
Ġì§Ī ì£¼
ĠìłĦëĳĲ íĻĺ
ĠíĨµìĭł ìĤ¬
Ġë¦¬ íĶĦ
Ġë° Ń
Ġë¡ľ ìĸĦ
ĠíĥĲ íĹĺ
Ġê°Ħ íĮĲ
ì «
Ġì»¤ ì¡Į
ĠìľĦì ĥĿ
ĠíĥĢ ìĦł
ĠíĬĢ ê¹Ģ
ĠëıĦ ìłĢíŀĪ
Ġo ver
Ġì§Ģ ìŀ¥
Ġëī´ìĬ¤ ë£¸
Ġte am
Ġë¡ľìĬ¤ ìķ¤
Ġë¡ľìĬ¤ìķ¤ ìł¤ëłĪìĬ¤
Ġìĵ° ìĺĢ
ìĦ¼ ìĬ¤
Ġë¦¬ íĦ°
Ġê¸° ë»Ĳ
ĠíĥĢ ëĿ½
âĺ Ĩ
ëĿ¼ ê¸°
ĠìĬ¤íĭ° ë¸Ĳ
Ġh ot
ìŀĲ ëĵľ
ĠìĺģìĽĲ íŀĪ
Ġê²½ê¸° ëł¥
ĠëıĦ ë£¨
it ion
Ġì¤Ģëĭ¤ ê³ł
Ġìĭł ìłķ
Ġìļ° ì²´
Ġìļ° ìĥģ
ĠìĦ¼ ìĦľ
Ĳ ģ
ĠìļĶ ë¯¸
ë± ħ
Ġë³Ģ íĸĪ
ĠìĹ° ìĤ°
Ġìŀ¬ìłķ ë¶Ģ
Ġh s
á ħ
ìŀ Ħë
ĠìĤ¬ìłķ ê±°ë¦¬
Ġë¸Ķ ëŁ¬ëĵľ
Ġì£¼ ëĭĪìĸ´
Ġj ust
Ġì¤Ģëĭ¤ ëĬĶ
Ġíķľ ë¥ĺ
Ġìĭľ ë°ľ
Ġì²ľì²ľ íŀĪ
ĠíĮĶ ëłĪ
ë¶Ģ ë¡ľ
ëįĶ ìľĦ
Ġì½Ķ ë¥´
ĠìĨĮ ìļ©
Ġë¶Ħì ĭł
Ġìĥģ ê¸°
Ġìĸ´ ìł¯
ĠìĨĮ ì£¼
ĠëıĦ ìłģ
Ġìĸ´ìł¯ ë°¤
ĠìķĶ ìĭľ
Ġfo llow
Ġê²°ìĿĺ ìķĪ
Ġê´Ģ ë£Į
Ġê°Ĳ ì°°
Ġìĺ¨ ì²ľ
Ġë¶Ļìŀ¡ íĺĶ
Ġì¤Ħì ¤Ħ
ĠíĶĮ ëĿ¼ìĬ¤
Ġë°ķ ê³Ħ
oo l
Ġìļ° ë¥´
ĠíĹ ·
Ġê¹Ģ ìľł
Ġë³´ ë¦Ħ
ĠìĦľ ë°©
Ġíķł ë¦¬
Ġêµ¬ ìĿ´
Ġë§Ĳ íĪ¬
Ġê°Ħ ìŀ¥
Ġê±¸ë §ŀ
Ġê°ľìĭł êµĲ
Ġp op
ĠêµŃ ê°Ĳ
Ġìłľ ê°Ī
ĠìĦ¸ íĮħ
ìŀ ĺ
Ġp et
ĠëĬĺ ìĸ´ëĤł
Ġìķħ ëª½
ĠëĪĦì ĽĮ
ĠíŀĪ ê°Ģìĭľ
ĠëĤ´ ìĻ¸
ĠëĳĲ ë¶Ģ
Ġì²ľ ìŀ¥
Ġìĳ ¥
Ġìĸ´ë¦°ìĿ´ ì§ĳ
Ġr em
ĠìĪĺ íĻķ
êµ¬ ìĹŃ
ĠíıŃ íĮĮ
Ġìĭľì¹´ ê³ł
ĠìłĦëıĻ ì°¨
Ġì¡° ìĿ´
ĠìĿ´ ëĵ¬
Ġb ar
Ġë¯¼ ì²©
Ġìĺ¤ ì§ķìĸ´
Ġë¯¸ëĤĺ ë¯¸
ë¥´ íĥĢ
Ġìĭľ ê³¨
Ġê¸Ģ ìĶ¨
ê±´ ìĦ¤
ĠìĥĪ ê²¨
Ġì¿ µ
Ġì²ľ íķĺ
Ġíĺ¸ ì¡°
ĠìĪĻ ëł¨
ĠìĬ¤íĮĮìĿ´ ëįĶ
ĠìĿ¸ë °©
Ġì¡° ìĺģ
ĠìĹĲìĸ´ ì»¨
ic s
Ġìĺ¤ëłĮ ì§Ģ
íĭĢ ëŁ¬
ĠíĶĦë ŀŃ
Ġë¦¬ ì¡°
Ġì²Ń ìĤ°
Ġë¬¸ ëĭ¨
íĮ¨ ëĵľ
i er
Ġê·¸ë ŀĳ
Ġê±¸ ë¦°ëĭ¤
ĠìĿĢ ìĭł
ĠíŀĪ íĨł
Ġëıħ ìĦľ
ĦìĹ Ĳ
ĠíĸĪ ìľ¼ëĭĪ
Ġìĥģ ì£¼
ìĿ´ ì»¤
ìłĢ ìļ°
ìł¸ ìķ¼
Ġìĺ¹ íĺ¸
Ġce o
ĠìĿ´ ê´ĳ
ĠíħĶëłĪ ì½¤
ĠëĤ¨ ìķĦ
Ġíı¬ ì¦Ī
Ġìµľìļ° ìĪĺ
Ġë´ Ħë
Ġg en
Ġíķĺë£¨ ì¹´
Ġëĭ¤ ëįĺ
ìĭľ ìĬ¤íĬ¸
Ġë¦¬ ìĺ¤
ë Ľ°
Ġì¡° ë¥ĺ
ĠíĨłë¡ł íļĮ
Ġë±Ģ íĮĮìĿ´ìĸ´
ĠìĹĶ ìł¤
ĠìĿ¸ ìĸĳ
ëŀ ¨
Ġëª¨ ìĿ¸
ĠìĤ¬íļĮ ì£¼ìĿĺ
Ġê¹Ģ ìĦ¸
ĠëĮĢ ì¡°
Ġë§Ī ì¹´
ìķĦì ¹ĺ
ĠìºĶ ë²ĦìĬ¤
ul t
ĠìŀĲ ì§Ħ
Ġë°ĺ ëıĻ
ĠíĶ¼ ê²¨
ĠìĬ¤íħĮ ìĿ´ìħĺ
Ġìķ¼êµ¬ ìŀ¥
½ ëĭĪëĭ¤
ĠíĬ¸ë¦¬ íĶĮ
Ġìĭ¤ ìļ©
ĠëĤŃ ë¹Ħ
ìĿ¼ë ³¸
ëĵ ¯
ìĻ ¸ë
Ġëĭ¨ íĴį
ĠìłĢ íķĺ
Ġíľ© ìĭ¸
Ġìĺ¤ ì§Ģ
Ġë°ĺ êµ°
Ġr pg
Ġê°ķ ìĹ°
ĠëĵĿíĳľ ìľ¨
ĠëıĻ ìĦľ
ĠìļĶ íķľ
Ġb s
ĠìķĦë ¯¸
Ġë°© íķľ
Ġë¦´ ë¦¬
Ġìĭ¬ íĻĶ
Ġë¶Ħ íı¬
Ġì½Ķë¯ ¹
in t
Ġìĺ¬ ë°Ķ
Ġê³ł ëŀĺ
Ġë³µ ìĦł
ĠìĦł ì¡°
Ġíľĺ ë§Ĳ
ìĤ¬ ê´Ģ
Ġì¤ĳ ìĦ¸
Ġìľł ìŀ¬
Ġëĭ¨ ë°±
Ġíħį ìĬ¤íĬ¸
ĠìĿ´ìļ© ìŀĲ
Ġìľł ìłĦ
Ġíĸī ëł¬
Ġê°ķìłĲ ê¸°
Ġìµľ ê²½
d e
Ġë°° ê³ł
ìķĦì ĸ´
ĠíĥĢìĿ´ ìĻĦ
ĠìĿ¼ë ¦¬
Ġëĵľëŀĺ íĶĦíĬ¸
ì§Ī ëŀľëĵľ
ĠíĤ¤ ë³´ëĵľ
ĠìĹ İ
ëĭ¤ ëĤĺ
ĠìĿ¼ ê¹ĮìļĶ
Ġsu per
Ġë ¤
Ġë¶Ģëĵľ ëŁ¬ìļ´
Ġëī´ ì§Īëŀľëĵľ
Ġë°° íĽĦ
ĠìĻĢ ìĿ¼ëĵľ
ë²ł ìĿ´íĦ°
ĠíĮĶ ë¦¬
íĺĢ ìĦľ
Ġìĭ¤ íĥľ
Ġm g
Ġê¸° íķľ
Ġw ind
ĠíĨµ ì¦Ŀ
Ġë¶Ī ëł¸
ĠìĿ´ëĵ¬ íķ´
ĠëıĦ ë¦¬
Ġìŀ¡ ìķĦë¨¹
Ġìľ¼ë ¦¬
Ġì²Ń ì¶ĺ
Ġë´ī ìĩĦ
Ġìĺ¤ ìĦ¸
Ġìĺ¤ íģ¬
ĠìĹĲ ë¦Ń
Ġê±´ ëĦ¤
ĠíĬ¹ ë³
Ġë°¤ ìĤ¬ìĿ´
Ġë°© íĻĶ
ic a
ìļ¸ë Ł¬
ĠìĽĲ ì£¼
ĠìĿ´ ê²¼
ĠìĥĿ ìķł
Ġé Ļ
ĠíĮĮ ìļ°
Ġs ec
ĠìĽĲ íĶ¼ìĬ¤
ĠíŀĪ ëĤĺ
ĠëĬ Ļ
Ġê´Ģ ìŀ¥
ĠìĨ¡ íĮĮ
ĠìłĦ ì§Ģ
Ġh ard
Ġì¿ł ëį°
ĠëıĮìķĦ ê°Ķ
Ġìĥ´ íĳ¸
ĠëģĬìŀ ĦìĹĨìĿ´
ëį° ìĬ¤
Ġìĸ¼ ìĸ´ë¶Ļ
ì§Ħë ³´
Ġë¯¸ ì³¤
Ġg p
Ġë³¸ íĨł
Ġíģ´ ëŀľ
Ġíķĺ ìĹ¬
ĠìĬ¤ ìľĦì¹ĺ
Ġê³łìľĦ ê¸ī
ĠëĶĶìĬ¤ íĶĮëłĪìĿ´
ĠíĥĢ ìĪĺ
Ġìĥģê´Ģ ìĹĨìĿ´
ĠëĬĺ ìĸ´
ĠìĬ¬ íĶĶ
ĠíĽĦë³´ ìŀĲ
Ġìķħ ìŀ¬
ĠíŀĲ ëŁ¬ë¦¬
ĠëĤĺ íĿĺ
Ġìĺģëĵ± íı¬
ĠìĻķ ìľĦ
ĠíĽĶ ì³Ĳ
Ġar m
Ġë²Ķì£Ħ ìŀĲ
Ġê²° ìłĦ
ĠëĤ ¯
Ġì¡°ìļ© íŀĪ
ĠìĤ¬ ë£Į
Ġê¸īê²© íŀĪ
Ġíĳľ ê²°
ĠëĲĺ ìĤ´
ĠìĹĳìĬ¤ íĬ¸ëĿ¼
íķ Ħëĵľ
Ġìľ¼ëĿ¼ ê³ł
ĠìŀĲ íĥĿ
ëĿ¼ë ©´
ĠêµĲëıĦ ìĨĮ
Ġê¸ī ìĨį
ĠíĬ¼ íĬ¼
ĠëĤĺíĥĢ ëĥĪ
Ġì»¤ ëħķ
ĠìĹ´ ë¦´
ĠìĿ´ ê¸Ģ
b e
Ġíĺ¸ ì¹Ń
Ġë² Ļ
ĠëıĦ ìķ½
Ġìłķ ìŀ¬
Ġp p
Ġìļ° íĺ¸
Ġ" '
Ġê¸° ê°ģ
Ġë°± ìĭł
ĠìĮį ìļ©
ìĨĮ ëħĢ
Ġ... .
Ġëħ¸ ëł¤
ĠëĦ ¨
ĠìĤ¬ìĿ´ íģ´
ĠìĿ´ ìĽĲ
Ġì§Ģ ëĤ¬
Ġêµ¬ ë³Ħ
Ġì¶Ķ ê¶ģ
ĠíĻĶ íķ©
Ġì£¼ ì£¼
Ġìķ½ ìŀĲ
Ġì¹¨ ìĪĺ
ĠìĿ¼ìłľ íŀĪ
ĠìĿ´ë¤Ħì §Ī
ĠíĶĦë¦¬ë¯¸ ìĸ´
Ġë¹ħ íĨł
Ġëĭ¤ ëĭĲ
Ġé ĥ
Ġë°Ķê¿ ¨
Ġê¸´ìŀ¥ ê°Ĳ
ĠëıĦ ë§Ī
ì¼ Ħ
Ġë°©ìĸ´ êµ¬
Ġìĭľ ìĦ¸
b r
Ġìĺ¤ ì¼Ģ
Ġìľ¼ëł¤ ëĬĶ
Ġë©´ ìĦ¸
ĠìłĦ ëĭ¨
ĠëłĪ ëĶ§
Ġì§Ģì§Ģ ìŀĲ
ĠíĺĦ íĻ©
Ġíıī ëĵ±
ĠëĤł ì¹´
ĠíĮĮ ìĨĲ
Ġp a
Ġìĭł ëħĦ
Ġìŀĳ íĻĶ
Ġa w
ì§Ħë³´ ëĭ¹
ĠìĪĺ ë¹
ì½ ķ
as on
ĠìĦ± íĺķ
ĠíļĮ ìĥī
Ġë¹ĦëĮĢ ìľĦ
Ġëĭ Ĳ
ĠíĮĮëŀĢ ìĥī
Ġwh at
Ġì¡° ìĪĺ
ê± Ģ
Ġìĭł ìłĦ
ĽĶ ìĿ¼
ëħĦì ĽĶìĿ¼
ĠìĥĿ ëħĦìĽĶìĿ¼
ĠáĦı áĦı
ic t
Ġíĩ´ ìŀ¥
ê· ¼ë
Ġë³´ ëĤ¼
ĠëĿ¼ë Ŀ¼
ĠìĤ¬ëĿ¼ ì§Ħëĭ¤
ĠëĦ ¬
ĠìĬ¤ ëĭĺ
ĠìĨĮ ëıĻ
Ġê°Ģìł¸ ëĭ¤
Ġë°° ìĹŃ
ĠìľĦì ¶ķ
Ġìĺ¤ ëĿ¼
le e
Ġë°° íĬ¸ë§¨
ĠìŀĩëĶ° ë¥´
Ġë°° ëĵľ
Ġìĭľ íķ©
ìŀĲ ìĻĢ
Ġíķľ ìĸĳ
íħĮ ìĿ¼
ìĸ ¸ë
Ġë¦¬ ìĺ¨
Ġë§¨ ëĤł
ĠìĽĲ ë¬¸
Ġê³µ ìĪĺ
Ġê°ľ ì²Ļ
Ġìŀ¬ íķĻ
Ġì¹¨ íĪ¬
ĠìĥĿê¸´ ëĭ¤
ĠíķĢ ëŀĢëĵľ
Ġì§Ģ ê²Ģ
ĠëĤĺ ë¹Ħ
Ġìĭ¬ ìłķ
Ġì§Ģ ì¹¨
ĠíĿ¡ íĺĪ
Ġìļ´ ìĪĺ
Ġë°ĶëĤĺ ëĤĺ
ĠëıĦ ìļĶ
Ġb re
Ġb ut
Ġë» ¥
Ġìļ¸ ë¦ī
Ġíı¬ìĬ¤ ì½Ķ
Ġë² Ħëĵľ
ê±° ì§Ħ
Ġ= )
Ġì¹¼ë Ĥł
ĠìĽĲ íĺķ
íĶĮ ëłī
Ġë¦¬ ì¹´
Ġìĸ ¹
ĠìĹħ ìŀĲ
£ ¼ë
Ġì§Ħ íĿ¥
ĠêµĲ ë³µ
ĠìĽĲ íĻĶ
ĠìķĦíĤ¤ ëĿ¼
ì¡° íķ©
s on
Ġìĭł íķĻ
Ġë§Ī ëĬĶ
Ġì²ľ ëĳ¥
ĠìĪĺ íĹĺ
Ġìĺ Ĳ
p r
į ½
ìĭľ íĶ¼
Ġë¬´ ìĬ¤
ĠìĦ± ê²½
ĠëĵľëŁ¬ ëĤľ
Ġêµ° ìĤ°
ìħ Ģë¡ľ
ĠíĬ¸ìľ Ĺ
Ġì§Ģ ëĿ¼
ĠìĹĺë¦¬ ìŀĲ
ĠìĿ´ ëĤ¨
Ġê° ¯
ìĤ¬ ë¦¬
ĠìĿĳ ìļ©
Ġë¹Ħ íĭĢ
Ġìĸ´ëĶĺ ê°Ģ
Ġíŀĺ ìŀħ
ìļ° ë§Ī
ë¦´ ëĿ¼
ĠìĪĺ ë²ķ
Ġê³µ ìĭľ
ĠìĽĲ ìĪŃìĿ´
ĠëĤľ ìŀħ
Ġì§Ħ ìĿ´
Ġì¤ĳ ê³µìĹħ
Ġë¶Ī íĸī
ì°¨ ë¦¼
Ġìĭľ ë°Ķ
Ġê°Ģìł¸ ìĺ¤
ĠíķŃ ìĨĮ
Ġê³ł ìĿĺ
Ġë§Į ì£¼
ĠìĦ¸ ìĿ¸íĬ¸
Ġì±Ħë ¬´
ĠìĪĺ ëıĻ
ĠìłĢ íĥĿ
ĠìŃ Ī
Ġë¯¼ ìĽĲ
Ġë¶Ħ íķł
ĠíĨłëĦĪ ë¨¼íĬ¸
Ġê°ĸ ì¶°
Ġê³µ ì§ģ
ĠìĿ´ ëħĲ
Ġm on
ĠíĮĮ ì£¼
Ġê·¹ íķľ
Ġê°ķ ìĦľ
å ®
ëŃ Ħ
Ġìŀ¥ ë²½
Ġì¶Ķ ìĤ°
ĠíĻį ìĦ±
Ġc y
Ġì¡° ë¬¸
ĠìĥĿê°ģ ëĤĺ
Ġì¿ł ë°Ķ
Ġì£½ ìĺĢ
Ġìĭł ëį°
Ġì¶Ķ ìļ´
Ġìĭł ì¡°
ĠíĮĮ ìĥĿ
ĠìĿ¼ ì¡±
Ġì¶ľíĮĲ ìĤ¬
Ġì¹ĺ ìķĦ
Ġìĭ« ìĸ´
Ġë³¸ ì§Ī
ĠëıĻ ìĿ¸
° į
Ġìĭľ ëĿ¼
Ġì¹ĺ ìķĪ
Ġíķ´ìĪĺ ìļķìŀ¥
Ġê°Ģ ëŃĦ
ĠìĻĢ íĥĢ
Ġê°Ī ìķĦ
00 0
ĠìĿ¸íķ´ ìĦľ
ĠãĢ ı
Ġì²Ń ìĽĲ
ĠìĪł ì§ĳ
Ġêµ¬ íĺķ
ĠìŀŃ ìĬ¨
Ġs ing
Ġê°Ĳ ìĭ¸
Ġì¡° ìĥģ
Ġë§ ·
Ġë§ī ë°Ķì§Ģ
Ġìļ°ì£¼ ìĦł
Ġíı¬ íĦ¸
ĠíĤ¬ ëŁ¬
Ġëĭ¬ ê±Ģ
Ġì§Ģ ìĽĮ
Ħìķ Ī
Ġë©ĶìĿ´ ì»¤
Ġë°ľ ë¦¬
ĠìħĢ íĶĦ
Ġm r
Ġëħ¸ íĽĦ
Ġê°Ħ íİ¸
í Ĥ´
Ġê°ģ ì§Ģ
Ġë¹Ħì ľł
Ġìĺ¤ ë©Ķ
ĠëĿ¼ëĵł ê°Ģ
ĠíĶĦë ŀľ
ê°Ī ë¹Ħ
Ġê±´ ë¦½
Ġìĸ ½
Ġìĵ°ëŁ¬ ì§Ģ
Ġëª©ê²© ìŀĲ
Ġì° Ĳ
Ġe bs
Ġíģ ½ëĭĪëĭ¤
ĠìĤ¬ íĤ¤
Ġê¸° ë¦¬
Ġì±ħìŀĦ ìŀĲ
ĠìĥģíĴĪ ê¶Į
ĠìĽĥ ëıĮ
Ġ1 6
ĠìłĦ êµĲ
ĠìĹ´ íĴį
Ġë³´ ë¦¬
Ġë¬´ ê±°ìļ´
Ġë©ľ ë¡ľëĶĶ
íĨł ëŀĳ
Ġêµ¬ìĦ± ìĽĲ
Ġë§Į ìłĲ
ĠìĨ Ł
ĠìĮĵ ìĹ¬
ì ī½
ĠíĬ¸ë £¨
h n
ĠìĪĺ ì§ģ
ĠëłĪìĬ¤ íĨłëŀĳ
Ġìĸ» ìĸ´
ĠëĤĺ ì¸ł
Ġn d
ĠíĨµíķ© ì§Ħë³´ëĭ¹
Ġìĸ´ ìĥī
Ġëį© ì¹ĺ
Ġëĭ¤ ì¹ĺ
ĠëĤ¨ ëıĻ
ĠëĤľ ë¦¬
ĠìĬ¬ ëĿ¼ìĿ´
Ġ% (
ĠìķĦì Ĥ°
Ġì¦ī ìľĦ
Ġë¶ģ ìĦľ
Ġëª© ìļķ
Ġê¸ ģ
ur n
Ġì¶ķ ë³µ
ĠíĮĲ ë¬¸
Ġë°ķ ëŀĮ
ĠìĿ´ ìĻĢ
Ġìĸ Į
Ġë¬´ ìĪł
ĠëıĻ ê²½
Ġì²´ ì½Ķ
Ġìľł ê²©
Ġíħ Ģ
Ġa ge
Ġêµ¬ì¡° ë¬¼
ĠíĮĮ íĤ¤ìĬ¤íĥĦ
Ġë°ķ ìŀ¬
ĠìĬ¤ ì¦Ī
ĠëĮĢ ìĦ±
Ġë¶Ģ ìĬ¤
íħ Ŀ
Ġìľł ë£Į
Ġê¸° ê¸Ī
Ñ ģ
ĠëĤ¨ ì¸¡
Ġê¸° ìĿ¸
Ġì¡° ìĦ¸
ìľĦìĽĲ íļĮ
ê²½ ê¸°
Ġê¸ī ìĹ¬
ĠìķĦìĤ¬ íŀĪ
Ġê·ľ ê²©
Ġë¶Ģ ê°Ģ
íķĺ ìĭľ
Ġì½Ķ ë©ĺíĬ¸
Ġìŀ¬ ì§ģ
Ġëª¨ ëĭĿ
ì½ §
ĠìĿ¸ ìŀĲ
Ġì¹´ íĬ¸
Ġíĩ´ ì§Ħ
Ġë³¸ ëĭ¤ë©´
ĠíĮĶ ë¡ľìļ°
ĠìĪĺ ìĽĶ
ĠíķĻ ë¬¸
Ġì¤ĳ ì²©
Ġíľĺ ëĳĲë¥´
İ ĭ
at ch
£ ¡
ĠìķĦìī¬ ìĽĢ
Ġíĳľ ìłĪ
Ġê°Ĳ ìĪĺ
ë° ĭ
Ġê²½ ìĤ¬
ĠëĿ¼ë įĺ
Ġê·ľ íĥĦ
ĠëĤ´ ê²Į
ĠìĹĲ ëĶĶ
Ġê» ´
ĠìĤ¬ëĿ¼ ìł¸
ì ¸°
ĠëĮĢ ëł¹
ĠíŀĻ íķ©
ĠìķĦ íĭĢ
Ġì°½ ëĭ¨
Ġì¿łëį° íĥĢ
Ġë³´ì¢Į ê´Ģ
Ġë§Ī íı¬
Ġì¶ľ ê²©
íĴĢ ìĿ´
ĠíĨł ë§ī
ì§Ħ íĺ¸
Ġíĭ ¸
Ġëª¨ ë¡ľ
Ġl ab
Ġë§Ŀ íĸĪ
ĠìĹĺë¦¬ ë²łìĿ´íĦ°
ĠêµŃëĤ´ ìĻ¸
ĠëĿ¼ë §Ī
Ġê°ĢëĶĶ ìĸ¸
ĠìĻĦ ê²°
ĠíĶĦëĿ¼ ìŀĦ
ĠíĻį ìĪĺ
Ġë¸Ķ ë¡ľ
Ġì¡° ì§Ĳ
ĠíĪ¬ ìĬ¤
Ġíķĺ ì¸ł
ĠìķĪ ìĤ°
ĠíĽĦì¿ł ìĺ¤ì¹´
Ġì§ĳ íķ©
ĠìĬ¤íħĮ ìĿ´
Ġëħ¸ë °Ķ
Ġ5 0
íħĲ ëıĦ
ì Ńī
ĠíĽĦì ľł
ĠëĭĮ íħĲëıĦ
Ġìĸ´ì©Į ë©´
ĠìĽ¨ìĿ´ ë¸Į
Ġê±°ëŀĺ ìĨĮ
Ĥ ¼
Ġë¬´ ë¹Ħ
Ġë¹Ĺ ë°©ìļ¸
Ġë³´ ê°ķ
Ġë¶Ģ ì¶Ķ
ĠëıĻ ìłĦ
Ġì°¨ ì²´
Ġì¹ľ íķľ
Ġë¹Ħíķĺ ìĿ¸ëĵľ
ow s
Ġëĵľ ëł¤
Ġìļ° ëĿ¼
ì²´ ìĬ¤íĦ°
ĠëĨĢëĿ¼ ìļ´
ë²Ķ ì£Ħ
ĠìĿ¸ íĶ¼
Ġìĭł ìĽĲ
ĠëĨĵ ìĹ¬
ĠíħĮ ì¸ł
Ġíĥľ ê¶Į
Ġpl ay
Ġë§ŀ ì¶ĺ
Ġëª¨ ìĿĮ
ĠìĪĺ ìĹ¬
ëĦ ¨
ê» ĳ
b l
ĠìĨĮ íĸī
į ¸
ĠìķĦë ĵľ
ĠíĻ© íĽĦ
ĠìķĦ ìļ¸ëŁ¬
Ġìľł ë§Ŀ
ĠìĽ¨ ìĬ¤íĬ¸
Ġê°ľë°ľ ìŀĲ
ĠíĮĮ ê³ł
Ġê°Ģíķ´ ìŀĲ
Ġíĸĩ ìĤ´
Ġê·¹ ëĮĢ
Ġë¨¸ë ¬¼ë
Ġìĺ¤ ìļ°
Ġìķł ìĿ¸
Ġë©Ķ ìĿ´íģ¬
ĠíĬ¹ íĺľ
ë²Ħ ê·¸
Ġd es
Ġë Ł½
ĠìĽĥ ê¸°
Ġìłķ ìĦľ
ë¯ Ģë¡ľ
Ġê³µ ìłľ
ĠãĢ İ
Ġê¸° ê°ĳ
íģ¬ ë¡ľ
Ġìļ° ë¦°
Ġë¬´ ìłľ
Ġæ Ń
ro s
Ġê³ł ì¢ħ
ĠíĻĭ ì¹´ìĿ´ëıĦ
ëģĦë Ł½
ĠëĮĢíķľ íķŃê³µ
Ġìķħ ëªħ
ê°Ģ ëĵľ
ì¦Ŀ ê¶Į
ĠíķĻ ìĪł
ì¿ł ëĿ¼
Ġìĺ¥ ìĥģ
ì§Ģ ë¶Ģ
Ġë°ķ íĿ¬
ĠìĽĲ ëįĶ
ĠìĭĿ ê°Ĳ
ot t
Ġë§Ŀ ëªħ
Ġì¹´ ì§Ģ
ìĪł ìĤ¬
Ġíĺķ íİ¸
a ch
Ġë¶Ģ ìŀ¬
Ġëª¨ íĺķ
Ġl ed
êµ¬ ìŀ¥
Ġì¦Ī ìĿĮ
ĠìĻ¸ë ©´
Ġìļ¸ ë¦¬
Ġd na
Ġëĭ¨ë°± ì§Ī
Ġìľ¡ ë°ķ
Ġim f
ëĦ ī
ĠíķŃê³µ ëª¨
Ġê°Ģë¥´ ì¹ĺ
ëĳ ¬
Ġê·¸ë £¨
ĠêµĲ ìĹŃ
Ġê³łëĵ± íķĻìĥĿ
Ĭ ¥
ĠìĪĺ ì¤ĳ
Ġê³µ íĹĪ
Ġì°¨ ì¸°
Ġë¹Ħ ëĭĲ
Ġìĥ¤ ìĽĮ
Ġak b
Ġë°Ķ ìĬ¤
Ġíľ© ìĵ¸
oc al
ĠìĿ¸ ìłĳ
ëĤĺ ìĻĢ
Ġìĥģ ìĪł
ĠíĨł ë²Į
ĠìĿ´ ìĦł
Ġìĸ´ëĸ¨ ê¹Į
ĠìĤ¬ ê·Ģ
ĠìĬ¤íĬ¸ë¦¬ íĬ¸
ĠíĥĦì ĨĮ
in al
ĠëĶĶ ë°Ķ
ĠìłķëıĻ ìĺģ
Ġê¶Į ìŀ¥
Ġìķ½ ìĦ¸
ĠìĿĢ íıĲ
ĠìĻ¸êµŃ ìĸ´
ĠíĨ¡ íĨ¡
Ġíı¬ ìľĦ
ĠìĿ¼ ìĸ´
Ġë¬¸ ìĿĺ
Ġìļ°ì²´ êµŃ
ĠíķŃ íķ´
Ġ& #
Ġëį° ëª¬
Ġìĸµì§Ģ ë¡ľ
Ġíİĺ ë¦¬
ëłĲ ëĿ¼
ĠìĬ¤ ë§Ī
ĠìĿ´ ë§ĪíĬ¸
Ġê³ł ëĬĶ
Ġcl ick
Ġë¹Ħì ¤Ģ
Ġì£¼ë ¨¸ëĭĪ
ĠìķĦë¦Ħ ëĭµ
Ġíĺ¸ ìĭľ
Ġìķķ ì¶ķ
Ġíĥ Ń
Ġg e
ĠëĦĺ ê²¼
ëģ ¼ë¦¬
ĠìĹħ ë¡ľëĵľ
ĠêµŃ ê¸°
Ġ; &
ĠìĦ¸ ë¦¬
ĠíĮĮ ê²©
Ġë¶ĢìĤ° ê´ĳìĹŃìĭľ
ĠìĬ¤ì½Ķ íĭĢëŀľëĵľ
Ġíľ´ê²Į ìĨĮ
Ġv o
ĠìĿ´ ìĬ¤íĬ¸
ĠëĮĢ êµĲ
ì§Ģ ëĬ¥
ĠíķĺìĿ´ íį¼
ĠìĿ¸ê³µ ì§ĢëĬ¥
Ġ1 7
ĠìĿ´ ë¬¸
ĠëĿ¼ ìļ°
Ġl et
un t
Ġë¹Ħ êµ¬ë¦Ħ
Ġì¿¼ íĦ°
Ġì°½ ë¦½
ĠìĨĮ ë§¤
Ġì§Ģ íĺľ
ĠíĹ¤ ë¥´
íĬ ¬
Ġì¤ĳ ê¸°
ĠëĶľ ë§ģ
ë¹Ħì ¹ĺ
ìłĢ ë¦¬
ĠìĬ¤ íİł
Ġë©ĶìĿ´ íĶĮ
ĠëĤĻ ìĦł
íĮĮ ìĿ´
ĠìĪĺíĺ¸ ìŀĲ
ĠëģĬ ìĿ´
Ġì²¼ ìĭľ
ĠìķĦê°Ģ ìĶ¨
íŀĪ ì½Ķ
ĠìłķìĦ¸ ê·ł
f l
t r
Ġì·¨ íķ´
ë²Į ëłĪ
Ġê³ł ì³Ĳ
ĠìĹ¬ ëĭ¨
ĠìĥĿ ìłĦ
Ġë°© ê¸Ī
êµ¬ ëĭĪ
Ġh o
ĠíĥĲ ìłķ
ëĵľ ëłĪ
ĠìĪĺ ìĭł
Ġìĭ¸ ìĽł
Ġë£¨ ë¨¸
ĠìĿ¼ ìĿ¼
Ġe le
Ġë¹¼ë ıĮ
ĠíĮĲë¬¸ ìłĲ
ĠìĿ¼ë ªħ
ĠâĻ ª
Ġì§Ħ íĨµ
Ġre port
Ġus b
Ġíĸ¥ ê¸°
ĠëıĻ ê¸ī
ĠìĿ´ ìģĺ
ĠíķĺëĿ½ ìĦ¸
Ġë¡ľ ë¹Ī
Ġê°ĢëĿ¼ ìķī
ĠìĦľ ë©´
Ġìĭł ëŀĳ
ĠìĹ¼ ìĥī
ĠìĬĪ íį¼ë
ĠìĿ¸ ìĦł
Ġë³ĳ íĸī
Ġë§Īë²ķ ìĨĮëħĢ
ĠíĮ¬ íħĢ
ĠëĮĢ ëıĻ
Ġë¶Ģ ìĬ¤íĦ°
íķĦë įĶ
Ġë¯¸ëĵľ íķĦëįĶ
Ġíľĺ ë°ľ
Ġìļ° ìĿµ
Ġê·¸ë§Į ëĳĲ
Ġìłķ ìĺĪ
Ġë£¨ ìĬ¤
ĠìĪĺ ëł¹
Ġê¶Į ìľĦ
ĠìŀĲ ì¡´
ìĸ´ ëĤ´
Ġìŀħ ìŀĲ
ĠìĿĦ ìĪĺë¡Ŀ
ì°Į ê°ľ
Ġìļķ ìĭ¬
Ġëĵ±ë¡Ŀ ê¸Ī
Ġê·¸ë ŁŃ
Ġë¹Ħì¶ Ķ
Ġë°ľ ê¸¸
ĠìĬ¤ ìĻĢ
Ġì¢Į ìłĪ
Ġë¦¬ ì²ĺ
ĠìĿ´ ê²¬
Ġë¹¨ ê°Ħì
ĠëĤ´ìłķ ìŀĲ
Ġëħ¸ë¥´ ìĽ¨ìĿ´
Ġä »
ĠìĽĲ ìĤ°
Ġë°ĶëŀĮ ì§ģ
Ġê°ķ ëł¬
Ġíķľ ë³µ
Ġìķ¼ ìĪĺ
ĠëıĦ ë¥´
Ġå ¾
ĠìĤ° ìĨĮ
Ġê·¸ëŁ° ê°Ģ
ĠìĿ¼ ì²´
Ġìķ½ íĥĪ
Ġê°Ģìŀħ ìŀĲ
Ġíĳ¸ ì§Ĳ
ĠëįĶêµ° ëĭ¤ëĤĺ
ĠìķĪ ìĦ±
Ġê¸ī íĸī
Ġë¶Ģ ìĨį
Ġ.. )
Ġì·¨ìŀ¬ ì§Ħ
Ġê³łë§Ī ìĽĮ
Ġëĭ¤ ë¦Ħ
in a
ĠíĻĺ ìĪĺ
ë± ĥ
Ġf ate
âĨ Ĳ
ĠìĿ¸íĦ° ëŀĻ
ĠìĭłìĦ¸ ê³Ħ
Ġli fe
Ġì¹ł ëłĪ
Ġëĵ ŃëĭĪëĭ¤
Ġìŀ¥ë¡Ģ ìĭĿ
Ġìļ°íģ¬ ëĿ¼
Ġë³¸ ì§Ħ
Ġìĥģ ìłķ
Ġì¯ Ķ
Ġìĺ¬ ìĬ¤íĥĢ
Ġìŀł ìłķ
Ġë¹łìł¸ëĤĺ ê°Ģ
Ġìķ¼ ì¿ł
ĠìĦł ì²´
ĠìĿĺ ë¥ĺ
k s
Ġë°Ķ ëŀĢëĭ¤
ĠíķĺìĿ´ ëĿ¼ìĿ´íĬ¸
Ġìĸ´ íĮĲ
Ġìłķ ìļ°
ĠìĦľ ìłķ
ìłĢ ëŁŃ
ĠìĹŃ ëªħ
ĠìĻĢ ì¹´
Ġh igh
Ġë¶Ħë ĮĢ
Ġì´Ŀ ìĪĺ
Ġê°Ħíĺ¸ ìĤ¬
ĠìĪĺ ìĭľë¡ľ
ĠíķŃê³µëª¨ íķ¨
ìĦ¸ ì§Ģ
Ġê·¹ ëıĦ
Ġìłĳ íķĺ
Ġìĸ´ ìļ©
ĠâĹ ĩ
Ġë¬¼ë ¥ĺ
Ġìļķ ìĦ¤
Ġé ģ
ĠìłĢì§Ģ ë¥´
ëĤ Ń
ĠíĶĮëŀĺ ê·¸
ĠìĿ¸ ì²´
ĠìĨį íķľëĭ¤
Ġíĳľ ìłģ
ë¯¼ì£¼ ëĭ¹
ĠìŀĶ ìĿ¸
ĠíĨł ìļĶ
Ġë¯¸ ì¿ł
íĨł ìĬ¤
Ġê·¸ëŁŃ ìłĢëŁŃ
ĠíĪ¬ ìĭł
ë¦°ëĭ¤ ëĬĶ
Ġì²Ń íĥģ
Ġë² ħìĬ¤
Ġê³ł ì§ĳ
ĠíĶ¼ ëĭīìĬ¤
Ġìĸ´ ì¹ĺ
Ġëĵł ëĵł
Ġë§Ī íĭ´
Ġìłķ ë¬¸
Ġê³Ħ íĮĮ
Ġìļ¸ íĶĦ
ĠìĿ¸íĦ°ëŀĻ íĭ°ë¸Į
íģ¬ ë¦¼
ìħ °
Ġk w
Ġìĸĳ ìĭ¬
ĠëĬĲëĥĲ ëĬĶ
å Ń
ĠíĽĦì Īł
Ġíı¬ íĥĦ
¡ ±
ĠíĥĪ ë¶ģìŀĲ
Ġë¹¨ê°Ħì ĥī
ĠìĿ¸ë ¶Ħ
Ġì¶©ì²Ń ë¶ģëıĦ
Ġëħ¸ ì´Ŀ
ĠìĬ¤íĥĢ ëĶĶ
ì§Ħì ĺģ
ĠíĹ¬ ë¡ľ
Ġë°± ìŀĳ
Ġê³¼ ê°Ĳ
ĠíĿĳ ìŀĲ
Ġê³ł ë¹Ħ
b i
ĠëıĻ ìĥģ
Ġìķł êµŃ
Ġë§Ī ì°°
Ġëħ¸ëŀĢ ìĥī
Ġì¶ķ ìĤ°
Ġì¿ ¤
Ġíķ¸ëĵľ íı°
Ġinst af
Ġê²½ ì§ģ
Ġì°¬ ìĬ¤
êµĲ íĨµ
Ġíķ© ë²ķ
Ġì²ľ ë¬¸
Ġë°ķ ì¤Ģ
ĠìłĦì Ĩ¡
Ġìķĺ ìĹĪ
ëįĶ ëĿ¼
Ġê²© ë¦¬
ëłī ìħĺ
f c
Ġë© §
Ġ;& #
Ġëĭ¨ ìĦľ
Ġìĭľ ë¹Ħ
¶ ©
ĠìłĦë Ŀ½
ub e
Ġë§¤ ì½¤
ĠìĿ´ ì°½
Ġä ½
ĠìĿĺ ìķ½
Ġíİ Ħ
ëĦ¤ ë§Ī
ation al
Ġë¯¸ë ¥´
Ġìľł ë³ĳ
ë°Ķ ìĿ´íĬ¸
Ġê°ķ ì¶ĶìľĦ
Ġë°Ķë¥´ ìħĢë¡ľ
ĠíĥĦ íĻĺ
ĠëĭĪ ê¹Ĳ
p a
ĠìĻķ ìĭ¤
Ġìłķ ì¡°
Ġë³´ëıĦ êµŃ
ĠëĿ¼ìĿ´ íĶĮ
Ġë°Ķë¥´ìħĢë¡ľ ëĤĺ
Ġì§Ħë ¡ľ
Ġìłľì¡° ìĹħ
íķĺ ë£¨
Ġëĭ´ íĻĶ
ĠìĦ¤ íĥķ
ĠìĦł ë¡ľ
ĠëĬĲ ëł¤
ĠëĤĺ ìģ¨
Ġë¹Ħë¹ Ķ
Ġë²¼ë Ŀ½
ĠìĿ´ ëĮĢë¡ľ
Ġë²Į ìĹ¬
Ġë· Ķ
ĠëıĻ ì§Ģ
ĠãĢĭ ,
ĠíĥĢìĿ´ê±° ì¦Ī
Ġë°ľ ëªħ
ìĤ° ëıĻ
ĠíĥĢ ì¿ł
Ġê¸Ī ê°Ĳ
Ġë¶Ģ ëıĦ
Ġìĭ¤ ì±ħ
íĥľ ìļ°
Ġëĥ ł
Ġëª¨ ìĥī
ĠíĹ¬ ìĬ¤
ë²Ī íĬ¸
Ġíķ´ ê³¨
Ġë¯¸ë ¯¸
Ġì²ĺ ì°¸
Ġëĭ¨ ìĭĿ
ĠíĮĮ ìĬ¤
ê·¸ë Ĥĺ
ĠìĿ´ íİĻíĬ¸
Ġê¸Ī íĺ¸
Ġìĺ¬ëĿ¼ ê°Ī
Ġê´ĳ ë¶Ģ
at a
ĠìĬ¤ íĭ±
Ġ+ +
ĠëĤ© ëĵĿ
g a
Ġìłķ ë°ĺ
Ġì£¼ ìĭľ
Ġíıī ìĥģ
ĠëĤĺ ë¥´
Ġëª¨ ìĶ¨
Ġë¦¬ ê°Ģ
ìĺ¤ ë£¨
Ġëĭ¤ ì¼Ģ
Ġìĺ¬ë¦¬ ë¸Į
Ġ= ================
Ġì°¨ ëªħ
ĠêµŃ ìĪĺ
ĠìĬ¤ íħĿ
ĠìĹ° ëıĻ
ĠíĮ į
ĠíĶĮ ëĿ¼ìĿ´
Ġìŀ¬ ë°ľ
Ġì¹´ ìŀĲ
Ġì¶© ì¡±
Ġìĥģ íĸī
Ġë³´íĺ¸ë §ī
Ġë°ķëŀĮ íļĮ
Ġs um
ëĦ¤ ìĿ¼
Ġì Ĳ
Ġë°ĶìĿ´ ìĺ¬
Ġê·¸ ê°Ħ
Ġëł Ģ
Ġëį° ëª¨
ĠìĹ¬ ëĮĢ
Ġb pm
Ġìŀ¥ ë¡ľ
ĠíĮĲ ëĭ¤
Ġëĭ¨ ì¢ħ
ĠìĦľ ë²ĪíĬ¸
ì½ ¥
Ġë¶Ī ìĸ´
Ġìłķ ìĦĿ
ĠíĶ¼ ìĹĲ
Ġì¡° ìĨį
k o
Ġì§Ģ ì¹Ń
Ġìĸĳ ëıĦ
Ġíķ¨ ìľł
g l
Ġa a
ĠìĿ´ ê¸´
Ġëªħ ë¬¸
Ġr ec
Ġê²° íķ¨
Ġìĺ¤ë¡ľ ì§Ģ
ĠíĮ¨ ë°Ģë¦¬
ķ ¡
Ġ2 5
Ġìłķíķ´ ì§Ħ
Ġìķ¼ë§Ī íĨł
Ġê±° ëĳĶ
ĠìłĢ ëłĩê²Į
Ġê´ĢëŀĮ ê°Ŀ
Ġì¡° ëĭ¬
ĠíĶĮëĿ¼ìĬ¤ íĭ±
ĠìĨĮë°© ìĦľ
¨ ¼
Ġì¹´ ìĻĢ
ë½ ķ
Ġì¤ĳ ê³Ħì
Ġcom m
Ġìŀħ ìĤ¬
Ġìłķ ì¤Ģ
ĠíĬ¸ë ¡¤
Ġì°¨ ë¶Ħ
ĠìĦ¬ ëĦ¤ìĿ¼
iver s
Ġì°¾ ìķĦëĤ´
ĠìĻ¸ ìĭł
Ġì§ģ ìĦł
ĠìĤ¬ ì§ģ
ë°Ľ ì¹¨
Ġëĭ¤ ì§Ĳ
Ġë īĺ
ĠíĶ¼ ìļ°
ä º
Ġê³µ ëĮĢ
Ġinstaf ood
Ġê°ķ ë¯¼
Ġëĳ ł
Ġì´Ī ìĥģ
ĠëŀĢ ìĬ¤
Ġìĸ´ëł¤ ìĽł
Ġì¼Ģ ìĿ¸
ìĭľ ìŀ¥
ĠíĥĦìķ ķ
ĠìľĦíķ´ ìĦł
Ġë¹Ħë ªħ
Ġì¶Ķ ë¦¬
¹ Ī
Ġë°Ģ ëıĦ
Ġì²ł ìĽĲ
Ġê°Ŀ ê´Ģ
ĠìĽĲ íĻľ
Ġê°Ģ ë§Ī
Ġb aby
ë¸Ķ ë¦°
ëĿ¼ë ĶĶ
Ġë³´ ìľ¡
Ġì´Ī ìĿ¸
Ġëª¨ ëĵĪ
Ġëļ ±
Ġìŀ¥ìķł ë¬¼
Ġë® Į
ĠìĿ¼ ê³±
ĠìĹ¬ ê¸´
Ġa ir
ĠìłĦì Ĥ°
íĺĦì §Ħ
ĠëįĶêµ° ìļĶ
ĠëĿ¼ìĿ´ìĺ¨ ì¦Ī
ĠíĹĮ ìŀ¬
Ġê¸ī íķĺ
Ħë ²ķ
Ġêµ¬ ìŀ¥
Ġìļ° ìĽĶ
ĠëĶ° ìĺ¨
ĠìĹ¬ ë°°ìļ°
ĠìĪĺ ìĨĮ
ĠìĤ¬ ë²Ķ
Ġìĭľ ìĭľ
ĠìĻķ ë³µ
Ġìłĳ ìĭľ
ĠëŃĶ ì§Ģ
Ġë§ŀì¶° ìĦľ
ĠëĮĢ ê´Ģ
Ġë³´ì¡° ê¸Ī
ĠìĿ´ ê±¸ë¡ľ
ar i
ĠìĤ¬ ëĤĺ
Ġë¯¸ëģ ĦëŁ¬
Ġwh o
ĠìłĲ ê±°
ĠëĽ°ìĸ´ ëĵ¤
Ġi v
ĠëĴ Ģ
y e
ĠíĥĲ ìĥī
Ġê±´ ìłĦ
ĠëĲł ê¹Į
ĠíĴį ìĦł
ìĻ ¸ë¡ľ
Ġë§Ľ ëĤĺ
Ġê²½ ìĹ°
Ġê·¸ ìłľ
ìĬ¤íĥĢ ìĿ¸
Ġ1 3
ĠìłĢì§Ī ëłĢ
ëĭĲ ëĿ¼
ĠëıĻ ìłĲ
ĠìķĦ ëłĪëĤĺ
Ġë¬´ ê¶ģ
íħĮ ìĿ´ëĦĪ
Ġì²´ ìĿ¸ì§Ģ
Ġë³Ģ íķ´
Ġíķ« ëī´ìĬ¤
Ġë¶ģ êµ¬
ĠìĹĲ ë¡ľ
ĠìĿĺ ìĻ¸ë¡ľ
ĠìĿ´ íĥĢ
Ġì¡° ë¦½
ĠìļĶ ê²©
ĠìĬ¤ íĭ°ë¸Į
Ġíį¼ ì¦Ĳ
Ġm hz
ĠìĿ¼ íĻĶ
ĠìĿ´ ìĻĦ
Ġê´Ģ ìłĪ
°Ķ ëŀĮ
Ġé ķ
ìĬ¤ íĭ±
Ġìŀł ëĵ¤
ĠíĿĶ íķľ
Ġê±´ ìĿĺ
Ġë³¼ ê¹Į
Ġg et
Ġì°¨ ë¦¬
ĠìĨĮìŀ¬ ì§Ģ
Ġì¡° ë¡±
Ġìį¬ ëįĶ
ĠëĤĺ ëŀĢíŀĪ
ĠëĮĢ ìĹŃ
Ġë²Ħë ¸Ķ
Ġh er
Ġëª¸ë §¤
ĠêµĲ ìłķ
Ġìĭ¤ ìĥģ
ĠëłĪ ì½Ķëĵľ
ĠæĹ ¥
ĠìĬ¤íĥĢëĶĶ ìĽĢ
Ġs ol
Ġb est
Ġìĸ´ íķĦ
Ġë¯¼ ì¤ĳ
ĠëĤ Ģ
ê²Į ìŀĦ
ĠìºĲ ìĭľ
Ġê±´ì¶ķ ë¬¼
Â ·
Ġì²ľ êµŃ
Ġê·¹ íŀĪ
Ġìĭľ ìĪł
ĠìłĢ ê±°
ĠìłĦ ê²½
Ġp re
Ġêµ¬ ëıĻ
_ _
Ġì£¼ êµĲ
Ġë°° ì¶Ķ
ĠìķĦíĶĦ ê°Ħ
Ġì£¼ìĭĿ íļĮìĤ¬
ĠìĿ´ ì¼Ģ
Ġå ±±
Ġê³µëª¨ ìłĦ
Ġíķ© ìŀĳ
Ġê¿ °
ĠíķĦ íĦ°
ëĤ´ ë¦¬
ĠìĹ° ìĿ´
ĠìķĦìĿ´ ëĶĶ
ĠëĦī ëĦī
ĠëĳĲ ëĵ¤
Ġ1 4
ĠìĦ± ìĪĺ
ĠíĮĮ ìļ´ëĵľ
Ġìĭľì¼ľ ìķ¼
ëŁ¬ ì§Ģ
c c
Ġy o
Ġê³Ħì Īĺ
Ġì¹ľ íķ´
ff f
² ¤
ĠìķĦìĿ´ íĮ¨ëĵľ
Ġë¦¬ ì½Ķ
Ġë³´ íĬ¸
Ġì°¾ìķĦë ³¼
Ġì§Ģ íĮ¡ìĿ´
Ð¾ Ð
ĠëĮĢ ì£¼
íĤ¤ íį¼
Ķ ĺ
ìķĦ ìł¸
Ġìŀ¥ ìĭł
Ġì§Ħ ê²©
Ġë³´ìĬ¤ íĦ´
Ġì´ī ì§Ħ
Ġë²ķ ì¡°
Ġar t
Ġíķ´ ìł¸
ĠëĲĲ ìľ¼ë©°
ë¬´ ìĭľ
Ġìĭľ ìĨį
ê·¸ ë¦¬
ĠëĮĢ ìłĳ
ĠíĤ ·
Ġêµ¬ ë¥´
ĠëĮĢ ìĿ¸
ìĹ¬ ê°Ŀ
ĠëłĪ ëª¬
Ġíķĺ íĸī
Ġë°ķ ì°¬
ĠìķĶ íĺ¸
Ġê¸° ë¬ĺ
Ġì§Ĳ ìŀĳ
ĠìĦ± ìĶ¨
Ġì§Ī íĪ¬
ĠìłĢ ë²Ī
Ġê°Ĳ ëĭ¹
ĠìĪĺ ì£¼
Ġíĩ´ ì§ģ
ĠìĿ¸ë ¬¸
ĠëĿ Ħì
ĠíķĻìĥĿ íļĮ
ĠìĿ´ íķľ
ĠìŀĦ íĮ©íĬ¸
Ġìłľ ìĻķ
Ġbe at
Ġê¸° ìģ¨
Ġj e
Ġë³Ģ íķ¨
Ġê³µê¸° ìĹħ
Ġìŀł ìŀħ
Ġìļ° ì¹ĺ
Ġê²° íĪ¬
ĠìĦł êµĲ
Ġì¤ĳ ê²¬
Ġíķľ ìĥģ
ĠìĥĿ ë¦¬
Ġë°ĺ ê°Ĳ
ĠìĽĮ íģ¬ëŀĺíĶĦíĬ¸
ĠëĨĢ ëŀĲ
Ġ' '
Ġë°ĺ íĻĺ
ĠíĬ¸ëłĮ ëĵľ
ĠìŀĲ ìłķ
Ġì½ ķ
Ġëļľ ê»ĳ
Ġìłķ ê²½
ĠìĿ´ ëĿ¼ëıĦ
Ġë¶Ģ ìĽĲ
Ġs ize
Ġìķ¤ ëĵľ
Ġs v
Ġìµľ ìŀ¬
Ġì¤ĳ ê°ľ
Ġë°ľ íĮĲ
ĠìĤ° ë§¥
ìĬ¹ ë¶Ģ
ĠëĤĺíĥĢ ëĤł
Ġb at
Ġë¦¬ ì¦Ī
Ġíı¼ íİĺìĿ´
ĠíĮĮ ìĿ´íĬ¸
Ġê³¨ íĤ¤íį¼
Ġâĺħ âĺħâĺħ
ëĤ¨ ëıĻ
Ġìłĳ ìĸ´ëĵ¤
Ġst ation
¼ë ³ĳ
Ġë°© ìĹŃ
Ġê³µ ê³ł
Ġì°¸ ì¹ĺ
ìĭľ ìĬ¤ì½Ķ
Ġë¬´ìĭľ ë¬´ìĭľ
ĠëĶľ ëłĪìĿ´
Ġì¤Ħ ê±°ë¦¬
Ġê·¼ ê±°ë¦¬
Ġíı¬ íģ¬
Ġë°± ìĸµ
Ġìľ¼ëł¤ ë©´
Ġë³´ ìĬµ
ĠìłĦë ħĦ
ĠìłĬ ìĿĢìĿ´
ĠìħĶ íĭĢ
ĠíĥĢ ìĦĿ
ĠìĹĶ ì§Ģ
ĠêµŃ íĮĲ
ĠìĿĺ ìłľ
Ġì§ģ ê¶Į
Ġæĸ ĩ
Ġì°¨ ëł¤
ìĪĺ ë¦¬
ëĬĲ ë¦¬
ĠëĵĢ ìĺ¤
Ġë¶Ī íİľ
ĠíĨµ ìŀ¥
ëłĪ ìĿ¼ë¦¬
Ġëħ¹ íĻĶ
ĠëłĪ ìĿ¼
ĠíĬ¹ ê³µ
Ġíħ Ł
Ġë°ĶëĢĲ ëĭ¤
ĠëıĦ ì²Ń
Ġ%) ,
Ġìľł ìĦł
Ġíģ´ ëłĮ
Ġìĭ¤ ëł¤
ê·¸ë §¨
Ġì°¸ë °°
Ġìŀ¬ ìĪĺ
ë¸Ķ ë¦¿
© ĺ
ĠìĿ´ë¸Į ëĭĿ
Ġìĺģ ì§Ģ
ĠíĶĦë ¡ł
Ġíķ¨ ë¶Ģë¡ľ
ìĻ¸ë ²ĦìĬ¤
Ġë¯¼ê°Ħ ìĿ¸
ĠìĿ´ê¸Ģ ìĬ¤
Ġìĥ ¬
Ġë°ķ ê¸°
Ġë²Ħ íħ
ìĺ ´
Ġê¹Ģ ë¬¸
ĠíŀĪ ëĿ¼
Ġì¢ħ ê²°
Ġb c
íĬ¸ë Ŀ¼ë
r on
ĠìłĦì Īĺ
Ġëħ¸ ë¦°
Ġíİĺ ëĦĲ
ĠìĦ¸ë Ŀ¼
ë¦¬ ìĺ¨
Ġìĭľ ìĻ¸ë²ĦìĬ¤
Ġê·¼ ìĽĲ
Ġì§Ģ ìĦ±
ĠìķĪ ì£¼
Ġì§ĳìĸ´ ëĦ£
Ġëŀĺ íį¼
Ñ Ĥ
Ġì«ĵ ê²¨
Ġë³´íĹĺ ê¸Ī
ĠìĥĮëĵľ ìľĦì¹ĺ
ĠìĽĲ ì²ľ
Ġgd p
ĠíĪ¬ ì²Ļ
Ġë¶Ģìĥģ ìŀĲ
ĠíĽĦì §Ħ
Ġë§¤ ëĵľ
Ġë° ¸
ĠíĽĦ ìŀĲ
Ġëĥī ê°ģ
Ġìłķ ìļ´
ìĥģ ë¶Ģ
Ġíĳ¸ íĭ´
ĠíŀĪë¡ľ ìĭľë§Ī
Ġìĸ´ ìļ°
ĠìĽĲ ë¡ľ
Ġê²° ëĭ¨
ĠìĬ¤ë¯¸ ìĬ¤
Ġë¦¬ íĭĢ
Ġê¸° ìĪĺ
ãĥ ¼
íĶ ĦìĬ¤
Ġì¿ł ìħĺ
Ġìĭ £
ĠìķĦì Īĺ
Ġëĭ¬ ìķĦë
j ect
ĠíĤ¤ íĥĢ
ĠìĤ¬ ê´Ģ
Ġíı¬ íļį
ĠìłĪ ê°Ĳ
Ġê²½ìłľ íķĻ
ĠìĪĺ ëĭ¤
Ĥĺ ëĿ¼
Ġê¹Ģ ë°¥
Ġëı¼ì§Ģ ê³łê¸°
Ŀ¼ë ¹ĦìķĦ
Ġfff fff
ĠêµŃ ì§Ģ
Ġë¯¸ ìĦ±
Ġhe art
Ġê¸°ëıĻ ìĦ±
ĠìºĲ ì¹ĺ
ĠìĪĺ ëĭ¹
ab le
ëĦ Ľ
Ġb ea
Ġê³łëł¤ ëĮĢ
ĠìĦľ íģ´
ĠëįĶ ë¹Ļ
Ġìĭ¤ ìłķ
Ġëª¨ ìĿĺ
ê³Ħì Ĥ¬
ĠìĹ¬ ë¦
Ġìĥ¤ ìĿ´
Ġìłľ ê³±
Ġìŀ¬ ê³ł
ĠíĥĢ ìĿ¼
Ġì±ħìŀĦ ì§Ģ
ĠëĪĪ ìķŀ
Ġë²ł íħĮ
Ġì¡´ ìĬ¤
ĠíıŃê²© ê¸°
Ġìłľ ëıħ
ĠìĿ´ ê°ķ
Ġìķł ìĻĦ
Ġen d
Ġëªħ ëıĻ
ĠìĤ¬ ì´Į
Ġíĺ¼ë ıĪ
Ġë°ķ ë³ĳ
¦ Ŀ
Ġë¦¬ ì½ľ
Ġë§Ī ì½ĶíĨł
Ġìŀ¬ ìķĻ
Ġr ock
v i
Ġë¶Ģ ìľł
er t
Ġæ Ī
Ġê¸° ë²ķ
Ġê³µ íĹĮ
Ġê² Ķ
Ġáħ µ
íĶ ¼ë
Ġìłķ ë°ľ
Ġëħ¸íķĺ ìļ°
ĠìĿ´ ì§Ħ
Ġê¸° ëł¥
Ġì¹´ ìĭľ
íį¼ë ĵľ
ĸ ¼
ĠìĹ° ìĨĮ
Ġì£¼ ìłĢ
Ġê°ģ ëıĦ
ĠìķĦë°Ķ íĥĢ
Ġëĵľ ë¦°
Ġå º
ĠíĶ¼ë Ĥľ
Ġíķ´ ë¨¸
ĠìĬ¤ íĥľ
Ġê°Ĳ ì¶ķ
¾ °
ë¶Ģ ìĿ¸
Ġj p
Ġë§ĪìĿ´ ëĦĪìĬ¤
Ġê»į ì§Ī
Ġì°¨ ë¦¼
Ġin f
ĠëĦĺìĸ´ ìĦ°
ĠíıŃ ëĿ½
íıī ê°Ģ
ë¯¸ ìķ¼
ê¿ Ī
Ġê·¸ ìª½
ĠìĤ¬ ë¥´
Ġëį© ìĸ´ë¦¬
ë¥ ¼ë¡ľ
Ġs ong
Ġt s
Ġ2 4
íĥĢ ì¹´
Ġì± Ī
ĠíĹ ī
Ġë¶Ī ì¾Į
Ġë¹ĦìĬ¤ íĬ¸
Ġìĭł ì¶ķ
ĠëĶ°ëĿ¼ ìŀ¡
ĠëĶ° ìł¸
ĠëĦĺìĸ´ ìĦľ
Ġë¦¬ ëĿ¼
Ġë¶ģ ëıĻ
ìĽ °
ĠëıĦ ìĸ´
Ġëĵ¤ìĿ´ ë°Ľ
Ġê¸°ëıĻ ìłĦ
Ġê´Ģëł¨ ìŀĲ
ĠìĹĲ ë°ĺ
ĠìĿ¸ íĶĦëĿ¼
ĠíĬ¸ ë¦Ń
Ġì°¨ ìĦł
Ġê·¸ëŀĺìĦľ ìĿ¸ì§Ģ
Ġê°Ģ ëĤĺ
at er
ĠìĪĺ ê³ł
Ġìŀ¡ íĺĶ
ĠìĤ¬ ìĪĺ
Ġê²¹ ì³Ĳ
Ġê±¸ ì¦Ī
Ġê²© ëł¬
ĠëĳĲ ë£¨
Ġëĭ¬ ëŀĺ
ëŁ¬ ê·¸
Ġëĭ¬ íĸĪ
ĠëĮĢ ìľĦ
Ġìĭľ ëª¨
Ġêµ¬ ê¸ī
ë¹ ¡
ĠíĨł ìĭľ
Ġê²¬ ëĶĶ
Ġíķĺ ëıĦ
Ġê´Ģ íĸī
ë©ĺ íĦ°ë¦¬
Ġë¡ľ ìĿ´
ĠíĨµ ì§¸
ĠêµĲíĨµ ë¶Ģ
Ġë³Ģíĺ¸ ìĿ¸
Ġë§Ī ìħĶ
Ġì³Ĳ ìĦľ
ĠíķĦ ë¦½
ĠíĶĦë¡ľ íĨł
ĠëģĿ ëĤł
Ġê³µëıĻ ì²´
Ġìĥģ ìĨį
ëį ®
ĠìĹ ĦìĹ°
Ġìľł íı¬
d ay
Ġìļ° ë£¨
Ġbl ue
Ġíķ´ìķ¼ ì§Ģ
ĠìĹĶ ëĵľ
Ġì§¬ ë½ķ
Ġë¶Ī ìĮį
ĠìĤ° ëĭ¤
Ġíĥľ ë¸Ķë¦¿
ĠëĿĦ ìļ°
Ġëł¤ ëĭ¤ê°Ģ
Ġì½Ķ ëģ¼ë¦¬
il d
Ġíĺ¸ë °ķ
â ĶĢ
ĠìĪĺ ìĹ¼
Ġë¹Ħì Ľĥ
Ġìķŀ ìĦ¸
ĠíİĢ ëĶ©
Ġì½Ķ ëĶĶ
Ġìµľìĥģ ìľĦ
íķĺ ë¥´íĬ¸
Ġë£¨ íģ¬
ìķĦë Ŀ¼
ĠëĤĺë£¨ íĨł
es e
Ġíķĺ ìĿ¸
ĠìĨ¡ ëıĦ
ĠìĿ´ íĻĶ
Ġì¹´ ëĭ¤
Ġì´Ī ëŀĺ
ëłĪìĿ¼ë¦¬ ìķĦ
ëľ¨ ëł¤
Ġíİ¸ íķľ
Ġê²½ ìĭł
Ġle ft
Ġê² ľ
ëľ¨ ë¦°
ĠìŀĲ ë¹Ħ
Ġë¶Ī ìĭł
ĠëłĪìĿ´ ëĶĶ
ĠëĪĦ ê·¸ëŁ¬
ĠìĤ¬ ìŀĦ
ĠëıħìĿ¼ êµ°
ĠíĽĦë°ĺ ê¸°
Ġê°Ī ìĥī
ĠìĿ´ìŀ¬ ìļ©
Ġê°ķëĤ¨ êµ¬
Ġí Ĥ´
Ġë§Į ì°¬
Ġê¹Ģ ìĽĲ
ĠìĹī ëį©ìĿ´
Ġê°ķ ëĵ±
Ġìŀ¬ ì¦Ī
ĠìĪĺ ìĦ±
Ġaf c
ĠìĤ¬ ê°ģ
Ġì¤Ħ ìĿ¼
Ġìĺ· ì°¨ë¦¼
Ġìļ° íĥĢ
Ġë¶ģ ê·¹
Ġíı¬ ì»¤ìĬ¤
Ġíķľ ì§Ħ
Ġd u
ëħ¸ë ¯¸
Ġëĭ¤íģĲ ë©ĺíĦ°ë¦¬
ëĿ¼ìĿ´ ëĤĺ
Ġìŀ¬ íļĮ
Ġê¹ĥ ë°ľ
Ġíį¼ ìĬ¤íĬ¸
ĠíħĮ ëĭĪìĬ¤
Ġë°± ëĳĲ
Ġë©ĶìĿ´íģ¬ ìĹħ
ĠëĿ¼ìĿ´ ìĸ¸
Ġê°± ìĭł
íĿ¬ ìłķ
Ġë§Ĳ ê¸°
Ġì±Ħì ·¨
Ġë¹Ħì¦Ī ëĭĪìĬ¤
Ġìĺģ ê°Ĳ
Ġêµ¬ ëĳĲ
Ġë£¨ íĶĦ
Ġìµľ ìĺģ
Ġë´ī íĪ¬
ĠíķĺëĤĺ ëĭĺ
an i
Ġb d
ê³ł ëŀĺ
Ġë°° êµ¬
Ġëĭ¤ íĪ¼
Ġp ower
ĠëĭĪ ìķĦ
ĠëĭĪ íĺ¼
Ġìľ¤ ìĦĿ
ĠìķĦë¥´ ë°ĶìĿ´íĬ¸
ĠìĿ¸ ê³¼
ĠìĦł ëıĻ
Ġìŀħ ìĸĳ
ĠìĨĲ ìī½
Ġìłķ ê´Ģ
Ġë¦¬ì²ĺ ëĵľ
Ġê·¸ëĿ¼ ìļ´ëĵľ
Ġìłķ ê³Ħ
Ġëª¨ ìĬ¤
Ġìŀ¥ íķĻ
Ġìĵ¸ë į°
Ġê° Ħì²
ĠëĿ¼ëĵł ì§Ģ
Ġë°° ëĭ¹
ĠíĻķ ê³ł
ìļ° ì¹ĺ
Ł ³
ĠìĪľ ì°°
Ġì² ¸
ĠëĨį ìĤ¬
Ġë¹Ħë Ĥĺ
ĠìĪĺ ëł´
ĠëłĪ ìĭľíĶ¼
ĠíĬ¸ë Ł¬
ĠìĤ¬ ìķ¼
ĠíŀĪ ëĵł
ĠìĹ° ìķĪ
Ġë§Ī ìĺ¤
Ġë ĸ´
Ġê³µ ì§ľ
ĠìĿ¸ ì¹ľ
Ġ{{{ #
ĠëĮĢì¤ĳ êµĲíĨµ
Ġì¹¼ë ¡ľ
Ġê·ĢìĹ¬ ìĽĮ
Ġë¶ĢìĤ¬ ìŀ¥
ë¶Ī ëªħ
ëĥ ł
ĠìĦľ ë¦¬
Ġì»¨ íħĮìĿ´ëĦĪ
Ġê³± ì°½
Ġë¶Ħì Īĺ
ĠìŀĦì ĥģ
Ġì¹ľ ì²Ļ
Ġëĭ¤ëĭĮ ëĭ¤
Ġë°ĺ ê²½
Ġê°Ģ ì§Ħëĭ¤
ĠëıĮìķĦ ê°Ī
Ġêµ ¶
ĠìĦ± ìłĦ
Ġo k
Ġì²ĺ ë°©
Ġh ap
Ġë£¨ ë§Ī
âĨ Ĵ
Ġìĺ¤ìĬ¤íĬ¸ ëłĪìĿ¼ë¦¬ìķĦ
ìĿĮ ìĿ´
Ġìĭľ íĿ¥
Ġíľĺ íķĺ
Ġê¸° ë¥´
Ġìļ´ ë°ĺ
ĠìķĪ ìĥģ
ĠáĦ ĭ
ĠëĿ¼ìĿ´ ëĦĪ
ĠìĨĮ íıŃ
ĠìĦĿ ìĤ¬
Ġì²ł ê¶Į
Ġíĩ´ ì¶ľ
Ġëĭ¹ ëĮĢ
Ġê°Ģ ì¶ķ
Ġì¹´ ë©Ķ
ĠëĴ· ë°Ľì¹¨
ĠëĨį ìĤ°ë¬¼
Ġë³´ íĸī
ĠìĤ¬ íĪ¬
Ġìľł ì£Ħ
Ġë¡ľë§¨ ìĬ¤
Ġìĭ¤ ëªħ
ĺ ìĸ´
ĠìľłëĭĪ íģ¬
Ġìĭ¬ ìķ¼
Ġë¸Ķ ëĿ¼
Ġê³¤ ì¶©
ëĮĢ êµĲ
ìĸ´ ìł¸
Ġì°¨ ê°Ģìļ´
ĠëıĻìĦ± ìķł
Ġíķĺ íĶĦ
ĠëĮĢ ê¶Į
ìĦŃ ëĭĪëĭ¤
Ġê±° ìłľ
âĸ ł
Ġë¶Ģ ëģĦëŁ¬
Ġd el
Ġìŀ¡ íŀĮ
ĠíĺĪìķ¡ íĺķ
Ġìłķ íķľ
ĠìĤ¬ ë¬¼
Ġì¶ľ ë£¨
ĠíĶĦëŀĳìĬ¤ ìĸ´
Ġë³´ ëĭµ
ĠìŀĲ ìĤ¬
ĠìŀĦì ¢ħ
ĠíĶĦ ëłĪìĬ¤
Ġì±ħ ìĥģ
Ġë§¤ ëĭĪìķĦ
Ġëĭ¨ ë§Ĳ
Ġíı¬ íĦ°
ìĽĮ ì¦Ī
h a
Ġêµ´ ëŁ¬
ĠìĦľ ê·Ģ
Ġê±´ìĦ¤ ìĤ¬
Ġëª¨ ìļķ
Ġë¯¸ ìĪĺ
Ġr a
Ġì¡° ìļ°
Ġë°ľ íĥģ
ĠìķĦì ķĦ
Ġê¹¨ ì§Ģ
Ġìĺ¤ ë§Į
Ġìĥī ëĭ¤ë¥¸
ê¶ Ī
íĬ¸ë ŀ
Ġë§Į ì§Ģ
ĠëĤ¨ ìļ©
Ġìĭłëį° ëłĲëĿ¼
Ġìĥ ¹
Ġëĭ¤ê°Ģ ê°Ģ
Ġë¬´ ëĬ¬
ĠìĽĲ ê³¡
ĠìĽĢì§ģ ìĿ¼
Ġë²¤ ì¹ĺ
Ġâĸ ¼
Ġëįĺ ì§Ħ
Ġì½Ķ ë§Ī
ĠìĬ¤ ì¦ĪíĤ¤
Ġë³´ëĿ¼ ìĥī
ĠìĬ¤íĥĢ íĬ¸
Ġìľł ëĿ¼
Ġ' ''
Ġì§Ģìĥģ íĮĮ
ĠìĤ¬ ìĤ¬
ìķĦë ³´
ĠíĻĺ íĺ¸
l and
Ġëĭ¬ ëŀĲ
Ġê³¼ ìĦ¸
ĠëĨĢ ëŀį
Ġê³µ ìĺģ
ìĹħ ìŀĲ
Ġl p
Ġë¬´ìŀĳ ìľĦ
Ġíĺĳ ëıĻ
ìłľ íĴĪ
Ġìĥģ ê¸Ī
§ ¥
ĠëĮĢ íĥĢ
íĺľ ì§Ħ
Ġìĵ°ëŁ¬ ëľ¨ë¦¬
Ġê°Ħ ìĦŃ
Ġíķĺ ìĬ¤
ĠíĢ´ ì¦Ī
ì§ķ ê¸Ī
Ġëģ¼ ì¹ĺ
Ġë¬´ ê³µ
Ġë µ
Ġëĭī ëĦ¤ìŀĦ
Ġë®Į íĹ¨
Ġm ed
ĠëĿ¼ ì¦Ī
Ġê°ľ êµ¬ë¦¬
ĠíŀĪ íĭĢëŁ¬
Ġa ct
ĠëĦĺìĸ´ ê°Ķ
-**** -****
Ġìļ°ìĬ¹ ìŀĲ
ĠìĤ¬ìĿ´ ì½Ķ
ĠìĹ´ëĮĢ ìķ¼
Ġë§Ī ìĿ¼
Ġë©Ķ ëª¨
Ġë§ī ê°ķ
Ġsk y
ĠíļĮìĽĲ êµŃ
ĠìĹ £
Ġin line
Ġìĸĳ ë°ĺ
Ġë©Ķ ìĿ´ì§Ģ
Ġha ve
ë² Ħì
ĠëĬ¥ëł¥ ìŀĲ
ĠëĦĺ ì³Ĳ
ê³ °
Ġë²Ħ ëł¤ìĦľ
ĠëıĦ ìĬ¤
Ġê¹Į ìĬ¤
Ġëĭ¬ëĿ¼ ì§Ħ
i th
Ġë°ķ ìļ©
Ġp m
ĠíĿ¥ ë¶Ħ
Ġty pe
Ġë¬´ëįĶ ê¸°
Ġs er
Ġëį°ëł¤ ê°Ģ
ë¥´ ê¸°
ìĭľ ëĮĢ
Ġn ow
Ġì°© ê³µ
Ġìĸ¸ë į°
Ġìŀħ ì°°
Ġw in
ĠëıĻ ëĮĢë¬¸
ĠíĪ¬ ëĭĪ
Ġë¯¸ë Ł¬
ĠíĤ¬ë¡ľ ë¯¸íĦ°
Ġê°ĩ íĺĢ
Ġë¯¸ ìĥģ
Ġë°° ìļ´
ĠìĦ± ë²Ķì£Ħ
Ġìĺ¤ ë¦Ħ
ĠìĬ¤íı¬ ìĿ¼ëŁ¬
Ġb ig
Ġê·¸ëŀĳ íĶĦë¦¬
Ġë³´ìĹ¬ ìĦľ
Ġë¦¬ì¡° íĬ¸
ĠíĬ¹ë³ Ħë²ķ
Ġì¡° ìķĦ
Ġíķĺ ìĤ¬
Ġë§Ī ìļ´
ĠíĨł ë§ĪìĬ¤
Ġì£¼ ê³µ
Ġt ri
Ġradi us
o b
ĠìķĶìĤ´ ìŀĲ
Ġê³µ ì§ģìŀĲ
ëĭ¤ ìļ´
Ġë¶Ļ ìĿ¸
ìĿ¸ë ³´
Ġê´ĳ ë¬¼
ĠíĶĦ ëłĪìĿ´
Ġìĸ´ìĿ´ ìĹĨ
Ġë¶Ī ëĬ¥
Ġìľł ë¯¸
ä ¸
Ġë¯¸ë ħĢ
Ġíľĺë°ľ ìľł
Ġíĺ¸ ìĿĳ
Ġë³¶ìĿĮ ë°¥
Ð º
ĠìŀĲ íļĮìĤ¬
Ġë§Ī ìĿ¸ëĵľ
ìĿĢ ìĥī
Ġìĸ¸ëį° ëĵľ
Ġë³´ íİ¸
ĠìĿ´ëĿ¼ëĵł ì§Ģ
ĠìĨĲ ëª©
Ġëª¨ ìĺĢ
ĠêµĲ ëĭ¨
Ġì¢Į íĮĮ
ĠìĬ¤ íķĢ
Ġê´Ģ ê±´
Ġ- "
Ġë¬¸ ìĭł
Ġlt e
Ġìĸĳ ìĨĲ
Ġë§Ī ìĵ°
ĠëĤ´ìĦ¸ ìļ°
ĠìĿ´ ìĺ¤
Ġsp ec
ë¦¬ ì¹¸
ĠìĦ¼ íĭ°
ĠìĦľê·Ģ íı¬
Ġì¹ľ ë¶Ħ
Ġêµ¬ ë§Ī
Ġå Ī
a x
ĠìĬ¤í Ģ
ĠìķĦëĭĻ ëĭĪê¹Į
Ġê³µíĨµ ìłĲ
Ġê³µìłķ ìľĦ
Ġì²´ ë¥ĺ
ĠëıĻ êµŃ
Ġsel f
Ġíģ¬ ëłĪìĿ´
Ġëģ¼ ìĽĮ
ĠëĤĺë ī
¶ Ķ
ĠìĹ°ìĬµ ìĥĿ
ëĭ¨ ì§Ģ
Ġìłģ ë¦½
ĠìĽĲ ìĭľ
Ġê¹ Ĳ
ģ Ħ
ĠíĮ¨ ìłĦ
Ġì§Ģ ê°ĳ
Ġ*** -****-****
Ġìļ¸ë¦ī ëıĦ
ĠíĻ© íĥľ
o id
Ġëĵľ ë¡ľ
ĠíķĻ ëħĦëıĦ
ĠìĹī ë§Ŀ
ĠìĽĮ ì¦Ī
ĠìłĦ íĸ¥
ĠìĹĲ íĶ½
ĠíĥĢ ë¥´
ĠìĦľ ìĹ´
ĠíĬ¸ë ŀĺ
Ġë¯¿ ìĿĮ
Ġë¸Ķ ëŁŃ
ĠìĺĪê³ł íİ¸
ĠìķĦìĿ´ ëŁ¬
± Ħ
ĠëĤ¨ ìĤ°
Ġíĸ¥ ìĪĺ
Ġwh ite
Ġìĭłê²½ ìłĦ
Ġì£¼ íĮĮ
Ġì¦ī ìĤ¬
ĠíħĲ íĬ¸
ĠêµĲ ëĮĢ
Ġì¤ĳíĻĶ ë¯¼êµŃ
Ġìŀĥìĸ´ë²Ħ ë¦°
Ġìĺ¬ëĿ¼ ìĻĢ
Ġv ocal
ĠâĹĭ âĹĭ
Ī Ļ
Ġìĭ¤ ì¡´
Ġìļ° ëıĻ
ĠëĤ ¡
Ġìłľ ëĭĪ
ê°Ģ ìļĶ
ĠíĨµ ì¹Ń
ĠíĶĦë¡ľ ê²ĮìĿ´
ĠíĶĦë¡ľê²ĮìĿ´ ë¨¸
Ġìķŀ ìĦł
ĠíĨµ ìĺģ
Ġë¶Ħ ê³¼
ĠìĬ¤íı° ìĦľ
Ġìº¡ ìĬĲ
Ġì¤Ħì¤Ħ ìĿ´
Ġìļ° ì¸¡
Ġê³¼ ìŀī
ëĭĪìĬ¤ íĥĦ
ì² ¼
ëĵ¤ ìĹ¬
Ġë°Ģ ìĸĳ
Ġì£¼ ìĬ¤
ĠëĮĢ ë¶Ģ
Ġìĺ¤íĤ¤ ëĤĺìĻĢ
ĠìķĮëłī ìĬ¤
Ġë§ī ë§Ĳ
Ġìłģ ì¤ĳ
ĠíĮ ľ
ĠìĹ¬ ëŁ¿
ĠìĨį ìĨį
Ġë°¤ ìĥĪ
ĠìłĪ ëĭ¨
ĠëĨį ìĦ±
ĠìŀĦë °ķ
Ġì²ľ ì£¼êµĲ
Ġìķ¼ ì§Ģ
ĠíĮĲ ëıĦ
ĠìĦľ íı¬íĬ¸
Ġë¯¸ ìĿ¸
ĠìĪĺë¹ ĦìĪĺ
ĠíĹ· ê°Ī
ëłĪ ë°ĺ
Ġë¸Į ëĿ¼ìĿ´ìĸ¸
ëĵł ì§Ģ
ĠìĪĺë¹Ħ ëł¥
Ġì§ĳ ìĤ¬
ĠëĤ¨ êµ¬
Ġë§ŀ ëĮĢ
ĠìŀĶ íķ´
ĠìĿ´ ìĿ´
ĠìĤ° ë¦¼
ĠëĮĢêµŃ ë¯¼
ëľ¨ ëł¸
ĠíĬ¸ëłĪ ìĿ¼ëŁ¬
ĠìĪľ ë°©
ĠëĴ¤ ëį®
ĠëĦĺ ë²Ħ
Ġë¬´ ìĬ¹ë¶Ģ
Ġëĭ¹êµŃ ìŀĲ
ê´Ģ ìľĦ
ĠíĿĲ ë¦¬
Ġn m
Ġë¯¸ ìĦ¸
Ġë³Ģ íķľ
ĠëĮĢ ìĦ¤
ĠëĤ´ëł¤ ìł¸
Ġìļ© ìķĶ
Ġë¶Ħ íĻį
t i
ëĿ¼ë Ŀ¼
Ġìĵ° ìĿ¸
ĠíĨµ íĭĢ
Ġê³¼ë °ĺ
Ġë¦¬ íı¬íĦ°
Ġë³´ìĿ¸ëĭ¤ ê³ł
Ġëĥī ìłķ
ĠìłĦ ìŀĦ
Ġê´ĳ ìĦł
Ġíķĺ ìĻĢìĿ´
Ġì¤ĳ íķĻìĥĿ
ĠìĿ¼ íĻĺ
Ġì£¼ ê³ł
Ġf ir
Ġê³łêµ¬ ë§Ī
ĠìĬ¤ íĥĪ
Ġë²ł ìĸ´ìĬ¤
Ġí Ĳģ
Ġëłī ìĬ¤
ĠìĿ´ìļ© ê°Ŀ
Ġë§ĪìĿĮ ëĮĢë¡ľ
Ġêµ´ ìļķ
Ġì ıĻ
Ġn et
ĠíĤ¤ ìĽĮëĵľ
Ġëĳ ¬
ĠíĮĮ ìĤ°
Ġ================= ========
Ġëĭ¤ ìļ°
ĠìłĪ ë²½
Ġì¶ľ íĺĪ
ĠìĿĺ ìĦĿ
Ġì¤ĳ ìľĦ
ë§Ī ë¦¬
Ġëª© ê±¸ìĿ´
ĠìĹ´ íĿĺ
Ġëĭ¨ íĺ¸
os s
Ġìłķ ìłĲ
ĠìĿ´ìĸ´ ì§Ħëĭ¤
Ġë°° ê¸°
ĠíĨł íĤ¤
ĠìĮ ¤
Ġ) "
Ġê¶Į ìĺģ
Ġì²ł ê°ķ
Ġì¹ľ ìķł
ĠíĬ¸ëŀ ©
Ġê°ķëł¥ íŀĪ
ĠìĿ´ ëł¥
Ġë°Ķ ìģľ
íĨł ëĭĪ
ĠìĦł ëªħ
íĤ ¥
ĠëıĦ ì¿ł
ĠíĮĮ ìĿ¸
Ġìĺ¬ ëĵľ
ëĦ Į
Ġìķ¡ ì²´
¬´ ê²Į
ĠìĨ¡ íĻĺ
Ġê°Ģ ë§¹
Ġìŀħ ë¬¸
Ġëª¸ë ¬´ê²Į
ĠíļĮ ìĭĿ
Ġëĵľ ë¬¸
Ġë©ĭ ì§Ģ
Ġì±ĶíĶ¼ìĸ¸ ìĭŃ
Ġê¸° ìłĢ
Ġì¼Ģ ë¦¬
Ġì£¼ ìĸ´ì§Ģ
Ġìĺ¤ìĬ¤ ë§Į
Ġëĭ¤ëĭĪ ìĹĺ
Ġìľłë¡ľ ì¡´
ë³¸ë ¶Ģ
Ġr d
ì°¨ ê¸°
Ħì² ľ
Ġê²Ģ ìĹ´
Ġë³´ ìĦł
Ġê²Į ëģĶ
Ġíį¼ ìł¸
Ġì¶Ķ ê¸°
Ġíĺ¸ë ¶Ī
Ġíĺ¸ë¶Ī íĺ¸
Ġë§¨ ì²´ìĬ¤íĦ°
ĠìŀĲì¡´ ìĭ¬
Ġìĭľ ë¡ľ
ĠìĦľ ëĳĺëŁ¬
Ġê³łìĸĳ ìĭľ
Ġìĥĺ íĶĮ
Ġê±° ìķ¡
Ġm iss
ĠíĽĦë ĵľ
ĠìļĶì½Ķ íķĺë§Ī
Ġ- )
Ġv i
Ġì¹ľ ìĿ¼
ìĨĮ ëĵĿ
Ġì°° ìĬ¤
ĠìķĦìĪĺ ëĿ¼
ĠíĮ¨ ëĵľ
Ġìłķ ëĭµ
ĠìĤ° ìķħ
Ġë¶Ģ íıī
an a
â ģĦ
Ġë¦¬ ë³¸
Ġë³ Ħì
Ġê°ľ ì¹Ń
Ġnh k
Ġê³ł ìĭ¬
Ġë¦¬ íį¼
Ġê¸°ëĭ¤ ëł¸
ĠìķĦ íĶĶ
Ġë°ķ ê²½
íĶĦë ŀĢ
Ġë°ĺ ë¶Ģ
Ġëŀ ´
Ġë¸ĮëĿ¼ëįĶ ìĬ¤
ĠëĨĴ ìĺĢ
ĠìĬ¤ ë¦´
ĠëĿ¼ ìĬ¤íĬ¸
Ġv p
ĠìĿ´ ê³Ħ
ĠëıĦ ê°Ĳ
Ġë³µ ìļ©
Ġìĺ¬ëĿ¼ ê°Ħ
ĠìĽĲ ë£Į
ĠëĮĢë²ķ ê´Ģ
c a
ëĭĪ ëĭ¹
ĠìĬ¤ ìľĦ
Ġëª¸ íĨµ
Ġëħ¸ ë¦ĩ
ĠìĹ°íķ© íļĮ
Ġì°¾ìķĦìĻ Ķ
Ġìļ° ìĹ°
ĠìĨĮ ìĨĮ
ĠìĹħ ìĨĮ
ë¦°ëĭ¤ ê³ł
ĠìĦ± ì§Ģ
Ġëıħë¦½ ìļ´ëıĻ
ĠìĿĺìķ½ íĴĪ
êµ¬ ë¯¸
ĸ ¸
ĠíĿ¡ ìĤ¬
ĠíĮĮ ë©¸
ìħ Ī
ĠìĦłìĪĺ ëĭ¨
Ġë³´ ìŀī
Ġê³¼ ìĹ´
ĠìĹĲ ìĿ´ì§Ģ
Ġëħ¸ ê°Ģ
ĠëĤ´ëł¤ ê°Ķ
ìŀ¥ ë©´
íıŃ íĥĦ
ĠìĿĳ ìĭľ
Ġë°ĺ ìŀ¥
Ġê´Ģ ê³
Ġë¬¸ ìĸ´
ĠìĬ¤íĥĢ ë¦¬ê·¸
Ġh ar
íĭ Ī
Ġíĥģ ìĽĶ
Ġë§Į ê¸°
Ġíĳľ ì°½
Ġíĺ¸ë ¥´
ĠíĬ¸ìľĪ ìĬ¤
Ġì¹´ ëįĶëĿ¼
ĠìħĶ ëıĦ
ëĶ ¸
ĠìĦĢ ëıĦìļ°
Ġê¸Īê°Ĳ ìĽĲ
ĠëįĶ ìĽĮ
ĠìĿ´ íļĮ
Ġìľł ìłķ
Ġìľł ìĸ¸
ëĭĪ ìĬ¤íĬ¸
Ġí ĵ
ìį ¹
Ġever y
Ġìłķ íĺķ
Ġê¸Ī ê³ł
Ġê³µ ìĿµ
ĠìĨį íķľ
Ġìĭľ ë®¬
ĠìĽĲ ëĮĢ
Ġë©´ìĦ¸ ìłĲ
Ġãģ ®
ĠíĥĪ ëłĪë°ĺ
Ġëľ¨ ê±°
Ġìķķ ìĪĺ
ĠíĦ° ìĬ¤
ĠìŀĬ íĺĢ
ĠìķĦë§Ī ì¡´
Ġíķĺ ì²ľ
Ġæ ³
Ġ' )
íĥ ĦìĪĺ
Ġìŀ¥ íĥĦìĪĺ
ĠìĬ¤íĭ° ì»¤
Ġì»¤ ì§Ī
ê· Ħ
ĠìĽĲ ê³ł
ĠìĥĿ ì²´
Ġì¦Ŀê¶Į ìĤ¬
ĠëģĿ ëĤ¬
ĠìĬ¤ ëħ¸ìļ°
ĠëįĶ ìļ´
ĠëĳĲëł¤ ìĽĮ
Ġìĭľ íĺ¸
Ġëĵ± ìŀ¬
ĠìĨĲ ê¼½
ĠìĿ´ ë³Ħ
ad a
Ġì·¨ íķľ
£ ©
ìĬ¤ ì¹´
ĠíĶ¼ ì¹ĺ
Ġ2 00
Ġìħĭ ì§¸
í Ħ±
Ġê³ł ë¸Ķë¦°
ëį° ëłĪ
íĳ ¸ë
ĠíĶ¼ ì¹´
ĠìĨĮìĦ¤ ê°Ģ
ê· ¤
Ġì¹ĺ ë§¤
ĠëĵĢ ìĬ¤
ĠíĹ ¥
ëĴ ¤
ĠëĶĶ ìķĦë
Ġìłģ íŀĮ
ĠìıŁ ìķĦìł¸
ĠëĤľ ë¬´
Ġë§ŀ ë¶Ļ
Ġê´Ģê´ĳ ì§Ģ
ĠëıħìĿ¼ ìĸ´
ĠëĤĺëĪ Ķ
Ġë¶Ħê¸° ìłĲ
ĠíĮ °
t y
ĠìķĦ ì§Ģ
ĠìłĦë ıĦ
Ġë©ĭ ìŀĪ
Ġì§Ģ ê°ģ
Ġíį¼ ìĦ¼íĬ¸
Ġì£¼ë¦ Ħ
ìĭľ íĭ°
Ġëĭ¨ ë°ľ
ĠìĹĪ ìĹĪ
ĠëŁ¬ ìĬ¤
ĠìĦľ ìłģ
ë¯¸ë ¥´
Ġê³ł ì¦Ŀ
ê² Ķ
Ġë³Ģ íĥľ
ì°¨ ë¡Ģ
Ġb j
ĠëłĪ ë°Ķ
Ġíķľ ê²°
Ġf ri
ĠíĬ¹ ê°Ģ
ĠíĹĪ ë¬´
Ġë°Ķ ìģĺ
Ġì¡° ì»¤
ìŀĦì ¦Ī
ê±¸ ìĿĮ
ĠìĿ´ ìĥī
Ġëĭ¹ ëĩ¨
Ġì¢Ģ ì²ĺëŁ¼
ĠëĦĪ ë¨¸
Ġìĺ¤ë©Ķ ê°Ģ
Ġìļķ ë§Ŀ
os e
Ġì§Ħ ê¸ī
Ġê²ģ ëĭĪê¹Į
Ġìŀī ìĹ¬
Ġê±¸ ì¹ľ
Ġëħ¸ ìĪĻ
ìķ Ĭ
Ġíģ¬ ëĿ¼ìĿ´
Ġê²Ģ ìĪł
ĠíĦ° ì¡Į
Ġì¹´ êµ¬
Ġê¹Ģ ëĳĲ
Ġìĭł ì´Į
Ġê²½ íĿ¬
ĠëŁ¬ ìī¬
ĠìĹĶì§Ģ ëĭĪìĸ´
Ġìłķ ì§Ħ
Ġë¸Į ëŀĺ
Ġë³Ģ ëªħ
Ġê°ľ ê´Ģ
ĠëĤ¨ ë¯¸
Ġim age
ìķĪ êµ°
ĠëĤ¨ ìĦľ
ĠìĶ¨ ìķĹ
ë¹ ĦìĹĲ
Ġíķ ¸ë
ê² ¸
Ġíıī íĸī
Ġc b
Ġí į½
Ġì¶Ķ íĽĦ
Ġìıł ë¦¬
ĠìĿ¸ìĪĺ ìľĦ
Ġê°Ģ ìłĦ
Ġê³µê²© ìĪĺ
Ġì¹Ń íķĺ
Ġë¡ľ ë³´
Ġë°° ëŁ´
Ġê±° ê¾
Ġë¶Ģ íĴĢ
ri st
Ġìĥģ ìĭľ
Ġë¬¼ ìŀĲ
ĠìĹĲ ì½Ķ
ĠìĽĲ ê°Ģ
ĠíĶĦë¡ľ ê·¸ëŀĺ
Ġìĺ® ê²¼
Ġê³µìĤ° ì£¼ìĿĺ
Ġm i
ìĿ´ ëıĻ
Ġê±¸ ê¹ĮìļĶ
Ġìŀ¥ íĮĲ
Ń ĩ
Ġê³¼ ìĭ¤
Ġíĥľ ìĽĮ
Ġì¼Ģ ë¹Ī
Ġì§Ģ ë¬¸
Ġë¯¸ë ª¨
ĠìĿ¸ ìĩĦ
ë¥´ ëĵľ
ĠíĶ¼ ê³ł
ĠìŀĶ íĺ¹
Ġëĭ¹ ìłķ
ĠìĿ´ê±´ íĿ¬
Ġê³łìĬ¤ ëŀĢíŀĪ
íķ ı
Ġë² ¼
n y
íĺ ĦìĪĺ
ĦĪ ìĬ¤
Ġë° ĭ
ë²Ħ ë¦¬
Ġìĺ¬ë°Ķ ë¥¸
Ġíĺ¼ ìĿ¸
el d
ë° ´
ĠìĽ ľ
ĠìĿ¸ ìĦ±
ĠìĤ° ì§Ģ
Ġìķł ê¸°
ë¿ į
Ġì½ľ ë¡¬
ĠìĿ´ëĿ¼ëĵł ê°Ģ
Ġì¼Ģ ìĿ´ëĵľ
ĠìĨĮë°© ê´Ģ
Ġë§¡ ê²¨
Ġë²Ħë Ŀ½
Ġê²½ ìĦ±
ĠìĹĦë °Ģ
Ġl d
ĠëĶĶ ìĺ¤
Ġìłľ ìŀĲë¦¬
ĠêµŃ ì±Ħ
Ġé Ľ
Ġâĸ ³
en g
Ġìĥģ ìĬµ
Ġì½ §
Ħì ķ¼
Ġíıīìĥģ ìĭľ
ĠìĤ¬ ìļ°ìĬ¤
ĠìĨĮ ìĥĿ
Ġë°° ìĽł
ĠíĥĢ íĺĳ
Ġê°Ĳ íĥĦ
Ġê³¨ ëłĺ
ĠíĬ¸ëłĪìĿ´ ëĦĪ
Ġìĭł íĿ¥
ĠëŁ¬ ëĭĿ
ķ ëĭĪëĭ¤
Ġs am
ĠìĻķ ë¹Ħ
Ġë¹Ħì Ĺ
Ġë°Ķ ëĿ¼ë
Ġë¹ł ì§Ī
ĠëĤ´ ëĭ¤
ĠìĿĮ ëł¥
Ġë¯¸ ì³Ĳ
ĠìĦ¸ ìŀĲ
Ġì¡± ë°ľ
Ġê±°ê¾ ¸ë¡ľ
ĠìĭľìĦ¤ ë¬¼
Ġì¶Ķê¸° ê²½
Ġì¶Ķ ê²½
ĵ Ŀ
ĠìĿ´ ìķ¼
Ġëĵ¤ ìľ¼ë©´
Ġëĥł ëĥł
ìĭŃ ìŀĲ
ĠíĬ¸ë¡ľ íĶ¼
Ġìĭľ ëıĻ
Ġm ix
Ġê¸¸ ê±°ë¦¬
ìĬ¤ íĬ¸ëĿ¼
ĠìķĦì °Ķ
ĠìĦĿ íĥĦ
ìĿĺ ìĸ´
ëĪ Ħë
ĠìĬ¹ ê³Ħ
Ġë² ħ
ĠìĹĲëĵľ ìĽĮëĵľ
ĠëıĻ ìłķ
ĠíĻ© ìļ°
ĠíĮ½ íĮ½
Ġì§Ģ ë¡ľ
Ġw ay
Ġè Ī
ĠìĿ¼ìĿ¼ ìĿ´
Ġê·¸ëŁ¬ ë¯Ģë¡ľ
Ġê¹Ģ ìĿ¸
ĠìĦ±íıŃ ëł¥
Ġìĺ¤ ëįĶ
ĠëĶ ¥
ĠìĹ¬ê°Ŀ ì²łëıĦ
Ġìĸµ ë¥ĺ
ĠìķĦ ëĭ´
le d
Ġse ason
ĠìĥĿ ê¹Ģ
ê½ ģ
Ġc ap
ĠìĹĺë¦¬ìŀĲ ë²łìĬ¤
Ġê¹Į ìĿ´
Ġë¯¼ë ³ĳ
Ġì¹´ ëĦ¤
Ġì¹´ ë¦¬
ĠíŀĪë¡ľ ìĭľ
ĠìĮĵ ìĿ¸
ĠìĪĺìĺģ ìŀ¥
Ġìłĳ ìłĦ
ĠìĤ¬ íĥķ
Ġd p
Ġìĥģ ìĸ´
ë©Ķ ìĿ´
Ġìĸ´ ê¸ĭ
Ġk ing
ĠëģĿ ëĤľëĭ¤
ĠìĹ´ ë¦½ëĭĪëĭ¤
Ġë£¨ íĶ¼
at or
Ġìĥģ ìĿĺ
ĠìĹĳ ìĭľ
ĠìľĪ ëĵľ
Ġì°¨ ì°¨
ê³¼ ìĿ´
Ġëįĺ ì¡Į
ëĵ¤ ìĸ´
ĠìŀĲìĭł ê°Ĳ
ĠíĶĦë¦° ìĦ¸ìĬ¤
Ġë¶ģ ìłģ
Ġsh ow
Ġì¤ĳìĭ¬ ì§Ģ
ĠìĦ¹ ìĭľ
ol og
ëŀĺ ìĭľ
ĠìķĦëŀ «
Ġë©Ķëī´ íĮĲ
g r
Ġìłľ ì¹ĺ
Ġê¹Ģíķľ ê¸¸
ĠìĿ´ ë¥¼
ĠëıĻ ìĿĮìĿ´
£¨ ìĬ¤
ĠëıĻ ìķĦìĭľìķĦ
Ġë©¸ ì¢ħ
Ġê°Ģ íĺ¹
ĠìĽ¨ ëĶ©
Ġ~ !
ĠìĿĮìķħ ê°Ģ
Ġë§Ŀ ìĽĲ
ĠìĦ¸ ê·ł
Ġì¿ł íı°
Ħë ²Ħ
Ġë¬´ ê²ģ
ĠëĲľ ìŀ¥
Ġìĸ´ ë²¤
uc k
Ġë²łíħĮ ëŀĳ
Ł İ
Ġìĭł ë³ĳ
ĠìĦ± íĥĦ
ë¹¨ ë¦¬
Ġp t
ê° ĦëĮĢ
Ġbm w
ĠíİĮ íĶĦ
ì Ń
o v
Ġìĺ¬ëĿ¼ ìĦľ
Ġëª© ëıĻ
Ġë²Ĺ ê²¨
ĠìĦ± ì£¼
Ġì²ĺ ìŀ¥
Ġëľ¬ ëĭ¤
Ġg old
ĠëĮĢ ìĭľ
Ġëĸł ìĺ¤
ĠëĤĺëĪ Ī
íľ´ ìĿ¼
ĠíĽĦë ¯¸
Ġìĺ ħ
Ġë¸ĮëĿ¼ ìļ°
ìĬ¤ ëłĪ
Ġë¸Ķ ëĿ¼ëĶĶ
Ġì¿ł ëĿ¼
Ġì¹´ëĭ¤ íĶ¼
Ġst e
ĠëĲł ê¹ĮìļĶ
ĠìĦ °
Ġë§ī íĺĢ
Ġp ark
ĠëıĦ íĶ¼
íĹ ¬
Ġì±Ħë ³´
ìĬ¬ ë¦¬
ë°Ķ ëĤĺ
ĠìĦŀ ìĹ¬
ĠëłĪìĿ´ ë¸Ķ
ìłĢ ê²ĥ
Ġë¡¤ ëŁ¬
Ġæ° ı
ĠíĬķ ê²¨
íĮ į
ĠìĿ´ê²ĥ ìłĢê²ĥ
Ġw as
ĠìĦľ ìŀ¥
ľ ëĭ¤
Ġë§Ľ ë³´
ëĨĢ ìĿ´
ìĤ¬ ëŀĳ
ĠìŀĲ ë¶Ģ
Ġìĺ¤ ëĭĪ
ĠìķĦìĿ´ ìĸ¸
Ġê°Ģ ì¤ĳ
ìĥ ·
Ġê¸° ìķķ
ĠìĬ¤ íĬ¸ë
m y
Ġê·¸ ì¹ľ
Ġë°¥ ìĥģ
ìŀĦì ľĦ
Ġë©į ì²Ń
Ġë¯ Ģ
Ġ- -
ĠíĬ¸ëĿ¼ ìļ°ë§Ī
ĠíĻķ ë¦½
Ġê³µ ìĭł
Ġê´´ë¡Ń íŀĪ
ìĭ ¹
ĠíĿĶ íķĺ
Ġëħ¸ëŀĺ ë°©
ĠìķĪ ê²¨
Ġë¶Ħì £¼
Ġìĥ· ê±´
Ġë°ķ ìĨĮ
Ġì§Ħì ²
Ġìłģ ìłķ
i re
Ġëĭ¹ ìĤ¬
ëĿ¼ë Ķĺ
Ġíį¼ ìĭľ
ĠíĢ µ
ĠìľłëĭĪ ë²ĦìĬ¤
ĠìĿ¸ íħĶ
ĠìĬ¤íĢ ĺìĸ´
ĠíĻĺê²½ ë¶Ģ
Ġ2 2
Ġê±° ì§Ģ
Ġê°ķ ìĦ±
ĠíĨł íģ°
Ġìĥģ ìŀĦìľĦ
Ġë§ĪëĿ¼ íĨ¤
Ġë¬´ ëĬ¥
Ġìĭľ ê²Į
Ġíı¬ ë³ĳ
ĠëĿ¼ë ĸ¼
Ġë¦¬ ìķĪ
ĠìĿ´ìĪľ ìĭł
ĠìķĦì ²
i um
² Į
Ġíķ´ ìĦł
Ġë¯¸ ìĸĢ
Ġìķŀ ìŀ¥
Ġìį¨ ëıĦ
ĠìĬ¤ ëĤĺìĿ´
Ġíİ Ń
Ġì²ĺ íķĺ
-- --
Ġì½Ķ ë°Ķ
Ġj ap
ĠìĹ¬ ì§Ħ
Ġgr adi
oo t
n er
Ġad v
Ġì¹´ ë¦¬ìĬ¤
ĠíĮĲ êµĲ
ĠíĶĮë¡ľ ë¦¬
Ġt er
ĠëĮ ķ
íĶĦë ¡ľ
Ġëī´ìĬ¤ ìĩ¼
ĠëĶĶ ìķĦ
ê²½ ìĽĲ
Ġìłķ ìłķ
ìĤ¬ ë¬´
Ġæ Ļ
íį¼ ëĭĪ
Ġma th
ĠëĳĲëł¤ ìĽĢ
íĸī ìľĦ
Ġh ell
Ġn ll
ĠíħĮìĿ´ íĶĦ
Ġë¶Ī íĻ©
ê¹¨ ë¹Ħ
Ġíĭ° ìĬ¤
ĠìŀĶ ë¥ĺ
Ġê·ł ìĹ´
Ġë°± ìĹħ
Ġë§¤ ì§Ħ
z e
Ġì§ĢëĤĺ ì¹ľ
ĠìŀĲ ë°ľ
ë© §
Ġë¦¬ë²Ħ íĴĢ
Ġê³µ íľ´ìĿ¼
Ġkbs news
ĠíĻĶë¬¼ ì°¨
Ġêµ¬ ì¹ĺ
ĠëķĮ ë¡ľ
Ġê¾ Ģ
ĠíĺĪ ìķķ
ĠëıĻìĿĮìĿ´ ìĿĺìĸ´
ĠìĤ¬ ëĤ´
Ġë¦¬ëįĶ ìĭŃ
ĠìĹŃ ìĬµ
Ġìĺ¨ ëª¸
ĠìĿ´ ìĿĢ
ĠìĤ¬ ì£Ħ
Ġì°¨ ìĦ¸ëĮĢ
ĠëıĮìķĦìĺ ¬
Ġìŀħ ìĪł
Ġë§ī ìķĦëĤ´
Ġtv n
Ġê±¸ ê¹Į
ĠìĨĮ ìĦľ
ĠìĻ¼ ìĨĲ
ëĺ ĳ
Ġê°¤ ëŁ¬
ëĦĪ ë¬´
Ġì§Ĳ ìĬ¹
ĠëĿ¼ ê°Ģ
Ġìŀ¬ ìĦł
Ġíķľ ìŀĶ
is m
Ġd ark
Ġì£¼ ìŀħ
ĠìĿ´ ìĨ¡
t c
¸ë §ģ
Ġl ight
ĠìĿ¸ íĮĮ
Ġê¸°ìĪł ëł¥
Ġíĺ¸ íģ¬
Ġo va
Ġë¡ľ ëĿ¼
Ġëĭ¹ ê¶Į
Ġê°Ĳ íĸī
ĠíĮĮ íĸī
Ġë¶Ģ ì¹ľ
Ġê¹Ķ ëł¤
ĠìķĦë§Ī ì¶Ķ
ĠíĶĦëŀľ ì°¨
ĠìĹĲ ëĶĶìħĺ
Ġíĩ´ ì¹ĺ
ĠìĤ´ ìĿ¸ë
Ġê°ľ ëªħ
Ħì ½Ķ
Ġw c
Ġëªħ ìĤ¬
Ġíĸ Ħë²Ħ
Ġíĺ¸ë Ł¬
ëĺ Ĳ
Ġë§Ī ìĦ¸ìļĶ
ĠìĿ´ íĺĦì
Ġì§Ħíĸī ìŀĲ
íĶĦëŀĢ ìĭľìĬ¤ì½Ķ
ĠìĿ´ ëħ¸
ĠìĥĮ íĶĦëŀĢìĭľìĬ¤ì½Ķ
Ġìķħ ìļ©
Ġë¬´ê¶ģ íĻĶ
ĠíĶĦëŀľì°¨ ìĿ´ì¦Ī
ĠìĦ±ëĤ¨ ìĭľ
ĠìĬ¬ íĶĪ
ëĬĶ ëį°
Ġê±´ ìĪĺ
Ġgradi ent
ĠíĻķìŀ¥ íĮ©
Ġë§ĪìĤ¬ ì§Ģ
Ġíķľ ë°ľ
Ġë¬´ëĦĪ ìł¸
Ġìŀ¬ ì§Ī
à ¸
ëĭµ ëĭĪëĭ¤
ĠëĤł ìķĦìĺ¤
Ġn at
ĠíŀĲ ëŁ¬
ìķĶ ëıĻ
Ġë§Ī ìĹĲ
Ġìľł ì§Ħ
ĠìĤ¬ìĥģ ìŀĲ
ìĿĦë ²ĦìĬ¤
Ġìĭł ìŀ¬
ĠíĥĪ ì·¨
ĠëĮĢ ìĹ¬
ĠíĻĺ ë¶Ī
ĠìĿµ íŀĪ
Ġìĵ°ëŁ¬ ì§Ħ
Ġíģ¬ë£¨ ì¦Ī
ì ı
Ġë©Ķ ëĶĶ
Ġde f
ĠìĦ¤ ë§Ī
Ġr un
Ġë¹Ī ëıĦ
Ġë¹Ħë °ķ
Ġê¸° ìķĦì°¨
t on
ĠëĤĺ ê¸°
Ġë°© ìļ¸
Ġìł ¼
Ġê´Ģ ë¬¸
ĠëĦĪë¬´ ëĦĪë¬´
ĠìĨį ì´Ī
Ġë¹Į ë³´ëĵľ
Ġìłķ ìĺ¤
Ġë¯¸ë ıĦ
ĠìķĦíĶĦ ê°Ģ
Ġâĸ¶ "
Ġv e
Ġë¬´ ìĬ¬
Ġê°ķ ìłĦ
Ġë¬´ ìĭ¤
Ġë§Į ëĬ¥
ìĤ¬ ê¸°
ĠìķĦë§Īì¶Ķ ìĸ´
Ġìĥģ ìĪĺ
Ġë¯¸ ê¶ģ
ëĵ¤ ë¦¬
Ġíĸī íĥľ
ĠëĦĺ ê¸´
Ġë§Ĳ ëł¤
Ġë§Ī ìĿĦë²ĦìĬ¤
Ġìĺ¥ ìĪĺìĪĺ
Ġìĭł ê³¡
Ġíĺ¼ íķ©
Ġ Ï
Ġìĭ¤ ë¦°
Ġëº Ģ
Ġ201 8
Ġìĸĳ íĺ¸
Ġëĵľëŀĺê³¤ ë³¼
ĠìķĦìĿ´ëŁ¬ ëĭĪ
Ġë°ķ ì§Ħ
ĠìĹī ëļ±
Ġì±Ķ íĶĦ
Ġíķł ë¡ľ
Ġê¹Ģ ì²ľ
íħĮ ìĿ´ìħĺ
Ġë²ķ íķĻ
Ġì¹ĺ ì¹´
Ġìĭľ ë¦½
Ġê°Ģìł¸ ìĺ¨
ë² Ħëĵľ
ĠìĿ¼ëł ī
ëłĪìĿ´ íģ¬
Ġì¡°ìĤ¬ ëĭ¨
Ġìĥģ íĻĺ
¤ Į
Ġë§Ī ë¬¼
Ġì¤ĳê³Ħì °¨
ĠíİĺëĦĲ íĭ°
ĠíķŃ ëª¨
Ġìĭľíģ¬ ë¦¿
íĺĦë ıĻ
ĠìĬ¤ ê°Ģ
Ġìŀ¡ ìķĦëĤ´
ĠíĦ¸ ìĸ´
ë¬´ ì§Ģ
Ġíķľ ìĭĿ
ĠìĽĶ ìĦ¸
ĠíĻĢ ëĶ©
ĠìŀĲ ìĺģ
Ġì²ľ ì§Ģ
Ġëĭ¤ ì¹ľ
ë²¤ ì²ĺ
Ġíķľ ìĪ¨
Ġëª¨ ëĤĺ
Ġëª¨ ìĪľ
Ġìĭł ìŀĳ
Ġë°Ķ ìĤŃ
ìķħ ìĤ°
h o
ĠíļĮ ë¡ľ
Ġë©Ķ ë¦¬íĬ¸
Ľ ´
Ġì¹ľ íķĺ
ĠëĤ´ ê¸°
Ġëĭ¨íĸī ë³¸
Ġëĭ¤ ê±°ëĤĺ
ìĽĶ ëĵľ
Ġíķ© ì¹ĺ
Ġd own
Ġì§Ģ ëħĶ
ĠëĤ© ë¶Ģ
Ġìŀ¬ ë³´
Ġíķ¨ ëĿ½
Ġìĸ´ëĵľ ë²¤ì²ĺ
Ġs et
Ġëĭ¤ ìĿ´ìĬ¤
Ġì£¼ê³ł ë°Ľ
Ġìµľê²½ íĻĺ
Ġë¨¸ ìĬ¤
ĠëĤ ©ëĭĪëĭ¤
Ġëł ĺ
Ġìĭ¤ íļ¨
Ġì²¨ ê°Ģ
ĠìĥĿìĤ° ëŁī
Ġìŀ¬ ìľĦ
ĠíĶ¼ë ĵľ
ĠìķĦì¿ł ìķĦ
Ġìľł íķľ
Ġíĺ¸ ìłĦ
Ġê´´ ë¡ľ
Ġë¬´ìĬ¬ ë¦¼
Ġìĭľ ê°ĦëĮĢ
Ġë²ł ê¸°
ê¸Ģ ëĿ¼ìĬ¤
Ġìĸ»ìĸ´ ë§ŀ
Ġê°ľ íĳľ
ĠëįĶ ëŁ½
Ġë°Ķ ì¹ĺ
Ġê¹Ģ êµ¬
ĠëĿ¼ íģ¬
Ġê¼¼ ìĪĺ
Ġì¡° ìĹħ
Ġì§ģ ê²©
ĠìķĦíĶĦê°Ģ ëĭĪìĬ¤íĥĦ
ìĿĺ ìĤ¬
Ġíķłë¦¬ ìļ°ëĵľ
Ġê¹Ģ ì°½
ëĭ¤ ëĵľ
íħĮ ìĬ¤
ĠìĹ´ ëŀĮ
Ġë¹Ħ íĤ¤
Ġê°Ĳ ê¸Ī
Ġëľ¬ê¸Ī ìĹĨìĿ´
Ġ=" -
ang e
Ġì§Ģ íĤ¬
ĠìĬ¤íĥĢ ìĽĮì¦Ī
Ġì¹¼ë¡ľ ë¦¬
ëĳĲ ë¦¬
Ġê²Ģì°° ì²Ń
Ġê¸° ë¯¸
ĠìľĦ íĥģ
Ġë§Ī ìľł
Ġo ok
ĠíıŃë°ľ ë¬¼
al k
Ġì¹ľ ëĭ¤
ìł ĵ
Ġì»´ ë°±
ĠìĤ¬ ëĭ¹
ë¬´ ìĭ¤
Ġëª¨ìķĦ ìĦľ
ĠíĦ° ì§Ħ
³ ¤
ĠìĤ¬ ì²´
ĠëĶĶ ìĭľ
Ġíļ¡ ëĭ¨
Ġìłľ ìĤ¬
ĠìĿ´ë¤Ħì§Ģ ì§Ģ
© ľ
Ġìĸ´ ë¥´
Ġëĭ¹ ê·¼
ĠëĤ´ ë©´
Ġëĵ¬ ë¿į
ĠëłĪ ìĺ¨
ĠíĻĶ ê¸°
Ġma ster
Ġíİĺ ë¯¸ëĭĪ
Ġë½ Ĳ
Ġë°°ìļ° ìŀĲ
Ġë¶Ģ íĨµëł¹
ch o
ĠìłĢ ëĦĲ
Ġê°ķ ê°Ħ
ĠìĬĪíį¼ë §¨
ê»ĺ ëģ¼
ĠìĪĺìĪĺ ê»ĺëģ¼
¶ ĵ
Ġ~ ~
Ġê°Ħê°Ħ íŀĪ
ĠíĥĢ ëĭ¹
Ġíĥľê·¹ ê¸°
ĠëĤ´ë³´ ëĤ´
ĠìķĪ ë¬´
ĠëĳĲ êº¼
ĠìĪĺ ê°ķ
Ġì¦Ŀ íĽĦ
ĠìĤ¬ ì¹ĺ
ĠìķĦ ê¹Ŀ
Ġëħ¸ ìĽĲ
ĠìĬ¤íĥľ íĶĦ
Ġê°ķ ë³Ģ
Ġì§ģ ìľĦ
Ġíİĺ ìĬ¤
Ġë°ĶìĿ´ ìĹĲ
Ġíģ´ ë¡ł
Ġë§¤ì¶ľ ìķ¡
Ġê¸´ ë°Ģ
ĠëĨĢ ëŀĢ
ĠìĦľ ë¨¸
Ġìĺ¬ëĿ¼ ê°Ħëĭ¤
ĠìĿĮì£¼ ìļ´ìłĦ
íĳ¸ë ¥´
Ġg od
Ġì»´ íį¼ëĭĪ
Ġê·¸ë ¶Ħ
Ġì¤ĳ ê±°ë¦¬
Ġìĭľ ìĸ´
íĮĮ ë¦¬
ĠìĪĻ ì²Ń
ĠìĹ¬ íĥľ
ĠìĬ¤ìºĶ ëĵ¤
ìľ¤ ìłķ
Ġíķľ ëĿ¼
Ġë°° ìļ¸
Ġë¨¹ íŀĪ
Ġëĭ¬ëł¤ ê°Ģ
ĠìĨĲ ìĺ¤
ĠìĪĻ ë°ķ
ĠìĽĶ ê°Ħ
ĠìĬ¤íħĶ ìĬ¤
Ġìłķ ìĹ°
us h
ĠìķĦì Ĭ¬
Ġë°ľ ë¶Ģ
Ġë¡ľ ìĿ´ëĵľ
Ġê³µ ë¡ľ
Ġìļ° íİ¸
ĠìĹ¬ íĥĢ
Ġë¡ľ ëłĮ
íĥĢ ë¦¬
l es
Ġì¹ľ ìłķ
Ġìĸ´ ìĦ¤
Ġë°©ìĨ¡ ìĿ¸
Ġì¡° íļĮ
ĠëłĪìĿ´ ìĭ±
Ġì´Īë¡Ŀ ìĥī
Ġíķĺ ìĸ
Ġìľł ë°©
íĥĲ ìłķ
Ġê°Ģ ê¸ī
Ġì¤ĳ ëħĦ
Ġë¶Ģ ìłľ
Ġë§Ĳ ëĿ¼
ĠìłĦë ¡Ģ
Ġë³´ ë¥´
ĠìłĲ íı¬
ĠìķĦë©Ķ ë¦¬ì¹¸
Ġìľł ìĺģ
ĠìĽĲ ì£¼ë¯¼
Ġìĵ° ë¦¬
Ġë°ľ ë³ĳ
ĠëĤ¨ ëıĻìĥĿ
ĠëĤĺíı´ ëłĪ
ĠíĮĶëłĪ ìĬ¤íĥĢìĿ¸
Ġë¹Ħ ëĭ¨
Ġëĭ¬ëĿ¼ ì¡Į
Ġp ol
ĠìĹ° ë¹Ħ
Ġtv a
ìĹ¬ íĸī
th ing
Ġoc g
ĠíĺĪ íĨµ
Ġë§ĪìĪł ìĤ¬
Ġë¯¸ ìĺ¤
ĠìĽĮ ëĦĪ
Ġìķŀ ëĭ¹
ĠìĿ¸ì²ľ ê´ĳìĹŃìĭľ
Ġëĭ¨ ìłķ
Ġìłľ ë¬¼
ê±¸ ë¦¬
Ġë°ĶìĿ´ìĹĲ ë¥¸
Ġìķħ ìĸ´
Ġë¶Ħë °°
Ġìłľì¡° ìĤ¬
Ġëª¨ìĸĳ ìĥĪ
Ġìĭ¤ ìĦ¸
ĠíĽĶ ì¹ľ
Ļ Ģ
Ġìĸ´ëĬĲ ìĥĪ
Ġå ī
ĠëĶĶ íİľ
Ġë¬ĺ íķĺ
Ġë¦¬ ìĤ¬
ĠìĬ¤íĬ¸ëĿ¼ ìĿ´ì»¤
ĠëĤĺíı´ëłĪ ìĺ¹
ëĶĶ ìĬ¤
Ġê°Ģìł¸ ìĻĶ
ê·¸ë Ŀ¼ë
ĠìĬ¤ íĬ¸ë¡ľ
íĮĮ íģ¬
ëıĻ ìĽĲ
ìĪĺ ìĤ°
on s
Ġch ar
Ġì°½ ìĿĺ
ĠíĻĶ ìĦĿ
Ġë¬´ ìŀĲ
¤Į ë§Ī
Ġë¬¼ë¦¬ íķĻ
ĠìŀĲê²© ì¦Ŀ
íĬ¸ë Ł´
Ġë°ķ ìĹ°
Ġìłķë°ĺ ëĮĢ
Ġ* ********
ut ion
Ġê°Ĳëıħ ìĽĲ
Ġë³ĳ ìŀ¥
ĠìĪĺìĽĲ ìĭľ
ĠáĦ ĥ
ĠìĨĮ ê·¹
Ġíĺ¸ ìĬ¤
Ġwind ows
h e
íĶĮ ëŁ¬ìĬ¤
Ġë§¤ ëª°
Ġê¾¸ë ¯¸
Ġë§Ŀ ìĦ¤
Ġ2 1
Ġê¸Ī ìĹ°
Ġæ µ
łĪ ë¸Ĳ
Ġì¦ĿíĽĦ êµ°
Ġìºł íķĳ
ĠëĳĲëĵ¤ ê²¨
Ġê°ķ ìłķ
ĠëıĻë¬¼ ìĽĲ
ë¸Įë¦¬ ëĵľ
Ġë» ĺ
Ġì§Ħ ë¦¬
ĠëĮĢ ëªħ
ĠìĻ¸ ê´Ģ
Ġì½ĺ ìĨĶ
ĠìĿ¸ ìłľ
ĠëĤľ ëıĻ
Ġp v
ĠìĻķ íĽĦ
ĠíķĺìĿ´ ë¸Įë¦¬ëĵľ
Ġë³¸ íļĮ
ĠìĪĺ ìĿ¸
Ġline ar
Ġëªħ ëªħ
Ġle g
ĠëĤĺ ìķĦì
Ġíİ¼ì³Ĳ ì§Ģ
ĠìķĦì ¤Įë§Ī
Ġì¢ħ ìĺģ
Ġë°ĽìķĦëĵ¤ ìĿ¼
ĠíĸĦë²Ħ ê±°
Ġê¸° ë°Ģ
Ġíķ´ ì§Ģ
Ġíı¬ íĥĪ
Ġëĭ¨ì²´ ìŀ¥
Ġìŀ¬ ìŀĦ
ĠíĶĦë ¡Ŀ
ĠìķĦìķ ¼ë
Ġëĭ´ëĭ¹ ìŀĲ
Ġun ivers
ĠìĦ¸ë ĩĮ
ĠìĤ´ íı¬
ĠìĪł ìĤ¬
Ġë°© ê³µ
Ġíİ¸ ê²¬
ĠìľĦì ĹĦ
ĠìĤ¬ íķĻ
Ġê³ł ìĺ¨
ĠìłĦ íķ©ëĭĪëĭ¤
Ġìĺ¤ì¼Ģ ìĬ¤íĬ¸ëĿ¼
ĠëĮĢ ë©´
Ġd ong
ĠêµĲ íĸ¥
Ġë¯¸ìĬ¤íĦ° ë¦¬
ìĦ± ìĿ´
Ġë§Ī íĶ¼ìķĦ
Ġíķĺ ì¹ĺ
Ġì§Ħ íķľ
Ġp k
Ġì»¤ìĬ¤ íħĢ
íİĺ ìĿ´ìĬ¤
Ġì§Ħì ĹĲ
Ġë³Ģ ìĿ´
ĠìľĦì ª½
Ġë²ł ìĬ¤
ĠìłģìłĪ íŀĪ
Ġê¹Ģ ìĿĢ
Ġë¶Ī ìĶ¨
ec d
Ġìł ĵ
ĠíĹ¬ ë¦¬
Ġjo hn
ĠíĪ Ń
ĠìķĦ ìĦ¸
Ġë²ķ ìĤ¬
Ġê²¬ ìĿ¸
ĠíĹ¬ ë©§
ĠíĶĮë¡ľë¦¬ ëĭ¤
ĠìĻĢìĿ´ ë²Ī
Ġì§Ī ëŁī
ëĿ¼ë ¶Ļ
d y
Ġë³Ģ ì¡°
ãĥ ³
Ġìłľ ëıĻ
Ġê´ĳ ë²Ķ
Ġìłĳ ëĮĢ
Ġì²ľ íĻ©
Ġìľł ìĭł
Ġìĭľ ìĺ¤
ĠíĦ° ë³´
Ġì°¬ ìĸĳ
Ġì¤Ħ ë¦¬
Ġìłķ ìĺģ
Ġìĺ¤ ëĭ¤
Ġë²Ļ ì»¤
ĠìĤ¬ ìķħ
Ġì¢ħ ìĹħ
ĠìŀĲì±ħ ìłĲ
ĠìĿ´ ë¥¸ëĭ¤
ĠìĪĺ ê±°
ĠëĨį ë¦¼
ëĭĪ ìĭľ
ĠëĭĪ íĬ¸
Ġo b
Ġë¦¬ ëĤĺ
Ġíķĺ ê¸ī
Ġìĺ¤ ëħ¸
Ġíľ´ ìłĦ
íģ¬ ë¦¬íĬ¸
Ġëª¨ ê¸Ī
Ġê¸ī ê¸°
ĠìĽĲ íķľ
Ġç İĭ
ê¾ ¼
Ġëħ¹ ì°¨
ĠìĿ´ íĺľ
Ġìĭľ ìķĪ
Ġë³´ ìłĦ
Ġê³µ ìķĪ
ĠìĦ± ëıĻ
Ġë°Ģ ì§ĳ
Ġì£¼ ì¶ķ
Ġë§¤ ë¬¼
Ġë°° ìĽĮ
Ġìĸ´ìķ¼ ì§Ģ
Ġë¬¼ë ĨĢ
Ġë¡ľê·¸ ìĿ¸
¹ Ń
ĠíĻľ ê¸°
ĠìĿ´ìĸ´ ë°Ľ
Ġíĳ¸ë ¥´
ĠìĬ¤íĮĮìĿ´ëįĶ ë§¨
Ġê°Ģ ìĦ±
Ġëħ¸ ê³¨
Ġë¯¸ ìĬ¤íĬ¸
ĠìĦł ëıĦ
Ġë¤ ¼
Ġë§Ī ê³Ħ
ê° ±
ìķĦìĺ ¬
ĠìĹ¬ì£¼ ìĿ¸
Ġìĭł ì£¼
ĠìĿ´íļĮ ì°½
Ġëĭ¬ ìĿ¸
Ġìĺ¤ë¸Į ìłĿíĬ¸
ĠìĦŀ ìĿ¸
Ġë°ķ íĥĪ
ë²Ħ ëł¤
an e
Ġìľł ìĦľ
ĠìĤ¬ ë°©
Ġìµľìļ° ìĦł
ĠìĨĲìĺ¤ ê³µ
íĤ¤ ìĬ¤
Ġìº ¬
Ġì»¨ ëĶĶìħĺ
ĠíĨł ë¯¸
Ġê³Ħìķ½ ìĦľ
ĠëĤ¨ íķĻìĥĿ
ìłķ ìĭĿ
ĠìĹŃ íķĻ
Ġì¡´ ìĬ¨
Ġë°Ķ ë¡ł
Ġìłķ ìĤ¬
Ġìĭ¤ ë¬¼
ĠíĮĮ ë³ĳ
p ark
Ġë²Ħ ë¦¼
ĠìĻ¸êµĲ ê´Ģ
Ġë¬´ìĦľ ìĽĮ
ĠìĹĺ ëłĪ
ĠìļĶë¯¸ ìļ°ë¦¬
Ġìłķ íĺ¸
Ġë°Ģ ëłĪ
ĠìĹĲ ë³¼ë
ĠíĬ¸ëŁ¬ ë¸Ķ
Ġëĺĳ ëĺĳ
Ġê°Ģ ìĹ´
Ġìĥģ íķ´
Ġë°ķ ì£¼
Ġë¶Ī ìĥģ
ìķł ëĤĺ
ê¸° ì§Ģ
Ġë³µ ê¶Į
ĠëłĪìĿ´ ìĸ´
Ġìłķ ìľ¤
Ġj s
Ġìľł ëĤľ
Ġë¬´ ëıĦ
Ġì´Ī ë¯¸
Ġìķ¡ ìĪĺ
Ġas s
Ġn or
ĠìĪľ ìĸĳíķ¨
Ġê¸° íķĺ
ĠìĬ Į
Ġë°Ŀ íŀĲ
ĠìĹĲ ëıĦ
Ġì¹ĺ ë§Ī
on y
Ġì¹¨ ì°©
ĠâĢ ĭ
t m
Ġ4 0
Ġo ecd
Ġíģ¬ë¦¬ìĬ¤ íĨł
ĠíĻĢ ëĵľ
Ġcontent s
ħ Ĳ
Ġìľ¼ ìĭ¤
Ġìĸ¼ë ¥¸
ĠêµĲ ìĽĲ
Ġì½ĶìĬ¤ íĬ¬
at s
Ġle e
g h
Ġë§ī ê±¸ë¦¬
ëĬ¥ ëł¥
ĠëıĻ ì°½
Ġì²Ń ìłķ
ĠìŀĲ ìĪĺ
ë°Ķ ë¦¬
Ġìĥģ ìļ©
Ġìŀ¬ ê³Ħ
ì¥ ¬
Ġíķ© ì°½
Ġìłķëª½ ì¤Ģ
Ġì´Ī ìĨį
Ġê·¸ëłĪìĿ´ íĬ¸
ĠìĻ¸ë ¡ľ
Ġë°Ģ íģ¬
ë°ķ ìĿ´
Ġg ot
å ·
Ġì¥¬ ìĸ¼
ĠíĻĢ ë¦¬
ëĶ ķ
Ġëħ¸ëıĻ ë¶Ģ
âĨ ĺ
Ġì¡Į ìľ¼ë©°
ĠëĦĪ ìĬ¤
Ġë¹Ħë ¹Ħ
Ġë°± ì§Ģ
íĶĦëĿ¼ ìĿ¸
ĠìĦ± ëĮĢ
Ġë¬¸ ìĸĳ
ĠëıĦ íĬ¸
Ġê³ł ìĺģ
Ġì¤ĳ ìĤ°
Ġë§¥ ëĿ½
Ġko f
Ġê¹Ģ íķĻ
Ġê´ĳë²Ķ ìľĦ
Ġìķł ì¹Ń
ĠìĦľ ìĽĲ
Ġë§Ī ìļĶ
ìĬ ĺ
ĠìĹ´ íĺĪ
Ġê¶ģ ìłĦ
ĠìĬ¤ì¼Ģ ìĿ´íĮħ
Ġìķŀ ë°Ķëĭ¤
ê°ģ ê°ģ
Ġì»¬ ëłīìħĺ
ĠìķĦì ľł
ĠìĤ¬ ìľĦ
Ġëľ °
Ġëĭ¨ë§Ĳ ê¸°
ĠìķĮ ëł¸
¼ë¦ ¿
Ġe z
Ġìĺ¤ ë¥¸ëĭ¤
Ġê±° ëĴĢ
ĠìłĢ ìĨĮëĵĿ
Ġê¹Į ë§Ī
Ġê´ĳ ê²½
Ġê°Ģ ìĤ°
Ġë¡ľ íĶĦ
Ġkn ow
ìķĦ íĤ¤
Ġíķĺ ì§Ģ
ĠíĻ© êµĲ
Ġëĭ¹ ê³¼
Ġìŀ¬ íĻľ
Ġ! âĸ¶
Ġê°Ģê¸ī ìłģ
Ġê¹Ģìĺģ ìĤ¼
Ġê°ķ ëĮĢ
Ġëĭ¨ ê³¨
ĠìĬ¤ì¼Ģ ìĿ¼
Ġë¶Ī ë¡ľ
Ľ ł
ì²ľ ëıĻ
ìķ¼ ìĭľ
ĠëģĬ ê¸°
Ħìķ ħ
³ Ħ
Ġê°ķ íĸĪ
Ġë°© ìĭ¬
ĠíħĮ ìĬ¤
Ġëŀ ı
ĠëĵĿíĳľ ìĪĺ
Ġë²¤ ì²ĺ
ëļ ľ
Ġê°ķ íĺ¸
ĠíĶĦëŀĳ íģ¬
ĠìłĦë¬¸ ìłĲ
ĠëĮ Ī
Ġì¤Ħìĸ´ ëĵľ
Ġë¯¸ ìĵ°
ĠìĻ¸êµĲ íĨµ
Ġìĸĳ ì£¼
ĠìĦ¤ ëł¹
ë¯ ¹
ĠìĹĳìĬ¤ íı¬
ĠìĪĺìĦĿ ëĮĢíĳľ
Ġëº ¨
íħį ìĬ¤
ĠëĮĢ ê¸Ī
Ð »
Ġë¯¸ ìķĦ
ĠìłĦì ĥĿ
ìĻ Ħì
Ġê·¹ ìļ°
Ġìĭľ ëĦ¤ë§Ī
ĠìĿ¼ ìĦł
Ġo g
Ġìłķë¶Ģ êµ°
ĠêµĲ ë¦¬
ĠëĤĺ ìĿ¸
Ġë¬´ ìĥī
Ġë§Ī ë§Ī
Ġu m
Ġì§Ģ ë²ķ
Ġìļ© ìŀĲ
Ġë¨¸ ë¦¿
ĠìĿ´ íĺĦ
Ġan g
Ġìŀ¬ ëŀĺ
ĠìĬ¤íĶ ¼ë¦¿
Ġìļ¸ ìĿĮ
Ġìĸ´ ìĭľìĬ¤íĬ¸
Ġì¤ĳ ìĽĲ
ĠìĤ¬ ì¡±
Ġìĺ¤íĶ¼ìĬ¤ íħĶ
ĠìŀĲ ëĦ¤
ĠíĮ¨ ìŀĲ
Ġê°Ģ ìĦ¸
Ġë²Ħíħ ¨
ĠìĹĦ ì§Ģ
ĠìķĪíĥĢê¹Į ìļ´
ĠíĽĮ ì©į
Ġå ¹
ĠíĥĪ íĻĺ
ë¦¬ìĬ¤ íĥĢ
Ġíħľ íĶĮ
Ġë§Į ìĦ¸
ĠìĹ¬ê³ł ìĥĿ
ìĳ ¤
ĠëıĻë¶ģ ìķĦ
ĠëĤĺ ìĤ¬
Ġi os
Ġë¶Ģ ë¦¼
Ġíĩ´ ê°ģ
íĬ¸ëŀ Ļ
Ġê·¸ ë¦´
ĠëĮĢ ìļ©
Ġin d
Ġê·¸ ëł¸
Ġs oc
Ġë¯¼ êµŃ
ĠìĦłê±° ë²ķ
Ġë°ķ ì°¨
ëŀ ¬
ĠìĨĮ íĴĪ
Ġê¸° íĶ¼
ĠìĦľìļ¸ ìĹŃ
Ġìķ¼ ìĭĿ
ĠìĤŃ ê°Ĳ
ĠíĥĦ íĥĦ
Ġë¯¸ìĸĢ ë§Ī
Ġë³¸ë Ĭ¥
íķĺ ìĿ´
âĸ ¡
Ġëĭ¤ìĿ´ ìķĦ
Ġê°ľ ë¯¸
Ġv ers
Ġjap an
Ġì¶© ì£¼
Ġë§Ŀ íķĺ
Ġì¤ĳìķĻ ìĦł
Ġìłľ ë¦¬
Ġìĭľ ìĺ¨
íĩ´ ê·¼
Ġê°ķ ë¦¼
Ġìŀ¬ íķ´
Ġíķĳ ê³Ħ
ĠìķĦë Ĥ
Ġê°ľ ê·¸ë§¨
ĠëĲľëĭ¤ ë©°
Ġìĩ¼ íĬ¸
Ġì¢Į ì¸¡
ëĵŃ ëĭĪëĭ¤
ing s
Ġíķĺ ìĿ´ëĵľ
Ġíİĺ ë£¨
ĠëĤĺ ê³ł
ĠíķĦì Ĥ¬
ĠìĨ¡ ìĺģ
Ġìį ¸
Ġë°ľ ê°Ħ
Ġì½ĺ íģ¬ë¦¬íĬ¸
Ġb u
íĤ¨ ëĭ¤
ĠëĿ¼ ê·¸ëĤĺ
ĠìĤ¬ ìĻĢ
ëŁ ¼ë
Ġë¶Ī ì¶ľ
íį¼ë łĪ
ĠìŀĲ ì¹´
ĠíŀĪ ìĬ¤
Ġë§Ī íķĺ
Ġìľł ì¹´
Ġìŀ¥ ëıĻ
Ġch o
ĠìĨį íķ´
Ġíĺ¸íĿ¡ ê¸°
ìĹĺ ëĿ¼
ĠëĤł ëł¸
ı ħ
Ġìĭľ ì¢ħ
Ġëį° ë¹Į
Ġìļ© ìĿ´
ë¦¬ì¼Ģ ìĿ¸
Ġë¬» íĺĢ
íĥĢ ìŀħ
ìľł ìĺĪ
ĠìĦ± ìĪĻ
Ġì±ħ ìłķ
ĠìĪĺ ë°ķ
ĠìłĪ ê¸°
Ġì§Ģ ìĺ¤
ĠíĮ¨ íĬ¸
ĠìĿ´ë ĨĪ
Ġgam e
Ġìĸ´ë¥´ ìĭł
Ġê°Ģ ìĺ¤
Ġl it
ĠìĿ´íķ´ ì°¬
Ġë§Ī íĥĢ
Ġê°ĢìĬ´ ìĤ´
Ġê¶ģ íķ©
Ġìĸĳ ëĮĢ
ĠìķĦìĬ¤ ì¹´
Ġíĸĩ ë³ķ
ĠìĽĮ ëĵľ
Ġì´Ī ê³ł
ĠíĻķ ì¶©
ĠíĿ¡ ìŀħ
Ġë§¹ ìĦ¸
ĠíĹĪ ë¦¬ì¼ĢìĿ¸
ĠìĦ¤ ëłĪ
Ġì¢ħìĹħ ìĽĲ
ĠëĤ´ëĭ¤ ë´¤
Ġë³µ ìĿĮ
Ġìĥģíķĺ ìĿ´
ë¿ Į
Ġìļ´ ìĦ¸
Ġs im
ĠìĥĿê²¨ ìĦľ
ĠíĥĢìĿ´ íĥĦ
Ġë¸ĮëłĪìĿ´ ì»¤
Ġì¹ĺ ìĤ¬
ìļ° íĬ¸
Ġê¸ī íŀĪ
Ġì§ģ ê²°
Ġê¸° ìĬ¤
ĠìĤ¬ ìĦ¤
Ġë¹Ħë ¡ľ
Ġìłľ ëĮĢ
ĠìĬ¤ íĶĮ
ĠìŁģ ìĿ´
Ġê¾¸ë ©°
ĠìĿ´ìĸ´ íı°
Ġì§ĢëĤľ ë²Ī
Ġíģ¬ë¦¬ìĬ¤ íĭ°
Ġë¶Ģ ìĬ¤íĬ¸
ĠíĭĢ ë¦°
Ġëĵ¤ìĸ´ìĻĢ ìĦľ
Ġìĭľ ì¡°
Ġìĵ°ëŁ¬ ìł¸
Ġíģ¬ ëłĪìĿ¸
Ġf un
Ġì²Ń ëĤĺëĿ¼
Ġìŀ¥ìĦ± íĥĿ
Ġfi re
Ġë°Ģìĸ´ ëĤ´
ĠìķĮ ì½Ķ
Ġë¯¸ ìĭľ
Ġê³¨íĶĦ ìŀ¥
g o
ĠëĴ· ë©´
ĠìĤ¬ ëª¨
ĠìĬ¤ íĮ
ĠìĿ¸ ì¹Ń
ĠíħĮ ë¥´
íĺĦì £¼
ìľ¼ë ¯Ģë¡ľ
ĠâĢ ł
Ġë²Ħ íĭ¸
ĠìŀĲìĺģ ìĹħ
Ġë°ľ ë°ľ
Ġê²ĮìĿ´ ë¨¸
íĤ µëĭĪëĭ¤
ĠìĿ´ ë¹¨
ĠëĮĢ ë§Ī
ĠìĨĮ íĻĢ
Ġì¤ Ħë
ĠìķĪìĥģ ìĪĺ
Ġë¥´ ëħ¸
ĠìķĦ ìŀĲ
ĠìĨĲ ìŀ¡ìĿ´
Ġìľłë§Ŀ ì£¼
Ġë§Ī ìĭ¤
Ġíĩ´ ìŀĦ
Ġê±¸ìĸ´ ìĦľ
ĠëĮĢ ìłĦì°¨
ĠìĿĮ ëŀĢ
ĠìĤ´ ë¦¼
Ġcn n
Ġë¦¬ ìļ°
Ġç ¥
ĠìĥĿ ê³Ħ
Ġìĩ Ħ
ĠíĴį ìĦ±
Ġë¯¸ì§Ģ ìĪĺ
Ġê³¼ íĥľ
ĠìĬ¬ ëĿ¼
ìĦ¼ íĦ°
Ġëĭ¨ ê²Ģ
Ġìĭľ ì§ĳ
Ġìłľ ìĿ¸
Ġå ¼
ĠìĿ´ìĬ¹ ë§Į
Ġê¸°ìļ¸ ìĿ´
Ġê°ķ ë¶ģ
ĠìŀĲ ì¹Ń
ì¡° ìĤ¬
ĠìĦ¸ë ¡Ģ
Ġê³¼íĥľ ë£Į
ĠëĬĶ êµ°
Ġíģ¬ ëŀĺíĶĦíĬ¸
Ġë¹µ ì§ĳ
ĠìĬ¬ íį¼
n et
Ġê¸° ìĦ±
Ġìł ¬
Ġëª» íķ´ìĦľ
ĠìĤ° ìĤ¬íĥľ
ìłķ ëıĻ
Ġì½Ķ íĨł
Ġíĥľ íģ´
ĠìłĪ ì¹ľ
ìĦľ ìĬ¤
ĠëĴ¤ ìª½
Ġìĸ¸ë¡ł ìĤ¬
ì¹ ¼ë
íĺ¸ë ıĻ
ĠëıĦ ëª¨
Ġíĸĩ ë¹Ľ
ĠëįĶ ë¯¸
ë¸Ķ ë¦¬
Ġì§Ģ ëł¥
Ġëĭ· ìĥĪ
Ġê´Ģ ìłľ
Ġìļ° ë§Ī
ĠìĤ¼ìĦ± ê·¸ë£¹
ê³ł ìĤ¬
Ġìº Ħ
Ġë²Ī ìĭĿ
Ġìłľê°Ī ëŁī
ĠíĨł ë¡ľ
ĠëĳĲ ê»ĺ
Ġsing le
ĠëĤľ íķŃ
Ġë§¥ ëıĦ
Ġì´Ŀ ìĤ¬
Ġíķ´ ìł¸ìĦľ
ĠìĦ¤ ë¬¸
Ġë§Ī ëª¨
Ġì¹´ë¦¬ìĬ¤ ë§Ī
Ġëĭ¤ íĪ¬
ĠìĦł ê´ĢìľĦ
ĠíĮĮ ëĤĺ
ĠíĿĲ ëł¤
Ġíķ´ ëĥĪ
Ġìļ¸ íĬ¸ëĿ¼ë
Ġê´ĳ ê¸°
ĠìĦł íĴį
Ġëª¨íĹĺ ê°Ģ
íĹ¤ ìĿ´
Ġê´ĢíĨµ ëł¥
ĠìłĪ ìķ½
Ġë§Ī ì§Ģ
Ġìłķ ìĦł
ĠìĬ¤íĨ ¡
Ġìľł ë¨¸
Ġk a
Ġë¶Ħ ëĭ´
Ġíĺ¸ ìĿĺ
ëĵ¤ ìĿ¸
Ġë¦¬ ë²ł
Ġì¹´ì§Ģ ëħ¸
ĠìĽĲ íķľëĭ¤
ëĤĺ ë¯¸
ĠìĿ´íĥľ ìĽĲ
Ġë°ķ ë¯¼
ĠáĨŀ ìłľ
Ġê²° ê³Ħ
Ġìµľ ìŀ¥
ĠìĦľ ìłĲ
Ġìķ¨ ëŁ°
Ġì§ģ ì±ħ
Ġë¶Ģìłģ ìłĪ
Ġì¶Ķ ì²¨
Ġl l
ĠìĻ¸ íĻĶ
Ġíģ¬ ë¡¬
ĠëĦ ¹
ĠìĬ¬ ìĬ¬
Ġm et
Ġê¹Ģ ìĦĿ
ĠëłĪ ìĿ¸ì§Ģ
Ġìĺ¤ ì£½
Ġíı¬ ê´Ħ
Ġì¹ĺ ê³¼
ĠíĻ©êµĲ ìķĪ
Ġì´Ŀ íķ©
Ġì¤ĳìķĻ ìĿĢíĸī
Ġëĸ¨ìĸ´ ëľ¨ë¦¬
Ġë¶ĢìĤ° ìĭľ
ĠìŀĲ ìķĦ
ìĪ ´
ĠíĽĦ ìĿ¼
ĠìĿ¼ìľ¼ íĤ¬
Ġë¶Ī ê³łê¸°
Ġìľłë³ĳ ìĸ¸
Ġëĸ¨ìĸ´ ìł¸ìĦľ
Ġìľ¼ ìĦ¸ìļĶ
íıŃ íĴį
Ġe t
ìļ´ ìĪĺ
ĠêµĲ íĽĪ
Ġë¬´ ìĭł
Ġë¸ĶëŀĻ ë°ķìĬ¤
ĠìłĢ ìĦľ
ĠëĤ¨ ê·¹
ĠìĽĲ ëħĦ
ì£¼ë ¡ľ
ĠíĮ ¥
Ġíķľ ëĪĪ
oo m
ìĿ´ì¹ĺ ë¡ľ
Ġìłķ ìĬ¹
Ġì¡° íıŃ
Ã ¡
Ġë³´ ìĤ´
Ġìŀĳ ìłķ
ĠìĹ ¥
Ġìľł íĥĦ
ê³ §
ĠìĻ¸ ìĭĿ
Ġì¡° ê°ľ
ĠëĦ¤ ìĿ´ìħĺ
Ġd ps
Ġëª¨ ë¹Į
Ġì±Ļ ê¸´
am e
Ġëĥī ë©´
ĠìĹ°íıī ëıĦ
ìħĶ ì¸ł
Ġê¸° ì¦Ŀ
Ġëĵ± ê·¹
Ġëª° ëł¸
Ġë²Ĺ ìĸ´ëĤľ
Ġê´Ģ ìļ°
ĠìĪľ ëıĦ
ë³ĳ ìĽĲ
Ġë°ĶëĢ Ķ
ëıĦ ë¦¬
Ġ% ]
Ġìĺ¤ ëĶĶìĺ¤
Ġìļ ¤
Ġíģ´ëłĮ ì§ķ
ŀ į
Ġâ ĶĢ
Ġêµ´ ë¦¬
Ġí īģ
Ġë°ķ ì¥Ĳ
Ġê°ģë³Ħ íŀĪ
ĠêµĲ ë¯¼
Ġìĺ®ê²¨ ì¡Į
Ġìĭ«ìĸ´ íķĺ
ĠëĬ ª
ĠëĨį ëĭ¨
Ġìĭľ ëħ¸
Ġíģ´ëĿ¼ ìļ°ëĵľ
Ġì¤Ħê¸° ìĦ¸íı¬
Ġb as
ĠìĿ´ ì¹´
Ġëª¨ ë²Ķ
ĠíĥĢ ì¹ĺ
Ġìĺģ ìĪĺ
Ġë²Ķ ìļ©
ëĤĺ ë²ł
Ġëª¨ ì²ĺëŁ¼
Ġíĵ¨ ìłĦ
ĠìŀĲ ìŀĳ
Ġ201 9
ĠìŀĦì §
Ġìłķê·ľ ì§ģ
ĠìĿ´ ë¶Ī
ĠìĻ¸ ìķ¼ìĪĺ
Ġê°Ģ ìĦ¤
ĠìıŁìķĦì ¡Į
ĠíĹĪ ìĪł
ĠìķĦì² ĺ
ì¤ĳ êµŃ
Ġé «
Ġìľłê²© ìĪĺ
ĠìĹ° ì¤Ģ
ĠëĶ± ëĶ±
Ġì¡° ìĽĲ
Ġì°¬ ë°ĺ
Ġë°Ģë¦¬ ë¯¸íĦ°
Ġì¹´ ë§Ī
ł Ģ
Ġë²ĦìĬ¤ íĬ¸
Ġê°ģ ìĿ¸
ĠëĤ´ ë¹Ħì
ĠáĦ Ĵ
ĠìĦ± ë°°
ìĹŃ ìĤ¬
Ġì¶Ķ ëıĮ
Ġë¡ľ ìĬ¤íĬ¸
Ġm ac
ĠìĬ¤ ë¬´
ĠíĶĮ ë£¨
ĠìķĮ ìķĦì
Ġë¬´ì§Ģ ê°ľ
Ġìĥģ ë¶Ģ
Ġì¹¼ë Ŀ¼
ĠìĺĪ ë§¤
Ġê¸īê¸° ìķ¼
ì¿ł ëĭĪ
ĠíĶ¼ íģ¬
ĠìĿ´ìŀ¬ ëªħ
Ġê²Ĳ ì§Ģ
ë¹ Ĺ
ĠìĪĺ íĺľ
ìĹ° êµ¬
Ġë¨¹ ìĹ¬
ĠëĬĶ êµ¬ëĤĺ
Ġë°ķ ëªħ
Ġê³µ ìĨĮ
Ġê°ķ ìĿ¸
ĠìĤ¬ ì§Ģ
Ġíĺ¸ê¸° ìĭ¬
Ġn ba
Ġì¹´ íħĮ
ion s
Ġì§Ģì¼ľ ë´Ĳìķ¼
Ġê±° ì¹ł
ĠìĬ¤íĶ¼ ì»¤
Ġê³¼ ê²©
Ġì¶ľ íĩ´ê·¼
Ġa h
Ġì´Ī ëĬ¥ëł¥
Ġëĭ¤ìĭľ ê¸Ī
ĠíĥĢ ì¸ł
Ġmo on
ĠëıĻ íĺ¸
Ġê´Ģ íķ´
Ġì£Ħì ±ħ
Ġcol or
Ġê°Ħì² ©
ĠìĪľ ì¡°
ĠìĤ´ìķĦë Ĥĺ
ĠíĥĢ ê°Ģ
er n
Ġì¿ł ìĬ¤
ĠìĤ¬ ìľ¡
íĽ ¼
Ġê²½ ìĿĺ
Ġì£¼íĥĿ ê°Ģ
Ġê³ł ëĤľ
Ġë°© ì½ķ
ĠìĨĲ íĨ±
ĠìŀĲ ìľĦ
ĠìĿ¼ ê´Ħ
íİ ĳ
Ġìĭ¸ ìļ´
ëı ¼ì§Ģ
Ġì§Ħ íķ´
Ġë³¼ë ¥¨
Ġë¯¼ìĺģ íĻĶ
ĠìĬ¤ ì»¬
Ġä¸ ī
ĠëĤ´ ìħĶëĦĲ
Ġë¥ Ļ
ĠìĬ¹ íĮ¨
Ġëĳ¥ ì§Ģ
Ġê²¨ìļ¸ ì²ł
ĠìĹ¬ë¦ Ħì²ł
ĠëĤ´ ê±¸
Ġì¨ ©
ĠíĽĶ ì¹ĺ
Ġì« Ģ
Ġg k
Ġì£¼íĮĮ ìĪĺ
Ġê±° ìĦ¼
Ġê²½ ë¹Ħì
Ġì°¸ ìľ¼ë¡ľ
íģ´ ë¦¬
Ġë§Ŀ íĨł
.. ..
Ġë°Ģìĸ´ ë¶Ļ
Ġì¶Ķ ìĿ´
ĠìĹĳìĭľ ì¦Ī
Ġì¡°íķ© ìĽĲ
Ġex p
Ġìĭł íķĺ
Ġë¯¸ë ¤Ħ
Ġê¹Ģìłķ ëĤ¨
Ġb ro
Ġì¢Į ìĿµ
ĠíĮĮ ìļ¸
Ġâĺ İ
Ġê´Ģ ìķħ
Ġë²ł ìĿ¼
ìĦ± ìŀ¥
Ġë¶Ģ ìĪ´
Ġì£¼ë ²Ķ
ĳ ¥
ê³¼ë ¬¼
íĺĳ ìĥģ
ĠìľłëĤľ íŀĪ
Ġë¶ģ ë°©
Ġì°¾ìķĦìĻ Ģ
ĠìĹ´ ìķħ
Ġë¶Ħ ìŀĲ
Ġê±¸ìĸ´ ê°Ģ
Ġìļ¸íĬ¸ëĿ¼ë §¨
ĠìĦ± ë¹Ħ
Ġb a
Ġë¯¸ íĿ¡
ĠíħĮ ëłĪ
Ġê±´ ëĵľë¦¬
ĠìĿ´ëĤĺ ë§Ī
ì§ ¤
ĠìĨĮëª¨ ëŁī
ëĤĺ ë¬¼
Ġë¸Į ìĿ´
Ġê³µ ëªħ
Ġë°Ģ ì°©
Ġëĵ¤ ëŁ¬
ĠìĿĺë£Į ì§Ħ
Ġìŀħ ì²´
Ġìµľ ìłķ
Ġíĺ¸ ë¦¬
ìļĶ ë¯¸
Ġíķ´ ë¬¼
Ġì¿ł ë§Ī
ĠëĵľëŁ¬ ëĤ¸
Ġì§Ħì Īĺ
ê²¨ ìļ¸
Ġë³´ ì§ģ
ëª¨ ìĬ¤
ìķ¼ ìĬ¤
Ġìī´ ëĵľ
ĠëĮĢ ëĭĪ
Ġìĥ¤ ìĺ¤
Ġì¶ľ ìłľ
ĠëĤłì¹´ ë¡ľìļ´
Ġë¬¼ë¦¬ ì¹ĺ
ë³´ ê¸°
ĠëĤĺ ë¡ľ
Ġìĺ¤ íĶĦëĿ¼ìĿ¸
Ġê²½ ì§Ī
Ġíħ ħ
Ġëħ¸ê°Ģ ëĭ¤
Ġê²° ìĦł
ĠìłĪ ìĭ¤
Ġê²½ ê³¼
ĠìĪĺìĤ¬ ê´Ģ
Ġì¡ ¸ëĿ¼
Ġì§ģ êµ¬
Ġìľ¡ ì§Ģ
Ġê¹Ģ ê´Ģ
Ġì¤ĦìĹ¬ ìĦľ
ĠìĻĢ ìļ°
Ġë±ħ ê°Ģëĵľ
g y
ĠëŀĦ ê¹Į
Ġd ec
ĠìĨĮ ìĭľ
f o
or k
ĠëıĻ ìĨį
Ġë§Ī ëĭĪ
Ġê³¡ ìĿ¸
ĠìļĶ ìĸĳ
ĠíĽĦìľł ì¦Ŀ
Ġê¸°ìłĢ ê·Ģ
Ĳ ľ
ag on
Ġìĺ¤ë¦¬ ìĺ¨
ĠìĿ´ìłķ íĺĦ
ĠìĪ¨ ìł¸
Ġì°½ìĽĲ ìĭľ
ĠëıĦ ê¹¨ë¹Ħ
ĠìĨĮ ìĻ¸
ĠìĬ¤ìľ Ļ
Ġìłľ ì§Ģ
Ġíİĺ ìĸ´ë¦¬
Ġì¤ĳ ì§Ħ
Ġì¸ł ë°Ķ
Ġê¹Ģì¢ħ ìĿ¸
Ġì«Ħ ê¹ĥ
Ġfood stagram
ĠìĦ ¹ìĬ¤
ĠíĻķ ì§Ħ
ìĤ Ĳ
Ġì£Ħì±ħ ê°Ĳ
Ħì ĸĳ
Ġt p
ĠíĥĲ êµ¬
Ġê¹Ģ íĺ¸
Ġìľ¼ ìħ¨
ĠìŀĲ ë¯¼
ĠìĺĪ ë¯¼
ĠìĭĿ ìĬ¤
ĠíĪ °
ì¤Ħ ê¸°
Ġë°ĺ ìŀħ
ĠìŀĦì Ĥ°
Ġf ree
ĠíĴį ìĨį
ĠíĦ¸ ë¦¬
Ġm ad
ĠìĤ° ë°ľ
as y
Ġi r
Ġt a
Ġhap py
ĠìĪĺ ë°°
Ġì½ °
Ġì« Ĵ
Ġb bc
ìĻĢ ëĿ¼
Ġëĵ¤ìĸ´ ê°ĳëĭĪëĭ¤
Ġì¹´ ë¥¼ë¡ľ
Ġp vp
Ġìĭł ëħĲ
Ġm ay
Ġìłķ ìŀĲ
Ġë¸Ķë¦¬ ìŀĲëĵľ
Ġn s
Ġw a
ĠíĮĮ ëŀĳ
ĠìŀĲ ì·¨
ĠìĦ¼ íĬ¸ëŁ´
Ġìľ¼ëĭĪê¹Į ìļĶ
Ġë°ĺ ë¡ł
Ġíķ¨ ìŀ¥
Ġìľ¤ ìĺģ
Ġì§Ģ ë¦Ħ
Ġìĳ ¤
ĠìŀĲìĿ´ìĸ¸ íĬ¸
Ġìŀĳ ìľĦ
Ġê°Ħ ìłĪ
Ġë°ľ ìĿĺ
íĬ¸ë ¡ł
Ġì£¼ ìĸ´
ĠìĿ´ ìĦ¸
ĠëĿ¼ë ¯¸
Ġë³¼ ê¹ĮìļĶ
Ġëĭ¤ ì§Ģ
ĠíĥĢ ìŀĦìĬ¤
ĠëıĦ ìĥī
Ġíľ´ ë¨¼
Ġíķłë¡ľ ìľĪ
ĠìĿ´ë¦¬ ìłĢë¦¬
ĠíķĺìĹ¬ ê¸Ī
Ġë§ ´
Ġë³´ ê¶Ĳ
Ġê±° ìĬ¤
ĠìĹ¬ íı¬
Ġu r
ĠìĽĲìĤ° ì§Ģ
Ġìŀ¥ê¸° ê°Ħ
Ġì§Ģ ëĤł
íģ´ ë¦°
Ġì§ģ íĸī
Ġë° §
Ġìŀ¬íĮĲ ê´Ģ
ê·ł ê´Ģ
Ġê°Ģë¡ľ ë§ī
Ġb it
Ġam er
Ġê²Ģ ì§Ħ
Ġìĸ´ëĸ ¡
Ġìŀ¬ íĺĳìĥģ
Ġê°Ģ ë¯¸
Ġê·¸ë ŀĢ
Ġì§ĦìĹĲ ìĸ´
Ġë°Ķ ì¿ł
Ġêµ¬ íķľ
Ġì° ¹
Ġë°ľ ê°ģ
ĠëĤ® ì¶°
Ġê´Ģê³ ĦìĹĨìĿ´
ĠìĪĺ ëª©
Ġê¸°ëħĲ ìĭĿ
d d
Ġ201 7
Ġìłķ ëªħ
Ġì¤ĳ ìĦľ
Ġê±° íĬ¸
Ġíķ´ ìłĢ
ĠìłĢ ì¡°
Ġìĭ± ìĸ´
Ġë¬´ìĭ¤ ìłĲ
Ġê²° ê³¼ë¬¼
íĤ¤ ë¦¬
ì¢ Ģ
ĠìĹĶ íĬ¸ë¦¬
Ġë¬´ëĦĪ ì§Ħ
Ġìļ°ìļ¸ ì¦Ŀ
Ĭ Ī
ĠëįĶ êµ¬ëĤĺ
Ġíķľ ìĬ¹
Ġì½¤ ë¹Ħ
Ġì¶ķêµ¬ ëĭ¨
Ġíķľìłķ íĮĲ
ĠìĤ¬ë¬´ ëĿ¼ìĿ´
Ġíĥ ¤
ĠìķĦìĺ¤ ìĿ´
ĠìĿĢ ë©Ķëĭ¬
Ġíİĳ íģ¬
ëĤĺ ë¦¬
ëıĻ ìŀĲ
Ġv al
ĠíĮĮ ë°į
Ġë°ķ ìĦł
ìĺģ ìŀ¥
Ġëĭ¬ ëł¸
íĿ ī
Ġìĺ Į
ĠìĨĮ ê°Ĳ
ìĹ ł
ĠëıĻëĤ¨ ìķĦ
Ġì¡°ì§ģ ìĽĲ
ĠìĬ¤ëª¨ ê·¸
Ġë§Īë¥´ ì½Ķ
ëĿ¼ë ¯¸
ĠìĬ¤ ì¿
Ġê¿ ĩ
ĠìĹĲ ë²Ħ
ĠìĿĢ ë°Ģ
Ġfir st
c le
ĠìĦ± ê·łê´Ģ
Ġì²´ ë¦¬
ĠìĻķ ì¡±
Ġìķ½ ì¹Ń
Ġê²© ìłĦ
Ġë¹ħíĨł ë¦¬ìķĦ
ĠëĪĪì¹ĺ ì±Ħ
Ġì½ĶìĬ¤ íĶĦëłĪ
Ġte ch
Ġë³µ ëıĦ
Ġë¶Ģ íĦ´
âĸ ·
ĠìĬ¬ëĿ¼ìĿ´ ëĵľ
ĠìķĦ íĨł
Ġë©ĭ ëĮĢë¡ľ
Ġg hz
Ġëĭ´ ìŀĦ
ĠíħĮ ë¦¬
ĠìŀĶ ìŀĶ
ĠìŀĲ ì§Ī
Ġê²½ ìĥī
ëıĦ ìłĦ
ĠíļĮ íĻĶ
Ġë¹Ħì¶ °
ĠìĹ°ê¸° ìŀĲ
Ġì·¨ íķł
ĠìĹ¬ê°Ŀ ìĦł
ĠëĦĺìĸ´ ê°Ī
ĠìĿ¼ ìĪĺë¡Ŀ
Ġì²ľ ì²´
ĠëĨį ìĸ´
ĠëĤĻ ëıĻ
Ġê²½íĿ¬ ëĮĢ
Ġf t
Ġê°Ģ ìĻĢ
ĠíĶ¼ ì¸ł
Ġte xt
Ġå® ī
Ġìĺ¤ ì¦Ī
Ġë³ĳ ìļ°
Ġå ¸
Ġì¡° ë¡Ģ
Ġå »
ĠëĤĺìĿ´ ì¸ł
Ġmo v
Ġë¯¸ìĦ± ëħĦ
Ġìĺģ ë¦¬
Ġì´Ŀ ëıħ
ë©Ķ ëĭ¤
Ġë£¨ë§Ī ëĭĪìķĦ
ĠëłĪ ëĤĺ
Ġíķ© ëĭ¹
ĠëĤĺê³ł ìķ¼
Ġê·¸ëł¤ ì§Ħ
Ġë²Į ìĿ¼
ĠêµĲ ìĸĳ
ta in
Ġw on
Ġë°Ķ ëĭĲëĿ¼
Ġë¡ľ ìĹ´
Ġë¬´ ì§Ģë§ī
ĠìĦ¼ íĬ¸
ĠìĿ¼ëł ¨
Ġë¬´ì§Ģë§ī ì§Ģ
ĠìĺĪ ë°°
ĠìĺģíĻĶ ê´Ģ
ĠíĻľ ëł¥
h d
ìłľ êµŃ
Ġë²ł ìĿ¸
ìľĦìĽĲ ìŀ¥
Ġëĭ¬ëĿ¼ ì§Ħëĭ¤
ĠëıĻ ìļĶ
ë ¤Ħ
ĠíĦ° ëľ¨ë¦¬
ĠìĤ¬ ìĨĮ
ĠìĿ´ ëĶ°
ad y
ë°ĶìĿ´ ë²Į
Ġì¶¤ ì¶Ķ
Ġìłķ ìĤ°
ëł¤ ê³ł
ë²ł íĬ¸
ëħ¸ë ¶Ģ
ĠíģĲ ìĸ´
ĠìĿ´ ê´Ģ
Ġìľł ìĬ¤
Ġê¸°íļį ìĤ¬
Ġìĸ´ ìĽĮëĵľ
Ġì¸ł ì¹´
Ġìľł ê³ł
ĠëĤĺìĿ´ íĶĦ
ĠìĿĮ íĸ¥
ĠìķĦë ŀĳ
ĠìķĪ íĿ¬ìłķ
Ġì½ĺ ìĬ¤íĥĦ
Ħì² ´
ĠíĬ¸ë¦¬ ê±°
ĠíĿĲ ë¦°
Ġëľ¯ ìĸ´
Ġíĺ¸ë ĳĲ
ê¹ ģëĭĪëĭ¤
ĠíĹĮ ìĭł
? ?
íģ´ ëŁ½
w ay
Ġë¶Ģ ìľĦìĽĲìŀ¥
Ġìļ© ëĤ©
Ġì°Ķ ëŁ¬
ĠíŀĪ ì¹´
Ġíıī ìķĪ
Ġlc d
ĠëĤ´ ë°Ģ
ë£¨ ìĹĶ
Ġspec ial
£ ½
ìķĦë ©Ķ
ĠìŀĲ ì¼ĵ
ê·¸ë Ŀ¼
Ġë¬´íķľ ëıĦìłĦ
ìĨĮ ë¬¸
ì²ĺ ìĬ¤
Ġë¯¸ ìĪĻ
ĠìĤ¬ íĳľ
ëĥ ħ
ĠíĶĦëŀŃ íģ¬
Ġì´Īë¯¸ ìĦ¸
Ġì§Ģ ë¯¸
Ġë¥ĺ íĺĦì§Ħ
Ġë¬¼ëł¤ ë°Ľ
Ġìĭľê°Ħ íĳľ
ĵ ¯
Ġì³Ĳ ëıĦ
ëŀ ´
ĠëĤĺë Ńĩ
ĠìĹ° ëĤ´
ëŀ ©
Ġê³¼ ëĭ¤
ìĦ± êµ°
ĠíļĮ ê³ł
Ġself ie
ĠëıĮëł¤ ì£¼
ĠìĹĦì ¤ĳ
t o
ë§ ĺ
Ġê°Ģ ìĻķ
ĠìķĦë ¶Ģ
ĠìĬ¤ ê¸°
ĠæĿ ±
¬ Ĳ
Ġëĵľ ë¡ľìļ°
ĠíĤ¤ ë¯¸
ĠìĺĪìĪł ê°Ģ
² ¼
Ġë°ķ ìŀĲ
ĠìĹĦìĹ° íŀĪ
y n
Ġëª¨ë¥¸ëĭ¤ ëĬĶ
íķĺ ìĹ¬
ĠìĤ¬ ëĤĺìĿ´
ĠìĬ¤íĥ Ń
ĠìķĮìķĦë ´
Ġëħ¸ ìķĦ
ĠìĨį ìĺ·
Ġë¶Ī ê¸Ī
ĠëıĮìķĦ ê°Ħëĭ¤
Ġìľ¡ ìĪĺ
ĠìŀĦì §ģ
ĠìĿ´ ë¶Ħ
Ġê³łìĨį ë²ĦìĬ¤
ĠíıŃ íı¬
ĠìĨľ ìĶ¨
Ġì¹ Ļ
ìļ° ëĿ¼
Ġp om
ĠìĦł íļĮ
ĠëıĻ ë©Ķëĭ¬
Ġìĺ¤ë¥¸ ìĨĲ
Ġë§Į ìĦ±
Ġëª¸ ìĭ¸ìĽĢ
Ġíģ ¼
ĠëĶ° ìĻĶ
ëĭĪ ì½Ķ
ĠìĪĺìłķ ìķĪ
ê·ľ ëª¨
Ġm ore
Ġper f
Ĩ ĵ
ĠìĹŃ ìĦ¤
Ġd b
Ġìļ´ëıĻ ê°Ģ
Ġw r
Ġë¶Ļ ìĺĢ
Ġì²´ ì¡°
ĠìĹ´ ë¦°ëĭ¤
ìļ° ë³ĳ
ë³´ ëĿ¼
Ġì¹´ ì¿ł
ì§Ģ ëĮĢ
ĠëıĮ ë³´
Ġm ic
íĭ° ëĭĪ
ĠìĦ± íĿ¬
ĠìĬ¤íĥĢ ì¦Ī
ĠëĮĢë²ķìĽĲ ìŀ¥
Ġìļ© ìĹŃ
ĠìľłëŁ½ ìĹ°íķ©
Ġì¹´ ëĭĪ
ë¯¸ë ħ¸
ĠíĮ¬ íĭ°
Ġë°ĺ ê°ĳ
Ġì¸ ¤
Ġst ud
Ġë³Ģ ìŀ¥
Ġv ip
ĠìĿ¼ ì¡°
Ġëĭ¹ ê¸°
ĠìµľëĮĢ ì¹ĺ
Ġíı´ ìķĦìĽĥ
ĠìĦ¤ ëĤł
ĠìķĮì½Ķ ìĺ¬
ì» «
Ġë©Ķì¹´ ëĭī
Ġíĺ¸ ìŀ¬
ĠìŀĶ ëĶĶ
ĠìĿ¼ ì»«
ê²¨ ìļ´
ìĨĮ ìĬ¤
å ľ
Ġíį¼ íİĻíĬ¸
ĠìĿ´ ëĭĪ
Ġìĭ¤ íĻĶ
Ġë°ķìĤ´ ëĤ´
Ġf il
Ġë¯¸ ìłķ
ĠìļĶ ëıĻ
ĠíĮĮìĿ´ íĶĦ
ĠìĿ¼ íĴĪ
ĠìĿ¸ì²ľ ìĭľ
Ġë§Ī ìķ¼
ĠìĻ¸êµĲíĨµ ìĥģë¶Ģ
Ġë¯¼ ìĨį
ĠìĦ¸ë¥´ ë¹ĦìķĦ
ĠëĤľ ë°©
ĠëĨį ì¶ķ
ĠëĤĺë¡ľ íĺ¸
Ġì°¨ ëĤ¨
u al
Ġì´ī ìĪĺ
Ġë¯¸ìļ© ìĭ¤
ë§ ·
ê¸ į
Ġb ra
ĠìłĦ íķľ
ê¿ Ģ
âĶĢ âĶĢ
ĠìŀĩëĶ° ëŀĲ
ê¾ ¸ë
ĠìĿ¼ ì¶ķ
ĠíĤ¤ ë¥¼
Ġê·¼ìłĳ ìłĦ
Ġíķ´ ì»¤
Ġì¹ĺ ë°Ģ
Ġpro ject
Ġk ore
Ġìĸ´ë²¤ ìł¸
Ġìĥģ íĳľ
ĠêµĲ ê°Ĳ
Ġì²ł ê°ĳ
ĠìŀĲ ìľĦëĮĢ
ëħ¸ ë¦¬
Ġëŀľ ìĦľ
ĠìĿ´ìĤ¬ íļĮ
Ġê¹Įëĭ¤ ë¡ľìļ´
Ġì§Ħìłķ íķľ
Ġë¹Į ëĿ¼
Ġê½ģ ê½ģ
Ġìĭł ëĭ¤
ĠíĤ¤ ëĿ¼
Ġíķ´ê²° ì±ħ
ĠíĶ¼ê³ł ìĿ¸
ëĬ Ħ
ĠëıĦ ë°°
Ġìķķ ê¶Į
ëŁ° íĬ¸
Ġë½ ķ
Ġm d
Ġì¹´ íĶ¼
Ġìĸ´ë ķĮ
Ġìłĳ ì¢ħ
ĠíĹ¤ ëĿ¼
Ġê´Ģìĭ¬ ìĤ¬
Ġíļ¨ ëł¥
ĠíĿī ëĤ´
Ġì¦Ĳê±° ìĽĢ
Ġç ¸
ĠìĦł ìĿ¸
ëĬĲ ëĭĺ
ì§Ģ ë¥´
Ġì²ľ ìĥģ
Ġìķŀ ëĴ¤
¾ ħ
Ġíķł ìĪĺë¡Ŀ
ĠìŀĦì§ģ ìĽĲ
Ġëªħ ìĨĮ
ìĸĳ êµ°
Ġê´Ģ íķ´ìĦľ
ĠíĻĶ ê°Ģ
b y
Ġë¶Ħì ĭĿ
Ġre v
ëª¨ ìĬµ
ĠíĺĦì ¶©
Ġì£¼ íĻ©
Ġì½Ķ íĮĮ
Ġì§ĳ íķĦ
ĠíĥĪ ìĦ¸
ĠìĭłìĥĿ ìķĦ
Ġë¶Ħ íĻĶ
Ġë¹Ħì ĺ
Ġê³µ íĮĲ
Ġíķ© ì°¸
Ġê¼¼ê¼¼ íŀĪ
ĠíĶ¼ ìĺ¤
Ġ" .
ĠëĦ¤ ìĿ¼
Ġê³µ ì¡´
íĭ° ì§Ģ
ĠìĹ¬ ì¹ľ
all y
Ġì¿ł ëĭĪ
ĠíĶ¼ë ŀį
Ġíİĺë¥´ ìĨĮ
Ġë§Ī ë¯¸
ë¸Į ëĿ¼
ĠëĴ¤ ì§Ģ
Ġëª¨ ëį
Ġíħį ìĬ¤
ĠëĤĺëī ľëĭ¤
Ġì£¼ìĤ¬ ìľĦ
Ġbre ak
ĠíĴį ê¸°
íĻ ī
âĨ ĵ
Ġë°° ë¶Ģ
Ġíķĺ ëĬĲëĭĺ
ìħ ¸
ë² ¼ë
Ġê²Į ë¥´
Ġìĭľë®¬ ëłĪìĿ´ìħĺ
ĠëĮĢ ëĭ´
ĠëĤĺ ê²½ìĽĲ
Ġê¹Įë§Ī ê·Ģ
Ġìĺģ ìľł
Ġëį§ë¶Ļ ìĹ¬
ĠìĻĦì £¼
Ġì£¼ìĿĺ ìŀĲ
ĠìĦ¤ ìĤ¬
ĠíĽĪ íĽĪ
ìĤ° ë©´
Ġë¹Ħ ê²°
Ġê¸°ìĹħ ìĿ¸
ĠíĮĮ íĮĮ
Ġìĸĳ íıī
ĠíĥĦì Ĥ°
Ġìłķ íĺľ
Ġë§Į ë£Į
ĠìĹĦë°Ģ íŀĪ
ĠìĤ¼ ê±°ë¦¬
Ġìłľìŀĳ ë¹Ħ
ĠíĬ¸ ë¦´
ĠëĿĦì ĽĮ
Ġë³µ ë©´
ĠíĺĦë ªħ
Ġl u
Ġìŀ¥ ëĭ¨
ĠëĴ¤ ëĶ°
Ġì³Ĳ ëĵ¤ìĸ´
ĠìĻķ ê°Ģ
Ġìľ¤ ìĥģ
ĠíĭĢ ë¦¬
ĠìĽĥ ê²¨
ĠìĿĺ ìĿĺ
Ġíķľ ìĦ±
Ġì°½ìŀĳ ë¬¼
Ġíĭ° ìłĢ
ìĥģ ê°Ģ
Ġì£¼ ê¶Į
ĠìĹĩê°Ī ë¦¬
Ġsum mer
ĠìĹĲ ë¯¸
ĠëģĮëł¤ ê°Ģ
ĠëĮĢ ëŀĢ
Ġì²ĺ íķľ
Ġsch ool
Ġë¡ľ ìłľ
Ġìĺ¤ëĿ½ ìĭ¤
Ġë°Ģ ìĪĺ
ĠìķĪ íĨłëĭĪ
Ġë¶Ģ íĺ¸
Ġíĥľ ì¢ħ
Ġcl ass
Ġíĥľ ì¡°
Ġthe y
Ġìŀ¬ ìĽĲ
Ġëĭ¨ ìĿĺ
ë³Ģ ìĿ´
ĠìĪĺìļ© ìĨĮ
ĠáĨŀìłľ ë³´
ĠíĨł ëĿ¼
ĠëıĮìĹ° ë³ĢìĿ´
ĠëĮĢê´Ģ ëł¹
Ġìĭľ íĥĢ
Ġíı¬ ëĮĢ
ĠìĹ¼ë ł¤
ĠìŀĦìĤ° ë¶Ģ
Ġìķł ìļ©
af e
Ġëĭ¤ëĬĶ ëį°
Ġìłķ ê±°
Ġíĺ¼ ìŀ¡
Ġê·¸ íķ´
ì¹ ©ëĭĪëĭ¤
Ġê³µ ë³´
Ġíķľ ëªħ
ĠìĹ¬ ìłķ
ìķĦì Ĭ¬
Ġìľ¼ë Ŀ¼ë
Ġf re
ĠëĤĺ ëĵ¤ìĿ´
Ġs ay
ĠìĬ¤íģ¬ ë¡¤
Ġëª¨ ëįĺ
Ġì²Ń ë£¡
ĠíĺĪ ê´Ģ
Ġíı¬ ë§·
ĠìķĦìĿ´ ì¦Ī
Ġì£¼ë ¬´
ĠìļĶê¸Ī ìłľ
ìĪŃ ìķĦ
Ġëĭ¨ ìĭł
íķĺ íķĺ
Ġê´Ģ ì§ģ
ĠëĬ¥ ê°Ģ
Ġìłģ ìĭŃìŀĲ
ëĵł ê°Ģ
ĠëĪ ĦìĬ¤
ĠíĴį ìŀĲ
ĠìĿ¸ìĤ¬ ìĿ´ëĵľ
Ġê¸° ì§Ī
Ġì°¨ ì¢ħ
ĠìĿ´ ìļ°
ĠëĤł ëĽ°
Ġj y
ĠìĬ¤ëŁ¬ ìĽł
Ġê³µìĹ° ìŀ¥
Ġíİĺë¥´ìĨĮ ëĤĺ
ĠìķĦ íĻī
ĠíĶĦë¡Ŀ ìĭľ
ĠíĺĦì Īĺ
Ġì¢ħë¡ľ êµ¬
Ġìľł ìĺĪ
ëł Ļ
Ġëķ ľ
ĠìĿ´ ìģľ
ĠíĶĦë¡ľ ëįķ
ĠìķĦìĬ¬ ìķĦìĬ¬
Ġs ur
ĠìŀĲ ëŀĢ
ĠëıĻ ëŀĺ
Ġê¹Ģ ë¯¸
Ġæ ²
ĠìķĦì¼Ģ ìĿ´ëĵľ
Ġê²© íĩ´
ĠëĵĿ ìĭ¤
Ġë°Ģ ê°Ģë£¨
ĠìĨį íİ¸
Ġìŀ¥ ìĸ´
Ġìłķìĭł ëł¥
ìĤ° ìĹŃ
en c
Ġìŀ¥ íĥĢ
ĠëĤ´ëł¤ ëĨĵ
Ġìĺ¤ìĦ¸ íĽĪ
Ġìĺ¤ëĿ½ ê°ĢëĿ½
Ġê¹Į ë¨¹
Ġëĸł ëĤľëĭ¤
Ġíķĺëĵľ ìĽ¨ìĸ´
ĠíĶĮ ë¦¬
Ġa e
Ġê²Į ìŀ¬
ĠìĹ° íĸī
ì¦ Ļ
ìķĦ ê°Ī
ĠìĬ¹ ëł¤
ĠìķĦë¦¬ ëŀĳ
ĠìĬ ´
ug h
Ġë¶Ģ ê²°
Ġëıħ ê°Ĳ
ĠìĨĮ ê·ľëª¨
Ġëĭ¤ ì¤ĳ
ar a
ĠâĢ ķ
ĠìħĢ íĶ¼
ĠëıĻ ê±°
Ġìŀ¥ê°ĳ ì°¨
Ġë°ĺ ëĤ©
Ġìľł ì¦Ī
ìĺģ íĸ¥
å Ĳ
Ġì´Ī ìĦł
Ġë¡ľ ì§Ģ
ë¯ ¹ìĬ¤
Ġì²Ńì£¼ ìĭľ
Ġëª¨ëį ¸ë§ģ
ĠìĿ¼ ê°Ħ
Ġíĭ° ë¹Ħ
ĠìķĦíħĮ ëĦ¤
Ġg ro
Ġíİľ ìĬ¤
ĠíĽĦ íıŃíĴį
ì§ ĸ
Ġì²Ń ëŁī
ĠìĬ¤ë¦´ ëŁ¬
Ġê·¸ë¦¬ìĬ¤ ëıĦ
Ġë©Ķ ìĦ¸ì§Ģ
Ġë²ł ìĸ´
ĠëĮĢ ìĬ¹
ĠìĥĿ ìĤ¬
Ġì²´ ì§Ī
Ġë£¨ ë¦¬
ĠëĪ ķ
ĠëĵľëŁ¬ ëĤľëĭ¤
Ġë¬´ ìĨĮ
Ġna ver
ĠìķĦëŀĺ ìª½
ìĨį ê¸°
Ã ¼
ë§Ī ìĿĦ
ĠìĿ´ ëĭ¨
Ġæ ·
Ġì§ģ ë©´
ĠìĬ¤ëĤĺìĿ´ íį¼
Ġë°Ķ íĭ°
Ġìłķ ìŀ¥
Ġíģ¬ë¡ľ ìķĦ
Ġì°¨ê´Ģ ë³´
ëĤł ëĵľ
Ġê²© ëıĮ
ĠíĿ¥ êµŃ
Ġìłķê±° ìŀ¥
ĠìķĦì ĹŃ
Ġíģ¬ëĿ¼ ìļ´
ĠìĹ° íĿ¬
ì¤ Į
Ĺ °
Ġìĥģ ë°ĺ
ĠìĨĲ ê¸¸
ĠëłĪ ìķĦ
ê·¸ ëłĪ
ĠìĽĮ íĶĦ
Ġc al
ĠìŀĦ íķĺ
Ġb et
Ġíĥľ ìķĪ
Ġon ly
ĠìĿĢ íıī
Ġìľłìŀ¬ ìĦĿ
Ġë§Ī ë¥¸
ë£¨ìĹĶ ìŀĲ
ĠëĤ´ ëĭ¬
Ġëĭ¨ ê³¼
Ġë³´ëĤ¸ ëĭ¤
Ġê¹Ģ ë²Ķ
Ġìķ¼ ê¸°
Ġë¶Ģëĵľ ëŁ¬
Ġìłľ íľ´
Ġìĸ´ ë¯¸
ë ¼Ī
ĠìĿ¸íĶĮ ë£¨ìĹĶìŀĲ
Ġê¹Įëĭ¤ ë¡Ń
ĠìĽĲ ëıĻ
ĠìĦĿ ìĥģ
Ġêµ¬ ìļ¸
Ġl ong
ĠìĿ´ì¦Ī ë¯¸
ë§Ĳ ëĿ¼
Ġì¹´íĥĢ ë¥´
ĠìĿĳ íķĺ
Ġë°© ì¤ĳ
Ġìŀ¥ ìłľ
Ġëªħ ìŀĳ
Ġìŀ¥ ìķĪ
Ġë°©ìĤ¬ ìĦ±
Ġìµľ ìĽĲ
Ġìĭ¤ ê°Ĳ
ëĿ¼ë ĬĦ
Ġë°ķ íĥľ
Ġì¶ķ ìłģ
Ġë¬¸ë ²ķ
Ġíİ¸ íķ´
ìĬĪ íĥĢìĿ¸
Ġgr and
d u
Ġë¡ľ ìħĺ
Ġíķ´ ìłĦ
Ġê·¸ëł¤ ìł¸
ĠìķĦ íı¬
ĠìĿ¼ ìĤ¼
Ġë¯¸ë ħ¸
Ġë¶Ī íĻĶ
ĠìĨĮ ëł¹
ĠëĿ¼ë ©ĺ
ĠëĦĺìĸ´ ì§Ģ
Ġì½ľë¡¬ ë¹ĦìķĦ
ĠìĽĮ ë¦¬ìĸ´
Ġë°© ê³¼
Ġê¹Ģ ìĨĮ
ĠìĤ¬ ì²ľ
Ġëı ¼ë
Ġë³Ģ íķľëĭ¤
ch or
Ġ~ "
ĠìĬ¤ íĥĿ
Ġíĺ¸ë¥´ ëª¬
ë¬¼ë ł¤
Ġê²½ ê´Ģ
¸Ķ ë¡ľ
Ġë©Ķëĭ¬ ë¦¬ìĬ¤íĬ¸
ĠìĪĺ ì°¨ë¡Ģ
ìłĢ ëŀĺ
Ġëıħ ìĪĺë¦¬
Ġì²ĺ ëħĢ
Ġìłľ íĶĦ
Ġìłķ ì¢ħ
Ġíİĺë¥´ ìĭľìķĦ
Ġìļ¸ ëł¤
Ġë§ŀ ë¬¼ëł¤
Ġìłķ ì£¼
Ġê¸Ī ë°ľ
Ġth ere
Ġì§Ģ ë©´
Ġìĸ´ë ¨¸
ĠëĪĪ ë¹Ľ
Ġëĭ¤ ê°Ħ
g er
Ġì§Ģêµ¬ ì´Į
Ġì§ģ íĨµ
íĪ ´
ĠìĥĿê¹Ģ ìĥĪ
Ġëĭ¤ ë¦ħëĭĪëĭ¤
ĠìłĦêµĲ ì¡°
Ġê³¼ ê¸Ī
ĠìĿ´ìĺģ íĺ¸
ĠìłĪ ëıĦ
i ous
Ġëį¸ íĥĢ
Ġ" )
Ġë³´ê±´ ë³µ
Ġë¹ħ ë±ħ
Ġê°ľ ìĽĲ
Ġì´Īìĥģ íĻĶ
Ġì§Ŀ íīģ
Ġso und
ĠìĨĮìĭĿ íĨµ
Ġt c
ĠìĦ± ëª¨
Ġëª¨ ì¢ħ
Ġê¸°ì¤Ģ ì¹ĺ
ĠíĨł ìļ°
Ġì¡° ê²½
Ġê´ĳ ìļ°ë³ĳ
ĠìķĶ ì»·
Ġëıĭ ë³´ìĿ´
Ġíķĺ ìļ°
Ġë¸Ķ ëŁ¬
Ġìļ° íĮĮ
Ġìĭľëĵľ ëĭĪ
ĠìĻĢìĿ´ë²Ī ìĬ¤
Ġs oul
ut e
Ġì§ĳíĸī ìľłìĺĪ
Ġì¡° ë¥´
Ġë§ŀ ë¨¹
ĠìĽĲ íĸĪ
ì¿ł ìĬ¤
ìĳ ¥
Ġíı´ ë¦¬ìĬ¤
ĠìĿ¸ ì¶ľ
ĠíıĲ íĹĪ
ĠìłĦ ê´ĳ
ĠëıĻ ì¡°
ĠêµŃë¯¼ ìĿĢíĸī
Ġì§ĢìĽĲ ê¸Ī
Ġë¯¸ íĮħ
Ġëĭ¬ëł¤ ëĵ¤
Ġä ¿
Ġìĥģ ê³ł
Ġìĸ´ ëĤĺ
ĠìĬ¤íĶ¼ ìĸ´
ĠëĶĶìķĦë ¸Ķë¡ľ
ĠìĬ¤ì¹´ ìļ°íĬ¸
Ġíĥľ ë°±
ĠìķĪ ëĭ¤
Ġëĭ´ íķ©
Ġíķľ ìŀħ
Ġìļ° ì§Ģ
Ġíĳľ ë³¸
ea h
d a
Ġf ps
Ġ à
ìŀ¬ ê¸°
Ġê°Ĳ ë©´
ĠêµŃ ìķħ
Ġêµ¬ íĥĢ
Ġëª¨ ìĹĲ
Ġëĭ¤ëħĢ ìĺ¨
Ġëª»ì§Ģ ìķĬ
y o
ëĮĢ ê¸°
ĠìŀĶ ì¹ĺ
íĺ¸ë ıĦ
ĠìĻ¸ë¬´ ìĦ±
Ġìľ¤ ì§Ģ
Ġìĺ¨ íĻĶ
Ġáħ ³
íģ ĺ
ĠìŀħíķĻ ìĭĿ
Ġ{{{# !
Ġê¹¡ íĮ¨
Ġëĸł ëıĮ
Ġë°ĺ ìłķë¶Ģ
ĠíĶĦë¡ľëįķ ìħĺ
Ġìłķë³´ ìĽĲ
ĠìĨĮëĤĺ ë¬´
ĠìĿ´ë¤Ħì§Ģ ê³ł
ĠíķĻ ê³Ħ
ĠìĦ±íĿ¬ ë¡±
ĠìĽĲ ìķĪ
Ġy ear
z z
Ġë²Ī ìĺģ
Ġëıħ ìĦ±
ĠëĬĶëį° ëıĦ
Ġë¬¼ë ĵ¤
ĠëĮĢì£¼ ì£¼
Ġìĸ¸ë¡ł ìĿ¸
Ġë°Ķ ìĺ¤
ëĦ ĵ
Ġìĭľ ëł¨
ëĸ ¨ìĸ´
Ġì»¤íĶĮ ë§ģ
Ġìłľ ëĦĪ
Ġì¦Ŀ ì§Ħ
ĠìĦ± ë¶ģ
ĠíĻľ ì£¼ë¡ľ
ĠíĥĪ ëª¨
ĠìĽĲ íĮĲ
į ´
Ġê³¼ ìĸ¸
Ġìŀ¥ ë³¸
Ġê°Ģ ëł¹
ĠíĶ¼ ìĦľ
Ġë¨¹ ê±°ë¦¬
ĠëĪĪ ëıĻìŀĲ
Ġìħ° íĶĦ
ĠëĲĺ íĴĢìĿ´
ĠìĨĮ ê°ķ
Ġm em
ĠëĶ° ëıĮ
ê¸° êµ¬
ĠìĿ´ ìŀ¥
ĠìĿ´ ê·ľ
Ġë°ķ ìĦ¸
Ġë¨¸ë¬¼ë łĢ
ĠìĤ¬ ìĬ¬
Ġê³µìłķ ê±°ëŀĺ
Ġê³µìłķê±°ëŀĺ ìľĦ
ĠëĤ¨ ì¹ľ
ĠìĿ´ ë°©
ĠìĿ´ë¤ ĺ
ĠìŀĲ ë£¨
Ġì¶© ê³ł
ĠëĲĲ ìĹĪ
st em
Ġëĵ¤ìĸ´ ìĦł
Ġë¥´ ëĦ¤
Ġtr ans
Ġìĭľ íĤµëĭĪëĭ¤
Ġk s
ĠëĿ¼ìĿ´ ì¦Ī
Ġíķ´ íĥľ
ĠíŀĪ ìĤ¬
le t
ĠíĤ¤ íĬ¸
Ġì¹ľ ìĦł
Ġë¸ĶëŀĻ íĻĢ
ĠëıĻ ìĤ¬
ĠìĪĺ ìĤ°ë¬¼
ĠíķĻ ìłĲ
Ġæ ķ
Ġì±Ļ ê²¼
ĠíĶĦë ¡¤
Ġì§Ģë¦¬ ìĤ°
Ġå ½
ĺ ê¸°
Ġì¿ł ë£¨
Ġëª° ìĤ´
ĠìĿ´ìĸ´ ì§ĳëĭĪëĭ¤
Ġ.. ?
Ġìĭľ ëł¥
ĠêµĲ ì§ģ
ĠìĹ¬ ì¤ĳ
ĠìķĪ ëĵľëłĪ
ĠìĿ´ëŀĺ ìłĢëŀĺ
Ġì¢ Ĩ
ĠíĻĶ ìķ½
Ġì¿ Ħì½Ķ
Ġê´´ íķľ
ĠìĦľ íĥľ
ĠíĥĢ ìĬ¤
Ġh ow
ĠìĬ¤ ëĥħ
ìĤ° ë¦¬
Ġé« ĺ
ĠìĦ± ì§ģìŀĲ
as a
ĠìĿ¸ íĦ´
Ġíĥľ ìĥĿ
ĠìĹ¬ì£¼ìĿ¸ ê³µ
Ġë°Ķ ëŀĢ
Ġê¹Ģ ìļ°
ĠìĬ¤íĥĪ ë¦°
Ġìľłìļ° íĤ¤
ĠìĨĮ ë§Ī
en a
Ġìļ°íģ¬ ëĿ¼ìĿ´ëĤĺ
Ġåħ ¬
Ġëĭ¤ê°Ģ ìĻĶ
Ġb el
Ġe ar
Ġì ģ
£¼ë ¥ĺ
ãĢ Ĭ
Ġë³´ ëŀĮ
ĠìŀĲ ëĭĪ
ĠìĭĿ íĥģ
Ġìĭł ê´Ģ
ĠëĮĢ ì°¨
ĠëłĪ ìĬ¬ë§ģ
Ġëĸł ëĤł
Ġë§Ī ìŀĲ
Ġë¹Ħì £¼ë¥ĺ
Ġse e
Ġëĭ¨ ìŀĲ
Ġìĭľ ê·¸
Ġë¯¼ íıĲ
Ġë°ľ íĤ¤ë¦¬
Ġë¦¬ ë°Ķ
Ġan chor
Ġë¦¬ íĶĦíĬ¸
Ġì°½ êµ¬
Ġìĭł ì¹¸
Ġê¹Ģ ìłľ
Ġì¹´ ìĤ¬
ĠëĳĲ ëĩĮ
Ġíĺ¸ë ĵľ
Ġë°©ìĤ¬ ìĦł
Ġê°ķ ìĬµ
ĠëŁŃ íĤ¤
Ġì¡° íĺķ
Ġëĥ ħëĭĪëĭ¤
Ġíģ¬ë¡ľìķĦ íĭ°ìķĦ
ëĵľ ëĿ¼ë§Ī
ì ī
Ġìº Ħë
Ġê²½ë¹Ħì ĽĲ
Ġì¹¼ êµŃìĪĺ
ĠìºĲ ìĬ¬
Ġë¡ľ íĤ¤
Ġì§Ī íĥĢ
ĠìĬ¤íİĺìĿ¸ ìĸ´
ĠëıĮ ìĿ´
ĠìĿ´ ë¦ħëĭĪëĭ¤
ĠíĥĢ ìļ°
Ġë°ĺ ìĹŃ
ĠìķĦë Ŀ¼ë
Ġì¹ĺë£Į ìłľ
ìĹ¬ ë¦Ħ
¥ ľ
Ġs ome
Ġê¸°ë³¸ ê¸°
ĠíĬ¹ ê¶Į
Ġch rist
ĠìĿ¼ìĸ´ëĤľ ëĭ¤
Ġìĭłì¹¸ ìĦ¼
ĠìĤ¬ìĿ´ íĨł
ĠìŀĲ ìŀ¬
Ġìĭłíķľ ìĿĢíĸī
ĠìķĦë¬´ ëłĩ
ĠìĬ¤ë§Ī ìĿ¼
ĠíİŃ ê·Ħ
Ġë³´ ë£¨
Ġìĸ´ ë¯¼
Ġë²Ħ ì§Ģ
Ġì¹ ¸ë
Ġs an
ê³¡ ë¦¬
íĭ° ëħ¸
ĠíĽĦë ©´
Ġëħ¸ëıĻ ì¡°íķ©
ĠìĬ¤ì¼Ģ ì¤Ħ
Ġì¤ĳìĦľ ë¶Ģ
Ġì§Ģ ê·¹
Ġ_ {
ìľł ìĤ°
Ġëĭ¤ ë£°
ĠìĪĺìĺģ ë³µ
Ġë§ĪëıĦ ì¹´
ĠëıĮìķĦ ê°Ħ
Ġì°¨ ìĿ¼ëĵľ
ŀ Ĺ
ĠëıĦ ìĤ¬
Ġìŀ¥ ì¤ĳ
Ġê³¼ê±° ìĤ¬
ĠìŀĦ ìļ©
Ġëĭ¨ ìĹŃ
Ġë®¤ ì§Ģìħĺ
Ġíķ´ ìĤ°ë¬¼
Ġì£¼ ìĸ´ì§Ħ
ĠíĻĶ ìĭł
ĠìĪĺ ì»·
ĠíĬ¸ëłĪìĿ´ ëĭĿ
ë³¸ ëĭ¤
Ġë°Ķ ë¹Ħ
Ġíķĺ ëĤ¨
Ġê³µ ê³¼
Ġë°ķ íķ´
ĠìĬµ ëıĦ
ĠìĬ¤ ëĦ¤
ĠìĨĮ ìĤ¬
Ġë§ŀ ì¶ľ
ĠìļĶë¦¬ ìĤ¬
ĠìķĮëłīìĤ° ëįĶ
Ġê¸° ìģĺ
Ġìĭľ ìĹĲ
Ġê²½ ìĿ¸
Ġìŀ¥ íİ¸
Ġëĭ¤ ìłĢìĬ¤
Ġë¯¸ë ģ¼
ĠëıĮìķĦ ëĭ¤
Ĥ ©
ĠìĻĢ ëĿ¼
Ġíİ Ļ
Ġë²Ī ê°Ī
ĠìłĢ ë¦¬
ĠìĿ´ìĻĦ êµ¬
ĠìķĪ ì¤ĳ
Ġa ut
Ġë¹Ī ë²Ī
Ġìļ© ê°Ĳ
Ġì»¨ ìĦ¤
ĠìĹĲ ë©Ķ
ë§¥ ìĬ¤
íĿ Ļ
Ġë©§ ëı¼ì§Ģ
Ġë°±ëĳĲ ìĤ°
Ġyo ung
Ġì§ Ń
Ġëªħ íĥĲìłķ
Ġë¦¬ ë²ĦìĬ¤
ê¸ ¸ë
Ġm id
ê¸Ī ìĨį
Ġìłľ ì²ľ
ĠìłĦë ³ĳ
Ġë°Ķ ë¹ł
Ġë²¡ íĦ°
Ġìķ¼ ìĭ¬
Ġê²Ģ ìĹŃ
ëĮĢ ìĤ¬
Ġê³ł ì§Ī
Ġë°ľ ê±¸ìĿĮ
ĠíĴĢ ë¦°
Ġë¡¤ ë§ģ
ĠìĤ´ ê·ł
Ġì§Ģ ê¸°
ĠìĿ¸ë ²¤
Ġê°Ī ëŀĺ
ĠëįĶìļ± ìĿ´
y a
Ġì£¼ ì§ĢìĤ¬
Ġìł¸ ìķ¼
ëŁ° ì¹ĺ
ĠêµŃë¯¼ ëĭ¹
ĠëĤľ íĪ¬
Ġë¯¸ë Ĥ¨
ĠìŀĲ íĮĲ
ĠìļĶ ëŀĢ
Ġë¦¬ ìŀĲ
Ġê²½ë¶Ģ ê³łìĨįëıĦë¡ľ
Ġê´ĳ ìĸĳ
ĠâĪ Ĵ
ĠìķĦ ë¦¬ìĬ¤
ĠìķĪ ìł¤
Ġëĭ¬ ìķĦëĤĺ
Ġfri end
Ġìĭľ ìĿ¼
Ġë¹¨ ëŀĺ
ëģ ½
Ġìµľ íķĺ
ĠìķĮ ëĿ¼
Ġæľ ´
ĠëĿ¼ ìĿ´ìĬ¤
Ġìĭ¤ ìĬµ
ĠíĬ¹ íĽĪ
ĠìĽĲìŀĲ ìŀ¬
ĠëĿ¼ êµ¬
íĦ° ìĬ¤
Ġ! "
Ġìľł ë³´
Ġìŀ¥ë³¸ ìĿ¸
Ġëī´ íĥĢìļ´
ĠíĿĺëŁ¬ ëĤĺ
Ġåį Ĺ
Ġëĭ´ ë°±
ëį° ê¸°
Ġë¸ĶëŀĻ ë¦¬ìĬ¤íĬ¸
íŀĪ íĨł
ĠìķĦ íı´
Ġê°Ħ ëĭ¤ëĬĶ
ĠìĪĺ ëĿ½
Ġë¡ľ ìĽĮ
íĺĦ ìĦĿ
ķ ł
Ġë³¼ ê±°ë¦¬
ĠìķĦë©Ķë¦¬ì¹´ ëħ¸
Ġë§Ī ê¸°
Ġç Ļ
Ġìłķíķ´ ìł¸
Ġê°Ħ ëĭ¤ê³ł
Ġcol le
Ġìĥģ ê¶Į
Ġìŀ¥ ìĻ¸
Ġg n
Ġê·¸ ë¦½
ĠìĦľì´Ī êµ¬
o f
Ġê³¡ ìĦł
Ġë¬´ ê³ł
Ġ5 00
Ġìĺ¤ ìĿ¸
Ġin s
Ġë¬´ ìķĪ
ĠíĥĢ êµ¬
Ġìĸ´ìļ° ëŁ¬
ĠíĬľ ë²Ħ
ë¶ Ħì
Ġëĭ¨ ìłĪ
Ġë§Į ëłĻ
Ġì°¨ ìĿµ
Ġë¬´ ê±°
Ġìłķìľł ëĿ¼
ĠìĿ¸ë ĵ¯
ĠìĪĺ ì²©
Ġíĭ° ë²łíĬ¸
íķ´ ìķ¼
Ġë§Ī ìĬ¤ì½Ķ
Ġë°ľìĤ¬ ì²´
Ġê±° ìĭ¤
ĠìĬ Ĳ
Ġë¯¸ ìĭĿ
Ġm er
Ġë¶Ī ëł¤
ĠìķĪ íħĮ
Ġo o
ìĬ¤ íĭ´
Ġë°ľ íĨ±
Ġë§Į ëģ½
ĠìĪ ¯
Ġíľ´ ìĬ¤íĦ´
Ġì¡° ìľ¤
Ġë³Ħ ìŀĲë¦¬
Ġë§Ī ìħ¨
Ġë§Īì¹´ ë¡±
ĠìĨ¡ ê¸Ī
ĠìĦ¬ ìĦ¸
ĠìĿ¸íĶ¼ ëĭĪíĭ°
íı¬ ëıĻ
Ġìĸ´ ìĽĲ
ëłī íĦ°
ëĦ ¥
ĠìĪĻ ìłľ
Ġë¯¸ë ĵ¤
it ed
Ġìłĳ ìłĲ
Ġíĺ¸ë ¡ľ
Ġê±° ì·¨
ĠíĨł ëĦ¤
Ġu l
Ġê±¸ ëł¤ìĦľ
ĠìķĮìķĦë Ĥ´
Ġê¸° ë¥ĺ
ĠìĪ ı
Ġê¼¬ ì¹ĺ
Ġì¶Ķ ë¯¸
ĠìĥĿë¬¼ íķĻ
Ġì§ģ ìĨį
Ġìľł íĿ¥
Ġs il
Ġëª© ìŀ¬
Ġì§Ģ ì¹ľ
ìĿ¼ ìľ¼
Ġë°© ìĸ¸
Ġëį° ìĬ¤íģ¬
Ġë¶ĪëŁ¬ ìĿ¼ìľ¼
ĠëıĦ íĺ¸
Ġê²½ ê°Ĳ
ĠìĽ ¨ìĸ´
ms ys
le x
Ġìľł íĥĢ
Ġë¬´ìłľ íķľ
ĠëĤ¨ íķ´
Ġld msys
Ġì§Ģ ì¼°
ì²ľ ìĤ¬
Ġìĭ¬ ë¬¸
ë°Ķ ë¥´
ìĺģ ì§Ħ
ì½¥ íĦ°
Ł° íĬ¸
Ġê³¤ ëĳĲ
ĠìĦ¸ ê´Ģ
ĠìĪĺ ìĭĿ
Ġìľł ìĥģ
Ġíĺ¼ ëĭ¤
íĥĢ ëĭĪ
Ġêµ¬ ë§Į
ĠìĽĢì§ģ ìĹ¬
Ġy eah
ëĭĪ ìķĦì£¼
ìĿ´ì§Ģ ë¦¬ìķĦ
ĠëĤĺ ìĿ´ì§Ģë¦¬ìķĦ
Ġìķ½ íĴĪ
Ġå Ĭ
ĠíĿ¡íĺĪ ê·Ģ
Ġê¹¨ìĸ´ ëĤĺ
ĠëĤ´ ë¦°ëĭ¤
ìĭľ ê³ł
Ġë¯¸ë ¶
ch e
Ġê¸°ëħĲ ê´Ģ
ĠìľĦë ²ķ
ĠíĪ¬ ìĦ±ìĿ´
ĠìĭŃìŀĲ ê°Ģ
Ġíĭ° ìķĦ
ĠìĻĢ ìķ¼
Ġla st
ĠìĹ°ì£¼ ìŀĲ
Ġìĥģ ìĥĿ
¡ ´
Ġë³´ ìļ°
Ġ Ø
Ġë ¾°
Ġë¶Ģ íĿ¥
Ġë§Īì£¼ ì¹ĺ
ĠíĤ¤ ìĽł
ëĨ Ĵ
Ġìľł ìĭľ
Ġì§Ģì¼ľ ìķ¼
Ġch amp
ì¹ĺ ìķĦ
Ġê¸° ê»ı
Ġne ver
Ġì¹´ ê²Į
j i
ĠìĬ¤ ë¡ľ
ê¿ ī
Ġì°į íŀĮ
Ġë¬´ ëħĢ
ĠíĨł ìĿ´
ëį ©
ak a
e et
ĠìĬ¤ ë§¤
ĠâĢĻ ...
Ġê³µ êµĲ
ĠìĻ¸ë ŀĺ
Ġì§Ģ ì²´
Ġd ance
ĠìłĢ ëłĩ
Ġìĭ¬ íĸĪ
Ġbo y
ìĦł ê±°
Ġë¦¬ ì¸ł
Ġíĺ¸ ì¶ľ
ë¤ ¼
Ġíĺ¼ íĺĪ
Ġëĭ¤ëħĢ ìĺ¤
Ġd x
Ġìłľê³± ë¯¸íĦ°
Ġëĭ¤ ì§Ģë§Į
ê² ł
Ġìļ° ìķĦ
Ġì²ľ ìłķ
Ġìļ° ëĿ¼ëĬĦ
Ġì¡° êµĲ
Ġì¢ħ ë§Ĳ
Ġê³µ ê´Ģ
Ġb ad
Ġì¢ħ ì°©
ĠìĨĮ ì¹ĺ
ìķĦë©Ķ ë¦¬ì¹´
Ġíķ´ìĥģ ëıĦ
Ġì¿ł ìĤ¬
Ġ2 3
ĠìºĲ ë¦¬ìĸ´
ĠëĤ¨ ê²½
ĠìķĪ ê±´
Ġag ain
ìŀĲ ìŀ¬
Ħ £
ĠíĥĢ ë¦¬
Ġëĸłìĺ¬ ëŀĲ
Ġê°ķìĦľ êµ¬
Ġìŀ¥ ëĮĢ
ĠëĿ µ
Ġal b
ĠìĹ® ìĿ´
ĠìĦľ ëĮĢë¬¸
ĠìĹ£ ì§Ģ
ì° ľ
ë²ķ ìĿ¸
Ġë¶ĢëĶª íŀĪ
in c
Ġì¶Ķ ëĮĢ
Ġìĭľ ë¶Ģ
ĠìĽĲ ê²©
Ġìļ´ ìĦĿ
Ġìĸ´ëĤĺ ëįĶ
ĠíĶĦë¡ľê·¸ëŀĺ ë°į
Ġunivers ity
Ġê°Ģ ëĵł
ĠìķĦë¦Ħëĭ¤ ìĽĢ
Ġìļķ êµ¬
ĠíķĦë Ŀ¼ë
Ġìĭ ¸ë
ĠìłĦì ķ¡
ìĨĮ ëĭĪ
Ġíĭ° ìħĶì¸ł
Ġë©° ëĬĲë¦¬
Ġëķħ ë³¼
â Ļ
Ġê³µ ë²Ķ
Ġfood p
Ġm il
Ġo ur
ĠìĨĮ ë§Ŀ
Ġê·Ģ ê²½
Ġë°Ķëĭ· ë¬¼
Ġìļ° ë¯¸
Ġë¡ľ íģ¬
Ġìĥģ ëĥ¥
Ġê° ¸
Ġr el
ĠìŀĲ ëł¥
ĠìĨį ìĿ´
Ġì½Ķ ëħ¸
ìĻ¸ ê³¼
Ġë§Ŀ ê³ł
ĠìĽĲìŀĲ ë¡ľ
ë± Ģ
Ġì¶ľ ê³ł
Ġìľł ë¬´
Ġìµľ íĥľ
ĠìĬ¤íĮĮ íģ¬
Ġë°ĿíĺĢ ì§Ħëĭ¤
Ġë¸Į ë¡ł
ĠëıĮ ìķĦë³´
Ġì¡° ìŀ¥
ë³´ ëĤ´
ĠìĻĦìĦ± ëıĦ
Ġê³µ ìĨį
Ġìŀĩ ëĭ¨
ĠëıĮ ëł¸
Ġëª¨ìĹ¬ ìĦľ
ĺ Ī
ĠëĮĢ ìŀħ
Ġìłľ ì²ł
ìŀ¬ íĮĲ
Ġê¸ī ê°Ĳ
ĠíĨłë¡ł íĨł
ĠìķĪ ë©´
Ļ ľ
ĠëĤĺëĪ ´
Ġë¯¸ìĨĮ ëħĢ
Ġìłķ íĸĪ
k a
Ġì»¤ ë¨¸ìĬ¤
Ġíķĺ ë¦¬
Ġç Ľ
ĠìĦ¬ ê´ĳ
Ġë¡ľìĬ¤ ì¿¨
Ġë¶Ħ ìŀ¥
Ġê¸°ëħĲ ìĿ¼
Ġs ou
ĠíĹĪ ëĭĪ
ĠìĨĮëĵĿ ìĦ¸
ĠíķŃ ë¡ľ
ĠìĿµ ìĤ°
Ġì§Ħ ìŀĳ
ĠìĦľ ë°ĶìĿ´ë²Į
Ġâ Ķ
ë¦¬ ìĸ¼
ĠëłĪ ìĿ¸ë³´
Ġë©Ķ êµ¬ë¯¸
Ġì§Ŀ ìĤ¬ëŀĳ
l o
ĠíħĮëŁ¬ ë¦¬ìĬ¤íĬ¸
° ¸
ĠëĮĢ ë³¸
ĠíĿĳ ìĹŃìĤ¬
Ġop en
ĠíĺĦ ìŀĲ
Ġë§ĪìĬ¤ì½Ķ íĬ¸
ĠìĤ¼ ì´Į
ê³ł ë£¨
ê´ĳ ìŀ¥
ĠìĪĺ ëŁī
Ġh el
Ġë³´ ë¡ľ
ĠìłĢê²© ìĪĺ
ĠìłĢìĨĮëĵĿ ì¸µ
ĠìłĦ ê³¼
ĠìĤ¬ ìĥĿíĻľ
Ġìļ° ìĻĢ
Ġsu p
ĠêµĲ ìĭľ
ĠíĴį ëŀĳ
Ġë§Ī ì¹´ìĺ¤
ĠíĮ¡ íĮ¡
íĶĮëłī ìĬ¤
Ġwor k
Ġrem ix
ĠëįĶ ëĿ¼ë©´
Ġìª¼ ê°ľ
Ġvers ion
ëħ¸ ìĿ´
Ġíķ¨ ê²½
Ġê°ķ íĥľ
Ġíķ¸ë ĵ¤
Ġê¹Ģ íĺĦì
Ġëĵľëł¤ ìļĶ
Ġë¬¸ íĹĮ
Ġê´ Į
Ġê³¼ ì§ķê¸Ī
ì¼Ģ ìĿ´
Ġê³µ êµŃ
ëĤĺ ë¥´
Ġìł Ŀ
Ġëª©ìłģ ì§Ģ
ĠìĹ°ìĺĪ ê³Ħ
Ġìłķ ë¡Ģ
Ġì²© ë³´
Ġëŀ «
Ġç ¦
Ġë°° ë¦¬
Ġì´Ī êµĲ
Ġj un
ë¿ Ķ
Ġìŀ¬ë¯¸ ìĹĨ
at ed
ĠìĻĢíĥĢ ëĤĺë²ł
Ġìŀ £
Ġë¥ ¸
Ġê· ¤
Ġë¯¸ ìĹŃ
ìĬ¹ ìļ°
Ġë¶Ģ ëĳĲ
ĠëĦ¤ ìĬ¤
Ġìķ¼ë§Ī ëª¨íĨł
ĠìĿ´ ì¿ł
ëĭ¹ ì´Ī
Ġë©ľ ë¡ł
ĠìŀĲë³¸ ì£¼ìĿĺ
Ġê³µ êµ¬
Ġst and
Ġëª° ë¦°
Ġë¦¬ ë¦¬
Ġêµ° íķ¨
it s
ìłĦ ìĦ¤
Ġë¹Ī ê³¤
íı¬ ë¨¸
Ġìĺ¬ ëł¤ìĦľ
Ġë²Ħëł¤ ì§Ħ
ĠíĽĦë £¨
Ġë¯¸ë¶ Ħìĸĳ
Ġë°ľ ìĥģ
ĠìŀĦì§ Ħì
Ġë©Ķ ìĿ´íĬ¸
ĠìŀĲ íĤ¤
Ġíį¼ìĭľ íĶ½
Ġê³ł ë²ł
Ġìĥģ ë¥ĺ
Ġëªħ ëĤĺëĿ¼
Ġm u
ĠìĤ¬ ìĬ´
ĠìĹ°ê¸° ëł¥
Ġë¬´ëĦĪ ì¡Į
ĠìĦł ê¸ĢëĿ¼ìĬ¤
Ġê¹Ģ íķĺ
ì£¼ êµ°
Ġr ain
ation s
ĠìĺĪë¹Ħ êµ°
ê° Ħë
Ġìĺ¬ ë¦°ëĭ¤
ro p
ĠíĤ¤ ëĵľ
ĠìķĪ ìłĦë
ĠíķŃ ìĦ±
Ġëħ¸ë ŀĳ
Ġìĸ´ë¦° ìķĦìĿ´
ĠìĦľ ì¹ĺ
Ġìĭł ëĭ¤ë©´
Ġì°° ë¦¬
Ġì¹´ìĿ´ ìłĢ
ĠìĿ´ìŀ¬ ìĺ¤
ĠíĹ¬ë¦¬ ì½¥íĦ°
ë²ł ë¦¬ìķĦ
Ġì»´ ë±ĥ
ĠíĻĺ ìĥĿ
Ġìľł ëª¨
Ġê²¨ ë£¨
Ġë§Ī ê°Ģ
ĠìļĶ ë¥´
Ġì³Ĳ ëĭ¤ë³´
Ġë§Į ìŀ¥
Ġì´Ī ëĭ¹
æ ľ
¾ į
ĠìĹ¬ ëıĦ
ĠëĿ¼ íĮĮ
ëİ Į
ëľ ©ìĿ´
ìį ©
Ġë¦¬ ë¯¹ìĬ¤
Ħë Ŀ¼
Ġë³´ê±´ë³µ ì§Ģë¶Ģ
ĠêµĲ ìŀ¬
Ġê¹Ģ íĻį
Ġun der
ĠëłĪìĿ¸ë³´ ìļ°
ĠìĤ° íĻĶ
Ġì¡° ëł¥
ĠìĬ¤ ì½§
Ġê°ķëĤ¨ ìĹŃ
Ġì¢ħ ìĤ¬
Ġê¹ĢìĹ° ìķĦ
Ġìĭ¬ë¦¬ íķĻ
Ġë³´ ë¥ĺ
Ġì§Ħ íķĺ
Ġë°ĺëĮĢ íİ¸
Ġë¦¬ ëī´
Ġìĸĳ ìŀ¬
ĠìĿ´ìĦĿ ê¸°
ìĦ¸ìĦľ ë¦¬
Ġëĭ¤ ê¸°
Ġë¹¼ë Ĩĵ
Ġn g
ĠìļĶ ê°Ģ
Ġëħ¸ë¶Ģ ëĤĺê°Ģ
Ġë¶ģìĦľ ìª½
ĠëĳĲêº¼ ìļ´
ë¦¬ ì¦ĺ
Ġì¦ī ìĦĿ
ĠíħĮ ìĿ¼ëŁ¬
le y
Ġì§Ħ êµ¬
Ġë°° íĬ¸
Ġìħ §
ĠìĿ´ ëª©
ìĨ ¥
Ġìĸĳ ê·¹
Ġíķł ëĭ¹
Ġê´´ ìĿ¸
Ġh ome
ì« ĵ
Ļľ ëŀĢ
ĠìŀĦì§Ħì ĻľëŀĢ
ĠìĦľ ìĤ°
ĠìĦ± ìĽĲ
ĠëªħíĻķ íŀĪ
Ġìĭł ë°ĶëŀĮ
ĠíĬ¸ëŀľìĬ¤ íı¬ë¨¸
ĠëıĮ ë°ľ
ĠìĨĲ ìĪĺ
Ġê¸°ëıĻ ëł¥
Ġíĥľ ìļ´
Ġê°Ģë§¹ ìłĲ
ĠíĿĳ ë§Ī
ìĪĺ ìĹĺëĿ¼
Ġìĺ¤ ëĦĪ
ê·¸ë Ħ¤
um ent
ĠìŀĲ ì²ĺ
ĠìĪĻ ì£¼
Ġì±Ķ ìĬ¤
Ġ++ +
ĠëĿ¼ìĿ¸ íķĺë¥´íĬ¸
ëĿ¼ë ĬĶ
ĠíĨµ ìĨĶ
Ġê·¸ë ŀľ
ĠìĹ¬íĸī ê°Ŀ
ĠìºĶ ëĶĶ
Ġê°Ģ ì¦Ī
ĠìĪĺ íķĺ
Ġé ĸ
ĠìłĦ íķĻ
Ġëª¨ íĺ¸
ĠìĦľ ì§Ģ
Ġê¸° ëĤ´
ĠëĦĺ ëĤĺ
Ġìķ¼ë §Ŀ
Ġë§ī íŀĮ
ĠìķĮ ë£¨
Ġìĥģ íģ¼
Ġì¶ľ ìŀĲ
Ġr et
Ġë¸Įë¡ľ ì»¤
Ġëĭ¨ ëł¨
Ġâĺİ )
Ġì¶Ķë¯¸ ìķł
ìŀĲ ìĽĲ
ëĮĢ ìĽĲ
ëįĶ ë§ģ
Ġæ ī
ĠìķĦì¹´ ëĦ¤
íĬ ł
Ġìłľ ëªħ
Ġì²´ ìĺ¨
ĠíĴĪ ì¢ħ
Ġë°ĶìĿ´ìĺ¬ ë¦°
ëĬ ł
ĠíĨµ íĨµ
Ġlit tle
ĠêµŃ ìĤ¬
ĠìłĢ ìĬ¹
ub l
Ġìłģ ìĦ±
ĠìĬ¤ ì½ľ
ĠìľĦì ĭľ
Ġre al
ĠëĬĲê»´ ì§Ħëĭ¤
Ġìķ¤ ëĶĶ
Ġë°ķ ìĬ¹
Ġíĸīìłķ ê´Ģ
Ġì¡°ìĦł ìĿ¼ë³´
Ġíŀĺ ëĤ´
Ġìķ½ êµŃ
Ġë¬¶ ìĹ¬
ĠìļĶ ê±°
Ġíģ¬ ë¡¤
Ġëĭ¤ ë¤
é Ļ
Ġë²¤ ì¸ł
ì£¼ìĿĺ ìŀĲ
ĠìĿĺ ëĮĢ
Ġìŀ¥ ëł¤
ĠìłĦë¬¸ ìĿĺ
ĠíĬ¸ë ¡ł
ĠìĨĲ ëħĢ
Ġc u
Ġì¹ĺ ìķ½
Ġê¼´ ì°Į
Ġíĩ´ ìĹŃ
Ġë§ī ë¶Ģ
Ġê¹Ģ ê·¼
Ġë¹Ħì ĸ´
Ġìľł ì¾Į
ĠëĤľ ê°Ĳ
ĠëĮĢ ì§Ħ
Ġgre at
Ġì¤ĳ ìĦ±
Ġê°ĢìĿ´ ìķĦ
Ġì§Ģ íıĲ
Ġ} {
ĠìľĦì Ĭ¤
Ġë²½ ëıĮ
Ġkore an
Ġìĭ¬ íĶĮ
ĠìĿĢ íĺľ
Ġìłķ ë³ĳ
Ġì¼Ī ë¦¬
Ġìĺ¤íĥĢ ì¿ł
ĠíıĲ ìĹħ
Ġå¤ ĸ
r ap
Ġæ ±
Ġìļ° ëĳĲ
ĠëĬĺìĸ´ëĤľ ëĭ¤
Ġì§Ħì§ľ ë¡ľ
ĠíĻľ ì§Ŀ
Ġíį¼ë ¶Ģ
Ġê¸°ìĪł ìŀĲ
Ġéķ ĩ
Ġê·¸ë¦¬ íķĺìĹ¬
Ġì¹¼ë Ł¼
Ġìľł ë©Ķ
ĠëĤ¨ ì§ĵ
Ġíģ´ ëĿ¼ìĿ´
Ġë¹Ħì ĺ¤
n o
Ġê°ľ ê°ľ
Ġê·¸ë Ĭĺ
ìĤ¬ ìłĦ
íĺ ĦìķĦ
id ae
Ġë¸Į ë¦¿
ìĦ¸ ê¸°
Ġìµľìĥģ ê¸ī
Ġìĺ¤ ë¦ħëĭĪëĭ¤
ĠìĹ¬ ìŀ¥
ar s
Ġë¬´ ëªħ
ĠìĿ¸ë Ĥ´
ĠìĶ ģ
ĠëĨĢ ë¦¬
Ġëª°ìķĦë Ħ£
Ġíı¬ ëĭĪ
Ġì¥ °
Ġì¹´ìļ´ íĭ°
g ram
Ġìŀħ ëĭ¹
Ġìļ° ë¬¼
Ġsy stem
e x
ĠìĹĦ ìłķ
ì¼Ģ ìĿ´ìħĺ
Ġìķł ëĵľ
Ġë²łëĦ¤ ìĪĺìĹĺëĿ¼
Ġì§Ģ ì¤ĳ
Ġêµ° ë³µ
or s
Ġì¤Ħ ì§Ģ
Ġhe al
f ood
Ġìķł ê²¬
Ġíĥľ ìŀĲ
Ġbat tle
ĠíĻ© íĺ¼
ĠëĨĶ ëĳĲ
Ġë°Ķ ìĿ´íģ¬
Ġd oc
Ġì°¸ íĮ¨
ĠìļĶê¸Ī ìĨĮ
bo x
ĠìłľìĿ´ ìĬ¨
ĠìĿ¸ ìĤ¼
Ġê°Ģ ëĬł
Ġíıī íĮĲ
Ġer a
Ġíķĺ ìĿĺ
ĠêµŃ ë³´
Ġíĥľìĸĳ ê´ĳ
Ġìľł ìľł
ĠëĤĺëĪ Į
ĠìĨ¡ êµ¬
Ġì´Ī ëĶ©
Ġë²łìĿ´ ì»¤
Ġìŀ¥ìĭł êµ¬
ĠìĹĲ ë°Ķ
ĠìĦłë³´ ìĿ¸
ìĿ¸ë °°
ĠíıĲê¸° ë¬¼
Ġíķĺ ìĭľ
Ġë¹¼ë Ĥ´
Ġê°Ģ ê²°
Ġì»¤ ë¦¬
Ġì§Ģíľĺ ìŀĲ
ĠìĹ¬ ê²¼
Ġìĺ¤ ì°¬
Ġë¹Ħë¡ľ ìĨĮ
ĠìĨĶ ìłĢ
Ġh ol
ĠëŁ¬ ëĦĪ
Ġê²© íĻĶ
Ġð ¬
ĠêµĲ ëĤ´
Ġë°ľìĤ¬ ê¸°
Ġíĺ¸ ê°Ģ
ĠëĤĺì¹´ ë¬´ëĿ¼
Ġíķ´ ëıħ
ĠíĿł ì¢Ģ
ĠíĿłì¢Ģ ë¬´
Ġë¦¬ ë¶Ģ
ĠìĿ¸ë¯¼ êµ°
ĠìķĦìī¬ ìĽł
¯¸ë Ĥĺ
ĠëĤĻ ì°°
Ġëĭ¤ ì³Ĳ
ê´Ģ ê³Ħ
ĠìĨ¡ ìĿ´
Ġv j
ĠëĦĺìĸ´ ìĦł
Ġë¯¸ íĬ¸
Ġì½ľ ëĵľ
Ġgs l
Ġìŀ¬ ì°¨
ë¯¸ë Ĥĺ
ë¿ ľ
Ġë³ĳ ìĤ´
Ġre g
Ġh as
Ġê¹Ĭ ìĪĻ
ëľ¨ ë¦´
ĠìłĦë°ĺ ê¸°
ĠëĤĻ ì§Ģ
Ġ É
ĠìĤ´ ìĥģ
ìŀĦ ê¸Ī
ĠìĦł ìļ°
ĠìĿ¼ë³¸ ìĭĿ
Ġê¹ĥ íĦ¸
ĠëĿ¼íĭ´ ìĸ´
ĠìĹ¼ ìĨĮ
ëĮ ķ
ì¡° ìĦł
ĠìķĦ ë¦¬ìķĦ
Ġê°Ģìł¸ ê°Ķ
ĠëĤĻëıĻ ê°ķ
ëŀŃ íģ¬
Ī Ī
ĠìĿ´ ë¬´
ĠëłĪ ìĿ´ì§Ģ
Ġë©ĺ ë¶ķ
Ġë°ĺ ëĭ¬
Ġf bi
Ġíĺľ ìĦ±
ëľ °
Ġìłģ ìĥī
Ġë¶Ħ íĸ¥
at ic
Ġê²° ëł¬
ëłĪìĿ´ íĬ¸
ĠíĦ° ì§Ī
ĠëĿ¼ìĿ´ ì§ķ
ĠìĪĺ ëĩĮ
ĠíıŃ ëıĻ
Ġê¸° ë¬´
Ġì·¨ íĸĪ
it a
ĠìĿ¼ëŁ¬ìĬ¤íĬ¸ ëłĪìĿ´íĦ°
Ġíĳľê¸° ë²ķ
Ġìķŀ ë©´
ĠìĿ´ íĿ¬
ĠíħĮìĿ¼ ì¦Ī
ìŀĲ ëıĻ
Ġê°ķ íĥĪ
Ġíķ´ ì¤Ģëĭ¤
ĠìĹł ë¸Ķ
Ġê°ķìĪĺ ëŁī
ĠìĦ±ìŀ¥ ë¥ł
íĺĦ ìļ°
ĠìĽĲ ìłľ
Ġë°Ķ ì§Ŀ
ĠíĤ¤ ìļ´
Ġæ´ ŀ
ĠìĤ¬ ê°Ģ
ĠëıĻ ëĵ±
ĠíĿī ìķħ
Ġíķ´ ìĺ¨
ĠëĤ´ ë¿ľ
ë¹Ħë ħ¸
ot o
ĠíķŃ ë§Į
Ġë¶ĢìĤ¬ ê´Ģ
» į
ĠìĦ± ìĦľ
Ġë¶Ī ë¬¸
id x
Ġð «
Ġìľł ë§Ī
Ġê³¼ ì²ľ
Ġê±´ ëĵľ
ì¡° ë¦¼
Ġì¤Ħ ê³§
ëª¨ ëĭĪ
Ġë¯¸ ìĿ¼
ĠëłĪ ì¦Ī
ĠìĦł ì§Ģ
ĠëģĮìĸ´ ëĤ´
íİ Ģ
ĠìĻ¸íĻĺ ìĿĢíĸī
Ġëĵ± ê¸°
ĠëĤ¨ ìĽĲ
ĠëģĮìĸ´ìĺ¬ ë¦¬
Ġìĸ´ ë¶Ģ
Ġj m
Ġì§ķ íĽĦ
Ġíķľëªħ ìĪĻ
Ġê± Ķ
ĠëĤł ëĿ¼
Ġê²½ìŁģ ìŀĲ
ros s
Ġfe el
Ġíĸ¥ íĸĪ
Ġç¸ £
Ġì£ ĦìĪĺ
ê°Ļ ìĿ´
Ļ ëĭĪëĭ¤
ĠíĮ¨ ìĻķ
ĠíĿĺëŁ¬ ê°Ģ
Ġìĺģìľł ê¶Į
# #
ĠëĤĺ ìĹ´
Ġë°Ģ ìłĳ
Ġê´´ ëĭ´
Ġë¸Į ë£¨ìĬ¤
ĠíĨµ ê³
ĠëĪĦ ìĿ´
ĠìĽ¨ ìĿ¼
ĠíĨłëĦ¤ ìĿ´ëıĦ
Ġê°ľë§ī ìłĦ
ĠìľĦ íķ¨
Ġë³µ íĮĲ
ma x
âĹ ı
Ġì¡° ìĿ¸
ĠíĶ¼ ìĤ´
Ġë§ĪìĿ´íģ¬ ë¡ľ
ĠìĤ¬ ëĭ¤ë¦¬
Ġì½Ķ ì§Ģ
ĠíĮ¨ ëĭī
ĠìĬ¬ ë¦¬
Ġto m
ĠìķĶ íĬ¼
ĠëıĦ ë¯¸
ëįĶ ë¯¸
Ġë¡¯ëį° ìĽĶëĵľ
Ġì§Ħ íĿĻ
ê²° ìĬ¹
Ġê²ģ ëĤĺ
Ġë°ķì§Ģ ìĦ±
Ġì¶© ë¬´
Ġì§Ģ íģ¬
ìĹ ĳ
Ġì¦Ŀ ê¸°
Ġìľł ëĬ¥
ĠìĬĪ ê°Ģ
ĠíĸĪ ìĸ´ìļĶ
Ġê²½ ë³µ
Ġë¹Ħë ĪĦ
Ġëŀ Ļ
ĠìĭĿ êµ¬
ìĮ Ī
Ġê²½ íĴĪ
ĠìĪĺ ìķĦ
íĬ¸ ëĭĪ
Ġëĵ± êµĲ
Ġê¹Ģ íļ¨
Ġc ity
íĥĢ ë¥´
ëĭĪ ì¹ĺ
Ġm ir
Ġê³ł íĨł
íį¼ë Ł°ìĬ¤
Ġê³¨ ê³łë£¨
Ġìĸ´ì§¸ìĦľ ìĿ¸ì§Ģ
Ġê·¼ ìłĪ
Ġê´ĳì£¼ ê´ĳìĹŃìĭľ
ĠìĨĮ ê¿ī
ĠìĪľ ìĿ´
Ġê¹ĢìĦ± ê·¼
Ġë¹Ħë ²¼
Ġê°Ŀ ìĭ¤
Ġìķ¼ ìłĦ
ĠíĨµê³ Ħì²Ń
Ġëº ĳ
Ġëĵ¤ íĤ¤
Ġë°Ģë¦¬ ìĸ¸
ĠíĬĢìĸ´ëĤĺ ìĺ¤
¹ ľ
ĠìĪĺ ëħĢ
Ġë¶Ģ ê²Ģ
Ġa u
Ġëª¨ ë¥¸
ĠìĨĲ ì§Ī
ĠìłĦ íİ¸
Ġì¹´ ìłľ
Ġìĸ´ë²¤ìł¸ ìĬ¤
Ġë¬´ ìĦ±
ĠìĦľ ê²½
Ġìķħ ìĪĺ
Ġìĭłìļ© ì¹´ëĵľ
ĠìĨĮ ëıħ
Ġì£¼ë Ĳľ
it ch
Ġíĥ¤ ëŁ°íĬ¸
ê¶ ¤
ĠìĨ¡íĮĮ êµ¬
Ġì£¼ ìĽĮ
Ġê·¸ëŀĺ íĶĦ
ìĹĲ ëª½
Ġk c
Ġä¸ Ģ
Ġìłľ ëħ¸
Ġt ake
Ġk h
Ġíĺ¸ ìĦ¸
ĠëģĿ ìŀ¥
Ġë§ĪìĿĮ ê»ı
íĺ¸ ìļ°
in o
ĠëĬ¥ ìĪĻ
ĠíĥĿ ì§Ģ
Ġë¸Ķ ëłĪìĿ´
ĠìłĦë ²ķ
Ġé Ģ
Ġëĭ¨ ê±°ë¦¬
ĠíĤ¤ ëħ¸
Ġë¨¸ë¬´ ë¥´
Ġê¸Ī ìĦ±
one y
Ġh and
ĠìĪľ ìłķ
Ġëĥ ħ
Ġìĺ¤ ìĤ°
Ġìłķ ìłľ
ì© Į
Ġå¤ ©
Ġê¸° íĸī
Ġíķ ¸
Ġele ct
ĠìĤ¬ ìĭľ
ĠëĦ µ
ĠìĻĦë²½ íŀĪ
ë²ł ìĿ´ìĬ¤
ĠìĬ¤ ëĤĺ
ĠìķĦíħĮ ëĤĺ
ì İĦ
Ġë¶Ģ ëŁ½
Ġê·¸ ëłĪìĿ´ëĵľ
ĠìĹ¬ ê´Ģ
ĠìłĢ ê¸Ģ
íĨµ ìĿ¼
Ġt our
Ġê´ĳ ëĮĢ
ĠìĽ¨ ìĿ´íĬ¸
Ġëįĺì§Ģ ëĿ¼
Ġëıħ ë³´
Ġê¶Į ìĹŃ
ĠìĽĲ ë§Ŀ
j u
ĠìĿ´ ìłĲ
Ġp ass
Ġê°ķ êµŃ
Ġat k
Ġëĭ¤ê°Ģ ìĺ¨
Ġíģ¬ë¡ľ ìļ°
Ġìľł ë¥ĺ
Ġì½Ķ ì¹´
ë© Ģ
um p
ê» į
ĠìķĪíħĮ ëĤĺ
ĠìħĶ ì¸ł
Ġë¬¸ ê³ł
į° ìĬ¤
ĠëıĦë¡ľ ê³µìĤ¬
ë¦¼ë ıĮ
Ġë Ł´
ĠìĪĺ ëĿ¼
ĠëĮĢ ëĤ¨
ĠìĤ¬ êµĲìľ¡
Ġíķĺ ì¹´
Ġë°ķ íĺĢ
íĺ¸ë °ķ
Ġìµľ ì§Ģ
ĠìĿ¼ë łĪë¸Ĳ
Ġê°ĲìĹ¼ ìŀĲ
ĠëįĶ ëŁ¬ìļ´
Ġê·¸ ì¹ł
ĠëĦ¥ ìĬ¨
ĠíĨł íĬ¸ë
Ġð ł
ĠíĶĦëłĮ ì¦Ī
Ġíĸī íķĺ
Ġê±¸ ë¦¼ëıĮ
Ġì±Ħì °į
Ġi idx
Ġêº ¼ì§Ģ
Ġìĸ¼ë Ŀ¼ìĿ´
ĠìĦ¸ ëł¨
Ġíı¬ ìĭĿ
ĠëıĦ ë¯¼
Ġð ¨
ĠìļĶ ìļ°
ĠìĪĺ íıī
ĠíħĮ ìĿ´íģ¬
Ġcom e
Ġê°Ģ íıī
ĠëĿ¼ìĿ´ ëĵľ
Ġë²Įìĸ´ ì§Ī
Ġìłķ ìĿĢ
Ġc ia
Ġìµľ ìĦ±
Ġd em
ë°± ê³¼
ĠìĹ° ëĭ¬
Ġì¦Ŀ ë°ľ
Ġpr es
Ġìķ¼ìĬ¤ ì¿łëĭĪ
Ġë¶Ī ë¦´
Ġë¹Ħì ĭľ
ìĦľ ìķ¼
Ġt im
Ġë¯¸ìĦ±ëħĦ ìŀĲ
Ġìĺ® ê¸´
ĠìĬ¤ì¹´ ìĽĥ
ĠìºĲ ìĬ¤íĬ¸
ë± ī
Ġíĳľ ì¶ľ
Ġê¹Ģ ëĤ¨
Ġn orm
Ġê¸´ ì¶ķ
é ģ
ĠìĿ´ë Ī
ĠëĤ¨ìķĦ ê³µ
Ġì¹´ íĨł
ĠìĤ½ ì§Ī
Ġë³Ħ ìłĲ
ĠìĪĺ ëĤ©
Ġì½Ķ íĶĦ
Ġëħ¸ë Ŀ¼
ĠáĦ ħ
Ġíĩ´ê·¼ ê¸¸
Ġì¤ĳ ì¶Ķ
Ġê³ł ìĤ°
Ġë³Ģ ì§Ī
Ġë¯¸ ëĭ¬
Ġg un
ĠìĦ± ë²½
Ġë§Ŀ ìĥģ
Ġìĸ¼ë £©
ĠìĹ° ìłĦ
ĠìłĲ ë©¸
ĠíĹ¤ìĸ´ ì§Ģ
ê¸Ī ìŀĲë¦¬
ĠíĶ¼ ì§Ģì»¬
ĠìĤ¬íĪ¬ ë¦¬
ĠìĿ´ ë³µ
Ġê´Ģ ëħĲ
Ġë³´ ê¸ĪìŀĲë¦¬
ĠíĶ¼ íĸĪ
ĠëłĪë°Ķ ëħ¼
Ġë² µ
£¨ ìħĺ
ìĿ¼ë Ŀ¼
Ġë¸Ķë£¨ íĪ¬ìĬ¤
ĠíĴĢ ëł¸
Ġì§Ģ ë°Ķ
Ġë¬´ ìĪĺ
Ġë°° ë¶Ħ
Ġì¹´ ìĿ¼
Ġê°ķ ëĭ¹
Ġê¹Ģê²½ ìĪĺ
Ġð ¤
Ġë²łìĿ´ìĬ¤ ë³¼
Ġð ¢
Ġìľł ëĦ¤
ĠìľłìĤ° ê·ł
Ġìĺ¤ ê³µ
Ġìĭł ëĮĢ
ĠíĻĶ ìĿ´íĮħ
Ġë°© íĨµ
Ġë§¤ ìĤ¬
į° ìĿ´
Ġm v
ë²ł ë¥´íĬ¸
Ġìĸĳ ìľ¡
íı¬ ë¡ľ
Ġì§ĳì¤ĳ íĺ¸ìļ°
ĠëĳĲ íĶ¼
Ġë «
ìĤ¬ ë¥´
ĠíĶĦë¡ľ ëª¨
Ġë³µ ëĭ¹
Ġê°Ģ ì°½
Ġë¬¼ íĭ°
Ġìľł ì¹´ë¦¬
Ġë°Ķ ìļ°
Ġå Ľ
ĠëıĻìķĦ ìĿ¼ë³´
an na
ĠìĿ¸íĦ° íİĺìĿ´ìĬ¤
ĠìĬ¤ì¿ ¼ëĵľ
ĠëĤĺ ì£¼
Ġì´Ŀ íĮĮ
ĠìķĦìĿ´ ìľł
Ġíķ© ì¹ľ
w on
į¸ íĶ¼ìķĦ
ĠíķĦëĿ¼ë į¸íĶ¼ìķĦ
ĠëĿ¼ìĿ´íĬ¸ ëĭĿ
Ġìłķ ë¯¼
ĠíĮĶ ëł¤
Ġê³ł ìļ°
os h
Ġìĭ¸ ìļ´ëĭ¤
Ġë³µ ìĪŃìķĦ
ĠíıĲ ìĦł
Ĳ ê¸°
Ġë± ī
Ġë¹Ħì °¸
ĠìĬ¬ ëŀ¨
Ġê²©íĪ¬ ê¸°
ĠìľĮë¦¬ ìĹ
Ġì§ĳ ê²°
Ġì·¨ ìŀĦì
ĠêµĲ êµ¬
Ġë°ľ ëĿ¼ëĵľ
ĠìĨĮ ë§Ĳ
íĥľ íıī
Ġë¬¼íĭ° ìĬĪ
Ġì´ĿíĮĮ ìĹħ
Ġð Ń
ĠìĪľ êµĲ
Ġë³´ ê°Ģ
ĠìĦľ ì§Ħ
Ġë¦¬ ìĦľ
ìĺ¤ íĶ¼ìĬ¤
ĠìĤ¬ìķ¼ ì¹´
Ġìľłê¸° ëĨį
Ġt bs
Ġì¹´ ëłĮ
ĠìĪĺ ì¡±
ĠìĦľ ëĬĺ
ĠíĥĢ íĤ¤
Ġwh en
Ġê°Ģë¡ľ ìĪĺ
Ġì§Ģ ì§Ī
ĠëıĻ íĥĦ
ĠìŀĲì¹ĺ êµ¬
Ġìľł ê³µ
Ġð ¦
íı¬ ëĵľ
Ġê°Ģ ìľĦ
ĠìĦ¬ ë©¸
h am
Ġìĭł ìĺģ
Ġì´Ŀ ìĺģ
Ġê°ķ ìŀ¬
Ġë³ĳ ê³¼
Ġë¹¨ ê°ķ
ĠìķĦë ¹Ħ
ë°© íĸ¥
ĠëĪĪ ìį¹
ĠìĤ´ íĶ¼
Ġë°ľìłĦ ê¸°
Ġëĭ¹ ëĤĺëĿ¼
ĠëĭĪì½Ķ ëĭĪì½Ķ
Ġâ ī
Ġëĥī ìłĦ
Ġì¹ĺ ëłĢ
st yle
ĠëĤĻ ê´Ģ
Ġê°Ģ ë¸Įë¦¬
Ġìº ī
Ġë§Ī ì·¨
Ġë¡ľ ëĺĲ
ĠìłĦì Ĩį
ĠìŀĲì£¼ íı¬
ìł¸ë ıĦ
ĠëĤ´ë¹Ħì ³¤
Ġmar k
Ġë¹Ļ ê²°
Ġìĸ¼ëĿ¼ìĿ´ ìĸ¸ìĬ¤
Ġë¯¸ ìħ¸
Ġê°ķ ìļ°
Ġê°Ħ ìĦł
ĠëĳĲ ëª©
Ġìĸ´ëĵľ ë°´
ĠìŀĲ ë©°
Ġì¹´ íĦ°
ĠìĦ¸ ìŀħ
ĠìĹ´ ëıĦ
Ġìĺģ ê²°
Ġìĩ ¼ë
Ġë¶Ħ êµĲ
Ġë¡ľ ë¸Į
ìħĢ ëŁ¬
ĠíĶĦëŀĢ ì¹ĺ
Ħì §Ħ
ìĽĮ íĶĦ
Ġìĸĳ ì§Ģ
Ġin c
Ġêµ¬ ìļ´
Ġic bm
Ġê³Ħì ħ
ĠëĮĢ ìĿĺìĽĲ
Ġë³ĳ íķ©
ł Į
ĠíĥĲ ë°©
ĠëłĪ ìĿ´íĬ¸
Ġíħ ĥ
ĠìºĦë ³´
Ġì§Ī ìĿĺ
Ġin v
Ġê°ľ ê°ģ
Ġsp r
ĠëĤłìķĦ ëĭ¤ëĭĪ
Ġëį° ë¯¸
Ġë©Ģë¦¬ ìĦľ
ëħ¸ë¯¸ ìķ¼
ĠíħĮ ìĺ¤
ĠìĿ´ë¯¼ ìŀĲ
Ġëĭ¤ ëĭ¤
ĠëĤ ±
Ġê°ľ ìĨĮ
ir d
ĠìĬ¤íĬ¸ ëłĪ
Ġj h
Ġì¹´ íĥĪ
ĠíĬľ ë¸Į
Ġë¹Ħ ìļ´
ĠìĬ¤íħĶ ëĿ¼
ĠëĤł ë¦°ëĭ¤
or a
ëĺ ¥
ĠìĿ´ ìĸĳ
Ġê°Ģ ëĭ¥
Ġì¤Ħ ê²Į
Ġa tt
Ġê¹¨ ìķĮ
ëŀ Ħëĵľ
ĠíķĻ ìĹħ
ĠìłĢê¸Ģ ë§ģ
Ġëİ ħ
Ġìļ°ë£¨ ê³¼ìĿ´
Ġj am
Ġì²ł íıĲ
ĠëĤ´ ëħĦëıĦ
ĠíŀĪ ëĵľëĿ¼
Ġpart y
ĠíĨł ë¹Ħ
ĠëĤĺ ìĺ´
ĠìĦľ ë¶ģ
Ġíľ´ ìĸĳ
Ġìĺ¤ ì¡´
ĠìĹ¼ ì¦Ŀ
Ġë¯¸ë ¤
ĠíķĦë ĳĲ
Ġê¹Ģ íĥĿ
ĠìĹ° ì¤ĳ
ĠìĦ¸ íĤ¤
'' '
ĠìľłëĦ¤ ìĬ¤ì½Ķ
Ġë¹µ ë¹µ
Ġê·¼ë ł¥
ĠìĨ¡ ì¶ľ
Ġê±° ëĭĪ
Ġë²ł ëĵľ
Ġëĭ¥ ì¹ĺ
Ġh is
ĠìĨĲ ë°Ķëĭ¥
ĠìĦ± ìĹŃ
ĩ Ħ
ĠìĨĮ ì§Ħ
ìķĦë Ŀ¼ë¹ĦìķĦ
Ġì¢Į íĳľ
ĠìĿĮë£Į ìĪĺ
Ġì´Ī ìĹ¬ë¦Ħ
ĠìĪĺ ë§Į
ëłĪ ìĬ¬ë§ģ
Ġì¼Ģ ìĿµ
Ġê¸°ë»Ĳ íķĺ
ĠëĤ´ ë²Ħëł¤
ĠìĿĢ ìĿĢ
ĠëĿ¼ëįĺ ê°Ģ
Ġíĩ´ ìĤ¬
Ġìłľ ìĬ¤
Ġë²Ķ ì£¼
ĠëĤ¨ìķĦ íĶĦë¦¬ì¹´
ĠìĬµ íķľ
Ġì¡° ëįĺ
Ľ ħ
Ġìĺ¤ íģ´
ĠíķĺìĿ´ ëĭīìĬ¤
ëĮ Ħ
Ġì§Ħ ìĦ±
Ġìĵ° ìĿ¼
ĠìĿ´ ë§ĺ
Ġë² ¤íĬ¸
Ġë§Į ëĤľëĭ¤
ëįĶ ìĬ¨
Ġë¬¼ëŁ¬ ëĤ¬
ĠìĮ ©
Ġë¶Īì¶ľ ë§Ī
ĠìĽĲ ëĭ¨
ĠìĪĺ ëħĦ
Ġìľł ë¶Ģ
Ġìŀ¥ ìĽĲ
ĠëĤł ë¦°
Ġê¸ī íķľ
Ġé ĩĮ
Ġz ero
ĠíŀĮ íĬ¸
ĠíĨłíĬ¸ë Ħĺ
ĠìĦł ë³Ħ
ĠìĤ¬ìļ°ëĶĶ ìķĦëĿ¼ë¹ĦìķĦ
Ġíķľ ìłĦ
ĠëıĮëł¤ ë°Ľ
Ġìĸ´ëĳ ¡
Ġë¹¼ìķĹ ê¸°
ë¯¸ë ĬĦ
ëŀĢ íĬ¸
ĠëĪĦë Ŀ½
Ġìŀ¬ ìĹ°
Ġë°° ìĹ´
ì§Ģ ëıĦ
Ġw ant
ĠìĽĮ íĤ¹
ĠìĿ´ìŀ¬ ë¯¼
ħ ¸ë
Ġë Ł
Ġì¤ į
ĠíĻĶ ìĹ
Ġë²ķ ëł¹
Ġë° Ī
Ġì¹´ ìĺ¤ë£¨
Ġch a
Ġëħ¼ íıī
Ġë¶ģ ìķĦ
Ġê¹Ģìĺģ ì²ł
Ġìļ©ìĿ¸ ìĭľ
Ġæĸ °
ĠëĳĲëĵľ ëŁ¬
Ġë¬¼ ìķ½
ì¹ľ êµ¬
Ġíķľ ìĺ¥
Ġbg a
ĠíĿĳ ë§ī
ĠìłĦìĹ ¼ë³ĳ
ĠíĶĦë¡ľ ëłĪìĬ¬ë§ģ
Ġë°± ì¢ħ
Ġëħ¸ë ¹Ħ
ĠáĦ Ģ
ĠìµľìłĢ ìŀĦê¸Ī
ìľ ½
ĠìĦł ë´ī
ĠëĦ¤ íģ¬ë¡ľ
Ġì¹´ ìļ°
Ġíķ¨ ìĦ±
ĠìĪľ ë¡Ģ
ĭ ±
ĠìĿ´ ìķ¼ë§Ĳë¡ľ
ê°Ĳ ì¹ĺ
Ġì§Ģ íĦ°
ĠìķĪ ëıĦ
Ġhe av
ĠìĨĮìĪĺ ìŀĲ
ëĿ¼ë Ĥĺ
ĠâĻ ¥
Ġë¬´ ìĭĿ
ì°Į ê°Ĳì¹ĺ
Ġh om
ĠìĽĶ ëĵ±
ĠíĶĮëĿ¼ ìĽĮ
ĠìľłëĮĢ ìĿ¸
ĠíĨµíķ© ë¯¼ì£¼ëĭ¹
Ġsc i
Ġìĸ ķ
ĠëĨĴ ìĿ¼
Ġìŀ¥íķĻ ê¸Ī
ĠìķĦìĬ¤ íĬ¸
ĠëıĦ ë´ī
ĠìĪ Ģ
ê¼ ´
ĠìĦ± ì·¨
íģ¬ ë¦¬
ĠíĪ¬ ê³ł
Ġð ¥
Ġë³ ¼ëĵľ
Ĥ¸ ëĭ¤
ĠìĽĲ íļĮ
ĠìĿ´ìĥģ ë¯¼
ë° ĸ
Ġë¶Ģ íķ©
Ġë°ķìĬ¤ ìĺ¤íĶ¼ìĬ¤
ĠìĹ° ì´Ī
ł ¡
Ġìłģ ìĭľíĥĢ
Ġìĺ¬ ëłĪ
ĠìĨĮ ìļ°
Ġë¹Ħë °©
Ġì´Ŀ ë¬´
ĠíĹ¤ ì§Ģ
Ġìĥģ íļĮ
Ġìĸĳ ì²ľ
Ġëħ¸ ëł¸
Ġë³¸ ìłĲ
Ġê°Ģê¹Į ìĬ¤ë¡ľ
âĺĨ âĺĨ
Ġë Ľ´
Ġcg v
Ġ% .
ĠëĤ´ ìķ¼ìĪĺ
Ġëĭ¨ ê°Ģ
ĠíĮĶ ì°Į
ĠìĿ´ ìĦ¸ë
Ġf inal
ì§Ģ ìĺ¤
ĠìĨĲ ìĦĿ
Ġê¸Ģ ë¦¬
ĠíĮĮê´´ ëł¥
ĠìĹ¬ ëį
ĠëĿ¼ìĿ´ ìĦ¼ìĬ¤
Ġêµ°ìĤ¬ ëł¥
ìĬ¤íĭ° ìĬ¤
ĠëĤ´ ë±ī
Ġê²° ì§ĳ
Ġr p
Ġíĺ¼ë ıĻ
ĠìĻĦ êµ¬
Ġìĸ¼ íĭ°
ĠìĨį ëĤ´
Ġê°ķ ê¸°
Ġvocal oid
ĠëıĻ ìĿ¼ë³¸
Ġê³¨ ì¹ĺ
ë¦½ íĬ¸
Ġê°Ģ íĮĮ
ë°Ķ íĤ¤ìķĦ
ê³Ħë ıĻ
Ġê°Ģ ëľ©ìĿ´
p le
ĠëĿ¼ ìŀĦ
ĠíĻĶ ì§Ī
Ġê³µ ë¬¸
Ġíį¼ ìĬ¤
ĠíħĮ ëŀĢ
Ġê¹ į
Ġì½Ķ íĮħ
ĠëĤĺ ìĦŃëĭĪëĭ¤
Ġëĭ¬ ëĿ¼ë¶Ļ
Ġë¯¸ë ¡ľ
Ġê°Ģëľ©ìĿ´ ëĤĺ
ĠìĿ´ ì²ł
Ġbea ut
Ġìłķ ìĭľ
ê¹Ģ ìĹĨìĿ´
ĠìĦ¸ ìħĺ
Ġë³´ ëĶĶ
Ġì¶©ê²© íĮĮ
ĠëĿ¼ ìĭľ
ĠëĬĺ ë¦´
ĠìĿĳ ì§ķ
Ġë¶Ī íĹĪ
Ġìľłë¹Ħ íĬ¸
Ġìĺ¤ ë²Ħë
ĠìĹ´ ìłĦ
ĠëĬĲëĥĲ ê³ł
Ġì°¸ìĦĿ ìŀĲ
ĠìĨį ìĹ¬
Ġë°ľ ì¡±
Ġíı¬ ìĥģ
Ġì°© íķĺ
Ġíİĺ ìĿ¸
Ġë¦¬ ë¸Į
Ġì ©Ķ
ĠìĬ¬ íĶĦ
Ġì¶ľìĹ° ì§Ħ
Ġìłķ ì§ģ
Ġì¼Ģ ìĿ´íĬ¸
¸ëŁ¬ ìĬ¤
Ġê¹Ģë¬¸ ìĪĺ
íħĮ íģ¬
ĠìĤ¬ ê·¹
Ġå¯ º
ĠëıĦ ì¶ľ
Ġst age
ĠìĿ´ ë£°
Ġëªħ íļĮ
Ġìĭ¬ íŀĪ
Ġë¸Į ëłĪìĿ¸
Ġìĺ¨ íĨµ
Ġb ur
Ġs at
ëĵľ ë¦Ħ
ĠìĦ¸ ìĿ¼ëŁ¬
us e
Ġë§¹ ëıħ
ëłĪ ìĬ¤íĬ¸
Ġë¹ł ì§Ħëĭ¤
Ġë°Ķê¿Ķ ìĦľ
Ġë¯¼ ìĤ¬
ĠëıĮìķĦìĺ¨ ëĭ¤
Ġë§Į íĸī
ĠìĪŃ ë°°
ĠìºĦë³´ ëĶĶìķĦ
Ġìŀ¥ ìĭľê°Ħ
Ġë°Ķëĭ· ê°Ģ
Ġê¸°ê´Ģ ì°¨
Ġíĳľ ë¥ĺ
ĠíĴĢ ë¦´
Ġì°Į ì§Ī
Ġë¦¬ ë³¼ë
Ŀ¼ë ¯
Ġë§¤ ëĦĪ
ĠëĬĲê»´ ì§Ī
Ġë°ĽìķĦëĵ¤ ìĺĢ
ĠìĽĲ ì¢ħ
Ġì½© ëĤĺë¬¼
Ġê±° íĸī
Ġìķł íĶĮë¦¬ì¼ĢìĿ´ìħĺ
ĠëĨįìĸ´ ì´Į
Ġê¶ģ ìĪĺ
Ġë°ĶìĿ´ íĤ¹
Ġë³Ħì ¹Ń
Ġê°Ģ íŀĪ
Ġs al
Ġë¬´ ì§Ħ
ĠíĻĶ ìĨĮ
Ġë°ĳ ëıĮ
ĠìĿĮìĭĿ ë¬¼
Ġìĺ¤ ëĮĢ
ot d
Ġíı¬ ìľł
Ġìļ© ì§Ģ
ĠëĤŃ ë§Į
ĠíĶ½ ìħĢ
Ġì¦Ŀ ëĮĢ
Ġë¶Ģ ìĿĺ
ĠëĿ¼ë ¹Ħ
ĠìļĶ ìĿ¼
Ġh k
Ġì¤ĺ ëıĦ
Ġì°¸ëª¨ ì´Ŀìŀ¥
Ġk d
ìĬµ ê¸°
Ġê¹Ģê¸° ì¶ĺ
íĶĦ ëłĪìĬ¤
Ġë¹Ħë¹Ķ ë°¥
Ġë¯¸ ì²ĺ
ĠíĸīìĤ¬ ìŀ¥
Ġìľ¤ ì¢ħ
Ġgen er
Ġëĵľ ëĤĺ
íĤ¨ ìĬ¤
Ġì¶ľìŀħ êµ¬
act ive
Ġì¹´íħĮ ê³łë¦¬
ĠìĤ¬ë²ķ ë¶Ģ
Ġë²ķ ìłľ
ĠìĹ° íķĺ
ĠìķĮìķĦë´ ħëĭĪëĭ¤
ĠëĿ¼ ê³¤
Ġd ie
ëĮ ģ
Ġê²Į ë¦´ëĿ¼
Ġë§¤ ìĬ¤
Ġê³ł ìķ¡
Ġê³ł ë¶Ħ
Ġìľłë¦¬ ì°½
ĠìĹĲë³¼ë Ŀ¼
Ġìĭľ ì´Ī
ìĿ´ ìĦ¼
Ġìľ¤ ê³½
Ġì¹´ìŀĲ íĿĲ
ur a
ĠêµŃ ê³ł
Ġì¦Ŀ ìĹ¬
Ġë°ķìĺģ ìĦł
Ġëĭ¤ êµ¬
Ġì£¼ ìĪł
ĠëıĻ ëĮĢ
Ġð ª
ĠìłĦì² ĺ
Ġìķ½ ìĤ¬
Ġëª°ëĿ¼ ìĦľ
ĠìĿ¸ íĬ¸
Ġì²Ļ ì¶Ķ
ĠëĤĻíķĺ ìĤ°
Ġìĭľ êµŃ
Ġëª¨ë¥¸ëĭ¤ ê³ł
Ġìĺµ ëĭĪëĭ¤
Ġì°° ëĤĺ
Ġê²° ìĤ¬
Ġëª¨ íħĶ
Ġê³ł ëª¨
Ġë ¢°
ì¸ Ħ
Ġê³µ ìĺĪ
Ġë°ķ ìĿĢ
ëįĺ ì§Ģ
Ġìĭ¬ ìŀ¬
ë¡Ģ ë¬¸
Ġ''' '''
ĠíĨ Ī
q ue
Ġìķħ ìĺģíĸ¥
Ġëª¨ ì¹ľ
Ġëª¹ ìĭľ
Ġíĵ ¨ìĸ´
ĠíĶĦëŀĢì¹ĺ ìĬ¤ì½Ķ
ĠìĬ¬ ëŁ¬ê·¸
Ġìĭ¤ ë¡ľ
ìķĦë ĥĪ
Ġsh e
Ġìłģ ìŀ¬
Ġg a
Ġê°Ģ ëĳĲ
ĠíĿĳ ë°±
Ġë¶Īê°Ģ ë¦¬ìķĦ
ĠìĤ°ìĹħ ëĭ¨ì§Ģ
Ġë¶Ī ë°ľ
Ġíĺ¸ êµ¬
Ġë¶Ħì Ĥ¬
ëĥ ħëĭĪëĭ¤
Ġìŀłìŀ¬ ëł¥
Ġìķ¼ë§Ī ëĭ¤
ĠíħĮíģ¬ ëĭī
ĠíĪ¬ íķĺ
Ġm at
ĠìĹ¬ëį Ł
Ġìļ° ê¸°
ĠëĦĺìĸ´ ê°Ħ
Ġìĭ± ìĭ±
ĠíĥĢì¹´ íķĺìĭľ
Ġê°Ĳ íŀĪ
ĠìĤ¿ íı¬ë¡ľ
Ġëĭ¤ ë°ľ
ĠíĨµíĭĢ ìĸ´
ĠìĥĿê²¨ ëĤĺ
ĠëĤ´ìĦ¸ ìĽĮ
Ġxx x
ĠëĮĢ ëĵ±
Ġíģ¬ë¦¬ìĬ¤íĨł íį¼
ĠìĪĺ íķ´
ĠëłĪ ë¯¸
ìĨĮ ìĪĺ
Ġê°ľ ìĹ°
ĠíĽĦë ¬¸
Ġì¤ĺ ìļĶ
ĠìĿ´ ìĺ¤ë¦¬
ĠëĤ¯ ìĦł
ìĦ¸ ìŀĲ
ĠìĥģëĮĢ ìĭĿ
Ġê¸Ī ìłĦ
Ġt f
Ġìłĳê·¼ ìĦ±
ĠìĿ¼ ìĭĿ
ë¬´ ì§Ħ
Ġë§Ī íĭ°
Ġs g
Ġìķ½ íĺ¼
Ġëħ¸ë ¯¸
Ġð £
Ġê°ķ êµ¬
ĠìļĶ ê¸°
ĠíĭĢ ë¦¼
Ġtra vel
ĠìºĲ ë¡¤
ĠíĦ¸ìĸ´ ëĨĵ
Ġê°ľ íĮĲ
ĠëłĪ ê·¤
ĠìĬ¬ëĿ¼ ìŀĦ
ĠìĪĺëĩĮ ë¶Ģ
Ġëª» íķ©ëĭĪëĭ¤
Ġdr agon
Ġì¹´ ëĶĶ
Ġë³´ íĽĪ
j a
íİĺ ë¥´
Ġì°¨ ê°ĳ
Ġëĵľ ìĽĮíĶĦ
Ġìĭ¬ìĥģ ìłķ
Ġìķ½ ì²´
ĠíĿĳ íĿĳ
Ġìĺ¤ ì¿ł
ĠìĬ¹ ë§Ī
ĠíķĻ ë²Ī
Ġìº ĩ
íĨ °
Ġê¹ ½
íĥĦì ĨĮ
ĠíĻĶ ìĤ¬
Ġì§Ī ëŁ¬
Ġì¤Ģ ê²°ìĬ¹
Ġìľł ìĪĺ
Ġe a
ĠìŀĬ ìĸ´ë²Ħ
Ġìķ¼ë§Ī êµ¬ì¹ĺ
Ġb f
Ġê°Ģìŀ¥ ìŀĲë¦¬
ĠêµŃ ê³¼
ìĬ¹ íĻĺ
Ġb er
Ġë¦¬ìĦľ ì¹ĺ
Ġíĸī ê°ģ
ĠíĨµ ìĪĺ
Ġst ory
ìĿĺ íļĮ
ħ ĭ
Ġìĭľ ì½Ķ
Ġë¶Ħì ĩĦ
ĠìĽĥ ê¸´
Ġa bc
ĠìĻł ë§Į
Ġë§Ī ìĪĺ
ĠëĦĺ ê¸¸
ĠìĦ± ê¸°
å ¤
Ġre f
Ġìŀ¥ ìĿĮ
ìĥĿ ê¸´
ĠíĴĢ ìĸ´
Ġë´ī ê¸°
ĠëłĪ ìĬ¬ëŁ¬
Ġê·Ģ íķľ
Ġbl ood
Ġë¬¸ ê²½
ĠíŀĪì¹´ ë£¨
Ġêµ¬ ìłĪ
¡ ¬
ê¹Ģ ì¹ĺ
Ġë°° ìľ¨
Ġíı¬ ì²ľ
Ġnorm al
Ġê·¸ë Ŀ¼ë
ĠëıĻ ì²´
ĠëĿ¼ë °Ķ
Ġë¬¸ ì²´
Ġì¼ ł
Ġëķħ ì½©
Ġë½ĳ ìķĦëĤ´
Ġíģ´ë¦¬ ìħ°
ĠíĶĦë¡ľëª¨ ìħĺ
Ġì´ī ê°ģ
ĠëıĻ ëĳĲ
ĠìĹĲ ìĿ¼ë¦¬
ĠíĮĮ ìĹ´
ë²Į ìĿ´
Ġìŀł ë³µ
Ġë¹Į ë¯¸
Ġë§Ī ìŀ¥
Ġìĭł ë¯¼
ĠìĦ¤ íĻĶ
ìĸ ¼ë¦¬
Ġëĭ¤ ì±Ħ
ĠìĿ¸ ê±´
Ġëĭ¨ëĭ¨ íŀĪ
Ġê³µ ìŀĲ
Ġg ta
Ġ.. !
Ġv r
ĠìĭŃìŀĲ êµ°
ì²ľ ë¦¬
ĠêµĲ ëŀĢ
Ġcon c
Ġar ch
Ġíķ©ì³Ĳ ìĦľ
Ġë°ķ ì²ł
Ġìķħ íĸī
Ġìĺ¤ë¡ľ ì¹ĺ
Ġíģ´ ëłĪìĿ´
Ġë¬¸ ìĦ±
Ġr am
Ġì²´ ìĬ¤
Ġë¹Ī ìķ½
v es
ĠìĦľ ì²Ń
ĠëĽ° ì³Ĳ
Ġêµ¬ì¹ĺ ìĨĮ
Ġê¹ ¬
Ġëĭ¹ íķ´ìĦľ
Ġë´ī ì§Ģ
ĠìĬ¤íĤ¤ ìŀ¥
Ġíİĺë¯¸ëĭĪ ì¦ĺ
Ġë¡ľ ìĦł
ĠìŀĦì §Ħ
m o
ĠëıĦ ì§ĢìĤ¬
Ġð ©
ĠëŃī ì¹ĺ
Ġìĺģê²° ìĭĿ
ĠëĮĢ ìŀĳ
ĠëĨĵ ìĿ¸
ĠìĪľ íļĮ
ë¯ ¼ë
ĠìĨĮ ìķĦ
ĠìĨĮ ìĭ¤
ĠíĤ¤ ìļĶ
Ġíģ´ ëŁ¬
Ġìŀħ ê¸Ī
Ġh ist
Ġëıħ ë°±
Ġíİĺ ìĿ¸íĬ¸
Ġìł ¯
ĠíĪ¬ ìĤ¬
Ġê°ľìĿ¸ ìłĦ
Ġê³Ħë ŀµ
Ġm el
Ġì¹´ë¥¼ë¡ľ ìĬ¤
Ġê·¹ ìķħ
íĻľ ìķ½
Ġíķĺ ë²Ħëĵľ
ĠáĦıáĦı áĦı
Ñ ĥ
p o
ĠëĤĺ íĨł
ĠëĮ Ķ
Ġì¾Į ì²Ń
Ð ¹
ĠìĽ¨ íı°
Ġma ke
ë¥´ ë°Ķ
Ġìĸ¸ íĸī
Ġi g
Ġë¹Ħì ķ
ĠìłĦìļ© ê¸°
Ġìķŀìŀ¥ ìĦľ
vi ew
ĠíķŃ ìķĦë¦¬
ĠìķĮë£¨ ë¯¸ëĬĦ
ĠíĹĲ íģ¬
ĠíĭĢ ìĸ´
Ġë°ľ ìĨ¡
Ġíĺ¸ íĻĶ
od e
ĠìĦ¸ ìĪĺ
Ġìĭł ìĭľ
Ġëĺ ĺ
Ġêµ¬ì¡° ëĮĢ
Ġê³µìĤ¬ ìŀ¥
Ġë¨¸ ê·¸
Ġt n
ĠëĮĢë¦¬ ìĿ¸
Ġå İ
ĠíĶĦë¡ľ ìĦ¸ìĦľ
ĠëĤĺìĿ´ íĬ¸ë
ĠìĦ¤ëĵĿ ëł¥
Ġëĵľë£¨ ìĿ´ëĵľ
Ġë·Ķ íİĺ
Ġìµľ ìĿĢ
ĠìŀĲ íı¬
Ġd est
ĠíŀĪ íŀĪ
Ġëĭ¤ìĿ´ ë¹Ļ
Ġm al
Ġor der
Ġì° ¼
Ġíĥ ĦìĪĺ
ĠìķĪ ì¹ĺ
Ġë¦¬ ìħĭ
Ġb ook
Ġì£ł ì£ł
Ġì²´ íĺķ
Ġê·¸ ëĭ¥
Ġc bs
ĠìĬ¹ ê¸ī
ĠìĦ¸ìĽĮ ì§Ħ
ĠëıĦëĿ¼ ìĹĲëª½
Ġè ¡
ĠìĨĮë§Ĳ ë¦¬ìķĦ
ĠëłĪê·¤ ëŁ¬
Ġë¯¸ ìķ¼ë
ĠìĻ¸ ìĥģ
Ġn i
Ġë¦¬ íĦ´
an o
ĠìĿ¼ë ³ĳ
Ġíİĺ ìĿ´íģ¬
ê° ¯
Ġìŀ¬ ë¹¨ë¦¬
ĠëıĮ ê³łëŀĺ
Ġê¸ ĭ
ĠíĶ¼ ìĭ±
Ġì¢ĭìķĦ íķľëĭ¤
Ġê°ģ ê¸°
olog y
ĠìĿ´ë£¬ ëĭ¤
íĺ Ĳ
Ġìĺ¤ ëĶĺ
Ġëĸł ëĵ¤
ê°Ī ìĿ´
Ġì·¨ ì§ģ
ĠìĪĺ ìĿĢ
Ġë°© ìłķìĭĿ
Ġì¹ĺ ë°Ķ
Ġíİ¼ì³Ĳ ì§Ħ
Ġìļ° íĪ¬
Ġê²Ģ ìĿĢìĥī
ĠìĻķ ê´Ģ
ĠíĬ¸ë¡ľ ìĿ´
ĠìĪŃ ë¡Ģë¬¸
ĠìĶģ ìĵ¸
re ad
ĠëĶ° ë¥¸ëĭ¤
ì´ ¨
ë§ŀ ìĿ´
Ġì¹ «
Ġì»¤ ì§Ħ
w e
Ħìķ ½
ĠìĿ¼ë ³´
Ġì²ł íķĻìŀĲ
ol ution
Ġìĺģ ì¡°
ĠìĿ´ ë³Ģ
Ġë°ķíĿ¬ íĥľ
Ġê·¸ë ¬¼
ĠìĿ¸ ìĸ´
ĠíĽĦìĽĲ ê¸Ī
į ìĬ¤
íĺĦë ¯¼
Ġìĭłì£¼ ì¿ł
ĠíĺĦì ¡´
ĠìĹĲ íĭ°
ĠìŀĲ ë¦¿
ĠìĿ´ë£¨ìĸ´ ì§Ħëĭ¤
ĠìĿĺ ìķĦ
ëĭ¤ ìĺ¤
Ġìķħ ìĿĺ
Ġìĺ¤ë¦Ħ ìĦ¸
Ġì¶©ì²Ń ëıĦ
Ġì°¨ ìļ©
ĠìłĦì ¤Ģ
ìĹĳ ìĬ¤
ĠìĿ´ ë¶Ģ
ìĿ´ ìĿ¸
Ġë³´ ëł¹
ë´ Ħ
Ġëª¨ ê±´
ĠëĬ¦ ì¶Ķ
Ġë§Īìļ´ íĬ¸
ĠìļĶ ëł¹
v id
Ġìľł ëĤĺ
ĠìĹħ ì£¼
Ġì§Ī ë¦¬
Ġíĺ¹ íıī
ĠìĹĲ ë²Ħë
Ġë¯¸ íķĺ
Ġì¤ĳ ëł¹
ĠìĹĳ ìĨĮ
Ġê¸° ê¶Į
ĠìĦľ ëĤ¨
Ġì¢ģ íĺĢ
Ġëªħ ê³¡
Ġë¹Ī íĭĪ
ĠíĮĮìĿ´ ë¸Į
ĠëĤĺ ëĿ½
ë¬´ ëĭĪ
ĠëĦĪ íģ´
Ġíĺ¹ìĭľ ëĤĺ
Ġê°ķ íķ´ìĦľ
ì¼Ģ ìĿ´íģ¬
Ġë²Ħ ë¦ĩ
ĠìĬ¤ íĮħ
ĠìŀĲë¶Ģ ìĭ¬
Ġms l
Ġì§Ħ ëĭ¤ëĬĶ
ìĸ´ ìķ¼
ĠëłĪìĿ´ ë¸Ĳ
Ġìĸĳ íķ´
ĠìĨĲê¼½ íŀĪ
Ġíľĺ ëĳĺ
Ġsp ort
Ġëł ´
Ġê¹Ģ ë³´
ĠëŁ° ì²ĺ
ĠëĮĢ êµ°
Ġìľł ìĨĮ
Ġìĭ¤ë¦¬ ì½ĺ
Ġìłķ ìĿ¸
ĠëĭĪ ëĭ¹
ĠìľĮë¦¬ìĹ ĦìĬ¤
Ġë¶Ī ê±°
Ġëª¬ íħĮ
ĠëĮĢ íĮ¨
Ġìĺ¨ ëĤľ
ëĮ ĵ
ë¬ »
ĠìŀĲ ë°±
Ġìĺ¤ ìĹŃ
Ġì¹ĺ ë¥¼
Ġë³µ ìĭ±
Ġë¶Ī ê±°ì§Ħ
Ġëĭ¨ ì´Ŀ
Ġê¹Ģê²½ ì¤Ģ
ĠëĤ´ëł¤ ìĺ¨
Ġç «
Ġinter n
ë¥¸ë į°
Ġåī į
ĠíĥĢ ê³ł
Ġê±° ë¬¼
Ġë¯¸ íĺ¸
Ġë¦¬ ë§Ī
ĠíĻ© ë³´
ìĹĲ ë¥´
Ġì§Ģì§Ģ ì¸µ
Ġh tm
Ġìķŀ ìª½
ĠìĿµ ëªħ
Ġë¸Į ëŀľ
Ġì§ĳì¤ĳ ëł¥
Ġë¬´ ë¥´
Ġë¹Ħ ìŀ¥
ê²½ ì°°
Ġì§Ģê·¹ íŀĪ
Ġê°ķ ì¶Ķ
Ġê°Ħ íĮĮ
Ġì£½ ìĿ¸ëĭ¤
if t
Ġê°Ģ ì¶ľ
ì¡° ê°ģ
Ġb ott
ĠëĭŃ ê°Īë¹Ħ
ìĹ¬ ì§Ħ
Ġë¶Ģ ì©į
ĠëıĻëªħ ìĿ´ìĿ¸
Ġìķł ìī¬
ĠëĮĢ ëįķ
Ġìłķ ë¦½
ĠëĤ´ ë¬´
sh ip
Ġê²° ë³Ħ
Ġì§Ħíĸī íķł
Ġëŀ ł
ĠìĤ¬ ìłĪ
Ġê²½ ì§Ģ
ìł ĦëĮĢ
Ġê·¸ ê±¸ë¡ľ
ì»¤ ëħķ
ĠëĮĢ ëĳĲ
Ġê¸Ī ê¸°
Ġë¯¼ íĬ¸
ĠíķŃìĨĮ ìĭ¬
Ġi b
ĠìĹ¬íĸī ìĤ¬
Ġë¹Ļ ìĪĺ
Ġo m
Ġê¸¸ë ª©
Ġ!! !
Ġë°¸ ë¦¬
ĠëıĦì¿ł ê°ĢìĻĢ
ê³ Ħì²ľ
Ġì»¤ ìł¸
Ġì¾Į ìĨį
ëĪ ĦìĬ¤
Ġì¼Ħ ì§Ģ
ĠìĿĢ ê°Ģ
ĠìĨĮê¿ī ì¹ľêµ¬
Ġë¯¼ë ħ¸
ĠìºĲ ìĦľ
Ġh ero
Ġë§¤ ìĦľ
Ġëħ¸ë ¸Ķ
Ġé Ħ
Ġì¹ĺ ê³ł
ĠìĿ¼ ì°Įê°Ĳì¹ĺ
Ġê¸Ģ ëŀĺ
ëįĺ ê°Ģ
Ġë¡ľ ìłĢ
ë¬¼ ìĤ°
Ġëª¨ ìĸ´
Ġë°Ķ ëĬĺ
ĠìĥĮ ëĶĶ
ĠíĤ¹ ëį¤
ë°° ê¸°
Ġwi i
Ġë°ľ ìķĶ
ĠëŁ¬ìĭľ ìķĦìĸ´
Ł ĵ
Ġê´ĳë³µ ìłĪ
ĠìĦ±íĥĦ ìłĪ
ìľĦ ìĦ±
ë¦¬ íŀĪ
Ġê°Ħë ŀµ
Ġdong a
Ġm om
ĠìĹ°ê³ł ì§Ģ
Ġìĭ¤ íĥĦ
Ġê²Įìĭľ ë¬¼
Ġê¸Ģ ìİĦ
Ġv is
Ġë²¨ ë²³
Ġì¸¤ ëį°ëłĪ
Ġì¤ĳ ê¸ī
Ġìĸĳ ëĭ¹
Ġì§Ģë°° ìŀĲ
Ġê±° ì¹¨
Ġìĭł ìĪĺ
ĠìľĦì ķ
Ġíķľ ìĬ¤
ĠìŀĲ ëŀĲ
ĠìłĦ íıŃ
ĠëłĪ ìłĢ
ĠìłĦëĿ¼ë ıĦ
Ġì§Ģ ë§Ŀ
Ġëª¸ ìĤ´
Ġë¯¸ íĭ°
ĠëĿ¼ë Ĥĺ
Ġë¦ ī
Ġë¯¸ëıĦ ë¦¬
Ġê°Ģë¥´ ì¹¨
Ġìķł ëıĦ
Ġä ¼
Ġëĭ¤ ëĭ¨
ìĤ° ìĹħ
Ġê²½ìĺģ ìŀĲ
ĠìĤ¼ìĦ± ë¬¼ìĤ°
Ġíķľëĭ¤ ê±°ëĤĺ
ĠìĦľ ìĿ¸
z a
ëħĦ ê¸°
íģ¬ ëĿ¼
Ġê³µê²© ê¸°
ĠìłĦ ìłĦ
Ġëĸł ìĦľ
Ġsu v
Ġì İĦ
Ġì´Ī ê³Ħ
Ġì¦Ŀê°Ģ ìĦ¸
Ġê´Ģ ëıĻ
ìłľ ë¦¬
Ġê²° ìĤ°
Ġê±° ì°½
Ġì¹´ ìĿ¸
Ġë°ĺ ê°Ĵ
ĠíĽ ħ
ĠìĿ¼ëłī íĬ¸ë¡ľ
Ġìĺ¤ë¥¸ íĮĶ
Ġê°ĳìŀĳìĬ¤ ëŁ½
ìĤ¬ ìĻĢ
Ã ¤
ì¤ ¬
Ġë³¸ë ¬¸
ĠìĹ°êµ¬ ìĭ¤
ëįĶ ëĭĪ
b b
Ġë¦¬ ìļ°ìĬ¤
Ġì»¨ìĦ¤ íĮħ
Ġê²½ íķ©
Ġc re
íĳ ¼
ĠíĨł ìĤ¬
Ġìłķìļ´ ì°¬
ìŀĦ ìŀĲ
Ġíķĺì§Ģ ë©Ķ
ĠìĹ° ì²´
Ġìī ¼
ĠìĪĻ ëªħ
Ġì²Ń ê³Ħì²ľ
ĠìĿ´ëģ Ī
Ġëĭ¬ ë¹Ľ
ìłĦ ëł¥
Ġ; ;
Ġìĺ¤ë¦¬ ì½ĺ
ter n
ĠìĻĢìĿ´ íĮĮìĿ´
ĠìĪĺ íį¼
Ġì¦Ŀ ê°ķ
ĠìĨį ëł¥
Ġê°Ī ë¦¬ìķĦ
Ġìĺģ ìŀ¬
Ġë¦¬ íķĦ
ĠìĿ´ì§Ģ ìĬ¤
Ġë§· ì§ĳ
Ġë¹Ħ ê¸°
Ġê¹Į ëĭŃ
ĠìłĦì£¼ ìĭľ
´ Ŀ
Ġä¹ ¡
ĠíķŃê³µ íİ¸
Ġf all
Ġìĭľ ëģĦëŁ¬
Ġìŀħ íŀĮëĭ¤
Ġêº ¼ë¦¬
ëŃ ĩ
Ġë§Ī íħĮ
ĠëıĦ ë³´
Ġë§¹ íĻľìķ½
ĠìĹĩê°Ī ëł¤
ĠìĪĺ ìŀĳ
ĠìļĶ ëłĩê²Į
Ġê´ĳì£¼ ìĭľ
y l
Ġì°ľ íĨµ
Ġë¶ĦíĻį ìĥī
ĠìĹ´ ìĦ¸
Ġð ¡
ê¼ Ń
Ġëıħìŀ¬ ìŀĲ
ĠíĽĦ ê¶ģ
Ġë°ĺ ê°Ģ
Ġìĸĳ ë§Ĳ
ĠíĴĭ ë³¼
Ġê¸° ìĿ´
Ġê·¸ ì³Ĳ
Ġìĭ¬ ê²½
ĠìĽĥ ëıĦ
ĠëłĢ ëĭ¤
Ġì¹ľ ëª©
ìķĦìĻ Ķ
Ġì´ĿìĦł ê±°
ĠìłĦë ²Ķ
Ġed ition
ĠìĤ¬ ê³¼ë
ĠìĬ¤íĬľ ìĸ´
ë¦ Ħë
Ġíģ° ìĿ¼
ĠíĻĪ ê²½ê¸°
Ġìĸĳ ë©´
ĠíļĮ ê·Ģ
Ġë´ī ìĤ¬ìŀĲ
Ġê±´êµŃ ëĮĢ
ĠìĹ¬ëĮĢ ìĥĿ
íĶ¼ íĥĪ
Ġì²ľ ë§Ī
Ġìļ ľ
ĠìķĪ ìŀ¥
Ġë¶Ħ ëĭ¨
r u
Ġíİľ ìħĺ
ĠëĮĢ ë¬¸
Ġìļ°ëĳĲ ë¨¸ë¦¬
Ġæ ħ
ë²ħ ì§Ģ
ìı ł
Ġë³Ģ ë¡ł
Ġë°ľ íĺĦ
ĠìķĪëĵľë¡ľ ë©Ķëĭ¤
ìłĦ íĬ¸
Ġìĭľ ìĹ°
ĠìĤ¬ìļ© ë²ķ
Ġl h
Ġê²½ ìł
ĠíĻĺ ìĽĲ
Ġor ig
ìĨĮ ì´Ŀ
Ġê³Ħì ĹĦ
Ġì²´ ëĤ©
Ġíİ¸ë ²ķ
Ġm t
ea th
Ġìłľ ëĭ¨
íĻĶ ë¬¼
ĠìĬ¤ ì¹¼ë
Ġë¸ĮëłĪìĿ´ ë¸Į
Ġë¦¬ íĤ¤
Ġê¹Ģ ë¶Ģ
Ġì½Ķ ì¦Ī
Ġìıł ìıł
ĠëĳĲ ë¥´
Ġìĸ¼ íĦ°
ĠíħĮíģ¬ ëħ¸
Ġê²½ìĺģ íķĻ
Ġêµ¬ ìĿ¸
ĠìłķêµĲ íļĮ
Ġëĵł ê°Ģ
Ġê¹Ģíĺķ ìĺ¤
Ġë¯¸ ìľłíĤ¤
ĠìķĮ ìķĦì°¨
Ġê°ĩ íŀĮ
Ġê³ł ì°½
ĠìľĦì ¦Ī
Ġíķľ ìĪĺ
Ġìŀ¬ ê°Ģ
ëłĪ ëĵľ
ĠìķĮ ë¦¼
ĠíĮĮ ì¶ľ
Ġíķľ íĮĲ
Ġê³ł ëıħ
ĠìłĦë ħĲ
Ġì¥ Ķ
ĠëĤĺìĻĢ ìķ¼
ëª «
ĠìĤ¬ìĹħ ê°Ģ
Ġêµ¬ì²Ń ìŀ¥
ìĽ ¬
Ġë¡ľ ì»¬
Ġë¬ĺ íķľ
ĠëıĦíĺ¸ ì¿ł
ĠëĮĢ íĮĮ
Ġê·¸ëŀĺ ìķ¼
Ġë§¤ ê±°ì§Ħ
ë°Ķ íĢ´
Ġìŀ ¤
ë£ »
Ġëĭ¨ ìĹ°
Ġìĸ´ë ķł
ĠëĶĶ íħĮìĿ¼
ĠìłĢ ëŁ¬
Ġë§ ı
Ġë¹Ļ ìĿĺ
ĠìĿ´ë¤Ħì§Ģ ëĬĶ
ĠëıĦ ëĤľ
Ġëĵ¤ìĹ¬ ëĭ¤ë³´
Ġfl y
Ġê°Ģ ëªħ
Ġì¶ĺ ì¶Ķ
Ġì¼Ģ ëĦ¤
re t
ĠíĮĶ ëł¸
ĠêµŃ ìĺģ
Ġë©Ī ì¶ĺ
Ġê´ĳ ìłĢìļ°
íĥľíıī ìĸĳ
Ġê³ł ìķĦ
Ġê¹Ģ ê·ľ
Ġìĸĳ ìĸĳ
Ġê¿Ģ ë§Ľ
Ġì§Ģì¤ĳ íķ´
ĠìĦľì²Ń ìĽĲ
ĠìľĦ íĥľ
ìĿĺ ìłķ
Ġë¶Ī íĥľ
ĠíĶĮëłĪ ìŀĦ
Ġåħ ĥ
ì°° ì²Ń
Ġíĳľ ë°©
Ġf em
ĠìľĦ ìŀĦ
ĠìĽĶ íĻĶ
Ġë²Į ë¦¬
Ġìĵ¸ëį° ìĹĨìĿ´
Ġìķł êµĲ
Ĥ Ń
ĠëĤĺ ëĤł
Ġëª° ìŀħ
Ġem p
ĠìłĢ ìĬ¤íĭ°ìĬ¤
Ġëĥī ê¸°
Ġëª¨ íķ¨
Ġå Łİ
Ġl uc
Ġè ¥
Ġë§Īíı¬ êµ¬
Ġh ere
ĠëĮĢê²Ģ ì°°ì²Ń
Ġê½ĥ ìĥĺ
ĠíĻĪ íĶĮëŁ¬ìĬ¤
a a
âĸł âĸł
Ġì¶ľ íķĺ
ĠìĦłê±° ìĿ¸
ĠìĬ¬ ë¡ľìļ°
em ent
Ġë§¤ìĪĺ ìĦ¸
Ġì²Ń ëĭ´
Ġíķ´ìķĪ ê°Ģ
íħ ģ
Ġê³ł ëĵł
Ġëĭ¤ìĬ¤ ë¦¬
Ġíķ¨ ëŁī
ĠíıŃ ëĦĵ
Ġì¹´ ê°Ģ
Ġë¸Į ë¤¼
Ġëŀ¨ íĶĦ
Ġë°° ìĨį
Ġë§ŀ ìĦ°
Ġê³ł ìĿĮ
ĠëĤ´ìĦ¸ ìļ´
Ġëĵľë¦´ ê²ĮìļĶ
ĠëĮĦ ìĦľ
ĠëĤ¨ ë°ľ
Ġì¦ Ļ
ĠíĮ¨ ìĬ¤íĬ¸
Ġì© Į
ĠíĻ© ìĭ¤
ĠëĿ¼ ìĺ¤
ëĵ¤ ìĺĢ
ì¶ķ êµ¬
ĠìĦľ ë¬¸
Ġb i
ĠìĬ¤íĮĮ ìĿ´íģ¬
ĠìĿ¸ë §¥
ĠëĮĢìłĦ ê´ĳìĹŃìĭľ
ĠìĪĻëł¨ ëıĦ
Ġë©Ķ íħĮ
Ġê¸°ê´Ģ íı¬
ĠëłĪ ë²Ħ
Ġìŀ¥ ëĭ´
ĠìĿ¸ëį° ëĭ¤
ĠìĽĲìŀĳ ìŀĲ
Ġsw eet
ìĤ¬ë¬´ ìĨĮ
Ķ ´
ĠìĤ¬ëĿ¼ ì§Ī
ĠíĮ¨ ë¯¸
Ġìĥī ìĨĮ
Ĥł ëĳĲ
Ġë¬´ìĿ¸ ê¸°
Ġê²½ìł Ħì²ł
ĠíĶ¼ ì§Ģ
ĠìĬ¤ìľĦ íĬ¸
ê¸° ëħĲ
Ġë§Ĳ ëħĦ
ê¿Ī ì¹ĺ
Ġë¦¬ë³¼ë ²Ħ
r al
Ġìŀ¥ ìŀĲ
Ġë§Ī ì´Ī
Ġê°Ģ ìĿĺ
ĠìĿĮ ìĥī
Ġê°ľê°ľ ìĿ¸
Ġì¡°ìĨį íŀĪ
ëĭĪ ì§Ģ
ĠëĪĦë ªħ
Ġìĭł ì°¨
ĠìĬ¤íĨł ì»¤
Ġíĳľ ìĭĿ
c i
Ġë¡ľ ë§Ŀ
Ġì¹¨ ë²Ķ
ìłķ ìĹŃ
ìķĦë ¥´
Ġinter active
Ġì¦Ŀ ìłķ
ou gh
Ġid ol
Ġì¡° ëıĻ
ëª¨ ìĸ´
Ġíĺ¸ë ĤłëĳĲ
us s
Ġìļ´ìłĦ ê¸°ìĤ¬
Ġëªħ ëĮĢìĤ¬
ĠìĦ¼íĭ° ë¯¸íĦ°
Ġê°ĳìŀĳìĬ¤ ëŁ°
ì¤ĳ ëıħ
ë°Ķ ë£¨
Ġco unt
ĠãĢ ģ
Ġë¬¸íĻĶ ìľłìĤ°
Ġê²½ìĥģ ëıĦ
Ġê°ķ íĿ¬
ĠìĭĿ ë³Ħ
Ġè ¨
Ġë¾° ì¡±
Ġê¹ ģ
ì½Ķ ìĬ¤
Ġêµ¬ íĸĪ
ĠíĽĦì ĭĿ
ìĹ° ëĮĢ
ĠìĹ¬ ìļ´
Ġl pg
Ġìŀ¬ íİ¸
ĠíĽĦì ĺĪ
ìĭľ ê³Ħ
Ġå¹ ³
Ġìĸ´ ê·¸
ìĭľ ê²½
Ġë£¨ ë£¨
Ġê·Ģ ì¤ĳ
ĠìĻĢ ìĿ´ìĸ´
Ġë°ľìĤ¬ ëĮĢ
ĠëįĶ ë¹Ħ
ĠíĻĪ ì¦Ī
Ġëħ¸ íĻĶ
ìĬ¬ ëĿ¼
Ġáħ ²
Ġíľĺ ëĳĲ
er an
ĠìĪľê°Ħ ìĿ´ëıĻ
Ġìķł íĶĦ
ĠìľĦ íĹĮ
Ġë¯¸ ê³µ
Ġë¸Į ë¡ľëĵľ
Ġs i
íĪ Ń
ĠìĿ´ êµŃ
Ġìĭľ ê°Ģì§Ģ
Ġë§Į ì·¨
ĠìĦł ì°©
Ġë£ ½
Ġë¶Ģ ì¸ł
íĨµ ìĪĺ
ĠìĥĿ íĽĦ
Ġë§Ĳ ë¯¸
ĠíĶĦë¡ľ ë¦¬ê·¸
ĠìľĦíĤ¤ ë°±ê³¼
ĠíļĮë³µ ìĦ¸
ĠìľĪ íĦ°
Ġìĸ ¼ë¦¬
Ġl im
ê³µ ìłķ
Ġíľ´ ì§Ģ
Ġâĸ ¡
Ġê²¸ ìŀĦ
ĠìĦ¸ ì¸ł
ĠëŁ¬ ìħĢ
ĠìķĦë ³´
Ġf ight
Ġíĺ¸ ì¿ł
ìį ½
Ġì¡° ìŀ¬
Ġr is
ĠíĶĦë¡ľ ìĬ¤íĬ¸
Ġë³´íĺ¸ ìŀĲ
Ġë¡ľ ìłĢìĬ¤
Ġë§¤ ê°ľ
Ġìĸ´ê¸ĭ ëĤĺ
ĠìĦ± ê¸ī
Ġíį¼ë ¶ĵ
ĠíĿĺ ëł¤
Ġìłģ ìĿ´
Ġëģĵ ìĹ¬
ĠëıĻ ìĤ°
ĠíĬ¹ ë¡Ģ
ĠìĶ¨ ë°ľ
Ġëį°ìĿ´íĦ° ë²łìĿ´ìĬ¤
Ġëĭ¤ ìłķ
Ġíķĺ ë¶Ģ
ë§Ī ëĭ¹
ĠëĭĪ ì¹´
ĠëĭŃ ê³łê¸°
Ġê²Į ìŀĦì¦Ī
ĠìĦ± íĻĶ
Ġë³¸ ê°Ģ
Ġë³¸ ìĿĺ
ĠìĺĪ ì§Ģ
ĠíĶĦë¡ľ ìĿ´ìĦ¼
ĠíĹĮ ë³ĳ
Ġcl ub
Ġë³´ìĿ¸ëĭ¤ ëĬĶ
ĠìķĪ ëĤĺ
Ġìµľ ìĬ¹
Ġst ep
ĠìĬ¤íģ¬ ë¦½íĬ¸
Ġê¸¸ë ĵ¤
ìĥģ íĥľ
Ġíķĺ ëıĻ
íĮ¨ ìĬ¤
Ġëĭ¬ëĿ¼ ì§Ī
ĠëıĮ ë¦´
ĠìŀĲ ê°ģ
ë§Ī ë¥´
ĠìĦ¤ ìķħìĤ°
ĠâĢĻ ,
Ġëĭ¹ ëıĦ
ĠìĦľ ìŀ¬
Ġëª¨ ë°ľ
ĠìŀĲ ìĦĿ
ĠìŀĲ ë°Ķ
ìĬ¬ ëĿ¼ë
Ġíķĺ ìĽĮëĵľ
ĠìĪľ ëĮĢ
Ġíļį ê¸°
Ġê¹ĢìĦ± íĥľ
Ġbott om
Ġc t
ĠìĹ° íĺ¸
Ġë°ľ ì£¼
ĠìļĶìĭľ ëĭ¤
Ġìĺģ ìĦ¸
ĠìĿ¸ ì²Ļ
Ġìĸ Ħ
Ġëĭ¨ ìĦł
Ġì²ł ìĥĪ
ë¬¸íĻĶ ìŀ¬
ë¶Ģ ì¡±
ec k
Ġë¦¬ íĶĮëłī
Ġtech n
Ġíķ© ìĤ°
ĠìĹĲë©Ķ ëŀĦëĵľ
ìĿ´ ëįĶ
ì§Ħ êµ¬
íĭ° ëĦĺ
ìĤ´ ìĿ´
Ġìĥ¤ íĶĦ
Ġëŀľ ìĬ¤
Ġë°Ģ ëł¸
ìĿ´ íĶĦ
Ġìĸ´ ê¸°
ĠìĦľ ê±°
ĠìĦ¸íĥģ ê¸°
ĠíĶĮëŀĺ íĭ°ëĦĺ
ĠíĮĮìļ° ëįĶ
Ġíķĺì¸ł ëĦ¤
Ġìľł ì½Ķ
ĠëĭĪ ëĤĺ
Ġì¼Ģ ëĥĲ
Ġë® ¬
Ġì½Ķ ë¡ľ
Ġsh in
ĠìĿ¸íĶĮ ëłĪìĿ´ìħĺ
ìł Ħì²´
Ġê½ Ŀ
ĠíĬ¹ê³µ ëĮĢ
Ġg al
Ġs on
Ġëıĭ ë³´
Ġì£¼íĻ© ìĥī
ĠíĶ Ī
ìĪĺìĤ° ë¶Ģ
ĠìķĦ ê»´
Ġro ad
ĠìłĦì Ĺ´
ĠíĨłìļĶ íĥĢ
ĠìĪĺ ìĪľ
Ġëł¤ ëĤĺ
Ġíİĺ ëįĶ
r ic
ĠëıĻ ìĦł
Ġë°ķ ê´ĳ
ĠìĤ°ìĹħ ìĿĢíĸī
Ġìį¨ ëĭĪ
íĿ ł
ĠíĽĦë ĮĢ
ĠíĹ¤ëĵľ ìĥ·
ĠíĻĶìĦ± ìĭľ
Ġì¹ľ ê·¼
Ġë¬¸ íĿ¬
ĠêµĲ ê´Ģ
ëı ĭ
Ġìŀ¬ ìĻ¸
Ġìĭľ íĤ´
ĠìĬ¹ íķ©
Ġì£¼ ì§Ģ
Ġëª°ìķĦë ¶Ļ
ìĻĦì ¢ħ
ĠëĲĺëıĮ ëł¤
Ġì ·
Ġìļ´ ìļ´
en n
Ġì²´ ê²©
Ġor g
Ġtr ack
ĠíĶĦë¦° ìĬ¤
ĠëĿ¼ ìļ´
Ġìĺģ ëıĦ
âĨ Ļ
ĠìŀĲ íģ¬
Ġì´Ŀ íĥĦ
ĠìĭĿ ì¤ĳëıħ
Ġë°°ìĭł ìŀĲ
Ġb us
Ġìĥī ê°Ĳ
íĬĢ ê¹Ģ
Ġìłģ íıĲ
ĠìĬ¤ ì½ĺ
Ġíķĺ ëĿ¼
Ġê³µ ì±Ħ
Ġìĭľ ì°°
Ġìĭł ìķ½
Ġìŀħ ìłĲ
ĺ Ģ
ĠìĿ´ ìĸ¸
Ġê³ł ìĦł
Ġìłķ íĴĪ
op le
ĠìĨĶë¡ľ ëª¬
Ġë§Ī ì°¨
Ġìŀ¥ ëħĢ
Ġë£¨ íĦ°
ĠìĪĺ êµĲ
ĠìĿ´ ìĹĲ
Ġë§Ĳ ìķĦë¨¹
Ġê±´ ëĮĢ
Ġíİ¸ ì°¬
ĠëĳĶ ëĭ¤
en e
Ġëį°ìĬ¤ íĭ°ëĭĪ
Ġëĭ¹ëĭ¹ íŀĪ
Ġíı¬ ê³ł
ĠìĦ± ìĻĦì¢ħ
ìĤ´ ëłĺ
Ġê²½ ìłĦ
ĠìĨĮ ìĿ´
ĠëĨĢ ëŁ¬
ĠáĦ ī
Ġê°Ģ ëĿ½
ĠëĤ´ ìĤ¬
íĥĢ ê¸°
ĠíĿ¬ ëĮĢ
Ġëĭ¤ë¦ ĦìķĦ
Ġìĸ´ë¦¬ ìĦĿ
ë¦¬ ëĵľ
Ġì¶ľ ëª°
ĠìĿ¼ ì§Ħ
ë£¨ ìĤ´ëłĺ
ĠíĶĦë¡¤ ë¡ľê·¸
Ġëĭ¤ìĿ´ìĬ¤ ì¼Ģ
Ġëĭ¤ë¦ĦìķĦ ëĭĮ
ĠìłĢ ìĪł
Ġç ļ
Ġbb k
Ġì§Ħ ê³µ
Ġëĭ¤ìĿ´ ëħ¸ìĬ¤
Ġì£¼ ìĪłìĤ¬
ĠìĽ¨ ìĿ¸
ĠìĪĺ ë°ĺ
ìŀ £
ĠìĹ½ ê¸°
Ġìĭ¤ íĺķ
Ġë¶Ī ê±°ì§Ģ
Ġð Ł
Ġë°ĺ ì£½
ĠìĿ¸ ìĭł
ĠìŀĲ ìĦł
Ġìĸ´ ëĶľ
ë©Ķ ìĬ¤
Ġê·¸ëŀĺ ìļĶ
Ġìĥģ ìĩĦ
Ġe st
Ġìłľ ìļ°ìĬ¤
ĠëĿ¼ ì§Ģë§Į
ĠìķĦë ¡ľ
Ġl s
Ġëĭ¤ ìŀĲ
Ġê°Ģìł¸ ìĺ¬
ĠìĻĢ ëıĦ
Ġå ĸ
y m
Ġêµ¬ ëªħ
Ġì¿ł ë¥´
êµ¬ ìĿ´
ĠìłĦê²½ ëł¨
Ġë§¥ëıĦ ëĤłëĵľ
Ġëĭī ìĬ¤
Ġm x
ĠìĦłíĴį ê¸°
Ġde ad
ĠìłĢíķŃ ëł¥
ĠìķĮ ëľ°
Ġìĭł ê²©
Ġsv g
Ġì´Ī íĨł
Ġê·Ģ ê°Ģ
ĠëĪĦë¦¬ ê¾¼
ĠìĪľ ì°¨
ĠíĽĦ ìĦ¸
Ġê³µê°Ĳ ëĮĢ
Ġtw o
³ Ĳ
ĠìĦ± ìĤ°
ĠíĹ¤ íĹ¤
Ġê¾¸ ëł¤
ĠíĻ©ìļ° ìĹ¬
Ġs ub
ĠìĹ´ ë³ĳ
Ġìĸ¼íĭ° ë°ĭ
ĠíŀĪ ëį°ìļĶ
Ġalb um
Ġf in
Ġëĭ¹ íĺ¹
ĠíĮį íĮį
Ġë¸Į ëłĪìĬ¤
ĠìĬ¬ ì©į
Ġíİł ë¦¬
Ġmag ic
ĠìĬ¤ ìĻĦ
íĨł ë¥´
Ġíĥľ ìĹ°
ĠíĻķ ìĹ°íŀĪ
ĠëĳĲ ê·¼ë
Ġh g
íķĺ ìļ°ìĬ¤
ĠìłĦë ¥ĺ
ĠíĶ½ ì²ĺìĬ¤
ĠìĤ° ìłķ
Ġë£¨ ë¯¸
ĠìłĪ ì¶©
ĠëıĮìķĦ ìĦ°
ĠìķĦëĭĮê°Ģ ìļĶ
ĠëĶĶ ë¹ĦìłĦ
ìłľ ìĿ´
ĠëĨį ìķ½
Ġn t
Ġë¶Ħì ĭ¤
Ġab out
Ġê°ľë§ī ìĭĿ
Ġì¶Ķì¶ľ ë¬¼
Ġhe y
ìĿ´ìĸ´ íĭ°
Ġë¦¬ ìĹĲ
Ġë¶Ħíĸ¥ ìĨĮ
Ġì·¨ìŀĦì ĭĿ
ĠíĻĶ ëŀĳ
ĠìĤ° íĸī
ĠìĤ¬ìĿ´ ìĸ¸ìĬ¤
Ġìķł íĭĢ
Ġìĺ¤ ëĶĶ
ĠíĻĶ ì°½
ĠìĤ° íĥĦì
ĠíĪ¬íĳľ ìľ¨
ĠìĤ°íĥĦì ´Ŀ
Ġìľł íĺĪ
Ġíŀĺ ëĵľ
Ġê·¹ ëıĻ
ĠëĤĺíı´ ë¦¬
j e
ĠëĿ¼ë ¦¬
Ġë¬´ ìĭ¬
Ġìĭł ë³Ģ
Ġìµľ ì§Ħ
Ġe asy
Ġì°© ì§Ģ
Ġëŀĺ ìĬ¤íĦ°
anc ed
ĠëĲ ¬
ĠíħĮ ë£¨
ë¯¼ ìĦĿ
ĠëĦ¤ ëª¨
ĠíļĮ ìĥĿ
âĨĺ âĨĴ
ĠìŀĦì °½
íı¬ ìĬ¤
Ġë§¤ ê·¸ë
Ġr ich
ĠìĦ¸ ìĬ¤
ĠìłĦì ħĭ
Ġë³Ħ ìĦ¸
Ġìłķ ìĿį
Ġìľłì§Ģ ë¹Ħ
Ġêµ¬ê¸ī ì°¨
ĠìĨĮ ë¦Ħ
ĠìĬ¤ì¼Ģ ìĿ´íĬ¸
Ġs j
ĠëŁ° ëĭĿ
Ġgirl s
Ġê°Ģ ê°Ģ
Ġíħľ íı¬
ëİ ħ
Ġë¶Ģ ëħĢ
ĠìĦ¸ë ¯¸ëĤĺ
ĠëķĮëł¤ ìŀ¡
Ġê±´ ëĦ
ĠëĨį ë¶Ģ
Ġìłľìĭľ ì¹´
Ġdj max
ĠìĬ¤ëŁ¬ ìĽĢ
Ġh i
ĠìķĦìĿ´ ìĸ¸ë
Ġìĭ¬ íı¬
ĠíķŃ ìŁģ
Ġë£¨ ìĿ´ì§Ģ
ĠìĬ¤íĮĮ ë¥´íĥĢ
Ġì·¨ìĹħ ìŀĲ
ê¸ī ìĭĿ
Ġëħ¸ íĥľìļ°
ĠëĴ¤ íĨµìĪĺ
Ġë§Ī ìĿ´ìĸ´
ĠìķĦìĿ´ìĸ¸ë §¨
Ġíķ© ëĭĪê¹Į
ĠëĬĲ ëĭĪ
iv al
ĠêµĲì§ģ ìĽĲ
ĠìĦ¸ ìļ©
Ġì½Ķ ìĹĳìĬ¤
ĠíĻį ìĿµ
ĠëłĪìĿ´ ì²¼
Ġê³ł ë¥¼
ĠìĻ¸ ìļ°
Ġæ º
Ġë°ĺëŀĢ êµ°
Ð ²
ĠêµŃë¯¼ íķĻêµĲ
Ġë¬´ìĥģ ê¸īìĭĿ
Ġëª¨ ë°©
Ġëĭ¹ ë¡ł
Ġì´Ŀ íĨµ
ëħĦì ¸µ
ĠÎ ¼
ìĹ¬ ìłķ
Ġì²ĺ íķ´
ĠìķĮëłīìĤ° ëĵľ
Ġd ou
Ġb t
Ġy um
Ġë¶Ħì ľł
Ġëĸł ëĦĺ
íĺģ ëªħ
Ġê²½ ëŁī
Ġê³µ ë¬´
Ġë¸Įë¦¿ ì§Ģ
Ġê¸Ī ìĤ°
ĠêµĲíĸ¥ ê³¡
Ġë¡ľë§¨ íĭ±
Ġë§Ī ìĿĺ
ë²Ħ ëł¸
Ġíı´ ëįĶ
Ġëĵ¤ìĸ´ìĺ¨ ëĭ¤
ĠìĹĲ ìĦ¼ìĬ¤
Ġê¹ľ ë¹¡
Ġë²Ħì§Ģ ëĭĪìķĦ
Ġìłķ ëĮĢ
Ġë²ķ ê´Ģ
Ġr om
Ġë²ł ê°ľ
ĠìķĦìĦ¸ ìķĪ
ĠìķĮ ëª¸
ĠìĻķ ëĶ°
Ġê²ĮìŀĦ ê¸°
ĠìľĮ ìĬ¨
ĠìľłëĭĪ ì½ĺ
° ¤
Ġë³ĳ ìĺģ
ĠìĦł ìĥģ
ĠìķĦë ¸Į
Ġìĭ¬ ë¶Ģ
ĠëŁ ¼ë
ĳĲ ê·¼
ĠìĤ¬ìļ° ë£¨ìĬ¤
ĠìĹ° íļĮ
Ġíı¬ íĻĶ
Ġì¼ĢëĦ¤ ëĶĶ
ëª¨ ëĭĿ
ĠìĤ¬ íĥĦ
Ġìĭľ ëª¬
ìĪ į
ĠìķĦì¹´ ìĿ´
ĠìĹ°ê¸Ī ìĪłìĤ¬
ĠíķĦë Ŀ¼
Ġë¸ĶëĿ¼ëĶĶ ë¯¸ë¥´
ĠìĬ¤ë§¤ ìĭľ
Ġìķ¼ë §Į
ë³¶ ìĿĮ
ëĤ´ ëł¤
Ġê·ľ ìĬĪ
ìķĻ ìĬ¤
Ġle vel
Ġf ull
Ġr c
ëĲ ľ
ì²´ ìĸ´
ĠíĮ¨ ëĶ©
ĠìĭĿ ë¹µ
ĠáĦ Ĥ
ìĬ¤íĬ¸ ë¦¼
ëį° ë¥´
Ġë¯¸ ì¦ĪíĤ¤
Ġë¶ĢëĮĢ ìĽĲ
ëŀĳ ìĿ´
Ġê·Ģ ìĪľ
ìĭł ìłĢ
Ġì´Ŀ ìķ¡
Ġì¦Ŀ ìĽĲ
ĠìĺģìĹħ ìĭľê°Ħ
ĠíĥĦë §ī
ĠëıĦìļ° ë¯¸
ê¹ Ĭ
ell a
Ļ ķ
ĠíĹĪ ë²ħì§Ģ
Ġëĭ¬ìķĦë Ĥ¬
êµĲ ìĤ¬
ë¡ľ ëĭĪ
Ġê¸Ī ìĥī
ĠìĹ° ë§ī
Ġì§Ī íĴį
Ġëľ ¸
ĠìĪĺ ë£Į
Ġo otd
Ġê·¹ ì°¬
ĠìĬĪíį¼ ìĬ¤íĥĢ
ë§ µ
Ġêµ¿ ëª¨ëĭĿ
Ã Ń
Ġíķ´ ëĤ´
Ġê±´ ëĦ¨
ĠìķĮëł¤ ì¤Ģëĭ¤
ĠìķŀìĦ¸ ìĽĮ
ĠìłĦíķ´ ì§Ħëĭ¤
ë§Ī ë£¨
ĠëĮĢíĳľ ìŀĳ
Ġíĥķ ìĪĺ
Ġê°Ĳ ìłĦ
Ġíľł ì²´ìĸ´
ĠëĤ¨ê²½ íķĦ
ĠìĿ´ëŀĺ ìĦľ
Ġê°ģ ì§Ī
Ġp i
ĠìĨĮ ëħ¸
Ġíİĺë¥´ ëĤľ
ĠìĦľ ë¶ĢíĦ°
Ġëĥ Ħë¹Ħ
ĠìĪ Ł
ĠëĦ¤ ìĿ´íĬ¸
ĠìĻ ĦìĪĺ
ĠìĤ¬ ëĭ¤
Ġë¶ĪëŁ¬ ìĦľ
ĠìŀĦëĮĢ ë£Į
Ġìķķ ìĬ¹
áħ ²
Ġè ¦
Ġë¹ĦìŀĲ ê¸Ī
ĠëłĪ ìĬ¨
Ġì¤ĳ íĽĦ
ĠìĦ¸ ìĦ¸
ĠíĶ¼ìĹĲ ë¥´
Ġë°© ìĪĺ
Ġk y
Ħì ¹ĺ
Ġìī °
ĠìĪĻ ìĦ±
Ġê²ĢìĤ¬ ìŀ¥
å· ŀ
Ġê³µ ìĨĲ
ĠëĪĦêµ° ì§Ģ
Ġíĵ¨ ë¦¬
Ġì¶Ķ ìĽĶ
Ġì§Ģ ì¹ĺ
Ġë¸Į ëŁ°ì¹ĺ
Ġìŀĳ ë³Ħ
ĠíĻ©íĥľ ìŀĲ
ëĭĪ ì¼ĢìĿ´ìħĺ
Ġìŀĳ ë¬¼
ĠìĪĺëıĦ ìĽĲ
ĠíĮĿ ì½ĺ
Ġëīĺ ìķĻìĬ¤
Ã ¶
Ġc le
Ġë ĩ¨
ĠíĶĮëŀľ íĬ¸
ĠíĽĦ íķľ
Ġì»¤ë®¤ ëĭĪì¼ĢìĿ´ìħĺ
ĠìĿĳê¸ī ìĭ¤
ì¹ µ
Ġëį°ëł¤ ìĺ¤
äº º
Ġë°± ìĪĺ
Ġè ²
ĠìĦľ ì»¤ìĬ¤
Ġê°Ħì §ģ
Ġë¶ĢìĿĺ ìŀ¥
ĠíŀĪ ì¹´ë¦¬
Ġë¯¸ëĭĪ ìĸ¸
ĠëĲĺëıĮ ë¦¬
ĠíħĶëłĪ íı¬íĬ¸
Ġj i
Ġg g
ìľł ë¦¬
Ġì²Ń ì·¨
ĠíĨł ì¢ħ
ĠìĦ¸ìĿ´ ë¶Ģ
Ġì¡° íĺĦ
ĠìķĶ ìļ¸
Ġì¶© ëıĻ
ì¿ł ë²Ħ
ĠìĭĿ ìļ©
ĠíĶĦë¡ł íĬ¸
Ġì£¼ ìĭ¬
ëĭ¤ ë¥´
ëħ Ħë
Ġì²ĺ íĸĪ
Ġì¢ħ ë¶ģ
ĠìĽĲ ìłĲ
Ġë¶Ģ ìĭĿ
ĠìķĪ ëĮĢ
ìĺģ ìĪĺ
ĠìĹĲë²Ħë ŀľëĵľ
ì¹´ ë¯¸
Ġê³ł íĿ¥
Ġíĺķ ë²ķ
Ġê´ĳ ìķĪ
íĺ Ħì²ł
Ġê³ł ê°ķ
Ġíĺ¸ë ¬´
Ġìĺ¤ë¡ľ ëĿ¼
Ġê³¡ ë¬¼
Ġì¤Ħìĸ´ëĵł ëĭ¤
Ġê³łëĵ± ìĸ´
Ġì¹´ ë¬´
Ġang el
ĠìĹ° ëĤ¨ëıĻ
Ġk ill
ĠëĭĽ íı°
ĠëĲ ©
ĠíĻĺ ê¸ī
ĠíĨµ ìĹŃ
ë¦¬ ìĹĲ
om b
n ing
Ġìĸ´ ë²ķ
ĠìĿ¸ê±´ ë¹Ħ
ĠíĶ¼ ìĸ´
Ġì²Ń ìĸĳ
man ia
ĠìºĲìĦľ ë¦°
Ġëª¨ ëħĢ
ĠëĳĲê·¼ë ĳĲê·¼
Ġ6 0
Ġíķ´ìĸĳ ìĪĺìĤ°ë¶Ģ
ĠíĮ¨ ê¶Į
ĠíĹĮ ìłķ
ĠëĦ¥ ìĦľìĬ¤
Ī ĦìĬ¤
ĠëĤĺ ëłĪìĿ´ìħĺ
ĠìłĢ ìĪĺ
ĠíĸĪ ìĸ´ëıĦ
Ġë¹Ħë °ĶëŀĮ
ĠìĨ¡ ë³ĳ
Ġê³ł ë¦´ëĿ¼
ĠëĤ´ëł¤ ìĻĶ
ĠìĿ´ íļ¨
Ġå ´
ĠëıĮíĮĮ êµ¬
łĪ ìĿ´ëĵľ
Ġêµ¬ ìŀĲ
Ġìŀ¬ íĮ¬
Ġìµľ ìķł
Ġì¾Į ìłģ
Ġê°Ģ ìķ¼
íĽ Ħì
Ġíį¼ë łĪìĿ´ëĵľ
Ġå ¿
ĠíĦ° íĬ¸
ĠìĹŃ ë¶Ģì¡±
Ġr s
Ġê¹Ģì§Ģ ìĦł
ĠìļĶë¥´ ëĭ¨
Ġë¶Ħì ¶ľ
ĠìĿµìĬ¤ íĶĦëłĪìĬ¤
ë£¨ ìħĺ
Ġì²¨ ë¶Ģ
Ġìĭ ¯
ĠìĨĮ ëªħ
ĠíĨµ íıĲ
ĠëĮĢíķľ ìłľêµŃ
ĠìĿ´ ë©´
am a
Ġê°Ģ ìĨĶ
ĠìĬ¤ ë©Ķ
Ġë°ĺ ìª½
Ġìķķ êµ¬
Ġeu ro
Ġêµ° íı¬
Ġc afe
Ġë¶Ī íıī
Ġìłķì²´ ë¶Īëªħ
Ġì¼Ģë¦¬ ê±´
ë´Ĳ ëıĦ
Ġë©´ ëıĦ
Ġë¬´ ì£¼
Ġì´Ī ìķĪ
ĠíĽĦì ķĪ
ĠìĤ´ ë¦°
Ġë°Ģ ëŀĢ
ê±° ìĬ¤
Ġ~ âĸ¶
Ġb oo
Ġð ®
Ġhtm l
ĠìĦ± ëıĦ
Ð ´
Ġc ra
ĠìĺĪ ë£¨ìĤ´ëłĺ
Ġì²Ń ëıĻ
ĠìķłíĭĢ ëŀľ
Ġì¡° ìłľ
Ġìĺ¬ ìĿ¸
ĠìĦ¸ë °Ķ
Ġì§ķ íģ¬ìĬ¤
Ġìŀī íģ¬
Ġíĸ¥ íķľëĭ¤
Ġê¸° ë³´
Ġìŀł ìŀĲ
ĠëģĬ ê²¼
Ġl and
Ġíį¼ë ¸Ķ
ì´Ŀ ìķ¡
Ġìĭľê°Ģ ì´Ŀìķ¡
ë§¤ ëıĦ
Ġíķľ ëª«
ĠëıĦ ë¯¸ëĭĪ
Ġìĭľíĸī ëł¹
Ġíķĺ íĥĢ
Ġê²½ìĺģ ì§Ħ
ĠíĤ¤ ìļ¸
Ġë°°ê³ł íĮĮ
Ġìŀ¥ ìĭľ
Ġë¹Ħë §Į
Ġìĺģ ì§Ħ
ĩ ½
Ġìµľ ìĪĺ
Ġê°Ģê¹Į ìĽł
Ġgam ing
ĠìĤ¬ì²ľ ìĻķ
ëĳĲ ìĤ¬
Ġë³´ìľł ìŀĲ
Ġì¹ĺ ë£¨
Ġë³´ì¦Ŀ ê¸Ī
ĠëĨĢ ìĿ´íĦ°
Ġå Ŀ
Ġëģ¼ ìĸ´ëĵ¤
Ġíģ´ ë¦½
ìļ ĺ
ĠìĪĺ íĳľ
ĠëĿ¼ ìŀĲ
ë°Ķ ê²Ĳ
Ġëª»íķľëĭ¤ ëĬĶ
Ġì¢ħ ìŀĲ
ê¸° ë¦Ħ
ĠíĮĮ íĹ¤
ĠìĹ° ë¬´
Ġë§¤ ì§Ģ
Ġìĭ¤íĹĺ ìĭ¤
Ġë´Ĳ ëĿ¼
ĠìĹ¬ ëĬĲ
Ġë§ŀ ì·Ħ
ĠìĦł ìłĲ
Ä ģ
id s
ìłķ ë¦¬
ìĹĲ ìĿ´íĦ°
ĠíĹĪ ê³µ
Ġìĭľ ìķł
Ġì§Ħ íĺķ
ĠíĻį ìĦĿ
Ġë²Įìĸ´ ì§Ħëĭ¤
Ġë°Ģ ëĿ¼ëħ¸
Ġíķĺ ì½Ķ
ĠìķĶ ìĬ¤
ĠëĮĢ ìŀł
Ġì£¼ ìŀĦ
Ġvp n
Ġìŀł ê¸Ī
Ġë¹Ħ ê´Ģ
ĠìĿ´ ëħ¸ìļ°
Ġp ack
ëĤ´ ê¸°
Ġê·¸ë¦¬ ëĵľ
Ġê¶ģ ì§Ģ
es h
Ġë°Ģ ë¦°
ĠìķĮëłĪ ë¥´ê¸°
Ġì«ĵ ê¸°
Ġêµ° ë¦¼
Ġíķľ ëĤ¨
ĠìĨĮ ëŁī
Ġë°ĺ íķŃ
Ġì§ķ ìĪĺ
Ġê²½ë³µ ê¶ģ
Ġì§Ħ ëĭ¤ê³ł
Ġìĸµ ìķķ
Ġê¾ ¹
Ġm or
Ġë£¨ íĤ¤
ĠìĹĲìĬ¤ íĮĮ
Ġë°ķëªħ ìĪĺ
Ġìģ ĺ
Ġì¹ĺ ìĽĮ
Ġë´ ħ
ĠíŀĪëį°ìļĶ ìĭľ
ë© ĭ
ëłģ ìĿ´
Ġss r
Ġë°ľëłĮ íĥĢìĿ¸
íĥľ íĺĦ
ĠìłĢê¸° ìķķ
ë§ ¡
ì¹´ ìĬ¤
ĠëĿ¼ ì§Ģ
Ġê¸Ī ìĦ¸
Ġíķ´ ë°ľ
Ġíĺ¸ ê·¸
íĺĦì ¤Ģ
Ġì£¼ ìĥģ
Ġê±´ ëĭ¤
å ±±
Ġìļ© ë§¹
²Ħ ë¦°
Ġex per
Ġë¬µ ì§ģ
ĠëĤ´ìĦ¸ ìĽł
ĠìĤ´ ë¦´
Ġx p
Ġì¶Ķê²© ìłĦ
ou ld
ĠìĬ¤ ë°Ķë£¨
Ġr pm
ë ķ
Ġë¡ľ ì½Ķ
Ġë³Ģ ì¢ħ
Ġë¦¬ íĶĮ
Ġëª¨íĦ° ìĬ¤
Ġê¸°ëĭ¤ëł¤ ìķ¼
ĠìĿ¼ ìĳ¤
ĠíĮĮ ê¸°
Ġìľ¤ íļĮ
ĠíĨµíıĲ íķ©
Ġìĸ´ ìĹħ
Ġëħ¸ë Łī
ĠëĤĺìĺ¨ëĭ¤ ëĬĶ
ĠíĥĲ ëĿ¼
ĠëĬĲëĤĢ ëĭ¤
ĠíĽĦë°ĺ ìłĦ
ĠìĬµ ëĭĪëĭ¹
Ġì°¸ê³ł ìĿ¸
i us
Ġc am
Ġå¤ ª
ëħĦ ëĭ¨
ìŀĸ ìķĦ
ĠëĤ¨ìĸĳ ì£¼
Ġê°Ģ ìĬµê¸°
Ġíĸīë°© ë¶Īëªħ
Ġê° ł
Ġëªħ ìĿ¸
Ġê´ĳ êµĲ
Ġìĺ¤ ìĤ¬
Ġë¬´ìĤ¬ ìĭľ
ĠëĮĢëªħ ìĤ¬
ĠìķĪ ë°©
Ġë©´ìĹŃ ëł¥
Ġgre en
Ġìŀĺ ëł¤
Ġìµľ ë¯¼
Ġð §
ìłľ ë¥´
ĠëıĻ ê°ĳ
Ġë²łìĿ´ ì»¨
ëłī ìĬ¤
Ġë¹Ħ ê¼¬
Ġë²Į ìĿ¸ëĭ¤
Ġìĵ°ëŁ¬ ì¡Į
ĠëıĦ ë§¤
ĠìĻ ĦìĹ°
ĠëıĦ ëıĦ
ĠìĨĶ ë£¨ìħĺ
Ġc ur
Ġì¹´ì¦Ī ìķ¼
ë¯¸ ìĤ¬
ĠìĨĲ ìŀ¡
ĠêµĲ ëªħ
od y
ìŀ¥ ì¹ĺ
ĠìłĪ ê·ľ
Ġë³´ìĥģ ê¸Ī
ĠëĿ¼ íĶĦ
ĠíĹĪ êµ¬
Ġìª½ ì§Ģ
ìĪ¨ ìĹĲ
Ġëĭ¨ ìĪ¨ìĹĲ
Ġíĸī ìĦł
Ġì¢ħ ìĭł
Ġr u
ĠëĬĶëĭ¤ ë©°
Ġì¼Ģ ë¡ľ
Ġë²Ĺ ìĸ´ëĤł
Ġìĺµ íĭ°
Ġì²ŃìĨĮ ê¸°
Ġìħ ī
Ġíģ´ëłĪ ìĸ´
âĸ¡ âĸ¡
ĠìķĪ ê¸°
Ġìŀ¬ ìŀĳ
Ġë°ĺ íķĺ
it t
ì§Ģ ë¦¬
ì»¨ ëĵľ
ĠíĬľ ëĭĿ
Ġê±´ ìŀ¬
Ġìĭľìķł íĭĢ
Ķ °
Ġh um
ĠìĹ´ ê´ĳ
Ġëª¨ ëĿ¼
ĠìĬ¹íķ© ì°¨
Ġë°Ģ ëŁ¬
Ġë¶ĢìĦľ ì§Ģ
z y
ĠìĦ¸ ì»¨ëĵľ
Ġíıī ë©´
ĠìĤ¬ê³¼ë ¬¸
Ġì§Ģ ëł¹
Ġì¹ µ
ĠìķĦë ª¨
Ġê±¸ ìŀĳ
Ġë°± ìĥī
êµĲ ëıĦ
ĠíĨµ íķĻ
Ġìľ¨ ë¦¬
Ġë¶Ģ ëł¤
íĸī ìĤ¬
ìĵ ´
ĠíĻ ī
op h
ë¦¼ë ıĻ
Ġìŀ ¿
ap e
Ġìĭ¬ë¦¬ ìłĦ
ĠìĿ¼ ìłĪ
Ġìĺ¤ íį¼ëłĪ
ĠíļĮ ìĺ¤ë¦¬
Ġìķħ ê³¡
Ġl ook
Ġìĸĳ ëıĻ
Ġíĸī íķ´
Ġë³´ìĺĢ ìľ¼ëĤĺ
ĠíĶ½ ìĹħ
Ġë°ľ ê´ĳ
Ġì²ľë¬¸ íķĻ
c om
Ġê±¸ ìĬ¤
ĠìĽĮëĤĻ ìĹĲ
Ġë°° ë¦¬ìĸ´
ĠíĥĪ ìĺ¥
Ġë³ ¼ë¦¬
Ġìļ° ìĹ¬
Ġml b
ĠìĺģíĻĶ ë°°ìļ°
Ġë¬» íŀĪ
ë²łë¥´ íĨł
Ġìłķ ê°Ģ
ĠíĶ¼ë ¦¬
ĳ ĺê¸°
Ġê²½ ìĤ°
Ġr f
ĠìĦ±ìŀ¥ ìĦ¸
ĠìĿ´ ëĭ¤
Ġê°Ģê²© ëĮĢ
Ġìĸ´ ì²ĺ
ê¸Ī ë¦¬
Ġê³µ ë³ĳ
Ġd er
ĠëĮĢ ë¦¼
Ġì§ĢëĤĺ ê°Ħ
ìŀ¥ ëĤľ
ĠìĦľ ê°ķ
Ġë§Į íļĮ
... )
Ġìĭľ ë¯¸
Ġë°Ķ ëĭĪ
Ġë³¸ êµŃ
Ġìĸ¼ íķı
j o
ĠìĹ° ìĿĺ
ì§Ħì ĽĲ
ĠëĮĢ ìĦľ
ì§ ĦìĪĺ
ì± Ī
Ġìĺ¤ ë¯¸
Ġìĥģ ë³ĳ
Ġêµ¬ ìĪĺ
Ġíķ© ìĭľëĭ¤
Ġë§Ŀ íķľ
ê²Į íĭ°
Ġìŀ¬ ë¦¼
Ġë¯¸ìķ¼ ìŀĲíĤ¤
ĠìłķíĻķ ëıĦ
Ġê²½íĺ¸ ìĽĲ
Ġëį°ìĿ´ ë¹ĦìĬ¤
Ġë¬´ìŀĳ ìłķ
Ġìĭ¤ ë°Ķ
ĠìĿ´ëıĻ íķĺ
ĠíĭĪ ìĥĪ
Ġëĵľ ìħĶ
Ġì½Ķ ìĿ´
ĠìłĦìħĭ ê°Ĵ
ĠíĴį ë¯¸
ĠìĤ¼ ì²Ļ
íĬ¹ ë³Ħ
Ġjc ube
ë¡ľ ìĿ´ëĵľ
Ġë¹ħíĨł ë¥´
ª °
Ġíħĥ ë°Ń
Ġìĭľ íĻ©
Ġê±° ëĳ¬
Ġëı Ĺ
Ġwh y
ĠìĦľ ëıħ
Ġì½Ķ ìĬ¤íĥĢ
Ġì¤ĳ ëĤ¨
ĠìĦ¸ ì¡°
at es
ë¹ ĦëĮĢ
Ġg ra
Ġê´´ ë¦¬
f or
Ġìļ° ëĮĢ
Ġé »
Ġê¸°ìķķ ê³¨
ëĭĪ ìķĪ
ĠìĺĢ ìĿĮ
Ġë¸Ķë¡ľ ê±°
ĠìĦ¸ ìĿ¸
ĠìĦ¤ ìĥģê°Ģ
Ġv ide
Ġì°½ ìĭľ
ĠìĥĿê²¨ ëĤ¬
Ġë¹ł ìł¸ìĦľ
°Ķ ëĭ¤
Ġì¡°ì§Ģ ìķĦ
ĠìĺģêµŃ ìĿ¸
ĠëıĻë§¹ êµŃ
Ġíķľ ìĭ¬
Ġë¶Ī ë³ķ
Ġgp u
Ġ********* ********
íĬ¹ë³Ħ ìŀĲì¹ĺ
± ìĬ¤
ĠìĨĮ ë¹ĦìĹĲ
íĭ° ì½ĺ
ë°Ķ ìĭľ
Ġë²¨ ëĿ¼
ĠíĮĮì¶ľ ìĨĮ
Ġëĭ¬ëĿ¼ ìĦľ
ĠíĥĦë ĳĲ
Ġë©´ ìĿĢ
ĠìŀĲë¦¿ ìĪĺ
Ġê½ĥìĥĺ ì¶ĶìľĦ
íĬ¹ë³ĦìŀĲì¹ĺ ëıĦ
Ġë°ķ íŀĮ
ĠìłĦì ĽĶ
ĠìĦ¤ìĥģê°Ģ ìĥģ
ë§Ī ì¹¨
Ġê¸° ê³µ
ĠëłĪ ê¸°
Ġìłľì£¼ íĬ¹ë³ĦìŀĲì¹ĺëıĦ
ĠëĿ¼ ìĺ¤ìĬ¤
ĠìŀĦ ìĦ±
ĠëĤ´ëł¤ ìĻĢ
Ġíĺ¸ë ħ¸
ĠëĳĲëł¤ ìĽĮíķĺ
Ġc ry
ĠëķĮ ë§Īì¹¨
Ġë°ľ ì°¨ê¸°
Ġê¹Ģ ì²ł
Ġë°Ľ ì¹¨
Ġìĺ¨ ìĭ¤
Ġë¬´íļ¨ íĻĶ
Ġìŀ¥ íĦ°
íĨł ìĭľ
ĠíĮ¨ íĸĪ
Ġj in
Ġê¸° ë§Į
Ġëĭ¤ ëĵ¬
íĭ ¸ëŁ¬ìĬ¤
Ġì¹ľ íĻĶ
ĠíķĦë ¡ľ
ĠìĪĺ ìĹŃ
ĠíĥĢì¹´ ìĭľ
Ġmov ie
ĠìĭľíĤ¨ ëĭ¤ëĬĶ
ĠìĨĮìļ© ëıĮìĿ´
ĠëĮĢë¦¬ ìłĲ
Ġë§ĪìĹĲ ëĭ¤
Ġëį® ë°¥
Ġì¶ľìŀħ ë¬¸
m i
ĠíĪ¬ ìĹ¬
Ġíķ´ ëĤ¨
ĠíĨł ê°Ģ
ĠìĿ´ ë´ī
ĠëĦ¤ ì½Ķ
ĠìĻ ģ
ë°° ì¶Ķ
Ġê³µë°© ìłĦ
ĠëĤ¨ë¶ģ íķľ
ĠìĦł íĺķ
ĠìĻĢ ìĿ´ëĵľ
Ġíľ´ê°Ģ ì²ł
ĠíĺĦìĪĺ ë§ī
ìĤ¬ ìĹħ
Ġo l
Ġê°ĪìķĦ ìŀħ
Ġe b
Ġëıħ ëł¤
Ġë¶ģ ìľłëŁ½
Ġc all
ĠëĤ´ëł¤ ì§Ģ
Ġë©ĺ íĨł
ĠíĦ° ë¬´ëĭĪ
ĠìĨĮ ìķ¡
ĠìĦ¸ ëłĪ
Ġ? )
ĠëĮ ľ
Ġintern ational
w n
Ġì¹ĺ ë¤
Ġê¸° ìĻĢ
ìĿ¼ ì¹ĺ
ë§Ī ì¹ĺ
ĠìĪľ íķŃ
Ġê¸° ëĵĿ
ĠíĨµ ì§Ģ
Ġì¹ĺ ëĭ«
Ġìĺ¤ ìĭľ
ĠÎ ±
¥ µ
Ġpom eran
Ġë¶Ī ë³µ
Ġì¤Ģ íķĺ
ë½ Ģ
ĠìĤ´ìĿ¸ë §Ī
Ġìĺ¤ ë¹Ħ
Ġì¦ ĺ
Ġì²łê°ĳ íĥĦ
ĠìĦľ ëĳĲë¥´
Ġp f
ĠìĬ¤ì¼Ģ ì¹ĺ
Ġìĭľ ë©ĺíĬ¸
Ġë¬¸ ê³¼
Ġì¶Ķ ìĭł
ĠìĦ¤ ìłĦ
Ġg ps
Ġíļ¨ ëĬ¥
Ġë§Ĳ ë¦°
ĠìĿ´ ê°Ģ
Ġì´Ī ìĿĮ
k er
Ġìŀ¥ ëŀĺ
Ġíľĺ ëĳĺëŁ¬
ĠëĵĢ íģ¬
íı´ íĬ¸
ëĵľë¦¬ íŀĪ
Ġìĥģ ê²½
ĠíĮ© ìħĺ
Ġê°Ģ íĨł
Ġë°© íĺ¸
Ġê³ł ë¥¸
Ġìķħ ëł¹
êµ¬ ìĦĿ
Ġë°© íĥĦ
ĠëıĻë°ĺ ìŀĲ
ì¹ ¼ë¦¬
Ġìľłìĭľ ë¯¼
Ġëį° ì¹´
Ġìŀħ ìĦ±
Ġê°Ģë¸Įë¦¬ ìĹĺ
Ķ ©
ìŀĳ ë¬¼
Ġf n
ĠíĮĲ ìĦľ
Ġìĸ´ì²ĺ êµ¬ëĭĪ
ĠìĽħ ì§Ħ
Ġpomeran ian
Ġë¡¯ëį° ë§ĪíĬ¸
ĠêµĲìĦŃ ëĭ¨ì²´
ê³Ħ ë¦¬
ì¸ł ì¹´
Ġìĥī ì±Ħ
ĠìĿ´ ìĿĺ
Ġëĭ¤ ëŁī
ĠìĤ¬ìĿ´ ëĭ¤
Ġë¶Ī ê¸°
Ġëĵľë¦¬ ë¸Ķ
Ġíķĺ ì²Ń
ĠìĿ´ë¬¸ ìłķ
Ġìµľ íĺķ
ĠëıĻ íĴį
Ġë²ł ëĭĪ
Ġë¸Ķë£¨ ìĬ¤
ìĥģ ìłķ
Ġë°Ķë¡ľ ìŀ¡
Ġëħ¸ì¡° ìĽĲ
Ĥ µ
Ġìĸĳ ìĬ¹
Ġì²Ń íķĺ
ĠìĤ¬ìĹħ ìŀ¥
Ġìĺ¤ë¦¬ ì§Ħ
ĠìĨĮë¹ĦìĹĲ íĬ¸
ĠìĿ´ ìķĪ
ĠíķĦ ê¸°
Ġê²½ë¶Ģ ìĦł
ìķĦë ĵľ
Ġê°Ħë §Į
ĠìĹĲ ë°Ģë¦¬
Ġb en
Ġç ľ
ĠëĤ´ëł¤ ìĦľ
Ġíĥ ¬
Ġë°ľ ìĹ´
ĠìĦ¤ ê³
ĠìĦł ê³¡
ì§Ħ ìļ°
Ġì²ľ ê³µ
ĠìĻ¸ ì³¤
Ġë©´ ë°Ģ
ìŀ¥ íĮĲ
ê³¡ ìłĪ
Ġìķł ë¦¬
Ġq ue
Ġìľ¼ëĿ¼ë ĬĶ
Ġê³ł ê³µ
Ġìŀ¬ ìĿ¼
Ġíı¬ ìĽĮëĵľ
Ġìļ°ìĹ¬ ê³¡ìłĪ
Ġíİ¼ì³Ĳ ì¡Į
ĠìĬ¤íĬ¸ë¦¬ ë°į
Ġê¸°íĥĢ ë¦¬ìĬ¤íĬ¸
Ġ?? ?
Ġì£¼ìĸ´ ì§Ħëĭ¤
Ġë°ľ ìŀĲ
ìĭ¬ ìŀ¥
Ġë¨¸ë¬¼ë Ł¬
ĠìĦľ ìĤ¬
Ġìĸĳ íĤ¤ìĬ¤
ĠëĶĶíİľ ìĬ¤
Ġëª¨ ëŀĢ
Ġë¶Ģ ê´Ģ
íĥĦë ¶Ī
ĠìĥĿ ëª°
ĠíıŃìĬ¤ ë°Ķê²Ĳ
Ġë³µ ë¶Ģ
Ġë§ĿìĽĲ ê²½
Ġë²Ī ê±°
ĠëĬĶêµ° ìļĶ
ë§¤ ê¸°
ëįĺ íĬ¸
ĠìĿ´ ì²ľ
ĠìĿ´ìļ© íķ´
ĭ Ń
m in
Ġë¬´ ì¹¨
Ġëŀĺ ìī¬
Ġë°Ķê¿Ķ ìķ¼
ĠëĮĢ ìļ´
ĠíĶĦë¦¬ ëĵľë¦¬íŀĪ
Ġêµ° ì¤ĳ
Ġíķĺìĸ Ĺ
Ġë¦´ ë¦¬ìĬ¤
ĠëłĪ ê³ł
Ġìŀħ íŀĮ
Ġëª¨ ê³µ
Ġêµ° ê¸°
ĠíĻĶ ëĳĲ
Ġê°ķ ë¬¼
ëĤ´ ìħĶëĦĲ
ĠëĤĻ ìĿ¸
Ġìłľ ëķĮ
ĠìĿ¸íĦ° ëĤ´ìħĶëĦĲ
Ġë³´ê±´ ìĨĮ
ĠëĤĺ ìķĦì§Ģ
el y
Ġaf ter
ĠíĹ·ê°Ī ë¦¬
Ġê¼¬ ë°ķ
íĬ¸ë ¥¨
Ġì¤Ħì ĺĢ
Ġêµ¬ ë¹Ħ
Ġìķ½ ê´Ģ
Ġêµ ī
Ġì§Ħì ľĦ
ĠìķĻ ë¦¬
Ġsp ace
Ġë°Ķ ê·¸
Ġì¢ħ ìĤ¬ìŀĲ
ĠíİĺìĿ´ íį¼
Ġì§ķ ì§ķ
ĠìĨĮ íĶ¼ìķĦ
Ġë´ī íĻĶ
ĠíĺĦìĥģ ê¸Ī
Ġìłķ ëħĦ
ëª» ë¯¸
Ġì§Ģ ëª»ë¯¸
ë§¹ ìĿ´
Ġê°ģ ìĥī
ë¥ ¼ë
Ġì¡°ìĦł ìĿ¸
ª¨ íĨł
ĠëĤľ íıŃ
Ġìĸĳ ìłķ
ĠìķĦìĪĺëĿ¼ ìŀ¥
Ġë¸Įë¤¼ ìħĢ
ì¦Ŀ ê¸°
Ġan im
ìĤ¬ ë²½
ĠëĦĺ ìĤ¬ë²½
Ġê°ĪìķĦ íĥĢ
Ġë§Ī ë¡±
ìĪĺ ìĽĲ
ĠíĶ¼ì¹´ ì¸Ħ
Ġê³ł ìĸ´
ĠëĤ´ë¦¬ ì
ĠíŀĪëĤĺ íĥĢ
ëļ «
Ġë³´ ìĿ¼ëŁ¬
ĠëıĻ ìĿ´
Ġéĩ İ
ĠìĥĪê²¨ ì§Ħ
ĠìĿ´ íĺķ
ìģ ł
¡ľ ê·¸
Ġl ol
Ġëĭ¨ íĺ¸ë°ķ
Ġê»į ëį°ê¸°
Ġë¶Ģ íĻĶ
Ġë¯¸ëĿ¼ íģ´
Ġìŀł ê²¨
ĠìłĢ ìĥģ
ĠìĿ¼ íļĮ
Ġì»¤ ë¹Ħ
Ġìķ¼ë Ĥĺ
Ġìĭ¤ ë£¨
´ Ī
ĠëıĦ ê²Ģ
Ġìĸĳ ë°°ì¶Ķ
Ġì²ĺ ìłĪ
ìĬ¤ íĨł
ĠìĭłëıĻ ë¹Ī
Ġìŀ¥ìłľ ìĬ¤
Ġíķĺ ë¥´
Ġsc p
Ġëį «
Ġê·¸ë ĨĪ
Ġì¹ĺ ì¤ĳ
Ġë©Ķ ëĿ¼
ĠëģĿ ëĥĪ
Ġìĭľ ì»¤
ĠíĥĢ ëĭ¤
Ġíķ´ ìĿ¸
Ġê± ¸ëŁ¬
Ġêµ°ë¶Ģ ëĮĢ
Ġìĭľ ìĬ¤íĦ°
Ġìķħ ëĭ¨
Ġë¯¸ë Ŀ¼ìĿ´
ĠìĦ¸ ê°Ħ
ĠìķĦì ĨĮ
¬¸ íĬ¸
ĠìĦ±ê³µ íļĮ
ĠÑ ģ
ĠìŀĲ ìĨĲ
Ġë°Ķ íħĢ
Ġìĭ¬ ìĹ°
ĠíıŃ ìĸ¸
Ġë§ģ ì»¨
ĠìĽĲ ìĥģ
Ġê¸´ ë°ķ
v en
Ġê¸° ë¦°
Ġë°Ķ ë°Ķ
ĠëĤĻ íıŃ
ĠìĨ¡ ì§Ģ
Ġë¯¸ìĤ¬ íĤ¤
Ġë£¨ íĮ¡
Į Ķ
Ġìłĳ íķľ
ìłĦì ĭľ
ĠìķĦë Ĥł
Ġëĭ¤ë©´ìĦľ ìļĶ
ĠëĶĶ ëłīíĦ°
ĠëĦĵ íŀĪ
Ġëĭ· ì»´
ĠìĹ¬ ëł¥
ĠíĮĮ íĥĦ
ĠíĶĮëŀĺ ëĭĽ
ĠëĪĦì ¶ľ
» Ĳ
Ġë¹ħ íĦ°
Ġìľłê³µ ìŀĲ
ëĭĪ íģ´
Ġch e
ĠìŀĲìĹ° ìĬ¤ëłĪ
Ġì£¼ ìĦ±
Ġè ģ
ĠìĦ¬ ê¸°
Ġd ri
Ġë³¸ ìĦ±
ĠìĪĻ ì¢ħ
Ġìī ĺ
ì´Į ëıĻ
ê± ±
ë¹ ´
Ġë§Ľ ëĤľ
Ġse oul
Ġë¦´ ëłĪìĿ´
ĠâĻ ¡
Ġê³µ ì²Ń
ĠíĮĲ ê¶Į
Ġê±°ì£¼ ì§Ģ
Ġì¡°ìĦł ìĨĮ
Ġíĩ´ ìĽĲ
Ġíķ¨ íı¬
ĠìŀĦ ê´Ģ
ĠëĿ¼ ìĺ¨
ĠíĻ© ìĨĮ
ìĬ¤ íĨ¤
ê³µ ê²©
ĠëĤĺê°Ģ ìĤ¬íĤ¤
Ġë¬´ ìłĦ
Ġê¹Ģ ëįķ
Ġì±Ħ ìļ´
Ġì¢ħ ê°Ģ
ĠëŁ¼ë ¸Ķ
ĠìĿ¸ ìĬ¹
åŃ Ĳ
ĠìĥĪ ì½¤
Ġë°± íķ©
Ġê²½ì£¼ ìĭľ
Î ±
Ġco s
Ġíİ¼ ì¹ľ
Ġê°Ģ ëĦ¤
Ġë¦¬ ì¿ł
íıŃ ëł¥
ĠìĹĲ íĶĦ
ĠëĦ¤ ëĨĪ
Ġhe ad
ĠìĿ´ ëıĦ
Ġë§Ī ë¶Ģ
Ġêµ´ ë³µ
Ġd eath
Ġë¶Ģ ë¥ĺ
Ġìłķ ì¤ĳ
Ġì£¼ ìłĲ
ĠêµĲ ìĭł
íĭĢ ë¦¬
in stagram
Ġheal th
ĠìĹ° ë°ľ
Ġëĭ¤ ë¤Ħ
er y
Ġsn ow
Ġê¸¸ë Ł¬
Ġe ff
Ġë³Ħ ìŀ¥
Ġìĸ´ ë¬µ
r en
ĠëıĦ ìĻĶ
Ġìľł ìĭ¤
Ġì¦Ŀ ì¶ķ
ĠìłĪ ìłľ
Ġhell o
Ġt em
ĠìĪĺ ìĭľ
Ġë°ľ ê¸°
Ġì½ľ ë¦°
ĠìĿ´ë§ĺ ëķĮ
ĠìĤ¬ ë°Ķ
ĠíĻĺ ê¸°
ĠìľłëĭĪ ìĺ¨
ìĤ ¼ë
Ġê¿° ëļ«
ĠìĦłêµĲ ìĤ¬
Ĺ ħ
Ġì¡´ ìĨį
ĠìĨĮ ìĭł
ĠëĤĺ ìļ°
ĠìĿ´ë »Ĳ
ĠëĵľëłĪ ëĵľ
ĠéĿ ĳ
Ġè¥ ¿
Ġë°Ģëł¤ ëĤĺ
Ġë¬´ ë§Ī
ì¤ĳ ê°Ħ
Ġíĥľ ë¯¸
ĠëĤĺ ì§Ħ
ìĹĲ ë¯¸
ĠìĪĺ ìĻĢ
åŃ ¸
Ġì¡°ëł¥ ìŀĲ
ĠìĪĺ ìĸµ
Ġëĭ¤ ëĤĺì¹´
Ġê°Ģ ìĿ
Ġë³Ģ ê¸°
ĠëĮĢ ìļĶ
Ġìļ° ìĻķ
Ġì¤ĳ ìĤ¬
Ġì´Ī ìľł
ĠëĤĺìĺ¨ëĭ¤ ê³ł
ĠìĦ¸ìŀħ ìŀĲ
Ġì¹ĺ ë¥¸
ì½ °
u x
ĠíĶĮëłĪìĿ´ íĬ¸
Ġíİ¸ íĸ¥
ì¡° ìŀĳ
ĠìĦ £
Ġë¡ł ìĬ¤íĥĢ
Ġìĭ¤ëł¥ ìŀĲ
ĠìĤ¬ ë¶Ģ
Ġë§Ī ì²ľ
Ġìĺģ ëįķ
ĠìĬ¤íħĮ ìĿ´íĬ¸
Ġíķĺ ë¹Ħ
Ġnor th
Ġìłķ ëł¬
ĠíĥĢ ìĭľ
¼ë ¯¸
ĠíĮĮ ë²Į
Ġìŀ¥ íĴį
ĠëģĪ ì§Ī
Ġê°ĢìĨĶ ë¦°
Ġì´Ī ìĹ°
Ġë§¤ ë¦½
Ġìĭ¤ íĻ©
Ġê¶Į ìĺ¤
Ġë³´ë¦Ħ ëĭ¬
Ġê³ł ìļ´
ĠíĶĦë¡ľíĨł íĥĢìŀħ
ĠíĶĦëłĮ ì¹ĺ
Ġíıī ìĽĲ
ĠëĤĻ ìĽĲ
Ġê±´ëĦĪ ê°Ģ
Ġìľł ë°°
Ġw anna
Ġr y
ĠëĿ¼ìĿ´ íĦ°
Ġday s
ë¨ ¸ë
Ġsk ill
Ġdog stagram
Ġë½Ĳ ëĤ´
Ġê²Ģ ë¬¸
ĠìĿ´ ì§Ī
Ġìłľ ë¹Ħ
Ġê°Ģë¦¬ íĤ¨ëĭ¤
ĠìĤ¬ ë³ĳ
ĠëĦĪ êµ¬ë¦¬
ĠëģĮìĸ´ ëĵ¤ìĿ´
ĠíĮĲ ìĦ¸
Ġì¤Ģëĭ¤ ë©´
Ġíİĺ ëĭĪ
Ġsou th
Ġë²ł ê°Ģ
ĠìŀĲ íļĮ
ĠìĺģìĪĺ ì¦Ŀ
ĠìŀĲìľł ìŀĲìŀ¬
ĠëĦ Ľ
ĠìĿ¸êµ¬ ìĪĺ
ĠìĹĲ ë°Ģ
Ġíı¬ ë©ĶëĿ¼
Ġëıħë¦½ìļ´ëıĻ ê°Ģ
Ġë¦¬ íĭ°
ëĨĴ ìĿ´
Ġì°¨ íĽĦ
ĠìĬ¤ëĦ¤ ìĿ´íģ¬
Ġëĭ¤ ëĦ¤
Ġë¬´ ìĸ´
Ġë¯¸ íĮĲ
ĠëĺĲ ëŀĺ
ĠëłĪ íĶĦ
Ã Ĺ
é ĥ
ĠìĿ¼ íĮĮ
Ġê³µ ë¡ł
ĠâĹĨ "
ëħ¸ ìĬ¤ì¼Ģ
ĠìĹ¬ê²¨ ì§Ħëĭ¤
ĠìķĪ ìĤ°ìĭľ
Ġì¹´ ì¹´
Ġst art
e k
Ġê³µ ìłĦ
Ġë¬¼ ìĿĺ
ĠìĺĪ ë©ĺ
Ġìĩł íĩ´
ĠìĹ´ë³ĳ ìĭĿ
ĠëĬ¦ ì¶°
Ġëł ¸
Ġì´Ī ìĽĲ
Ġì»¤ íĬ¸
ĠëĮĢ ìī¬
Ġìĸ´ì© Ĳ
ĠëĨ¨ ëĭ¤
Ġi l
ìĦ¸ ìļ°
ĠìĦľíĥľ ì§Ģ
ĠëıĻ ìľłëŁ½
Ġë¯¼ ê²½
ĠëĳĶ ê°ĳ
Ġìļ° ê°Ģ
Ġê° Ń
Ġíķ´ íĺĳ
ĠìĤ¬ ìĺ¥
ĠíĻ© ìŀ¬
ĠìĬ¹ë¶Ģ ì¡°ìŀĳ
Ġê²Į ë¦¬
Ġëį© ëĭ¬
Ġë¯¸ ìĥĿ
ĠëĤ¨ ìŀĳ
ĠëįĶìļ± ëįĶ
Ġì¡° ê³Ħì
ĠìĦ¸ ëĭ¨
ĠìĦł ë¹Ħ
Ã ³
ĠëĦĺìĸ´ ê°Ħëĭ¤
ĠíĥķìĪĺ ìľ¡
Ġê²© ê¸°
Ġë¶ĻìĹ¬ ìĦľ
Ġëĭ¹ ì§Ħ
Ġr g
ëķĮ ë¡ľ
Ġëª¨ëĭĪíĦ° ë§ģ
Ġt g
ĠíĬ¹ ìĥī
ĠëŁ¬ ë¸Ķë¦¬
Ġë°© íĻ©
ĠëĤ´ë¦¬ì ¬Ĳ
ĠíĻĶ ìĿ´
Ġë§Į ë¥ĺ
ĠìĬ¤ ëª°
ĠìĦł ë°©
Ġêµ¬ ìķł
Ġp at
Ġ2 8
ber t
íĺ ¼ë
ĠêµĲ íı¬
Ġç ´
Ġëĵ¤ ë¦°ëĭ¤
ĠíĻĶ ìĪľ
ĠìĭĿ ìĿ´
ì§Ģ ë¬¼
ĠìĦľ ìĺģ
Ġë§Ī ëįĶ
Ġëª¨ íķĺ
Ġê°Ģì¹ĺ ê´Ģ
ĠëĮĢ ê°ģ
Ġêº¾ ìĿ´
ë°ĺ ì°¬
ĠìĿ´ìľł ìĭĿ
ĶĶ ìķĦ
Ġë°ķìĹ° ì°¨
ĠìĦł êµ¬
Ġë°Ķ íĿĲ
Ġêµ¬ ë³¸
ĠëıĻ ë°±
ł ģ
Ġìĭľ êµ¬
Ġìĭł íĥģ
ëī´ ìĸ¼
Ġê³µ ìĦĿ
Ġê¹Ģ ìĭľ
ĠëĭĪ íĤ¤
Ġke y
Ġê¼½ íŀĮëĭ¤
íĥĦìĨĮ ëħĦëĭ¨
Ġh al
Ġìĭľ ëģĦëŁ½
Ġë¬¸ ìłķ
Ġì¢ħ ìĭĿ
Ġë³´ ìĮĪ
Ġë°© íĥĦìĨĮëħĦëĭ¨
íıī ê·ł
ĠìĹĦ íıĲ
Ġìŀ¥ ìĦ¸
ì± Ħì
bo y
Ġë¬´ íĺķ
Ġë°© ë²½
ĠìĨ¡ ìĭł
ĠíĥĢ ëĤĺì¹´
Ġíģ¬ ëŀĺ
ĠìĨĮ íĮĮ
ì¦Ī ì¹´
ĠìĹĲ íķĦë
ĠìĹĲíķĦë ¡ľê·¸
Ġë©Ķ ìĬ¤
Ġë§ŀëĮĢ ê²°
ĠëıĦ ìŀĲê¸°
Ġëĭ¨ ëĭ¤
Ġìĥģ ì¶Ķ
ĠìĿĺ ê±°
ĠìķĦ ìļ¸
ë¶Ħì ¦Ŀ
Ġë¯¸ ì£¼
ìĭŃ ë¦¬
ĠíĮĮ ìĪĺ
Ġde v
£ ¸
íĭ° ìĸ´
Ġê°ĸ ì·Ħ
ë®¤ ì§ģ
Ġìĺµíĭ° ë¨¸ìĬ¤
ĠìĪĺ ë³µ
Ġë°© ëĮĢ
Ġê» Į
ĠìłĪ ë¡ľ
Ġen g
Ġmp ang
w a
Ġc ross
Ġíķ ĦìĹ°
ĠíĬ¸ ë¦¬ìĬ¤
Ġë¹Ħë ¬´
ĠíĥĳìĬ¹ ìŀĲ
ĠëıĮ ë¦°
ĠíĻį ì§Ħíĺ¸
pr ess
ë§Ī ëĭ¤
ĠíĻĺ ê°ģ
ĠìĥĿíĻľ ë¹Ħ
Ġë°Ģìĸ´ë¶Ļ ìĿ´
Ġëĭ´ ë±ĥ
Ġpr ess
ĠëĤ¨ìĦľ ìª½
ëľ¨ ë¦°ëĭ¤
ĠëĶ° ìľĪ
Ġë¡ľ ìĤ¬
Ġë°ľ ìĤ°
ĠëĿ¼ë ²¨
Ġë¦¬ íŀĪ
ĠìĬĪ íĦ°
Ġë¹Ħìĥģ ìĤ¬íĥľ
Ġìľłë¡ľ íĮĮ
Ġë¬´ íĺĳ
Ġíļ¨ ìĨĮ
Ġì¼Ģ ìĿ´ì§Ģ
ĠìķĦë¥´ ì¹´
Ġst ri
op e
Ġìłķì§Ħ ìĦĿ
ł ¹
Ġìŀĩ ëĭ¬
í ĵ
Ġíļ¨ ìŀĲ
ĠìĨĮ ëŀĢ
Ġíİ¸ë ĮĢ
ĠëıĻ ì¡±
ro l
Ġìĭľ ë²łë¦¬ìķĦ
ch i
ĠìķĦë¥´ ë©Ķ
ĠíĶĦë¦° íĦ°
ĠìķĦ íĥĢ
Ġëª© ìĦ±
ĠíĶĦë¦¬ ì¦ĺ
Ġë¬» íĺĶ
ĠíķľêµŃ ìłĦëł¥
Ġëħ¸ ìĿ´ì¦Ī
Ġps p
ĸ ¡
Ġì¶ķ ìĤ¬
Ġê·¸ëł¤ ì§Ģ
Ġëŀł ë¦¬
ìłĦì Ĭ¹
Ġë¶Ī ê³µìłķ
Ġë°ĺ íı¬
Ġíĥģ êµ¬
ĠìķĦìĿ´ ìĬ¬
Ġë³Ħ ê±°
Ġìľł íĪ¬
Ġh ouse
ĠìĨĮ ìĭ¬
Ġìķħ ìĦ¸
ëļľ ê¸°
Ġëħ¸ ê¸°
Ġì¡° ê·¸ë
Ġë¹Ħë ĳĺê¸°
íĮĮ ëĭĪ
ĠìĿ¼ë¶Ģ ë¶Ħ
Ġì»¨íĬ¸ë¡¤ ëŁ¬
Ġê´Ģ íķĺ
ĠíĶĮëłĪìĿ´ ë²Ħ
Ġê¼¼ ì§Ŀ
Ġìķŀëĭ¹ ê²¨
Ġê³ł ì¸µ
ìķ µ
ì¿ ¤
n ess
Ġê¶¤ ìłģ
Ġåľ ĭ
Ġë§¤ìĦľ ìļ´
Ġêµ¬ ìĬ¤
ĠíĶ¼ìĦľ ê°Ŀ
Ġy s
Ġì·¨ íķŃ
ĠìĻķ ì¢Į
Ġìĭł ë¶Ħì¦Ŀ
Ġë¦¬ ìķ¡
Ġp an
ĠìłĦë©´ ìłĦ
ĠìĬ¤ ì³Ĳ
ĠìĨĮ ìĥģ
Ġê³¨ ìłĪ
ĠìĮĢ êµŃìĪĺ
Ġìĥ ¨
ìĤ° ìĦ±
Ġt re
Ġìķ¼ ìĤ°
ĠíĻį ìĤ¼
Ġì´Ŀëł¥ ìłĦ
Ġ3 6
ĠëŃī ì³Ĳ
ĠìĿ´ëħ¸ìļ° ìĹĲ
Ġìķ¡ ìĦ¸ìĦľë¦¬
Ġ^^ ;
ĠìĦ¸ ìĬµ
ĠëĤ´ìļ© ë¬¼
Ġìłľ ìĽĲ
ĠìĨĮ ê´Ģ
Ġìŀ¬ íĺ¼
Ġê²© ì¹¨
ĠíĻĺ ìĤ¬
Ġì§ķ ë³ĳ
Ġëĭ¬ìķĦë Ĥľ
Ġo ld
Ġëį°ìĿ´ ë¸Į
Ġë¬´ìŀĲ ë¹Ħ
Ġìłĳ ëª©
Ġìľł êµĲ
Ġê°ģ ê³Ħ
Ġë°ķìĤ´ ëĤĺ
Ġd h
ë¶Ī ë¦¬
Ġìĺģ ìĽĶ
Ġh an
ĠìĪĺë°± ë§Į
ë¦¬ íĭ°
ĠëĶĶ íĬ¸ë¡ľ
ĠëĶĶíĬ¸ë¡ľ ìĿ´íĬ¸
ë§Ŀ ìĿ´
at o
Ġë¬´ê¶ģíĻĶ íĺ¸
Ġì´ī ë°ľ
Ġìķł ìĬ¤íĥĢ
ìĦľ ë¦¬
ĠìĬ¤í Ĥµ
Ġfoodp orn
g i
ì¿ł ë¡ľ
Ġì¸łë°Ķ ìĤ¬
ĠìķĦíı´ ë¡ľ
ĠìĿ¸ ì¤Ģ
ĠìķĦìĿ´ìĬ¬ ëŀĢëĵľ
ĠìĪĺ ì§Ī
Ġì¹´ìŀĲíĿĲ ìĬ¤íĥĦ
Ġë²Ī ë³µ
ĠëĪĪ ë¶Ģ
Ġìĥģ ì¾Į
ê°Ģ ìĿĦ
Ġë°Ľ ì³Ĳ
Ġì½Ķ ëĭ¤
» ´
Ġê´Ģ ìłĢ
Ġë¹Ħë¬´ ìŀ¥
Ġb em
Ġê·¸ë¦¬ìĬ¤ ìĸ´
Ġext ra
éģ ĵ
íĺ¸ íħĶ
Ġë¹Ħë ²ķ
Ġê¹Ģ ì§Ħë
Ġìħľ ë¡Ŀ
Ġê´ĳ íķĻ
Ġì§Ħì² ľ
Ġë²łëĦ¤ ì¹ĺìķĦ
Ġì§Ģ ìĺ¨
Ġë§Ľ ìĹĨ
Ġf x
ĠìĽĲ ìĸ´
Ġi a
Ġëª° ì¹´
ëłĪ ë§Ī
ìĿ´ì¦Ī ë¯¸
ĠìĪĺ ìĦľ
Ġì«Ģ ëĵĿ
Ġê¹ °
Ġ201 6
Ġëį° ëĭĪìĬ¤
Ġë©Ķ ìĭłìłĢ
Ġjm t
ĠìķĦì ¹ĺ
Ġu i
ĠìĦłëĮĢ ìľĦ
Ġë§Ī ë¹Ħëħ¸
Ġë´ £
Ġë§Īë¹Ħëħ¸ ê¸°
Ġê°Ģ íĸĪ
ëĥ ī
Ġëĵ¤ìĸ´ ìĦ°
Ġë¯¸ê³µ ê°ľ
Ġìľł ê³¨
Ġíĺ¸ íĪ¬
Ġì§ģê¶Į ìĥģìłķ
ĠìĿ¼ë ¡Ģ
ëĭĪ íĬ¸
Ġì²ľìķĪ ìĭľ
Ġu fc
Ġìķ¡ ìŀĲ
Ġì¶ľìĥĿ ì§Ģ
Ġì½Ķì½Ķ ëĦĽ
Ġê¼Ń ëĮĢê¸°
ĠëĮĢ ìłľ
Ġê²¸ íķĺ
Ġr aw
ĠìłĦìĹ ¼
Ġg i
Ġac c
Ġpe ople
Ġn ational
Ġìĵ° ì´¨
ĠíĥĿ íķĺ
Ġë¦¬ íĬ¸
Ġìĸ´ì ĮĶ
Ġìĸ´ìĮĶ ìĭł
å ħ
Ġì¶©ìĭ¤ íŀĪ
ĠìķĪ ì¢ħ
Ġì´Ŀ ì²´
og rap
Ġì¿ł ìĭľ
Ġë¯¼ ì§Ģ
Ġìĺģ ìĤ¬
ĠìłĢ ê²Į
ĠìŀĲìĹ° ìĪĺ
Ġëĭ¤ìĿ´ ëĤĺ
Ġê·¸ë¦¬ íķĢ
êµŃ ìłģ
ĠìĻ¸ ìŀ¥
Ġíı¬íĬ¸ ë¦¬ìĬ¤
ĠìķĦìĿ´ ë¦¬ìĬ¤
» ìŀİ
Ġê±´ëĦĪ íİ¸
ĠìĦ± ê°Ģ
Ġëĭ¨ê¸° ê°Ħ
ĠìķĦëĤł ë¡ľê·¸
Ġëıħ ì£¼
ĠíĮĮê³ł ëĵ¤
Ġìłķ ìļ©
Ġìļ©ìĤ° êµ¬
Ġê°ķ íĮĲ
Ġê¸Ī ì²ľ
ĠìļĶ íĬ¸
Ġë¬´ ìĿĺ
Ġë³´ íĥľ
Ġë¶Ģ ë¦Ħ
ìĽĲ ì§Ģ
Ġk i
ĠìŀĲíĮĲ ê¸°
ĠìĨĮê°ķ ìĥģíĥľ
ĠìĿ´ ìĹ°
Ġ2 6
Ġìŀł ìłģ
Ġê´Ģ ìłĦ
Ġê±°ì³Ĳ ìĦľ
íĺĳ íļĮ
Ġë¡ľ íħĮìĿ´ìħĺ
ĠíĶ¼ìķĦ ëĭĪìĬ¤íĬ¸
ĠíļĮìĤ¬ ìĽĲ
Ġíķĺ ìĦ¸
Ġìłķì¹ĺ ë¶Ģ
ĠìĿ´ìłķ ë¯¼
Ġê³ł ìĿĢ
Ġì¹´ ë°Ķ
Ġë²ķìĿ¸ ìĦ¸
Ġê³ł ìľĦì
Ġëħ¸ íļĮ
Ġê¸° ê´´
Ġìľł ëĭ¤
Ġê¹Ģ ìĭł
ĠíĺĦ ê´Ģ
Ġìĵ¸ëį° ìĹĨ
Ġëĸłìĺ¤ ë¥¸
ĠìĤ¬ ìĿ¼ë
Ġë§¤ ì¹Ń
Ġìķ¼ ê²½
ĠìĬ¤íĬľìĸ´ íĬ¸
ĠìĹ¬íĸī ìŀĲ
Ġf ar
Ġìĭł ëĶĶ
ë¦¬ ì§Ģ
Ġìŀ¬ ê²Ģ
Ġìłģ ìĭľ
Ġì´Ī ëıĻ
ĠëĨį ëĿ½
Ġleg end
ĠëıĦìļĶ íĥĢ
Ġìłĳ ê²½
Ġìľ¼ ìħĶ
Ġì¦Ĳê±° ìĽĮ
Ġê°Ī ì¹ĺ
Ġì¶Ķìĭł ìĪĺ
ĠìĹ´ ëĵ±
ĠëıĮìķĦìĻ ĢìĦľ
ĠìĿĺ êµ¬
Ġì½Ķ ë¦¬
ĠíĹĪ ìĺģ
ĠìĿ´ë² ł
Ġíı¬ë©ĶëĿ¼ ëĭĪìķĪ
ĠìĪĺ ìľł
ĠìĽĲ íĺ¸
ĠíĹ¤ ë§¤
Ġì§ĢìĽĲ ìŀĲ
ĠìķĦì¹´ ë¦¬
ĠíĬ¹ìĿ´ ìłĲ
Ġìŀ¥ ìĺģ
ĠíĤ¤ ìĤ¬
Ġìĺ¥ ìĬ¤
Ġê¹Ģë¯¼ ì§Ģ
ĠìĦłê±°ìĿ¸ ëĭ¨
Ġì¡°ê³Ħì ¢ħ
Ġë¶Ī ë¦°
ìĬ¬ ë¡ľ
Ġì²´íģ¬ ì¹´ëĵľ
ĠìĹŃ ëıĦ
ĠìĨĮë°© ì°¨
Ġìŀł ìŀł
Ġè ĩ
Ġì¦Ĳ ê²¼
ĠëĤ´ ëĭ¤ë³´
Ġë°Ķ ìĭ¤
ĠìĦľ íĤ·
Ġëĭ¨ ì¡°
Ġëĭ¤ ë¥¸ëį°
Ġìĺ¤ ë¸Ĳ
Ġë§¤ ìĽĶ
Ġì§Ħì Ĺ´
ĠìŀĩëĶ° ë¥¸
Ġst er
ĠíĤ¹ ìĬ¤
Ġë¹ ½
ĠìĤ° ìĤ°
Ġê²© ìĥģ
Ġp al
Ġì½Ķ ìĭľ
Ġæ Ķ
ĠëĮĢê³µ íı¬
ìĭ ¯
ëŀĳ ì¹´
Ġê¸ī ì§Ħ
Ġìľłíĸī ìĸ´
ì¹´ ì¦Ī
ĠìĸĳëıĦ ìĦ¸
ì§ ļ
ĠìĹŃ ê³¼
Ġth ink
ĠìĿ¼ë³¸ êµŃ
Ġë¶Ļìŀ¡ íŀĮ
Ġëĭ¬ ëł¥
ĠìĤ¬ íķĺ
Ġê°Ī ë¦´
Ġáħ ł
Ġ2 7
Ġìĺģ ë¯¸
Ġëª¸ ì§ĳ
Ġê¸° íķ¨
Ġë´ Ħë¹Ħ
Ġê¹Ģê´Ģ ì§Ħ
Ġìļ´ íķĺ
ĠëĬĲê»´ ì¡Į
ĠìĨĮ ìĸĳ
ĠìĬ¤í ĳ
Ġì½ĺ íħĮ
ĠìĨĲ íĿ¥
ĠíĤ¤ ë¬´ëĿ¼
ëłī íĬ¸
Ġëħ¸ë ¸Į
ada ily
Ġpro du
ĠìĿ´ì¹ĺ ë¡ľ
Ġëĭ¤ë£¬ ëĭ¤
Ġê¹Ģ ìĿĳ
ĠíĥĢ ëĭĪ
ĠìĦ¸ë ¯¸
Ġë¶Ģ ìĦ¤
ĠìĨĮ íĶ¼
Ġìĸĳ ë°©íĸ¥
Ġê²Ģìĥī ìĸ´
Ġìĺ¤ìĬ¤ ì¹´
Ġìłķ ìłģ
ĠíļĮìĿĺ ìŀ¥
Ġë¹Ħ ìļĺ
ĠëĮ ģ
Ġì§ģê²© íĥĦ
r is
Ġë¯¸ ìķ½
ĠëĶ° ëĤ´
Ġë²ł íĨł
ĠìłĦìĭľ ê´Ģ
ĠíĥĢì¹ĺ ë°ĶëĤĺ
ĠìĹ¬ êµ°
Ġìĭ¤ë£¨ ìĹ£
Ġë©Ķ ë°Ģ
ĠëĤ´ ìĭ¬
íĨłë¦¬ ìĸ¼
_ +
Ġì¡°ì¤Ģ ê²½
Ġë¹Ħ íıī
ë³´ ê·¸
Ġì¹´ ìĺ¤ë¦¬
Ġë°ĺ ê°Ģìļ´
Ð ¼
ĠìĿµ íĺĢ
ĠìĿ´ìĬ¹ ìĹ½
ĠìļĶ íķĺ
Ġë©Ķ ë¦´
Ġinst adaily
Ġë°Ķ ìĿ´ìĬ¤
¹ Į
ĠìĬ¤ ì»¤
ĠíĻĶ ë°±
ĠìĿĺêµ¬ ìĭ¬
ì½Ķ ì§Ģ
Ġìľ¤ ì°½
Ġë¬¸íĻĶìŀ¬ ì²Ń
Ġë¨¸ë¦¿ ìĨį
un ch
Ġë¯¼ë ²ķ
Ġë°ĺ ë§Ĳ
Ġê²© íķĺ
Ġìłķ íģ¬
ĠíļĮ ìľł
Ġë¦¬ ìłĦ
Ġëŀ© íĦ°
Ġíľ©ìĭ¸ ìĺĢ
ĠëĳĲ íĪ¼
Ġê³µ íĳľ
ĠëĬ¥ ëıĻ
Ġìĸ´ëł¤ ìļ°
Ġíı¬ë¥´ ëħ¸
ĠëłĪìĿ´ íĮħ
Ġt i
Ġíĺ¹ ìĤ¬
ĠíĬľ íĨłë¦¬ìĸ¼
ĠìķĦìĿ´ ìŀĳ
Ġë§¤ ëī´ìĸ¼
ĠíĶĮ ëŁ¬ê·¸
Ġê°ĳ íĮĲ
Ġìĸ´ì©Į ëĭ¤
l i
Ġê³ł ìĽĲ
Ġì¹´ ëħ¸
ĠëłĪìĿ´ ëĦĪ
Ġêµ¬ ìĦ¸
Ġëĭ¹ ì£¼
Ġë³Ģ êµŃ
ĠìĥĿ ìĨĮ
Ġìļ° ìĭľ
Ġê°ģ ë£Į
Ġì«ĵ ìķĦê°Ģ
ëıĦ ìĸ´
Ġë¡ľ ë§Į
Ġâĸ· âĸ·
Ġìĸ´ ê¹ĢìĹĨìĿ´
á »
ĠíĥĢ ëĤĺ
Ġíľ´ ë¬´
ĠìŀĦ ìłķ
ĠìľĪ ëıĦ
ĠíĮ¨íĬ¸ ë¦Ń
Ġr ay
ud e
Ġê²½ìľł ì§Ģ
ĠëıĻëĤ¨ ìķĦìĭľìķĦ
ĠìĬ¤íĶĦ ëłĪìĿ´
Ñ ı
ê°Ģ íĥĢ
if ic
ĠìĨĲíĿ¥ ë¯¼
ĠìĪĺ íĽĪ
Ġë§Į ìł¸
Ġê³ł ëħ¸
ĠíĮ »
ëı Ķ
Ġì¹ľ ë°Ģ
Ġë¶Ģ ëģĦëŁ½
Ġê¹Ģ íĿ¥
ĠëĦĺìĸ´ ìĺ¤
Ġëį°ìĿ´ë¹ Ĺ
ê¶Į ëł¥
ĠìĹĺ ë¦¬ìĬ¤
ĠìķłíĭĢëŀľ íĥĢ
ëģ Ŀ
ĠìıŁìķĦì §Ī
Ġê²Ģ ìŀ¥
Ġìŀħ ìĥģ
ĠìĹĲ ë¦¬ì¹´
ĠíĻĶ ë²ķ
ĠíĬ¹ ê°ķ
ag ue
Ġìŀħ íĺĢ
ë¬´ ëĦ¤
ĠíķľêµŃ êµ°
Ġë¸Ķ ëłĪ
Ġíķľ ê»ı
ãĥ¼ ãĥ
Ġìĥģ ì²´
ff ee
ĠìµľìłĢ ì¹ĺ
Ġw atch
Ġne ed
íĪ¬ íĳľ
ĠëĮĢ ëĮĢë¡ľ
ìĦ± ì¤Ģ
Ġê´ĳ ìĨį
Ġë³¸ë ĵľ
ĠëĨį ìŀĳë¬¼
Ġfr ac
Ġì²ľìĹ° ê°ĢìĬ¤
ĠëıĦ ëŀĺ
ì¤Ģ íĺ¸
Ġëĭ´ ëĭ´
ĠíĮĮìĿ´ íĮħ
ĠêµĲ ëŁī
Ġbl ock
ĠìŀĲ ê°Ģ
Ġëª© ìŀ¥
ì§Ī ëŁ¬
ĠíĻĺ ìĤ°
Ġêµ¬ëĭ¨ ì£¼
ĠìŀĲìľł ì£¼ìĿĺ
ĠìĿ´ë² Ķ
Ġë´ī íĻ©
Ġê¸Ī ìĪĺ
ĠìķĮ ê³łë¦¬
ĠëģĿ ëĤ¸
ì¤ĳêµŃ íķ´
íĽĪ ëł¨
s u
ë¥´ ë¥´
ìķĦ ëĭĪìķĦ
Ġç Ħ
ëł¹ ê´Ģ
Ġë¸Į ëłī
ĠìĦ± ë¬¸
Ġë¬¸íķĻ ìĥģ
Ġíİĺ ëĭ¬
ĠçĶ °
Ġì±ħ ëŀµ
Ġìķ ¼ëĵľ
Ġë°ķ ìĿ¸
ĠëĤĺìĻĢ ìļĶ
Ġì§Ģ ìłĢ
Ġvide o
Ġëĵ¤ ëł¸
Ġíİľ ëĵĪ
ĠíİľëĵĪ ëŁ¼
Ħ Ľ
Ġìĸ´ëĵľë°´ ìĬ¤
f ul
Ġì°¾ìķĦ ê°Ķ
Ġíģ´ë¡ľ ì§ķ
Ġëª©íĳľ ë¬¼
Ġëįľ ë¯¸
ĠëĤĺëĪł ìĦľ
ĠìŀĲ ëª½
Ġê²½ ìĪľ
Ġìļ°ì£¼ ìĿ¸
ĠíĻ© íķ´
ê·¸ ëĭĪ
Ġë¹Į ë¦°
Ġìĭł ë¹Ļ
Ġì»¤ ë¸Į
Ġë¹Ħë £Į
ĠìĬ¬ë¡ľ ê±´
ìĹ¬ ê²¨
ĠìłĦê¸° ì°¨
Ġíķ´ ìŀ¥
ĠíĶ¼ëĵľ ë°±
ĠìĦ± ì²´
íķ´ ìł¸
Ġìľł íĨł
Ġe y
Ġå Ĵ
íĻĶ ê¸°
Ġë°¸ë ¸Į
ĠìķĪíĨłëĭĪ ìĺ¤
ĠëĤ´ ë¦¼
ĠìĿĺ ë¦¬
Ġë°Ķ ìĿ¸
ĠìĽ¨ìĿ¼ ìĬ¤
ĠìĲ Ĳê¸°
ëĿ¼ìĿ´ íĦ°
Ġan y
ĠìŀĲ ê¶ģ
Ġë¶Ħ ê²½
Ġë½ĳ íŀĪ
Ġar c
Ġbem ani
Ġì¹´êµ¬ ëĿ¼
Ġê²Į ë¦¬ìĺ¨
Ġë©´ íļĮ
Ġë§¤ ê¸°
Ġê¸° ì¹¨
ĠìĤ¬ ì¹Ń
ĠìŀĶ ìĹ¬
Ġì¹´ìĿ´ íĨł
ìŀĲ ìľł
ĠíĺĦì ¢ħ
Ġì§Ģíķĺì²ł ìĹŃ
ĠìĿ´ ê³¼
Ġ+ _+
Ġì¢ģ íŀĪ
Ġì¡° ë¶Ģ
ĠíĶĮëłĪ ìĸ´
i eld
Ġìķ½ ìłķ
Ġdi re
ĠìĤ¬ ìĹŃ
ĠìĺĪìĸ¸ ìŀĲ
Ġë¶Ģ ê¸°
ĠëĳĲ ìĦ¸
Ġëľ¨ê±° ìĽĮ
Ġëħ¸ ìĹĺ
ĠìĨĮíĻĶ ê¸°
Ġë³´ ìĦ±
Ġì İ
ĠëĮĢ ëĤĺë¬´
Ġë²Ħ ê¸Ī
Ġì²ľìłķ ë°°
ĠìķłíĶĦ íĦ°
ĠìĿ´ íķĻ
ĠìĤ¬ ì£¼
ĠëĭĪ ì¦Ī
Ġm ich
Ġë°ĺ ë°ĺ
ĠìĨĲ ë°ľ
Ġë¶Ģ ë©Ķ
Ġìĵ°ëŁ¬ íĬ¸ë¦¬
Ġì¤ĳìķĻ ìĿ¼ë³´
Ġì°¸ ìĪĺ
ĠëıĦ ëĦĽ
Ġíķľìĸĳ ëĮĢ
ĠìĤ¬ ìĿĺ
ĠìĽĲ ìĦľ
ĠëĤĺíĥĢ ëĤ¸ëĭ¤
Ġë§Ŀ ìĸ¸
ĠìŁģ íĥĪ
Ġê³¨ëª© ê¸¸
b n
ê·¸ëĿ¼ë ĵľ
Ġë§Ľ ë³¼
Ġì±ħ ìŀĦì
Ġíį¼ë ľ¨
Ġëĭ¹ ë©´
Ġf ut
ĠëĵĢ ìĹ£
ĠêµŃ ë°¥
ĠëĿ ķëĭĪëĭ¤
Ġë£¨ì¹´ ìĬ¤
íķĺ ëĬĺ
Ġëľ» ë°ĸ
ìºĲ ìĬ¤íĬ¸
ĠìĿ¸ ìľĦ
Ġs qu
Ġu fo
ĠìĻĢ ìĤ¬
ĠíĶ¼ ìĭł
ĠíĨł ë¨¸ìĬ¤
Ġì§Ħ ê°Ģ
Ġê±° ìĬ¬ëŁ¬
Ġìĭł ëĭ¹
ĠåŃ Ĳ
Ġë°ķ ê²©
ĠíıĲ ë§ī
Ġpl an
Ġì¹ĺëŁ¬ ì§Ħ
ĠìŀĲ ìĿĺ
ĠêµŃ íĻĶ
ì¶ľ ìĤ°
ìĦ¸ë į°ìĬ¤
Ġë©Ķë¥´ ìĦ¸ëį°ìĬ¤
ĠíĿ¬ ë°ķ
Ġëª¨ ìĿĦ
Ġë°ĺ ëĵ±
Ġsport s
ĠìĬµ ì§Ģ
ĠìĹĨ ìķ
Ġìļ° ì²ľ
ìī Ĳ
Ġì§Ģ ë°ĺ
ĠëĶ°ëĿ¼ ìĺ¤
ĠìĿ´ìĬ¹ íĽĪ
Ġë¯¸ëĦ¤ ëŀĦ
ĠìķĮê³łë¦¬ ì¦ĺ
if e
ĠìĹ°êµ¬ ìŀĲ
Ġê¹Ģ íĻ©
ĠíĽĦ ëł¤
el e
Ġë¿Į ëĵ¯
Ġê´´ë¡Ń íŀĺ
Ġê°ģ ê´ĳ
íĶĮ ëŁ¬
Ġëįķ ìĪĺ
Ġê¹ĢëıĻ íĺĦ
Ġê³ł ìķĪ
ìĥģ ìĬ¤
Ġê°Ģ ìŀĲ
ĠíĮ¨ ê¸°
Ġìºĺë¦¬íı¬ ëĭĪìķĦì£¼
Ġë¯¸ ì½ĶíĨł
ĠìĽĲ íĿī
ĠìĿ´ìĤ° íĻĶ
Ġì±Ħì §ĳ
ĠìĻľëĥĲ ë©´
Ġå· Ŀ
ĠìķĦìĿ´ ìĺ¤
Ġìĸ´ ìĹ¬
Ġë©Ķë¥´ ì¼Ī
ì¹ĺ ì¦Ī
Ġì²Ń ìĥī
Ġê¹Ģì§Ģ ìĿĢ
ĠìĻ¸ ìłľ
ĠëĪĪ ìĹ¬ê²¨
Ġj u
Ġê¹Ģ ìĸĳ
Ġíĳľ íĸĪ
©Ķ ìĸ´
ĠìĿ¼ ìĥĿ
Ġì¤ĳìĨĮ íĺķ
Ġì£¼ìłĢ ìķī
ĠìłĦ íĥľ
ĠìķĪ ìĺģ
Ġë²ķìłķ ëıĻ
Ġê·¼ êµĲ
ë¶Ģ ëĮĢ
Ġë¿Į ë¦°
Ġíģ´ë¡ľ ì¦Ī
Ġìŀ¥ ë³´
ĠëĤĺìĿ´íĬ¸ë ©Ķìĸ´
Ġíĺķ íıī
ĠìĬ¤ëŁ¬ ìļ¸
v is
ĠëķĮ ëķĮë¡ľ
Ġì¹´ìĿ´ ìĤ¬ë¥´
Ġë¬´ë°© ë¹Ħ
ĠëıĦ ë©Ķ
Ġì²ľ ëıĦ
ĠíĭĢ ëł¸
ĠìĹĲìĿ¼ë¦¬ ìĸ¸
Ġìŀ¬ê°Ģ ëıĻ
ìº ī
ĠìķĮ ë§ŀ
ìĪĺ ìĬ¤
Ġê°Ĳ ê²©
ĠíĶĦë¡ľ ìĦ¸ìĬ¤
ĠìĤ¬ ìĤ¬íĤ¤
ìĦ± ëıĻ
ĠíĮ© íĨłë¦¬
Ġ8 0
Ġle ad
ĠìķĦíĭĢ ëłĪ
Ġi oc
Ġìĵ¸ ìĵ¸
Ġì¶© ëĭ¹
ĠìĿ´íĺĦì Ĭ¹
ĠìĪŁ ê°ĢëĿ½
Ġìĺ¤ íķĺ
Ġë°ķ ëıĻ
ĠíķĻ ì°½
ĠìĭľíĹĺ ìŀ¥
ĠëĤĻ íĥľ
Ġíİ¸ë ıĦ
Ġì§ģ ê´Ģ
Ġëª¸ ê°Ĵ
ĠìĥĪ ìĭł
ĠìĬ¤ìľ ķ
Ġì¶Ķ ìĥģ
Ġsy n
Ġíķľ íĥĦ
Ġr t
Ġíķ´ ì¤ĺ
Ġë¹Į íĹ¬
ìŀ¥ êµ¬
Ġë°Ķíĭ° ì¹¸
ë¸Ķ ëŀľëĵľ
ĠëıĮìķĦ ìĦľ
Ġë¶Ī ë©¸
Ġm as
ĠíĨł íĥĪ
Ġê°Ĳ ëıĦ
Ġê±°ì³Ĳ ìķ¼
Ġë³´ ìŀĦ
Ġíģ´ë¦¬ ë¸Ķëŀľëĵľ
Ġíĺ¸ íĶĦ
ĠìĤ¬ìĿ´ ë³´ê·¸
Ġë¶Ļìŀ¡ íĺĢ
Ġr h
Ġë¬´ ë¦¼
Ġì´Ŀ íıī
ĠìĹĲìĿ´ ìłĦíĬ¸
Ġê¹Ģíĥľ ìĺģ
Ġëĵ¤ìĹ¬ ëĭ¤
ĠìłĦë°ĺ ìłĦ
ëĸ ł
Ġìĺ¨ ìłĦíŀĪ
Ġë§Įìŀ¥ ìĿ¼ì¹ĺ
ĠëĿ¼ë ĵľ
Ġë°ķ ìĪľ
Ġìĺ¤ ìĿĺ
Ġíķĺ ë£»
íĥĢ ë§Ī
ĠíĥĢ êµŃ
Ġë¸Ķ ëŀĺ
Ġë¸Įëŀĺ ëĵľ
Ġíķ´ ì§ĳëĭĪëĭ¤
Ġì¦Ŀ ìĦ¤
ĠìĹ° íĥĦ
Ġs ea
Ġs ign
Ġíķł ê²ĮìļĶ
Ġê´´ ëł¥
Ġê¸° ê°ķ
ĠáĦ Ĩ
ì£ ¼ë¦¬
Ġì±Įë¦° ìłĢ
Ġëļ± ëļ±
Ġëĭ¨ ë¹Ħ
ĠìĬ¤í į¼
Ġê¸° íķ©
l a
ĠëĴ¤ ìĿ´
ìĬĲ ë¦¬
Ġëħ¹ ìĹ¬
ĠíĿ¥ ìĽĲ
Ġë°ľ íķ´
Ġê²½ ìŀ¥
Ġl b
Ġê¹Ģìĺģ ëŀĢ
o ther
Ġë¡ Ģ
Ġë°Ķ ìĿ´ìĸ´
Ġì»¤ íĬ¼
ĠæŃ £
ĠëĬĺ ëł¸
ĠëıĦ ìļ©
ĠëĮĢ ìĿ¸ë°°
Ġëħ¸ ë¦´
id er
Ġë§Ŀ ê°Ģì§Ģ
ë²¨ íĬ¸
Ġê¹ĢíĻ© ìĭĿ
Ġë¶ĢìĦľ ì§Ħ
ĠìĪĺ ëĭĪ
ĠìĽĲ ë§Į
ĠìĦľ íķľ
Ġëĭ¨ ë²Ī
ĠâĢ §
Ġê¹Ģìłķ ìļ°
ì§Ģ ìĪĺ
Ġë°Ķ ìĭľ
Ġt oo
íħĮ ë¦¬
Ġj a
êµĲ ëıĻ
Ġìĺģìĸĳ ìłľ
ĠìĨ¡ ëĿ¼ìĿ´íĦ°
í į
ĠìĤŃ ìĬ¤
Ġæĺ İ
ĠìĪľìĿ´ ìĿµ
Ġíķĺ ëĦ¤
Ġì´Ī íļĮ
Ġê°Ħ íĸī
Ġì§Ī ìĭĿ
Ġì½© ê³ł
ĠìĦľìĭĿ ì§Ģ
Ġê±° ì³¤
Ġëįĺ ëį°ìļĶ
Ġê·¼ë ŀĺ
Ġê¸ĢëŁ¬ ë¸Į
ëłĪ ë¯¸
Ġê¸Ī íĻĶ
ëŀĺ ìĬ¤ì¹´
ìľł ì§Ħ
ĠìĶ ½
Ġê²¬ ê³¼
l ess
Ġíĸī ìĦ¸
Ġíĺķíİ¸ ìĹĨ
Ġì¤ĳê²¬ ìĪĺ
Ġì§Ģ ì³Ĳ
ë¡ľ íĶĦ
ĠêµŃ ìĻ¸
Ġëŀľ íĦ´
Ġìļ ĺ
Ġìĭľ ìĿ´
Ġëª¨ ë¦ħëĭĪëĭ¤
ĠìĦľ ìĿ¼ë³¸
Ġë³¼ íħįìĬ¤
Ġéģ ĵ
ĠíĹĲ ë¦¬
ìĹ¬ ëĮĢ
ĠëĤĺìĦł ëĭ¤
ĠëĤ´ëł¤ ê°Ī
Ġë¦½ ìĬ¤
ê°ľ ë°ľ
íİĺ ìĬ¤íĬ¸
ĠìĿ¸ ìŀ¥
Ġë°ĿíĺĢ ìł¸
ĠíĽĦ íĽĦ
Ġì¶Ķìłģ ìŀĲ
Ġë Ľ¸
Ġëĵ¤ íĨµ
Ġë¬¸ íĺ¸
Ġë¶Ī ë¹Ľ
Ġíķ´ìĻ¸ ìĹ¬íĸī
Ġspr ing
Ġê¹ĢëĳĲ íķľ
Ġe g
Ġìķłë¦¬ ì¡°
Ġë¬¸íĻĶ ë°©ìĨ¡
Ġth an
ĠëĮĢìĿĳ ì±ħ
ì¶ §
íĨł ë¯¸
Ġíİĺ ê°Ģ
Ġì´Ŀ ëĮĢ
£¼ ìĿĺ
Ġê¸° ìĿ¼
Ġå ĳ
ĠìĤ´ ìķĦìĺ¨
Ġìµľ ëªħ
ĠëĤľ ì§ķ
b all
Ġìłķ ë²Į
ĠìĪł íĥĦ
Ġa qu
Ġíķľ ìĭł
ì¹ĺ ìĺ¤
Ġë¶Ģë©Ķ ëŀĳ
ĠëłĪìĿ´ íģ¬
ìŀĲ ë£¨
ĠìĤ¬ì¿ł ëĿ¼ìĿ´
Ġìľ¤ ìłķ
Ġco re
Ġìĸ´ íį¼
ĠìĻ¸ ê³ł
Ġëª°ëł¤ ìĺ¤
Ġê¶Į ìĿµ
Ġm en
Ġì¸ł ëĤĺ
ĠìĿ´ìĬ¤ íĥĦë¶Ī
Ġëıħ ìĬ¤
Ġìľłëªħ ìĦ¸
Ġë¬´ ëª¨
ĠìĺĪ ëªħ
âĹ Ģ
ì²ĺ ë¶Ħ
ĠéĿ ¢
Ġìłľì£¼ ìĭľ
Ġëĭ¨ ì¶Ķ
ĠìķĦì £¼ë
ĠíĶ¼ ì²ĺ
ì½Ķ ìĸ´
Ġìķ¼ ìĭľ
Ġëªħëł¹ ìĸ´
ë°Ķ ê¿Ī
ĠíķĺìĸĢ ìĥī
Ġìĭł ìĬ¹
ĠëıĻ ë´ī
Ġe f
Ġìĸ´ ë²Ħ
Ġë³´ êµ¬
Ġì¹ĺ ìĿ´
Ġë£¨ ì¦Ī
Ġé ł
Ġë©¸ ì¹ĺ
Ġìļ°ì¦Ī ë²ł
ĠíĥĲ ìļķ
al d
ĠìĻķ ê¶ģ
Ġì¹´ìĿ´ ë¡ľ
Ġìĸ´ë²Ħ ìĿ´
ë° Ł
Ġíĺ¸ ìĬ¤íĬ¸
ĠëĮĢ ì¹Ń
Ġê·¸ ì§Ģ
ĠíĻĶ ëģĪ
Ġê²¬ ê³ł
Ġê³µìĦ± ìłĦ
Ġìłķì°° ê¸°
Ġéĥ ¡
Ġë¬´ìĨĮ ìĨį
ë²¼ë Ŀ½
Ġë¯¸ ëł¨
Ġë§Ĳ ìĨĮ
Ġë²łìĿ´ ëįĶ
Ġì¹ ©ëĭĪëĭ¤
Ġ- !
Ġì¤ĳ ì¦Ŀ
ĠíĻľëıĻ ë¹Ħ
ĠëĤ´ ë¦½ëĭĪëĭ¤
Ġë¦¬ë°Ķ ìļ´ëĵľ
Ġé Łĵ
Ġë°Ķ ì£¼
Ġë³ĳ ì¢ħ
ĠìĨĮìĭľ ì§Ģ
Ġëģĵ ìĿ´
Ġì¡°ìĹ° ìĥģ
ĠíĨµ ìļ©
Ġë¹ĦìĹ Ķ
and er
ĠëıĻ íĥģ
ĠíĻĶ ìŀĲ
Ġë°ķ ì¹ĺê¸°
ë§ģ íģ¬
Ġëĭ¤ìĿ´ ëłīíĬ¸
Ġíķ¨ ìŀ¬ê¸°
Ġêµ° ì²Ń
Ġê¶ Ī
Ġìŀ¥ ë¶Ģ
Ġä¸ Ĭ
ĠíĺĦì¶© ìĽĲ
Ġë°ĺ ì¹Ļ
ĠíıĲ íķĺ
Ġë§¡ ê²¼
Ġì¤ĳ ëŀĳ
Ġì§ĢëĤĺ ê°Ī
Ġê³¼ë ¶Ģ
ĠìĬ¹ ê¸°
ĠíĶĦëłĪ ëį°
ĠìĿ¸íħĮ ë¥´
Ġìłľ ê°ģê°ģ
ĠëłĪ ëĭĮ
Ġb all
Ġè Ĺ
Ġìĺģëĵ±íı¬ êµ¬
Ġëĭ¤ ìĿ¸
Ġf ace
ê»ĺ ìļĶ
Ġë¶ĢìĹ¬ ë°Ľ
ëĭĪ ì¦ĺ
ĠëĤ´ëł¤ ê°Ħ
Ġëį°ëł¤ ëĭ¤
Ġs ide
ĠìĥĿ ìĪĺ
ĠíĶĮëłĪìĿ´ ìĬ¤
ĠìķĦìĭľ ìķĦëĤĺ
ĠëĤ´êµ¬ ëł¥
Ġìļ¸ìĤ° ê´ĳìĹŃìĭľ
Ġë Ĺ
Ġëĭ¹ ê²¨
ĠíĹĪ ìĦ¸
ĠìĿ¸íĶ¼ ëĭĪíĬ¸
ĠìŀĲ ìŀĲ
ĠíĿī íĦ°
Ġê³µì²Ń íļĮ
ĠëģĿ íĮĲ
Ġì¡¸ ë¦¬
ĠìĭľíĬ¸ ì½¤
Ġíİĳ íİĳ
Ġë§Į ë£¨
ĠíĬ¹ ì¢ħ
Ġëħ¸ ìĿ´
Ġê²¬ ëİĮ
ãģ Ħ
ĠíĮĲëıĦ ëĿ¼
Ġâĺħ )
ĠíĮĲ ëªħ
Ġë¦¬ ìĹĺ
ĠìķĦìĭľìķĦëĤĺ íķŃê³µ
ìļ° ë£¨ìĬ¤
ĠìĹ´ ë°Ľ
Ġë¬ĺ ìĹŃ
ĠìĤ¬ ìĹĲ
ĠìĦł íģ¬ë¦¼
Ġì²Ń ëıĦ
ĠëĴ¤ ë°Ķ
ì£¼ìĿĺ ë³´
íģ´ ëłĪìĬ¤
ĠìĺĲ ë¡ľ
Ġë§Ĳ ìį½
ĠìłĦë§Ŀ ëĮĢ
Ġíļ¡ íı¬
ĠìĿ¸íĶĮ ëłĪ
ĠìĹ° ìŀĦ
Ġìĭł ìĿĺ
Ġê³Ħìķ½ ìŀĲ
ĠìĪľêµĲ ìŀĲ
Ġê´Ģ ìĺģ
Ġm ind
Ġë²Ħ ëĭĪ
ĠíĶĦëłĪ ëĵľ
Ġë¸Ķë£¨ ë²łë¦¬
Ġìº¡ ì½¤
ĠíĻĶë¬¼ ìĦł
ĠìŁ ¤
Ġåħ ī
Ġëª¨ ìķĦì
ĠëĦĵ ìĿ´
Ġf d
Ġë¶Īìĸ´ ëĦ£
Ġë¹Ħ ìļ°
Ġì´Ī ì¤ĳ
Ġì±Ħ ìļ¸
ĠìĿ´ì§Ģ ìĿĢ
Ġë¹Ħìĺ ¬
Ġê´ĳ ìłĦìĤ¬
ĠìĦŃ ìĻ¸
Ġë¸ĮëĿ¼ìļ° ìłĢ
å ¸
Ġç ī
Ġamer ic
ĠìĹĲ ìļ°
ĠìĿ´ ìĦľ
Ġë§Ī ì§Ħ
Ġìĸ´ìļ¸ ëł¤
ĠëıĦ ìĦł
ĠëĳĲëĵľ ëŁ¬ì§Ģ
Ġë¹Ħíĸī ìŀ¥
Ġê³µìľł ê¸°
ìĹĲë¯¸ ë¦¬íĬ¸
Ġìĥģ ìĦł
Ġì¶©ìłĦ ê¸°
Ġì¤Ģ ìŀ¥
Ġíİĺ ìĿ´íĬ¸
ĠëĮĢêµ¬ ê´ĳìĹŃìĭľ
Ġì ¾ħ
ĠìĽĲ ê¸Ī
ìĨĮ íĨµ
ĠíĦ° ë¦¬
Ġë°° ì§Ģ
Ġdd r
ł Ľ
Ġê±° ìŀ¥
Ġë¹Ħ íĨł
Ġíķĺë£» ë°¤
Ġì§Ģ ìķĦ
ĠìĽĢì§ģ ìĿ¸ëĭ¤
Ġëªħë°± íŀĪ
Ġd am
Ġìłĳ ê²¬
Ġê°Ģìł¸ ìĻĢ
ĠìłĦ ë¦¬
Ġê´Ģ ë¡Ģ
¼ë °©
Ġíı¬ ì§Ħ
ìķ½ ì²Ń
Ġë¦¬ë¶Ģ íĬ¸
ĠìĿ´ ìķĦ
Ġë§¤ ìłĲ
ì§Ģ ê·¼
ĠìĿ¸ ìĬ¤
Ġê·¼ ìĦ±
ĠëıĻ ìĿ¸ì§Ģ
Ġìĸ´ì°Į ëĤĺ
ĠìĦľ ëıĻ
ĠíļĮë³µ ëł¥
Ġìĺ¤ ë³´
ĠìĭĿ ìķ½ì²Ń
Ġìŀ¡ ìĬ¤
Ġìľ Ħëĵľ
Ġìķ¤ ëįĶìĬ¨
Ġìŀħ íŀĲ
Ġíİ¼ ì¹ł
Ġíķĺ ê°ķ
ëĿ¼ë °Ķ
ĠìķĦìķ¼ ì¹´
Ġì§ľ ìŀ¥ë©´
Ġë¸Įë¡ł ì¦Ī
Ġd om
Ġëª° ëĳĲ
Ġê°ķ íĮĢ
Ġìħ ¸
ĠíķĦì Ĭ¹
ĠâĻ ¬
Ġê°ķìŀ¬ ìĦŃ
Ġê´´ ìĥģ
ĠëĶĶìĬ¤ ì½Ķ
Ġê¸īìĨį íŀĪ
ĠìĨį ë°ķ
ĠìĨĮ ë³Ģ
Ġì½Ķ íĥĢë¡ľ
ĠìĽĲ ì¹ĺ
Ġëĭ´ ê²¼
Ġìłľ ë©ĭ
Ġê°ķ ìľł
ìķĶ ë¦¬
Ġì£¼ ìĺģì§Ħ
Ġæ ¬
Ġë¶Īë³ķ ëįĶìľĦ
Ġê°Ī ê¹Į
Ġê³ł ê°Ī
Ġìłľ ë¥´
ê°ģ íĺķ
ĠìĿĺìĤ¬ ìĨĮíĨµ
ĠìķĮ ìłľë¦¬
Ġíį¼ ì¡Į
ĠíĨł íķĺ
ìĪľ íĻĺ
ìĥĿ ëªħ
ĠìĿ´ìĦ± ê³Ħ
ĠëıĦ ê°Ģ
Ġìľł íĻĶ
Ġì¹ĺ ë¶Ģ
Ġë¦½ ëĭĪ
Ġëª°ëł¤ ëĵ¤
íĥĢ ìĺ¤
Ġì½Ķë°Ķ ìķ¼ìĭľ
ĠêµŃë°© ìľĦìĽĲíļĮ
ĠìķĦëŀį ìĹĲë¯¸ë¦¬íĬ¸
ĠìłľëĦ¤ ìĭľìĬ¤
Ġìĺ¤ ëĵľ
Ġbeat mania
Ġëª° ìķĦì¹ĺ
Ġì¹ł ê³¡
Ġë¥´ëĦ¤ ìĥģìĬ¤
Ġìĺ¤ ìłķ
ĠíĶ¼ë Ŀ¼ë¯
ĠíĶ¼ëĿ¼ë¯ ¸ëĵľ
ĠìĤ¬ ì¶ľ
t or
ĠëıĦë§Ŀ ì³Ĳ
ĠíĺĦë ¯¸
Ġë°ľ ìłľ
ĠëĮĢìĦ¤ ì£¼ìĿĺë³´
Ġê°Ĳ ìĭĿ
Ġê¸ī ìłľ
ĠíĻį ë¬¸
Ġë°¤ ì¤ĳ
Ġë°ľ íı¬
Ġê¼¬ ì§ĳ
Ġìĭľ ìłĢ
Ġê°ķíķ´ ì¡Į
Ġè Ģ
ĠíĮĮ ì£¼ìĭľ
Ġìłķ íĥľ
Ġé İ
Ġíı¬íķŃ ìĭľ
ĠìĹ¿ ë³¼
ĠìĭŃ ëĭĪëĭ¤
Ġê¸°ìļ¸ ìĹ¬
Ġíķĺìĭľ ëª¨íĨł
Ġê°Ĳ ìĦ¸
Ġê²½ìĿĺ ìĦł
ë¸Ķ ëŁ¬
Ġì§Ģ ëıħ
Ġìŀ¥ ìĿ´
Ġíı¬ ì§Ģ
Ġë¬¼ëĨĢ ìĿ´
ê° ĵ
ĠëĮĢ ìĿĺ
Ġë¬¸ íĦ±
ĠêµĲ ë¬ĺ
Ġì°¬ ìĤ¬
Ġë¬µ ë¬µ
Ġe at
ĠìĬĪ íĥĢ
ĠëĤĻ ìĦľ
Ġë§Ī ê³ł
ĠëĦ ĭ
ĠìķĮìķĦë ³¼
ĠíķľëĿ¼ ìĤ°
Ġê´ĳ íķ´
ĠìĻĶ ìľ¼ë©°
Ñ ĭ
ĠìķĪ ë§Ī
ĠëĬĲ ê¸ĭ
ĠìŀĲ íĸī
Ġë²½ íĻĶ
Ġê° ¬
Ġt ro
ĠëĤ´ ìĭł
ĠëĤ´ ëŀĢ
Ġì¹´ ìĹĲ
Ġ= ==
ĠëŀĢ ëĭ¤
ĠíĮ¬ íģ´ëŁ½
Ġíķ©ê²© ìŀĲ
ĠíĦ° ì§Ħëĭ¤
ĠìĹ° ìłķ
ĠêµŃ ê³µ
Ġì²ľ ë¬¸ë
Ġë³´ìĿ´ ì½§
Ġé ¾į
ĠëĪ Ħëĵľ
Ġìķł ìķł
ĠíĻ© ìłķ
ĠìĿ¸ê³µ ìľĦìĦ±
Ġì½ ¥
Ġìļ´ ìŀĦ
ĠëĤĺë¦¬ íĥĢ
Ġt u
ĠíĨł ìĺ¤ë£¨
Ġë¬¼ ìĿĮ
Ġëªħ ìŀ¥
ĠìĬ¤ ë£¨
Ġìķķ ëĳĺ
Ġë¹¡ ë¹¡
ëĮĢ ë¶Ģ
Ġf u
ĠìĿĮìķħ íļĮ
ĠìĿĳìĽĲ ê°Ģ
Ġì²ł íĮĲ
ë£¡ íķ´
ĠíĻĶ ëĭµ
Ġì²´ ëĤ´
ìĺ¬ ëĿ¼
ĠìķĦë ĶĶ
ìĭł ê¸°
Ġë§Ŀ ëł¹
Ġíķĺ ìŀĦ
ĠìĪĺ êµ°
ĠêµŃ ë¹Ī
¡ľ ëĵľ
Ġìŀĳ ìĿ¸
Ġëª¨ ìħĶ
Ġë¦¬ ëĪ
Ġíľ´ ìĹħ
ĠìĬ¤íĥł ëĭ¤ëĵľ
Ġä» ģ
Ġìľł ìŀĲ
Ġë¦¬ëĪ ħìĬ¤
Ġë°© ë¥ĺ
Ġì´Ī ìĤ¬
ur es
ĠíĺĦëĮĢ ê·¸ë£¹
Ġb on
ĠìĪĺìĤ¬ ëĮĢ
Ġê¹¨ ì§Ħ
Ġìµľ ë£¡íķ´
Ġul t
ĠìĽĲ ìĦ¸
ìĽĮ ìĬ¤
íĭĢ ë¦°
Ġéķ ·
ìĺ¤ íĶ¼ìķĦ
ĠìĪľ ìĤŃ
ĠíĹĪ ìłĲ
Ġë°Ķ ê°Ģì§Ģ
ĠìķĮíĮĮ ë²³
Ġì£¼ë¦ ½
Ġëĭ¹ëĩ¨ ë³ĳ
ĠëĤ´ ë¶Ħ
Ġt d
ĠìĹĲíĭ° ìĺ¤íĶ¼ìķĦ
Ġëĭ¤ ë¹Ħ
Ġë§ĪìĤ¬ íĤ¤
ĠìĨį ê³µ
Ġì²´ ë¥´
Ġë²łíĨł ë²¤
Ġ î
Ġìłģ ì§Ħ
ĠìĦ¤ê³ ĦëıĦ
ĠêµĲ íĻĶ
ĠìĭłìĨį íŀĪ
ĠìĹ°íıī ê·ł
ĠìĪĺì²ľ ë§Į
Ġk ar
Ġìŀ¬ ìĤ¬
ìĥģ ìĬ¹
Ġn l
ĠíĤ¤ ì¹ľ
Ġìķ¨ ë¦¬
ĠìĽ¨ ìĬ¤
ĠìĤ¼ìĦ± ì¦Ŀê¶Į
Ġë°Ģìĸ´ ì£¼
Ġìĭł ìĿ´ì¹ĺ
Ġë°Ķ íķĺ
Ġì°¨ ë§Ī
ëĵľ ëŀĺ
²Ħ ê·¸
Ġv ir
Ġy u
Ġë§¡ ê¸´
Ġê¸°ê´Ģ ìŀ¥
ĠìĤ¼ ê°Ģ
Ġë¡ľ ìĬ¤íĦ°
Ġìĥ¤ íģ¬
ë¹ ħ
Ġë¦¬ ëħ¸
Ġë¶Ģìĸĳ ì±ħ
ëĭĪ ìĹĦ
Ġê³¼ íķĺ
ë¯¸ ìĬ¤
Ġê°ķ ëł¹
Ġêµ³ ê±´
ĥī íĤ¤
Ġì¤ĳ ìłĦì°¨
ĠìĦ¸ ìļ¸
Ġad d
íĳ¸ë¥´ íĬ¸
Ġ3 5
ìĹ´ ì°¨
ĠíĹĪ ë¬¼
Ġì¢Ģ ë¹Ħ
Ġê²¬ ëĶľ
ĠìĿĺ ìĻķ
Ġìķµ ê¸Ģ
k k
Ġn asa
íģĺ ëĿ¼
ĠìĦľ ë¥¸
ĠíĽĦì ¶Ķ
Ġl ea
Ġíģ¬ë¡ľ ëĭĪíģ´
Ġëĭ¤ ë§Ī
Ġê³µ ìĸ¸
ĠìķĪ íķ¨
Ġíĥľ ìķĦ
Ġì½Ķë¯¸ëĶĶ ìĸ¸
Ġìŀħ ìķĪ
ê²½ ë¯¼
ë§Į ê¸Ī
Ġìĥģ ìĿĳ
Ġë§ĪìĿ´ ìķł
íı´ ë¦¬ìĬ¤
ĠíĥĢ ì½Ķ
Ġë²Ħë ĥīíĤ¤
Ġë¶Ī ë¶Ħë
Ġìłľìłķ ìĭł
Ġë¶Īë¶Ħë ªħ
l in
ĠìĦł ìľ¨
ëŀĮ ì¥Ĳ
Ġê¹Ģ ì¤ĳ
Ġê¹Ģ ìĹ¬ìłķ
ê³µ ì£¼
Ġê¼¬ ìĿ´
ĠìıŁìķĦì §Ħ
ĠìĤ¬ ìĬ¤ì¼Ģ
Ġë¶ģíķľ ìĤ°
ĠìŀĳíĴĪ ìĥģ
Ġk at
Ġa st
ĠíĨµ ê·¼
íĶ¼ ìĸ´
ëģ Į
ĠìĿ´ìłķ ë¯¸
Ġë§¤ëĭ¬ ëł¤
ĠíŀĪíĨł ë¯¸
ĠíĶĮë£¨ íĨł
å ı
ĠëĿ¼ ê±°ëĤĺ
Ġê°ķ ì¢Į
Ġëħ¸ë ĵľ
Ġê¸Ī ìłķ
ĠìķĮ íĶĦëłĪ
Ġì¹µ íħĮìĿ¼
ìľł ì²łëıĦ
Ġíľĺë§Ĳ ëł¤
ĠìĿ¼ë³¸êµŃ ìľłì²łëıĦ
Ġê°ķ íĺ¸ëıĻ
ìĪ ²
ĠíķŃ ìĿ¼
ĠâĹĨ '
íĹĪ ê°Ģ
ĵ £
Ġëĭ¹ ì§ģ
ĠìŀĦì Īĺ
Ġæ° ¸
ĠêµŃ ëł¥
Ġì° ¡
ĠêµŃ ìľł
ĠìłĪ ë¬ĺ
ìħī íĬ¸
ĠìĿ¸ëĶĶ ìĸ¸
ĠìķĦë¥´ë©Ķ ëĭĪìķĦ
Ġëĭ¨ ë§Ľ
Ġëĵ¤ìĸ´ ëıĦ
Ġu c
Ġë¬´ ë¹Ļ
Ġì°¾ ìķĦìĺ¬
íĶĪ ë®¤ì§ģ
ĠíĮĿ íĶĪë®¤ì§ģ
Ġë°ķ íĺķ
Ġì¢ħ ë¶Ģ
Ġë¯¼ ìĦł
Ġê·¹ ìĨĮìĪĺ
ĠìĤ¬ ìłĢ
Ġëªħ íķ¨
ê³ł ì¿ł
ĠìĦĢ ëıĦ
ĠëĲ© ëĭĪê¹Į
ĠíĥĪ ë°Ķê¿Ī
ĠëĦĺì³Ĳ ëĤĺ
Ġì¹´ ë¦°
Ġë°ľ ì¹¸
ĠëĮĢ ì²Ń
ĠíĥĢ ì§Ģ
ĠìĺĢ ìľ¼ëĭĪ
íĺ Ħìķħ
ĠìķĮ ìĦł
ìĺĪ íĶĦ
ìłĦì Łģ
Ġì§Ģ ìĸ´
ĠëĤ® ìŀł
Ġb p
un e
ĠíĮĶ ê¿Īì¹ĺ
Ġêµ¬ ê¸Ī
Ġë¯¸ëģĦëŁ¬ ì§Ģ
ëĵľëŀĺ ê³¤
Ġë§ĪìĿ´ìķł ë¯¸
Ġëĭ¨ êµŃ
Ġëģ Ħë
Ġæ ģ
Ġê¸°ë¬´ ìĤ¬
å į
ê³ ĦìĪĺ
ĠëĳĲ ìľł
ĠìĦ¤ëªħ ìĦľ
re me
íĥĦë ĳĲ
Ġê¸° íķ´
Ġë¹ĦíĭĢ ì¦Ī
Ġëĭ¨ ê²°
ĠíĻĢëĶ© ìĬ¤
ĠìĦ± ì¢ħ
ĠæĪ Ĳ
ìŀ¬ íĺ¸
Ġì¡°ê±´ ë¶Ģ
ĠëĮĢ ëıĦ
ĠëļĿ ëĶ±
Ġë§Ī ìŀĳ
Ġìľł ê´Ģ
ĠìĤ° ì¶ľ
Ġíĸī ìĿ¸
ĠíĪ¬ ìķ½
ĠìĤ¼ ê³Ħ
ì»¨ ëĮĢ
Ġë¹Ħ íĻĶ
ĠìļĶ ì§Ģ
Ġê²° ìĨį
ĠëĤĺ íĬ¸ë¥¨
ĠìĻĶ ìĹĪ
Ī ľ
Ġëĭ¤ êµŃìłģ
Ġì¦Ŀ ìĭĿ
ĠìĪĺ ê±´
Ġë¶Ģ ëł¸
Ġc i
Ġë¶Ī íĥľìļ°
Ġê¸° ë³µ
Ġê¹Ģíĥľ íĽĪ
ĠìĪĺ ìłĢ
Ġbas ic
l er
ĠëĮĢêµ¬ ìĭľ
Ġëĥī ë°©
Ġíķ´ìłģ ëĭ¨
Ġë¡ľ ëĶ©
Ġìĵ¸ ìĸ´ë²Ħ
Ġë¹¼ìķĹ ê¸´
ĠíĶĦëŀĳìĬ¤ êµ°
Ġì§ģ ìĹŃ
Ġë²ł ëĿ¼
Ġë§ī íĺĶ
Ġê³¨ëĿ¼ ìĦľ
Ġ* ãĢĬ
ĠíĿĶëĵ¤ ë¦¼
ĠìłĢ ì¶ľìĤ°
ĠìĬ¤íģ¬ ëŀĺ
Ġì¶ĺì²ľ ìĭľ
Ġë¯¸ íĨł
Ġì¶ľ íķŃ
ĠìĿ´ë§Į ìĪĺ
ĠìŀĲ ìĦľ
Ġë°ķ íķľ
ĠìķĦ êµ¬
Ġê³¨ ëŀĲ
ĠìŀĲ ëĵľ
ĠëıĦ ë¦¬ìĸ´
ĠìĤ° íĺ¸
ĠëĿ Ī
Ġë¹¼ëıĮ ë¦°
Ġëįĺ ì§Ħëĭ¤
Ġì¶ľ ì¤ĳ
en se
el s
ĠëĵľëĿ¼ íģĺëĿ¼
Ġne xt
Ġsec ond
Ġìľł ë¦°
íŀĪ ìĤ¬
ĠëĶĶ íı´íĬ¸
Ġë¯¼ë §Ŀ
Ġìŀł ëĵł
Ġëĵ¤ëł¤ ì£¼
ĠëĶ Ľ
ĠíķŃ ìĥĿ
ĠìĬ¤íĥĢ íģ¬
j in
Ġìĺģ ëĿ½
Ġan other
Ġë¯¼ì¡± ì£¼ìĿĺ
Ġëĳ¥ ê·¼
Ġê´ĢìĦ¸ ì²Ń
Ġëĭ¨ ìĪĺ
Ġì²ľ ìłģ
ì¹´ ëıĦ
Ġë²ķ ê·ľ
Ġê²ī ë³´ê¸°
ĠêµŃíļĮ ë²ķ
ĠìĿĢíĸī ìŀ¥
Ġê³ł ìķķ
Ġë§Ī ìļ´ëĵľ
ĠíŀĪ ëħ¸
ĠìĿ´ëıĻ íķ´
Ġì¹« ìĨĶ
Ġíĥľê·¸ íĮĢ
Ġìłģ ë£Į
ĠìĥĿê²¨ ëĤľ
Ġê³° ëıĮìĿ´
Ġìľłëª¨ ì°¨
ì ¯
Ġë²ł ë¥´íģ¬
Ġì¸ł ë£¨
ëį §
ĠíĻį ì²ľ
Ġê¹Ģì§Ģ ìĪĺ
ĠìĪĺ ì¡°
ëıĦ ëĭĪìķĦ
ĠìķĻ ìĥģ
íİ «
Ġìĸ´ëĸ¤ ì§Ģ
Ġë¶ĦìĪĺ ëł¹
Ġëħ¼ ìĤ°
Ġíķľ íķ´ìĦľ
ĠìĤ½ íĻĶ
ĠìĥĪ ë§Įê¸Ī
Ġìłľ ìĿ´íģ¬
Ġìĭł ìķĪ
ĠìłĢ ë§Īëĭ¤
Ġk iss
Ġëį° ìļ°ìĬ¤
Ġf am
ĠìĦ¸ë Ĥĺ
ers on
Ġìĸ´ íķĻ
ëłĪ ìĺ¤
Ġë§Ī ìĿ¼ë¦¬
Ġëºĳ ìĨĮëĭĪ
ã Ĥ¤
Ġë²Ī ì©į
Ġì£¼ ìŀĳ
Ġan n
Ġê¸° ë§Ī
Ġì§Ī ì±ħ
ĠíĻ© ìŀĲ
ĠìľłìĨĮ ëħĦ
ë¬´ ìĬ¤
Ġíľĺë§Ĳ ë¦¬
ĠìĦł ì²ľ
ĠëıĻëĳĲ ì²ľ
Ġì§Ģ ì²Ń
Ġê´Ģ íĺĦìķħ
Ġë²Ī íĬ¸
Ġíļ¨ ìĦ±
ĠìĪĺ ëłĪ
Ġë¬¼ ê°ĪìĿ´
ĠìłĦìŁģ íĦ°
ë§¤ ìŀ¥
ĠìĨĮ ê°ģ
Ġì¶ľ ìĨĮ
ë²Ħ ë¦°
Ġëª° ìķĦëĤ´
Ġëļ« ë¦¬
ĠìĺģëıĻ ê³łìĨįëıĦë¡ľ
Ġì¹´ ìĦ¸
ĠíļĮ ë¶Ģ
Ġì¹ĺ íĥĢ
Ġëģ¼ ì¹ľ
ĠëĭŃ ë°ľ
ìĤ¬ê´Ģ íķĻêµĲ
íĻ© íĽĦ
Ġë¶Ģ íĶ¼
Ġìĺģ ìłķ
Ġì£¼ë¨¹ ë°¥
Ġëħ¸ ëĭ¤
Ġíıī ë¯¼
ĠìĿ´ìĬ¹ ìľ¤
Ġìŀ¬ ê¸°
Ġoff ic
ì° ¸ë
Ġìľ¡ ìĭĿ
Ġë§Ŀ ìĭł
Ġë°ķìĦ± ì¤Ģ
Ġë°ľ íĬ¸
ëĿ¼ ëĭĪ
Ġìĭł íķ´
an y
ĠìĿ´ì¹ĺ ê³ł
Ġìĺ¤ ìĺģ
Ġë¿ ħ
Ġêµ¬ ëĿ¼
ĠëłĪìĿ´ ëĤĺ
Ġíķĺë£¨ íķĺë£¨
ĠìĬ¤ì¹¼ë łĽ
ìŀ¥ ìĿ´
ĠëĭĽ ìĤ°
Ġíĭ ¸ëŁ¬
Ġì¹ľ ìľĦëĮĢ
Ġë¹Ī ìĬ¤
Ġì§Ħ êµ°
Ġê³Ħë ³´
Ġë³´íĸī ìŀĲ
Ġìķ ľ
ĠìĿ´íķ´ ê´Ģê³Ħ
Ġìłķ ëĳĲ
Ġë¡ľëłĮ ìĬ¤
Ġë°ĢëłĪ ëĭĪìĹĦ
Ġ2 9
Ġì¶ľë£¨ ìľ¨
Ġê´´ë¡ľ ìĽĮ
ĠìĤ¬ìļ© ëŁī
ìĤ¬ ì§Ħ
Ġë°Ķ ë£¨
ĠìĤ° ëŀĢ
ëıĮ íĶĦ
Ġì¹ľìĿ¼ íĮĮ
ĠìĿ´ ìĨį
Ġìľł ì°½
Ġì´Ŀ ëıĻìĽĲ
ĠìĺĪ ë¦¬
ĠíĥĢì¼Ģ ìĭľ
Ġìķł ìĭľ
ĠëĤł ë¦´
Ġíĺ¸ë ĮĢ
Ġë¹Ī ìĨĮ
Ġê¹Ģíĥľ íĺ¸
ĠìĹ¿ ë³´
ĠìĻĢìĤ¬ ë¹Ħ
Ġìļ© ëıĪ
ë» ĳ
Ġì¢ĮìĿµ ìĪĺ
ĠëłĪì§Ģ ìĬ¤
Ġìłľ ëĭ¤ìĿ´
Ġì¹´ ë©ľ
¸ë ıĦ
Ġv a
c k
Ġìľ¤ ìĦ±
Ġë¹ĦíĤ¤ ëĭĪ
Ġíĭ° ì½Ķ
ĠìĹ¬ê²¨ ì¡Į
Ġì¤Ħ ìĿ¸
Ġë¡ľëĵľ ë¦¬
ĠëĿ¼ê³ł ìļĶ
Ġëħ¸ ìłĲ
Ġë°ĳ ë°ĺì°¬
ĠíĻį ëªħ
ĠìĬ¹ ì²ľ
ĠíĢ Ħì
Ġë°± ë¯¸
ĠëĪĦë §Ī
Ġê¹Ģì¤Ģ íĺ¸
ĠìĿĺì¡´ ëıĦ
ĠìĿ´íĻĶ ìĹ¬ëĮĢ
Ġìĩ¼ êµ°
ĠìĽĲ ìĭ¬
Ġë¦° ëĭ¤
íĸ Ħ
Ġì¶ľìĹ° ìŀĲ
ard s
Ġfor e
ĠêµĲ ìłľ
ĠìĿ´ìłľ ìķ¼
ìŀĲ ìĬ¤
ĠìĤ¬ êµĲ
Ġb w
Ġë¦½ ìĬ¤íĭ±
Ġíķľ ë¦¼
ĠëıĦ ì¹ĺ
Ġìĭ¤ íģ¬
Ġy g
ĠëĶ° ëŀĲ
ĠìŀĦ íĥľ
Ġë© ±
Ġst re
Ġëĸ¨ìĸ´ì§Ħëĭ¤ ëĬĶ
Ġìłľ ìĦ¤
ĠëĮĢíĳľ ë¶Ģ
ĠíĽĦì ¹´
ĠëĤĺëŃĩ ìŀİ
á Ĩ
ìĭĿ ë¬¼
ì§ľ ê¸°
ì½Ķ ìĬ¤íĦ°
Ġê³Ħë £¡
ĠìĪĺìĭŃ ìĸµ
Ġë¬¼ ìĶ¬
Ġì§Ħë ĤĺëĿ¼
ĠìĦ¤ë¦½ ìŀĲ
ĠëĿ¼ë į°
ë¶Ģ ìĥģ
Ġì°½ ê±´
Ġíķľ ê¸°
Ġìķ¼ì¿ł ìŀĲ
Ġê¹¨ ìļ°
ĠíļĮ ìĭ¬
Ġëĭ¤ëĬĶ ëį°ìļĶ
ĠìľĦë ĤĺëĿ¼
ë¹Ħì ĸ¸
Ġd et
Ġê¸īìĨį ëıĦ
Ġíı¬ êµ¬
ĠíĪ¬íĳľ ìĨĮ
ĠìķĦë ª¬ëĵľ
Ġìłľ ìĭĿ
ĠìĪľ íķľ
Ġë¡¤ëŁ¬ ì½ĶìĬ¤íĦ°
ĠíĮĮ ìłĦ
Ġìĺ¤ë§Ī ìĿ´
ìŀĲ ì¹´
ou d
ĠìĿĳ ëª¨
ĠìľĦê¸° ê°Ĳ
Ġê³µ íıī
ë¨ ¼ëĵľ
Ġì§Ģì¼ľ ë³¸
Ġo ps
ĠìĬ¬ ë¦¼
Ġê³łì¶Ķ ìŀ¥
Ġëĭ¤ ê¸ī
ĠìĹ¬ ëªħ
Ġíĥ¯ ìĿ´
ëĮķ ìĿ´
Ġêµ¬ ë¶Ģ
Ġë°Ķ ë²ł
Ġæ ¨
ĠìĻ¸ë ²½
Ġ3 1
Ġìĺ¬ ê°Ģ
ĠëĶ° ìĬ¤
Ġë¹ĦìĦľ ìĭ¤
Ġë¹ĮíĹ¬ ë¦Ħ
Ġ' ..
íĮ ł
Ġê´Ģ ëĮĢ
ĠëıĻ ë¡ľ
ĠíĢĦì »´
Ġt ak
ĠëĤľ ëĭ¤ê³ł
Ġì½ĶìĬ¤ ëª¨ìĬ¤
ä ½
ĠìĿ´ ë³´
Ġì§ģ ì§Ħ
íĶĮ ë¦ŃìĬ¤
ĠìĪĺíķĻ ìŀĲ
Ġst op
ĠìĿ´ ë¶ģ
Ġì¹´ ëıĦ
Ġë¹Ħ íıīê°Ģ
Ġìķħ ëŀĦ
Ġëģ¼ ì³¤
ĠëĦ· íĶĮë¦ŃìĬ¤
Ġë©Ī ì¶ľ
Ġì¹´ì¦Ī ë§Ī
ĠëłĪ ë²ł
Ġë§Įëĵł ëĭ¤
ĠíĥĢê³ł ëĤľ
Ġìĺ¤ ìŀĲ
ĠìĨ¡ ë¯¼
ĠìķĪì¤ĳ ê·¼
Ġì¹´íİĺ ìĿ¸
Ġë¹Ħì ĻĢ
ĠìłĦ ìļ°
ĠåŃ ¸
Ġë°ĶëĿ¼ë ³¸
v ing
Ġê²Į ìŀ¥
Ġë§Īë¥´ íģ¬ìĬ¤
Ġê°Ģìĭľ ê±°ë¦¬
Ġë§¤ìļ´ ë§Ľ
Ġê¸° ë¡ľ
ĠìĹ¬ ëĵľë¦Ħ
ĠáĦ ĩ
ëŁŃ ìĬ¤
ĠìļĶìĭľ ëħ¸
ĠìļĶ íģ¬
Ġê°Ķ ìĹĪ
Ġê²½ ìĭľ
Ġæ ¼
Ġê±°ëŀĺ ëŁī
ĠìĬ¤íĮ ¸
Ġìĺ¤ ëª¨
ë§Ī ëĵľ
Ġê¼Ń ëĳĲ
ĠìĬ¤ì½Ķ íĶĦ
ĠìĿ´ëĮĢ íĺ¸
Î ¿
Ġì½ľëĿ¼ë³´ ëłĪìĿ´ìħĺ
Ġê²° ìŀ¥
ĦìĹ ĺ
Ġëĳ¬ ìķ¼
ìĿ¸ ê°Ħ
Ġê³µ íĻ©
ĠìĨĮ íĥķ
ĠìĹ° ëª»
ĠëĤ¨ìĸĳ ì£¼ìĭľ
ĠíİĺìĿ´ ì»¤
ĠíĦ° íĬ¸ë¦¬
Ġê²ĮìĿ´ ì¸ł
ĠìĪĺìĨ¡ ê¸°
ĠìķĦ ìŀ¬
Ġë°Ķ íĬ¸
Ġíģ¬ ëŁ¬
ĠìĽĲíķľëĭ¤ ë©´
ĠìĬ¤íģ¬ëŀĺ ì¹ĺ
ĠìķĦìĿ´ íĮĮíģ¬
Ġì°į íĺĢ
ê´Ģë¦¬ ë³¸ë¶Ģ
Ġì¹ľ ìĪĻ
Ġìłĵ ê°ĢëĿ½
ĠíļĮê³ł ë¡Ŀ
Ġê¸ī ìĪĺ
Ġdm z
Ġìķł ìį¨
Ġë²Īíĺ¸ íĮĲ
Ġë©Ī ì·Ħ
íĳ¸ ìĬ¤
íĬĢ ê¸°
Ġì°½ ê°Ħ
ĠìĪĺ ê°ĳ
ì£¼ ê³¡
Ġìłľ ê³ł
ĠìĬ¤ ë©°
ĠíķľêµŃ ìĤ¬
Ġíĸ¥ ëħĦ
ĠìĪĺ ë¹Ħì
ĠëıĻ ëıħ
Ġt m
ĠíıŃ ì£½
Ġê´ĳ íĥĪ
Ġêµ´ ëł¤
Ġì¶ķ ìłĦ
íį ¼ë§Ī
íķĺ ëĭĪ
Ġë¦¬ ìĸ¼ë¦¬
Ġì´Ī ìĨĮ
ĠíĿĺ ëł¸
Ġê°Ģ ìĭł
ĠëłĪ ìĬ¤íĦ°
Ġë²ł ë¥¸
êµ¬ ë©į
Ġë»¥ íĬĢê¸°
ĠìĥģíĻ© ìĭ¤
Ġìłķë¥ĺ ìĨĮ
Ġê·Ģ ê±¸ìĿ´
Ġë¶Ģ ì²ľìĭľ
Ġë§Ī ëĵľ
Ġì°¨ ì¶ľ
Ġì§Ģ íĤ¨
ĠìĹ° ìĭł
ĠíĨł íĨł
ĠìĽĲ ìĤ¬
Ġíİĺ ë¡ľ
Ġë²Ħë ĶĶ
Ġì¡° ëĭĪ
ĠëłĪìĿ´ íĦ°
Ġê¹ »ìŀİ
ĠìĬ¤ ìĻ
Ġíĺ¹ ëıħ
ĠìĥĮ ëįĶìĬ¤
Ġìµľ ìĹ°
ľ »
Ġê°Ģ ì¿ł
ĠìłĦìĤ° ë§Ŀ
ĠìĿ´ íĺģ
Ġì°¨ ìĺ¤
Ġìĭ¬ ìĬ¨
Ġìª Ħ
ĠìĦ¹ íĦ°
ii i
ìĭ¤ ë¡Ŀ
Ġë§ĮíĻĶ ì±ħ
ĠëıĻ ëħĦ
l ing
Ġë¬¼ë °©
ìłĪ ê¸°
íĭ± ìĬ¤
e ed
Ġë°ĺ ì¶ľ
ëĦ¤ ì¦Ī
Ġëĭ¤ ë°©
Ġìķħ ë³´
Ġë²Ħì ¦Ī
Ġë§ŀ ìĦł
Ġë³ĳ ìĭ¤
Ġìĵ¸ëª¨ ìĹĨ
Ġì²ľë¬¸ë ĮĢ
Ġw o
Ġíķ´ íĶĦ
Ġìķŀ ë¶Ģë¶Ħ
ĠìĹī íĦ°ë¦¬
Ġíķ´íĶĦ ëĭĿ
ëłĪ ìĿ¼
ĠìĬ¹ë¶Ģ ì°¨ê¸°
Ġëªħ ìĭ¤
Ġìŀ¬ ìĭ¬
Ġë¹ĻíĮĲ ê¸¸
ĠìĽĶ ê°Ģ
Ġd t
Ġë¯¸ìĪł íĴĪ
__ __
Ġìĸ´ ìĿ¸
Ġê²½ íĺĳ
ĠíĶĮ ëłĪìĿ¸
Ġì²« ëĪĪ
ĠìĿ¼ ì£¼
ĠìķĦë §Į
Ġo per
Ġê°Ģ ì²ĺë¶Ħ
Ġìĭ¬ ìĺģ
ê³µ ëĭ¨
Ġìŀĺ ìĥĿê¸´
Ġì¶Ķ ëıĦ
ĠíĨµ ì§Ħ
Ġç Ł³
ĠíħĮ ëĳĲë¦¬
íĺľ ìĺģ
Ġìĺ¤ ìħĺ
Ġìľł ë¯¼
Ġìŀ¥ íĿ¥
ĠëĤ¨ ê¶ģ
Ġìĸµ ëĮĢ
ĠìĦ¤ êµĲ
ĠìĽ įìĬ¤
ĠíĶ¼ ìĬ¤íĬ¸
Ġê¶Į ëĭ¨
ì² ¸
Ġëĭ¬ëŁ¬ íĻĶ
Ġê¹½ íĮĲ
ê·¸ë ¡ľ
Ġì§Īë³ĳ ê´Ģë¦¬ë³¸ë¶Ģ
ëĤĺ ê°Ķ
Ġë³´íĺ¸ë ²ķ
ĠìĪĺ ìĭ¬
Ġc ir
íķĺ íĤ¤
Ġì£Ħ ìĿ¸
ĠìĬĪ íĥĢìĿ¸
ĠíļĮìĿĺ ë¡Ŀ
ĠêµĲíĻ© ì²Ń
Ġaw ay
Ġë°© ì¡°
Ġê´Ģ ìĬµ
ĠìķĪìĸĳ ìĭľ
ĠìķĮìķĦë ĵ£
íĨł ë¡Ŀ
Ġë¹Ī ìĦ¼íĬ¸
ĠìĬµ ê¸°
ĠìĬ¤íĳ ¼
ĠëĤľ ëį°
ĠëĬĺìĸ´ ëĨĵ
ëĸ ¼
Ġëĳ¥ ê¸Ģ
ĠìľĦ íĻĶ
Ġì°¸ ê´Ģ
Ġì»¤ ëĦ¥
Ġìķħ íķľ
Ġìıľ ëĭ¤
ĠìĻķ ìĦ±
Ġì§± êµ¬
Ġë´ī íķĺ
íį¼ë§Ī ì¼ĵ
ëĭ¤ ëĵ¬
ĠíĬ¸ ì¹ľ
ĠëĤĺìĻĶ ìĹĪ
§¤ ëĭĪìķĦ
Ġëĭ¤ëįĺ ê°Ģ
ìĿ¼ ê´Ģ
Ġa x
Ġë°ķ ìĦĿ
ì¦Ī ë§Ī
s el
Ġê²° íķŃ
ëľ ¬
Ġê°Ģ ë³Ģ
Ġìŀ¬ìŀĳ ëħĦ
Ġë ¸Ĳ
Ġìĭ¸ ìĿ¸
Ġì§ĵ ë°Ł
Ġê´Ģ ì²ł
Ġë¹Ħì Ī
Ġì¿ł ëħ¸
Ġë¶ķ ìĸ´
Ġes c
Ġco st
Ġìłģ ìŀĸ
Ġê¶Į íĺģ
Ġíģ´ ëĿ¼ëĿ¼
ĠíĻį ìĥģ
Ġì½ĺ íĭ°
ìĬ¬ëĿ¼ë ¹ĦìķĦ
ĠìĹŃ ì£¼
Ġì½Ķ ìķŀ
Ġë¯¼ ìŀĲ
ĠìĤ´íİ´ ë³¼
ĠëĮĪ ëŁ¬ìĬ¤
ĠëįĶ ìĬ¤íĬ¸
Ġìľłê³ł ìĬ¬ëĿ¼ë¹ĦìķĦ
Ġg ar
Ġwi z
Ġê°ľ ëįĶë§ģ
Ġì°½ ëħķ
Ġíĥľ íĻĶ
Ġam d
íĴ ĭ
Ġen gl
ĠíĶĮëŀ« íı¼
Ġdiet er
Ġìµľ ìľ¤
ĠíĥĢ ë¥´íĬ¸
Ġë®¤ ì¦Ī
ĠìĿ´ ëį°
Ĥĺ ë¬´
Ġ{ \
Ġì§ģ ê³Ħ
ĠíĮĲ ë¡Ģ
Ġn ec
Ġë¹Ħ ìĦĿ
Ġë³¸ ìĹ°
a th
ëıĦ ê·¸
ĠìłĲ ìĤ¬
Ġê´ Ħ
ĠìķĪ ìĭĿ
Ġë³¼ë §ģ
ĠìķĦëŀį ìĸ´
ĠëĤĺ íĥĪ
Ġë¹Ħ ì§Ģ
ĠêµĲ ì£¼
ê¹Į ë´Ĳ
ĠìĥĪë¡ľ ìĿ´
ĠìĬĪ íį¼ë§Īì¼ĵ
Ġä¸ ĸ
Ġìļ° ë¨¼
Ġíıī ìĺ¨
ĠíĨłë§ī ê¸Ģ
il ity
ĠëĪĦë ¹Ħ
Ġë©´ ì¹ĺ
Ġíĭ° ëĤĺ
Ġì¹Ń ìĨ¡
Ġinst ag
ĠâĢĻ (
Ġêµ¬ëıħ ìŀĲ
ĠëĮĢìļ´ íķĺ
ĠëĤĺ ìĭľ
ĠìĪľ ì§Ħ
Ġìĺ¬ë¦¬ ë²Ħ
Ġdis c
ĠìĿ¼ìľ¼íĤ¨ ëĭ¤
ëĭ¤ ê°Ħ
Ġi ce
Ġìłĳ ìĸ´
Ġint o
Ġë°ķê²© íı¬
ĠìĿĺ ìłķ
ìłĢ ì§Ģ
Ġx box
ĠìĤ´ìĿ¸ë ²Ķ
Ġê¹Ģ ì¡°
Ġê¶Į ëĬ¥
¸ë ¹Ħ
Ġìĺ¤ ìĹ´
ìłģ ìľ¼ë¡ľ
Ġìķķ ë¥ĺ
ë§¤ ê¹Ģ
ĠìŀĦ ìŀ¬
Ġmic ro
Ġì¹ĺ ëıĦ
ĠìĬ¤íĦ° ëĶĶ
Ġíĥľ ê³ł
ĠìķĶ ìĦĿ
Ġì§ķ ìļ©
ìŀĶ ì¹ĺ
Ġëĵ±ìĤ° ê°Ŀ
Ġë¡ľ ìĽĢ
Ġê¹Ģíĥľ ê·ł
Ġê°ķ ìĭł
Ġë¶ĪëŁ¬ ìĺ¤
ìŃ ¤
¯¼ ì£¼
ent s
ìĿ¼ ê¸°
ĠìķĦë ª¬
Ġìķħ ì·¨
ĠìŀĲë¦¬ ë§¤ê¹Ģ
Ġë§Īëª¨ ë£¨
Ġë¶ī ìĿĢìĥī
Ġê¸° ìłķ
Ġì²´ íķĺ
ĠìŀĲ ìŀĺ
ĠìĹ° ëĳĲ
ĠìĺĪ ë¹
Ġë§ĪëıĦ ìĤ¬
ĠìĦłë°ľ ìłĦ
ĠëĮĢ ë¨¸ë¦¬
ĠëĤľ ê°Ħ
Ġen ter
ĠëıĦë§Ī ë±Ģ
Ġb and
Ġx c
Ġê°Ģ ëıĦ
Ġìµľ ì¤Ģ
Ġíģ´ ëĿ½
Ġë°ĿíŀĮ ëĭ¤
Ġë©Ķ ìļ°
Ġíĥľ ìĪĺ
ĠìĪĺì¤Ģ ê¸ī
Ġìķ¡ ìłķ
Ġì½ľ ëłĪ
Ġìłķ ë°ķ
Ġë§¤ ëĵŃ
Ġíĺ¼ ìĦł
ĠìĿ¸ ëĭ¨
ĠìĹ´ ëł¬
at ale
Ġëħ¸ì¡° ë¯¸
ĠíĪ ¼
Ġíķµ íĥĦëĳĲ
ìķł íĶĮ
Ġë²Ħë Ĥĺ
Ġì²Ļ íķĺ
Ġëį® ì¹ľ
Ġíİĺ ëĿ¼ë¦¬
Ġíĺĳ ê³¡
íĢ Ħ
ĠìķĦì§Ģ íĬ¸
ĠìľłìĤ¬ ìĭľ
Ġìĭľìĭľ ê°ģê°ģ
ĠêµŃ êµĲ
Ġì²ľ ëªħ
Ġë°ľ ìķħ
Ġíı¬ íļ¨
al s
íĺĦì ĭ¤
Ġë°§ ì¤Ħ
Ġhist ory
Ġíİ ĦìĬ¤
Ġê¸°ëĭ¤ ë¦´
ë¥ µ
Ġìļ° ìĤ¬
ê´Ģ ê´ĳ
Ġìĭľì¦Ī ì¹´
ĠìķĦë ²¨
íĬ¸ë ¬¸íĬ¸
ĠìķĦì¦Ī ìĤ¬
ĠëıĦë¥´ íĬ¸ë¬¸íĬ¸
Ġì¡° ëģ¼
Ġê°ķê²½ íĮĮ
ë¦¬ ìķĦìĸ´
ìļ© ìĦĿ
ì§ķ ê°Ģ
ìŀ¡ ëĭĪëĭ¤
Ġëħ¸íļĮ ì°¬
ĠìĺĪë¹ ĦìĹŃ
Ġíĳľì§Ģ íĮĲ
Ġë°Ķ ìĤ¬
ì¶© ìłľ
ĠëĤ¨ íķĺ
ĠìĹ¼ ìĽĲ
Ġë§Ī ì§ķê°Ģ
Ġë¹Ħ ìĦł
ĠìłĢ ìĬ¤íĭ´
Ġë³µ ìĭĿ
Ġst x
ĠíĺĦë ¬´
Ġíķľ ê²¨
ĠëĤĺíĥĢ ëĤ¸
Ġê²° íķµ
Ġì°¨ ê°Ģ
ĠíļĮ ê¸°
Ġæ Ģ
Ġìĭľ ê·¸ë
Ġl in
ĠíĨł ìĿĺ
ĠìĤ¬ìĹħ ë¹Ħ
Ġìĸ´ì©Ĳ ì§Ģ
Ġìĭľ ê¶ģ
Ġì´Ŀìĺģ ìĤ¬ê´Ģ
ĠìłĦì ¡°
ì§Ģ ë°©
Ġë³¸ ëĭ¤ê³ł
Ġë²½ ë©´
Ġë¬¼ëŁ¬ ëĤľ
ik a
Ġë¶Ħë ¹Ħ
Ġl og
ĠëıĦ ìłĦìŀĲ
ĠíĪ¬ ë¥´
Ġìŀ¥ ëª¨
Ġë°ĺ ëĭ¤ìĿ´
ĠëłĪ íĬ¸
Ġê´Ģ ìļ©
Ġì¹ľ ìĦľ
Ġê·¹ ìĦ±
íĻį ì²ł
Ġê¹Ģì§Ģ íĽĪ
Ġtc g
ĠëĮĢ ì²©
Ġë¬´ ë²ķ
Ġë´Ĳìķ¼ ì§Ģ
Ġbo x
Ġë²¼ ìĬ¬
Ġë°ķ ì§Ħìĺģ
Ġé Ĥ
ĠëıĦë§Ŀ ì³¤
ëłĪìĿ¸ ìłĢ
ĠìĽĲ ìĦ±
Ġë¯¸ ìĻĦ
ĠíĨµíĸī ë£Į
Ġë¶ĪìĤ¬ ì¡°
Ġë¹Ħì ķ½
Ġ!! âĸ¶
Ġì§Ģë§Į ìĿĢ
ĠìķĦë³´ ì¹´ëıĦ
ĠìĬ¬ ê¸°
ĠìĪł ë¶Ģ
ĠëĩĮ ì¡¸
Ġíĺ¸ëħ¸ ì¹´
ĠìĿ´ ëŀ¬
Ġd ist
Ġìĭ¬ íķ´ìĦľ
ìĽ¨ ìĿ´íĬ¸
ĠìłĢ ìłĪ
ê´Ģ ì´Ŀ
Ġìĸĳ ìķĦì¹ĺ
Ġê·ĢìĹ¬ ìĽĢ
ĠíĶĦëŀĳíģ¬ íĳ¸ë¥´íĬ¸
ĠëĮĢ ë¯¸
ĠìķĪ ì°©
Ġëĭ¬ íķľëĭ¤
Ġìļ´ ìłĦìĤ¬
Ġì§Ģíķĺ ìĪĺ
Ġíķĺìķ¼ íĨł
ìĤ¬ ê±´
Ġh am
ëıħ ë¶Ģ
Ġëŀĺ ìĬ¤
Ġë¬´ëĤľ íŀĪ
Ġëī´ ìłĢì§Ģ
Ġëĭ¤ìĿ´ ë¬ĺ
ĠëĮĢ ìĺģ
ĠìĤ¬ ìłģ
Ġìļ¸ ì§Ħ
Ġíģ¬ë¦¼ ì¹ĺì¦Ī
Ġê³Ħì ĸĳ
ë¸Ķ ë¡ľ
Ġim p
Ġìµľ ëıĻ
Ġìķħ ìŀ¥
Ġíļį ìłķ
ĠíĶĦëłĪ ëĶĶ
Ġë¨ ¼ë
Ġìłķëªħ íĽĪ
ĠìłĢ ê²ĥ
Ġë¡ľ ë§ĪìŀĲ
ĠìĦ¸ ìĭ¬
Ġsol id
Ġìĭł ìĿĢ
Ġê¸ Ķ
ur y
ìĽĮ ì§Ħ
Ġë²Ĺ ìĸ´ëĤ¬
Ġê¹Ģ ê±´
ĠìķĦëĭĪ íķĺ
Ġë¸Į ë£©
Ġëª¨ë¡ľ ì½Ķ
ĠíĦ± ìĹĨìĿ´
Ġëį´ ë§Ī
Ġìº¡ ì³Ĳ
Â· Â·
ubl ic
Ġíĵ¨ ì²ĺ
ĠìĤ¼ê°ģ íĺķ
Ġì¿ł ë¡±
Ġíķĺëĵľ ì½Ķìĸ´
ĠìŀĲ ë¦½
ĠìĻķ ë¦½
ĠìĬ¤íı° ì§Ģ
Ġì§Ģìĥģ êµ°
Ġê±´ëĦ ¸
s c
ĠìķĦ ìĿĺ
Ġìŀĺ ë¦¬
ĠìĿĺë¯¸ ìĭ¬ìŀ¥
Ġíģ¬ë¦¬ ìĹĲìĿ´íĦ°
Ġë²Į ì¹Ļ
un a
ĠìĹ°ìĨį ê·¹
ĠëıĮê²© ìĨĮì´Ŀ
½ ĺ
ì½Ķ ìĿ¸
or i
ĠíĹĽ ìĨĮë¦¬
Ġì°¹ ìĮĢ
Ġìĺ¤ ìĪĺ
Ġëįĺ ì§Ī
Ġìĺģ ì²ľ
ag o
Ġíıī ìłķ
ĠíĥĲì§Ģ ê¸°
ĠìĻ¸ ê³¼
Ġë¶Ģì§Ģ ëŁ°
Ġê¶Į íķĺ
ĠìĻĦ ìłĦì²´
ĠíĮ½ ì°½
áħ ³
Ġm ill
Ġì²´ ê°Ģ
ĠìŀĲìľł ëĭ¹
ĠìłĢìłĪ ë¡ľ
ĠíĮĶ ë¦°
Ġê°ĸ ê°Ģì§Ģ
ĠçĦ ¡
ĠìĿ´ ë¥Ļ
Ġìĺ¤ ëįķ
Ġë¦¬ ìĸ¸
ĠìĤ´ ìĤ´
Ġê¸° ìŀ¡ëĭĪëĭ¤
Ġì²´ ìĿ´ìĬ¤
ĠíĥĪ ìĦł
ĠíļŁ ì§ĳ
Ø §
Ġê²½ ìĿ´
ì©Į ëĳ¥
ĠìĹ° ë¦½
Ġìłľ ìĿ´ëĵľ
Ġë§¤ íĻĶ
ĠìĤ° ëª¨
ĠìĹī ìĹī
Ġíķ´ ë°Ģ
ëĵľ ëł¤
Ġê´Ģë¦¬ ìĿ¸
Ġìĺ¤ìĬ¤ íĭ´
Ġfem m
ĠìĿ´ ìĭł
Ġë¹¨ ëł¤
Ġè ª
Ġìŀ¬ìĤ¬ ìļ©
Ġh ad
Ġì¿ł ìĽ¨ìĿ´íĬ¸
Ġë²Ī ë²Ī
Ġì½Ķ ëĤĺë¯¸
Ġëª° ìķĦì£¼
ĠìĹł ë§Ī
Ġê²½ ë§Ī
Ġë¹Ļ íķĺ
ĠìĦ¸ ìłķ
Ġì²´ ìĿ´
ì½Ķ íĶĦ
Ġë°© ë¯¸
Ġíİ¸ ìłľ
ĠíĮĶ ëĿ¼ëĶĺ
Ġë´Ĳ ìĦł
Ġë§Ŀ íķ´
ĠìĤ´ê·ł ìłľ
Ġìĭł ëĵľ
Ġì²ł ìłľ
Ħ¤ ìĿ´íĦ°
ë¶Ħë ³Ħ
Ġê°ķ ì§Ģ
į° ìĭľ
Ġíķ´ìĦľ ìĿ¸ì§Ģ
íİ Ħ
ĠëıĦ ìĤ°
ĠìĺĪ ìļ°
Ġë§Īìĺ¤ ì©Įëĳ¥
ĠìĦ¸ ìľ¨
Ġìĺ¨ ìłĦ
íĺľ ìĽĲ
ëĤĺ íĥĢ
ĠìĦľ ìĬ¤
Ù Ħ
Ġêµ¬ ìĬ¤íĥĢ
ĠëĭĪì½ľ ëĿ¼
Ġê¹¨ìĸ´ ëĤľ
Ġíķľ ìĤ°
ĠëıĦ íĥĢ
ĠìĤ¬ìĿ´ íį¼
at ive
ê´Ģë¦¬ ìľĦìĽĲíļĮ
Ń ìĿ´
Ġë§Ī ëĭĪìķĦ
Ġì¡± ìŀ¥
Ġë°ĺ ëħĦ
ĠìĬ¤íĮ Ł
Ġìĺģ ì¢ħ
Ġìĺģ ì°½
ì£¼ ëĭĪìĸ´
Ġíķ¨ ë¯¸
ĠìĦłê±° ê´Ģë¦¬ìľĦìĽĲíļĮ
Ġì°© ì·¨
Ġìŀ¥ ì§Ģ
ìĹĲ ê³ł
Ġì¤ĳìĭ¬ ë¶Ģ
Ġì£¼ ìĽĲ
Ġì§ĳ ìłķ
Ġë©Ķ ìķĦë¦¬
ê·¸ë ĦĪ
ĠëĨĢ ë¦¼
ĠíķŃìĥĿ ìłľ
ĠìķĪ ëĿ½
ĠëĤĻ ë§Ī
ĠìĿ´ìĦ¸ë ıĮ
Ġì»¤ ë¨¼
Ġìĭ¸ë Ĭĺ
ĠìĦ¸ìĽĮ ì¡Į
Ġìĥģ ëıĦ
Ġis o
ĠìĻĦë ıĦ
ĠíĬ¸ë¦¬ ìĺ¤
Ġìķ¼ ìŀĲ
ê°± ìĿ´
Ġë°ĺ ì£¼
Ġìķŀ ë¨¸ë¦¬
Ġìķł ëĭ¹ì´Ī
Ġìĺ® ê¸¸
Ġíĥľê¶Į ëıĦ
Ġn um
Ġëħ¼ ìĪł
ĠíĥĳìĬ¹ ê°Ŀ
Ġêµ¬ë§¤ ìŀĲ
ĠìĺĪ ìŀ¥
ì²Ń ê°Ŀ
¯¼ì£¼ ëĭ¹
ìĨ¡ ìĿ´
ëĪĦë ¥´
Ġ* ****
ĠìĿ´ìłķ íĽĪ
Ġë°Ķì£¼ ì¹´
Ġìŀĳ ìĤ´
Ġë§Ī ìĿ´íĬ¸
Ġíĸīìłķ íķĻ
ĠíĥĿ íĸĪ
Ġìĭłë¢° ëıĦ
Ġph il
Ġê¹Ģê·¼ íĥľ
Ġp y
Ġê¸°ë¡Ŀ ë¬¼
ìĨĮ íĥĢ
íĬ¸ë Ł¼
Ġê¹İ ìĿ´
ë¶Ģ ì§Ħ
ĠëĳĲ íĦ°
ĠíĽĦ íĥĢ
Ġì±Ħ êµ´
ĠìĪĺ ì¦Ŀê¸°
ĠëĤĺ ìĹ°
Ġë¬´ ë¶Ħë³Ħ
Ġìĭ¬ ê¸°
ìĤ¬ ìĿĺ
Ġëį°ë·Ķ ìŀĳ
Ġë³µ ì¢ħ
Ġê³¼ë ĮĢ
Ġìĥ Ľ
Ġëħ¸ë²¨ ìĥģ
r ument
Ġíķľ ìĭľ
íķ į
Ġì£¼ ìĦł
ĠêµŃ íķľ
Ġfood ie
Ġst ay
Ġì§ĳ ë¬´ìĭ¤
ĠíĦ°ë¯¸ë Ħ¤ìĿ´íĦ°
ë² ¡
Ġìķ½ ìĪĺ
Ġì¹´ë¥´ ë§Ī
ĠíĨł ëª©
Ġìĭľ ìĹĺ
Ġìĭľ ê³µìĤ¬
ĠíĻĶ ë¶Ħ
ìĭ¤ íŀĪ
Ġp ri
Ġì§Ģ íĥ±
Ġë©Ģì©¡ íŀĪ
Ġìĺ¥ íĥĢ
ĠëģĮìĸ´ ìķĪ
Ġ9 0
Ġëĭ¤ìĿ´ìĸ´ ë¦¬
l ight
ĠíĹĪ ìĪĺ
íĺ¸ ìĺģ
Ġë§Ī ì»¤
ëĶ ´
Ġë³ĳ ìĭł
ĠíıĲ ìĤ¬
ĠìłĢì§Ī ëŁ¬
Ġë¦¬ íĪ¬
ic o
Ġêµ¬ ëĤ´
Ġë°± ê³¼
ĠéĦ Ń
Ġìłľë©ĭ ëĮĢë¡ľ
ĠìķĦ íķĺ
ĠìĥĿ íı¬
ĠìĨį ìĤŃ
Ġìķł ìĬĲë¦¬
ĠíĿĺëŁ¬ëĤĺ ìĺ¤
Ġìľł ëŀĮ
Ġìľł ëħ¸
Ġê¹Ģ ìłĦ
ĠëıĦ íĻĶ
Ġì½Ķ ë¯¸
ĠëĳĲ ê»į
Ġè «
Ġê´ĳ ìĭł
Ġë³ĳ ëĭ¨
ĠìĦľ ìķ½
Ġëĵ± ìĭ¬
ĠìĭĿ ì´Ī
Ġì£¼ ìĸ´ì¡Į
ef atale
ib le
Ġê°Ģì°½ ëł¥
Ġê±¸ì³Ĳ ìĦľ
ĠìĿ´ìĭľ ì¹´ìĻĢ
ĠìĿ´ìĭľ ëĭ¤
Ġfemm efatale
ìļĶ íĻĺ
Ġw ater
Ġíį¼ íĬ¸
Ġê³łìĨĮ ëĵĿ
Ġìĭľ ìĭĿ
ĠíĬ¸ ë¦¼
ĠíĤ¤ ê°Ģ
Ġë°ĺì§Ŀ ìĿ´
ĠíĻĶ ìĪĺ
Ġì°½ ìĦ¸ê¸°
ĠíıĲ êµĲ
Ġê°ľ íļĮ
Ġìļ° ìĿ´
ĠíĽĦì§Ħ íĥĢìĺ¤
ĠìķĦë ıĮ
Ġë¶ĻìĹ¬ ì§Ħ
ĠãĢĭ( )
ĠìĤ¬íĨł ìĭľ
Ġë¯¸ëĦ¤ ìĨĮíĥĢ
Ġe ast
Ñģ Ðº
ĠìĭĿ ìļķ
ĠìĤ¬íļĮ ë¶Ģ
ĠìĹĳ ìħĢ
Ġíģ´ë¦¬ ëĭī
ìĺ Į
ìŀ¬ ëĭ¨
Ġì¹´ ë°Ģ
ĠìĪ¨ê²¨ ìł¸
ĠìķĦìĿ´ìĬ¤ íķĺíĤ¤
ĠìĨ¡ ìłķ
Ġì¶©ìĦ± ìĭ¬
Ġìĺ¨ ê²Į
Ġìŀł ìŀĲë¦¬
Ġê¹Ķ ë¦°
Ġr b
Ġì¹´ëĭĪ ë°ľ
Ġl y
Ġë°Ķ ì³Ĳ
ĠìĿµ ìĬ¤íĬ¸ë¦¼
Ġêµ° ë²Į
Ġg er
ë²Ħ ìĦ¤
ì» ¥
Ġê³¨ ìŀĲ
ĠìĿ´ë£¨ìĸ´ ì§Ī
g et
Ħì ĸ´
Ġìĭłì²Ń ìŀĲ
ĠìľłëĭĪ ë²ĦìĦ¤
ĠíĿ© ìĸ´ìł¸
Ġê¸ī ë³Ģ
ĠíķĺëĬĺ ìĥī
Ġìłķ ë¯¸
ëĪ ĦìĹĺ
ĠëıĻìĦ±ìķł ìŀĲ
ang er
ĠìĪĺë¦¬ ë¹Ħ
ĠëŃ £
Ġëĭ¬ ë¦´
Ġê³ł ì¶©
ĠíĶĦë Ł°íĬ¸
ì²ľ ë©´
ĠëģĿ ìĹĨìĿ´
ĠìĺģíĻĶ ìĥģ
Ġëªħ ìĻķ
Ġì´Ŀ ìĹ´
åľ ĭ
ĠìĿ´ ëįķ
ĠëķĮ ëł¸
Ġêµ¬ ë£¡
ĠìłĦì §ĳ
Ġperf ect
Ġì¹´ë¬´ ìĿ´
ìŀĲ ëĿ½
Ġíļ¨ê³¼ ìĿĮ
Ġìķ¼ì¿ł ë¥´íĬ¸
Ġë¶Ģ ëĶĶ
Ġìĺ¬ ê²¨ìļ¸
ĠìĻ¸ ì¹¨
ìłĦë °©
ĠëĤ¨ ì£¼
Ġì« Į
Ġma h
ĠíĻĪ êµ¬ìŀ¥
Ġë·° ìĬ¤íĥĢ
Ġì¹ĺëªħ ìĥģ
Ġì²ŃëŁī ë¦¬
Ġìŀ¡ ìĿĮ
Ġê³µ ê¶Įëł¥
ĠíĿĳ íĻĶ
Ġê³¼íķĻ ë¶Ģ
Ġë²łìĬ¤íĬ¸ ìħĢëŁ¬
Ġì¡° ë¯¼
Ġíĺķ ëŁī
Ġìĭľ ë¥´
ĠìĿ¼ ì§ģ
Ġíĥľ íĽĦ
ĠìķĦë ©ľ
ĠëıĻíĺ¸ íļĮ
ĠìĽĲìĦ¸ íĽĪ
Ġë¶Ģ ìĭ¬
Ġê·¸ ëĭĪê¹Į
Ġê°ķ ìłģ
ĠìĹ°êµ¬ íļĮ
Ġë°ľëłĮ ìĭľìķĦ
ĠëıĦ ë©´
Ġë¶Īë¦¬ ìļ°
ĠìĹĳìĬ¤ ë§¨
ĠìĤ¬ëĭ¨ ìŀ¥
Ġíı ¿
ĠëłĮ ì§Ģ
ĠíĻľë°ľ íŀĪ
ĠåĲ Ľ
ìĹ°êµ¬ ìĽĲ
Ġinstag ood
ĠìĹ° ìĦ±
ĠëĮĢìļ° ê±´ìĦ¤
ĠíħĲ ìħĺ
Ġìµľ ìłĦë°©
Ġë¶Ī ë¥ľ
Ġì§ģ ê°Ĳ
Ġj j
Ġì§± ì§±
ĠìĤ¬ì¹´ ìĿ´
ëħ ĺ
ìŀĦë Ħ·
Ġìĺ¨ê²Į ìŀĦëĦ·
Ġìµľ ë©´
ĠìķĮìķĦì ±Ħ
Ġì¦Ŀ ìĦľ
Ġj ack
ëįĶ ê¸°
ĠìĿ´ë ¸Ķ
ĠìĿ¸ë ¶Ģ
ĠìłĢê²© ì´Ŀ
ë§ģ íĦ´
Ħìķ¼ ìĥ¤
ĠìĿ´ëĪ Ħìķ¼ìĥ¤
ĠìĦł ìĸĳ
Ġêº¼ë ł¤
ĠìĿ¸ ê³Ħ
Ġë°© ìłľ
Ġadv anced
ĠíĹĮ ëį°
ver s
Ġh it
Ġëª° ìķĦì
ĠëĪĦë ¥¸
ĠíĶĦëĿ¼ìĿ´ ì¦Ī
ë°Ķ íĥķ
ĠìĿĮëª¨ ë¡ł
Ġëĭ¹ì²¨ ìŀĲ
Ġëıħ ìĨĮ
Ġì¡¸ ìĿĮ
Ġë³¸ë ĶĶ
Ġat m
ë¸Į ë¡ľ
íĺĦ ìłķ
Ġëıħ ìĦ¤
Ġêº¼ ì¡Į
Ġss d
Ġì¦Ŀëªħ ìĦľ
Ġë¹Ħ ìŀĶ
Ġë°ķ ëĮĢ
Ġë°°ë¶Ģ ë¥´
ĠíĤ¤ íį¼
Ġë¡ľ ë¯¸
ĠëģĿ ëĤ¼
Ġtr ue
Ġë¹Ħë°Ģ ë¦¬
Ġke ep
ĠìľĦ ìĿ¸
Ġê¸ī ìĬµ
ĠìĹĩê°Ī ë¦°
Ġå ³
x x
ĠìĽĶ íĦ°
Ġë§Ĳ ìŀ¥ëĤľ
Ġìĸ´ íľĺ
Ġh m
ìłĦë ıĻ
ĠíĶ¼íķ´ ìķ¼
Ġê°Ģ ìĺ¥
Ġê²½ ìłķ
ĠíĨł ìĸĳ
Ġë§¤íĬ¸ ë¦ŃìĬ¤
ĠíĨł íķĳ
ĠìĬ¤íĬ¸ ëłĪìĿ´íĬ¸
Ġìļ°ìĿµ ìĪĺ
¡ Ń
ĠìĹĲ ëį´
ìĽĮ ì¡Į
Ġë§Ŀ íķł
ĠíĿ¬ ë¯¸
ĠìłľëĦĪ ëŁ´
ìĤ¬ ìļ°ë£¨ìĬ¤
ĠìĦľ ìľłëŁ½
Ġinst rument
Ġê°Ħê°Ħ ìĿ´
ĠëĦ¤ íĥĢ
Ġë°± ì¡°
Ġthe ir
ĠíĮĮëĤĺ ë§Ī
Ġë¬¸ ìĺĪ
ĠìĿ¼ìĸ´ ìĦľ
ë© Ī
ëĵ Ģ
Ġê±° ë¨¸
Ġë¶ģ ëĳĲ
Ġíİľ ìĭ±
ĠëĨį ê²½
ĠëĦĵ íĺĢ
ĠíıĲ ëł´
Ġì»¨ ë²¤
Ġëª©ìļķ íĥķ
Ġìĭľì¢ħ ìĿ¼ê´Ģ
Ġìķķêµ¬ ìłķ
ĠìĿ´ ê·¼
Ġí ıĦ
ĠãĢī (
Ġì¡°ê·¸ë §Į
Ġëĭ¤ ì£ł
ĠëĬ¦ ëįĶìľĦ
Ġli st
Ġíĸī êµ°
Ġìļ°ì¦Īë²ł íĤ¤ìĬ¤íĥĦ
Ġh u
Ġë½ĳ íĺĶ
ìĵ° ê¸°
Ġê³ł íıŃíĥĦ
Ġë§ī ë¡ł
Ġì¼Ħ íĥĢ
Ġv en
ĠìĿ´ ë°ĶëĿ¼
ìłķ ë³´
ĠëĤĺì¸ł ë¯¸
Ġchamp ion
Ġì¿ł íĮĮ
ë°ĶëĿ¼ ê¸°
Ġfor ce
ĠìķĪì¢ħ ë²Ķ
Ġê¹Ģíķ´ ìĭľ
Ġìļ© ìłĳ
Ġê¸ī ìĥģìĬ¹
Ġì½ľë¡ľ ëĭĪ
Ġíķĺ ìĪľ
Ġìĺ¤ ìŀ¬
Ġìĸ´ëł¤ ìĦľ
Ġì´Ŀê²© ìłĦ
Ġìłģ ë²ķ
ĠíĮ¨ íķľ
ĠìĽĲ ëĳĲ
Ġìŀł ìĭĿ
ul ar
) ,
Ġê²ĮìĿ´ ë°į
¼ë¦ ¼
Ġíŀ Ŀ
Ġne ko
ëĭĮ ëĭ¤
ĠëĮĦ ëĭ¤
ë» Ķ
¥ ¼
Ġt t
Ġì¢ĮìĦĿ ë²ĦìĬ¤
ĠëıĦ ì¶ķ
Ġë³Ģ ìĿ¸
id ent
ĠíĻ© ìĿ¸
ĠëĶ± ì§Ģ
Ġìŀ¥ê¸° ìłĦ
ĠìľĪ ìĬ¤íĦ´
Ġma ch
Ġëª¨ íĭ°
Ġìľ¤ ê¸°
ĠìĨĶ ëĿ¼
Ġìĺģ ìĤ°
ĠìŀĦ ìļĶíĻĺ
Ġë¶Īê°Ģ ìĤ¬ìĿĺ
Ġë¬¶ ìĿ¸
ê¶Ĳ ìĦłê±°
b f
Ġì§Ģ íıī
Ġê³µ ë¯¼
ĠìķĮ ì½ľ
ĠìĤ° ëľ»
Ġë½ĳ íŀĮ
ĠìĿ´ëĿ¼ë įĺ
Ġì§Ħ ê³¼
ĠëĤĺìĬ¤ ëĭ¥
ìĭł ë¬¸
¶Ģ ë¦¼
Ġëĭ´ ìŀ¥
ĠíĮ¨ìħĺ ìĩ¼
Ġíķľê²¨ ëłĪ
Ġìĥģ ìĦ¤
Ġë°ķ ìľł
ĠìĤ° ìŀ¬
Ġìłĳ íķł
ĠíĮĮìĿ¸ ìķłíĶĮ
ĠíĥĢ ê¹ĥ
Ġíķľ ëĮĢ
Ġê¸° ëĦ¤ìĬ¤
Ġê¾¸ ë¦¬
ĠíĨ¡íĨ¡ íŀĪ
Ġë§¤ íģ¬ë¡ľ
Ġë¸Į ëŀĢ
Ġê³ł ê¹ĥ
Ġì»¤ íĦ°
Ġch ild
Ġì¡° ìļ´
Ġêµ³ íŀĪ
ìĪĺ ë¬´
Ġëĭ¨ íķ©
Ġì½Ķ ëŁ¬ìĬ¤
Ġê°Ħ ëĭ¤ë©´
Ġë¡ľ ëĭĪ
Ġx i
ĠìĥĿìĤ° ëł¥
ĠìĿ´ ìĬ¤íĦ°
ĠìĥĿ ìĭĿ
¹ ł
Ġìŀ¥ ë§Į
ëĵĿ ìłĲ
Ġla w
Ġë¸Ķëŀĺ ìĬ¤íĬ¸
Ġìľł ìĹŃ
Ġêµ¬ ë£¨
ī ëĭĪëĭ¤
íħĮ ëĿ¼
Ġver y
Ġë¬¼ëŁ¬ ìĦľ
Ġì§Ģ ê·¸
ĠëĩĮì¡¸ ì¤ĳ
Ġíķĺ ë°ĺ
Ġìŀĳ ëł¬
Ġë¡ľ ë¡ľ
ĠìĽĢì§ģ ìĺĢ
Ġê±°ëĵŃ ëĤĺ
Ġê¸° íĮĲ
ak er
Ġì½ĺíħĮ ìĬ¤íĬ¸
Ħë ŀĺ
ĠëĦ· ì§¸
Ġë²łëĦ¤ ëĶķ
ĠëĿ¼ë į´
ëĨ Ķ
Ġì»¨ íį¼ëŁ°ìĬ¤
Ġê¹ĢìĪĺ íĺĦ
Ġëħ¸ë §Ī
Ġê³ ¶
Ġìłģ ê¸°
Ġë°° ê´Ģ
Ġê°Ģ ë©Ķ
Ġë¹ł ì§Ĳ
ĠìĦĿ ë©´
Ġë¹ļ ìĸ´ì§Ģ
Ġë§Į ìĹ°
ĠìĿĺ ë³ĳ
Ġsh ad
Ġì¹´ìĬ¤ ë¯¸
Ġì¿¡ ìĬ¤
Ġìŀ¬ë³´ ê¶ĲìĦłê±°
Ġìĸ´ ë¡ľ
ĠìľĦ íģ¬
Ġì¼ ĵ
Ġëªħ ì§Ģ
Ġì²Ń ê°ģ
ĠìłľëĦ¤ ë°Ķ
Ġëħ¸ ìĹŃ
ë°Ķ ìĺ¤
Ġê°ľ ë¦¬
ĦìĹ ´
ĠíĶĦëŀŃ íģ´ë¦°
ĠìĨĲ ìķĦ
Ġìķŀ ë§Īëĭ¹
ĠìĨĮì¤ĳ íŀĪ
ĠìķĦë ¡ł
Ġíį¼ ì§Ħ
å Ī
ĠìĪĺ ìłĦ
ĠìĨį ìĤ¬
ĠìĬ¤íĥł ë¦¬
Ġëħ¸ìĽĲ êµ¬
Ġê°ľ ì°°
Ġì¤ĳ ë¶ģ
Ġëħ¸ë ³´
ĠìĬ¤ ìĬ¤
ĠìĤ° ìłģ
Ġì§Ī ìĪĺë¡Ŀ
Ġë Ł¿
Ġíģ¬ëłĪìĿ´ ì§Ģ
Ġthe m
Ġìķħ ìĦ±
ĠìĶ Ģ
ĠÎ ²
ĠìĹŃ ëıĻ
ĠíĥĢìĿ´ ë²łìĿ´
íļĮ ìłĦ
Ġê¹Ģ ìĪľ
ĠíĨł ìĬ¤íĬ¸
ĦìĹ ¼
Ġíķľ ì¡°
Ġë³´ ìľĦ
ìĿ¸ë įĶ
Ġê·¸ íĨłë¡Ŀ
Ġìĺģ ë³Ģ
Ġì ¥´
ë²Ħ ë¦ĩ
ĠëĤĺëĤĺ ë¯¸
ĠëĳĲ ë¦¬
Ġì¡°ìĦł ì´Ŀ
Ġê¹Ģì§Ħ íĳľ
ëĭ¤ ë°ľ
Ġê°ģ ìĦľ
ĠíĶĦë¦¬ ì¦Ī
Ġp ap
ĠìĪĺìĭŃ ë§Į
âĨĲ âĨĲ
ĠëĤĺìĻĶ ìľ¼ë©°
Ġì§¤ ë°©
ë°ĺ ì§Ŀ
ĠìĹł íĮĮìĿ´ìĸ´
Ġì»¨ë²¤ ìħĺ
Ġë°ĺì§Ŀ ë°ĺì§Ŀ
ma il
Ġì½Ķ ì§Ģë§Ī
Ġsp ir
Ġê°ķìļ° ëŁī
Ġì¤ĳ ìĪĺ
Ġê´´ ëıĦ
Ġì¡°ìĦłì´Ŀ ëıħë¶Ģ
Ġë°© íĮĮ
Ġìĭ¤ ëł¸
Ġíķ´ ëĤ¼
Ġs erv
Ġê³ł êµŃ
Ġê³Ħ ìŀ¥
íıī ëıĻ
Ġæµ ·
Ġê°Ģ ì°¨
Ġìľł ëª©
Ġë°Ķ ëŀĺ
Ġê°ķ ìĺģ
Ġì¹´ íĬ¸ë¦¬
r ed
Ġì¿ ¼ëĵľ
Ġë¬» íŀĮ
Ġê²Ģ ëĭ¨
Ġæ ĥ
ĠêµŃìłľ ìĦł
Ġìļ° ë©Ķ
ĠíĻį ì§Ģ
Ġê³§ ìĿ´ìĸ´
Ġê³Ħìħ ¨
ĠìĬ¤íĨ ±
Ġìłķ ì²Ń
Ġìĭł ë´ī
ĠíĬ¹ë³Ħ ìŀĲì¹ĺ
ĠëĵĢ íĭ°
ĠíĬ¹ë³ĦìŀĲì¹ĺ ìĭľ
Ġë°©ë¬¸ ê°Ŀ
ĠìľĦë ¡Ģ
Ġå· ŀ
ĠìĭŃ ìĥģ
Ġë§Īì¼Ģ ëıĦëĭĪìķĦ
ìĸ´ ì°Į
Ġë§ĮíĻĶ ê°Ģ
Ġë°° ìŀĦ
ĠìĬ¹ ìĦł
Ġê³§ ìŀ¥
Ġë¹ħ íĨłë¦¬
ĠíĹ¤ìĸ´ ì§Ħ
ĠìĦľ ëĦĪ
ĠìĬ¤íĥĢ íĤ¹
âĨĻ âĨĲ
Ġê°Ģ íĺ¸
ê³µ ìĽĲ
Ġì¿ł íį¼
ol f
ĠìķĦìī¬ ìĽĮ
ĠìĽħ ìŀ¥
Ġë§Ī ê·¸ë§Ī
Ġê¸°ê´Ģ ì§Ģ
Ġìĸ´ì°Į ìĸ´ì°Į
ĠëĤ´ ë¹Ħ
ĠíĽĪëł¨ ìĨĮ
Ġë¹ĦíĬ¸ ì½ĶìĿ¸
ĠìłĦ êµ°
ìĬ¤íĥĢ ìĿ¼
Ġìĸĳ ë³µ
Ġé ļ
ĠíĿĳ ë£¡
Ġëĵ¤ ìľ¼ë©°
ìºĲ ìĬ¬
Ġíĥľìĸĳ ê³Ħ
Ġë¹Ĺ ì¤Ħê¸°
ĠíĮ° ë¦¬ìĬ¤
ĠìĬ¹ ìĬ¹
em ber
[...]
