{"[PAD]":0,"[UNK]":1,"[CLS]":2,"[SEP]":3,"[MASK]":4,"!":5,"\"":6,"#":7,"$":8,"%":9,"&":10,"'":11,"(":12,")":13,"*":14,"+":15,",":16,"-":17,".":18,"/":19,"0":20,"1":21,"2":22,"3":23,"4":24,"5":25,"6":26,"7":27,"8":28,"9":29,":":30,";":31,"<":32,"=":33,">":34,"?":35,"@":36,"[":37,"\\":38,"]":39,"^":40,"_":41,"`":42,"a":43,"b":44,"c":45,"d":46,"e":47,"f":48,"g":49,"h":50,"i":51,"j":52,"k":53,"l":54,"m":55,"n":56,"o":57,"p":58,"q":59,"r":60,"s":61,"t":62,"u":63,"v":64,"w":65,"x":66,"y":67,"z":68,"{":69,"|":70,"}":71,"~":72,"¡":73,"¢":74,"£":75,"¤":76,"¥":77,"¦":78,"§":79,"¨":80,"©":81,"ª":82,"«":83,"¬":84,"®":85,"¯":86,"°":87,"±":88,"²":89,"³":90,"´":91,"µ":92,"¶":93,"·":94,"¸":95,"¹":96,"º":97,"»":98,"¼":99,"½":100,"¾":101,"¿":102,"Â":103,"Ã":104,"Ä":105,"Å":106,"Æ":107,"Ç":108,"È":109,"É":110,"Ê":111,"Ë":112,"Í":113,"Î":114,"Ï":115,"Ð":116,"Ñ":117,"Ò":118,"Ó":119,"Ô":120,"Õ":121,"Ö":122,"×":123,"Ø":124,"Ù":125,"Ú":126,"Û":127,"Ü":128,"Ý":129,"Þ":130,"ß":131,"à":132,"á":133,"â":134,"ã":135,"ä":136,"å":137,"æ":138,"ç":139,"è":140,"é":141,"ê":142,"ë":143,"ì":144,"í":145,"î":146,"ï":147,"ð":148,"ñ":149,"ò":150,"ó":151,"ô":152,"ā":153,"Ă":154,"ă":155,"Ą":156,"ą":157,"Ć":158,"ć":159,"Ĉ":160,"Ċ":161,"Ď":162,"ď":163,"Đ":164,"đ":165,"Ē":166,"ē":167,"Ĕ":168,"ĕ":169,"Ė":170,"ė":171,"Ę":172,"ę":173,"Ě":174,"ě":175,"ğ":176,"Ġ":177,"ġ":178,"Ģ":179,"ģ":180,"Ĥ":181,"ĥ":182,"Ħ":183,"ħ":184,"Ĩ":185,"ĩ":186,"Ī":187,"ī":188,"Ĭ":189,"ĭ":190,"Į":191,"į":192,"İ":193,"ı":194,"Ĳ":195,"ĳ":196,"Ĵ":197,"ĵ":198,"Ķ":199,"ķ":200,"ĸ":201,"Ĺ":202,"ĺ":203,"Ļ":204,"ļ":205,"Ľ":206,"ľ":207,"Ŀ":208,"ŀ":209,"Ł":210,"ł":211,"Ń":212,"Ġì":213,"Ġë":214,"Ġê":215,"ĠìĿ":216,"Ġí":217,"Ġíķ":218,"ĠìĹ":219,"ĭ¤":220,"Ġ.":221,"ĠìĿ´":222,"ĬĶ":223,"Ġê°":224,"ĠìĹĲ":225,"ĠëĬĶ":226,"Ġìŀ":227,"Ġê³":228,"ìĿ":229,"Ġìł":230,"ìĦ":231,"§Ģ":232,"¡ľ":233,"Ġëĭ¤":234,"Ġìķ":235,"ĠìĿĺ":236,"ĠìĿĦ":237,"ëĭ":238,"ìŀ":239,"ëĭ¤":240,"Ġê²":241,"Ġíķĺ":242,"¼ë":243,"¸°":244,"Ġê°Ģ":245,"Ġìľ":246,"Ġ,":247,"ìł":248,"ë¦":249,"ıĦ":250,"Ġ1":251,"Ġë§":252,"Ġë°":253,"Ġê³ł":254,"Ĥ¬":255,"íķ":256,"ìĦľ":257,"Ġ0":258,"ìļ":259,"ĮĢ":260,"ëĭĪ":261,"Ġíķľ":262,"ĠìĿĢ":263,"ĭľ":264,"Ĭ¤":265,"Ġë¥":266,"ĸ´":267,"ĠëĤ":268,"ê°":269,"ĠìĦ":270,"Ġëĵ":271,"Ġë¥¼":272,"ê³":273,"Ġì§Ģ":274,"Ġ2":275,"ìĿ´":276,"ë¦¬":277,"Ġìĺ":278,"Ġê¸°":279,"ì§Ģ":280,"Ġë³":281,"ĠëıĦ":282,"ëĭĪëĭ¤":283,"Ġë¶":284,"ëł":285,"Īĺ":286,"êµ":287,"ĠìŀĪ":288,"Ħì":289,"Ġìľ¼ë":290,"Ġê·":291,"ĠëĲ":292,"Ħë":293,"¸ë":294,"ĠëĮĢ":295,"ìķ":296,"ê²":297,"ìĬ¤":298,"ëĤ":299,"ĥģ":300,"Ġë¡ľ":301,"Ġëª":302,"ĠìĤ¬":303,"Ġìľ¼ë¡ľ":304,"ë§":305,"Ŀ¼":306,"Ġë©":307,"ĠìĬ":308,"Ġ(":309,"Ġëĭ":310,"Ġìĭľ":311,"Ġìĸ´":312,"ê¸°":313,"ĠìĹĲìĦľ":314,"Ġ)":315,"Ġêµ":316,"Ġëĵ¤":317,"ìĹ":318,"Ġë³´":319,"Ġëħ":320,"ê³ł":321,"ĠìĿ¸":322,"£¼":323,"ĠìĪĺ":324,"ĠìĻ":325,"ìŀĲ":326,"Ġë¬":327,"ĠìĬµ":328,"ëĵ":329,"Ġ3":330,"ĽĲ":331,"Ġíĸ":332,"ĠìĬµëĭĪëĭ¤":333,"Ġëį":334,"ìŀ¥":335,"Ġíķ´":336,"ìĤ¬":337,"ĠëĤĺ":338,"ĠìķĦ":339,"ĠìŀĲ":340,"ê°Ģ":341,"ìĭ":342,"Ġê²Į":343,"ë¬":344,"Ġê³¼":345,"Ġ5":346,"ë°":347,"Ġìļ":348,"ë¶":349,"ıĻ":350,"Ġì§":351,"ì§":352,"Ġê±":353,"Ġ4":354,"ĠíĻ":355,"ì¹":356,"Ġ9":357,"ìĸ´":358,"Ġìłķ":359,"ĠíĸĪ":360,"Ġì¤":361,"Ġë²":362,"ìĺ":363,"ĠìĨ":364,"ìĭľ":365,"ëıĦ":366,"Ġíĺ":367,"íĬ":368,"ĠëĲĺ":369,"Ġ'":370,"ĠìĿ¼":371,"Ġìĭ":372,"Ġë¹":373,"ìľ":374,"íĥ":375,"Ġê²ĥ":376,"Ġì²":377,"íĻ":378,"ë¥":379,"ëĤĺ":380,"ìĿ¸":381,"ëį":382,"íĺ":383,"Ġ-":384,"¡°":385,"Ġë§Į":386,"Ġ\"":387,"Ġë¶Ģ":388,"Ġì°":389,"ìłķ":390,"Ġë©´":391,"Ġê¹":392,"¯¸":393,"ëŁ":394,"ĠëħĦ":395,"Ġ:":396,"íķ´":397,"Ġìłģ":398,"êµŃ":399,"Ġê·¸":400,"ëŀ":401,"ìļĶ":402,"ë¡ľ":403,"ìĥģ":404,"ë³":405,"ĠìłĦ":406,"ĠìĹĪ":407,"íĬ¸":408,"Ħ°":409,"ì²":410,"Ġ6":411,"Ġìĺ¤":412,"ĠìĻĢ":413,"ìĨ":414,"Ġ8":415,"ëĿ¼":416,"ĠíĮ":417,"ìłľ":418,"Ġì¹":419,"Ġ#":420,"Ġâ":421,"ë²":422,"Ġìłľ":423,"ĠìĹ¬":424,"Ġë§Ī":425,"Ġì£¼":426,"ë§Į":427,"Ġê³µ":428,"íķľ":429,"Ġê²½":430,"Ġì¶":431,"íĦ°":432,"ê¸":433,"ìĪĺ":434,"ļĮ":435,"Ġ7":436,"ĠìĬ¤":437,"Ġìĥģ":438,"ëĮĢ":439,"ĥĿ":440,"´Ģ":441,"Ġì¤ĳ":442,"ĠìĽ":443,"ëĵľ":444,"ëį°":445,"Ġíı":446,"ìĽĲ":447,"ĠëĿ¼":448,"ëª":449,"Ġê·¸ë":450,"Ġëª¨":451,"Ġíĥ":452,"Ġê¸":453,"ìļ°":454,"Ġìŀħ":455,"ìłĦ":456,"ì°":457,"ĠíĶ":458,"ķĮ":459,"êµ¬":460,"Ġì¡°":461,"Ġìľł":462,"Ġë¬´":463,"ŀĪ":464,"ë¶Ģ":465,"ìļ©":466,"ĠìĦľ":467,"íĸ":468,"ĠëĤ´":469,"ìĦ±":470,"ĠëķĮ":471,"ĠìĨĮ":472,"Ĩµ":473,"Ġëĵ±":474,"Ġìĸ":475,"ê²Į":476,"ì¹ĺ":477,"Ġíķł":478,"Ġê±°":479,"ë©":480,"ê·":481,"Ġê°ľ":482,"ĠëĦ":483,"ê±":484,"ĠìĦ±":485,"Ġc":486,"Ŀ¼ë":487,"íĻĶ":488,"ĠëĲľ":489,"íĶ":490,"ĠìĽĶ":491,"Ġì¢":492,"ĠìĹĨ":493,"ĠìĹ°":494,"ĠíĬ":495,"ëıĻ":496,"íŀĪ":497,"ë¬¸":498,"Ĥ°":499,"ëĬ":500,"ĠìķĪ":501,"ìŀ¬":502,"ģ¬":503,"Ġs":504,"ê°Ħ":505,"íķĺ":506,"Ġíķľëĭ¤":507,"ĠìľĦ":508,"íı":509,"ìĿ¼":510,"¯¼":511,"Ġìĺģ":512,"ì£¼":513,"Ġë¯¸":514,"ëł¥":515,"ĠìķĬ":516,"ĠìĦł":517,"íĮ":518,"ĽĦ":519,"ì§Ħ":520,"ìĦł":521,"ĠìĦ¸":522,"ìĭł":523,"ĠêµŃ":524,"Ġêµ¬":525,"ĠëıĻ":526,"ëł¤":527,"Ġì§Ģë§Į":528,"ĠìĽĲ":529,"Ġìĭł":530,"Ġì´":531,"Ġì£":532,"Ġë°Ķ":533,"ëĬĶ":534,"ë¥´":535,"ìĬ":536,"Ġëįĺ":537,"Ġë°©":538,"Ġìŀ¥":539,"Ġëĭ¹":540,"ë¹":541,"ëĭ¨":542,"íĥĢ":543,"ĠëĶ":544,"ë¡":545,"ĠìĥĿ":546,"Ġê´Ģ":547,"ìĿĺ":548,"ĠëĬĶëį°":549,"ì¤":550,"Ġëł":551,"Ġê¹Į":552,"ìķĦ":553,"Ġëı":554,"ĠìŀħëĭĪëĭ¤":555,"Ġ..":556,"Ġìļ°":557,"ĳĲ":558,"ìŀĳ":559,"Ġë°ľ":560,"ìĻ":561,"µľ":562,"¦¬":563,"ê²©":564,"ì¦":565,"ëŁ¬":566,"ĠëįĶ":567,"ë£":568,"ìĸ":569,"ĠëĿ¼ë":570,"Ġëªħ":571,"Ġê°ķ":572,"Ġì°¨":573,"Ġë°°":574,"ìķ¼":575,"ìļ´":576,"ìĨĮ":577,"¶Į":578,"Ġìŀ¬":579,"ëĭ¹":580,"Ġìµľ":581,"Ġê¹Įì§Ģ":582,"ê³Ħ":583,"Ġm":584,"ĠíĻĶ":585,"ĳľ":586,"ëħ":587,"Ġ/":588,"ìĽ":589,"ë¯¸":590,"íļĮ":591,"Ġíİ":592,"ìĭĿ":593,"íĸī":594,"ìĺ¤":595,"Ĥ¤":596,"Ġê¹Ģ":597,"ì¶":598,"Ġ!":599,"ĠíļĮ":600,"Ĩł":601,"Ġë§Ĳ":602,"Ġë¹Ħ":603,"Ġë¬¸":604,"ĠìĹĲê²Į":605,"Ġë©°":606,"ĠìĤ":607,"½Ķ":608,"ìĤ°":609,"ī´":610,"Ġìĭ¤":611,"ĠìłĢ":612,"ëłĪ":613,"ë©´":614,"ë³´":615,"ì¡":616,"ê¸Ī":617,"Ġë¶Ī":618,"ì²´":619,"Ġt":620,"ĠëĨ":621,"Ġ?":622,"íı¬":623,"Ġê²ł":624,"ë§Ī":625,"Ġëĭ¨":626,"Ġê°Ļ":627,"Ġë¨":628,"Ġë¦¬":629,"ĠìķĦë":630,"Ġì¹´":631,"Ġa":632,"êµĲ":633,"ĠëĤ¨":634,"Ġëĭ¤ê³ł":635,"íģ¬":636,"ŀĺ":637,"ë¬´":638,"ĠíĮĮ":639,"ìķĪ":640,"íĨµ":641,"ĠìĺĪ":642,"Ġë°Ľ":643,"ĠìĿ¼ë":644,"ìĹħ":645,"ê´Ģ":646,"ê±°":647,"ìĿĮ":648,"ĠíĥĢ":649,"Ġë°ĺ":650,"Ġë¶Ħë":651,"ìĹŃ":652,"íķĻ":653,"ìľĦ":654,"ĠíĬ¹":655,"Ġë§İ":656,"Ġk":657,"ëªħ":658,"Ġê²°":659,"íĭ":660,"Ġìĥ":661,"ĸ¶":662,"ê¹":663,"ë¹Ħ":664,"ĠìķĦì":665,"Ġë©´ìĦľ":666,"Ī¬":667,"ëŀĮ":668,"Ġì¶Ķ":669,"Ġê¸Ī":670,"ë¯¼":671,"Ġíı¬":672,"ĠëĬ":673,"Ġê±´":674,"ī´ìĬ¤":675,"¥ĺ":676,"ĠëķĮë¬¸":677,"ĠëĿ¼ê³ł":678,"ì¡°":679,"íĽĦ":680,"Ġ%":681,"¸Į":682,"Ġìķĺ":683,"ĠíĨµ":684,"ê°ģ":685,"Ł¬":686,"ë°©":687,"Ġy":688,"Ġíķ©":689,"ìľł":690,"ìĭ¤":691,"Ġw":692,"ĠìļĶ":693,"ìĥĿ":694,"ê³µ":695,"ĠìķĮ":696,"ë¥¸":697,"ĠìĺĢ":698,"ìĺģ":699,"ìĦ¸":700,"ĠêµĲ":701,"ĠìĹŃ":702,"ìĪ":703,"ë¶Ħ":704,"Ġë²Ī":705,"ê³¼":706,"Ġëį°":707,"ĠìĪ":708,"ëĦ":709,"ìŀĦ":710,"Ġëĺ":711,"Ġ~":712,"Ġë¶Ħë¥ĺ":713,"Ġì¦":714,"ë¦°":715,"ĠëĪ":716,"ëĬ¥":717,"Ġì²ĺ":718,"íĳľ":719,"ìļ¸":720,"ëĤľ":721,"Ġëĭ¤ëĬĶ":722,"»¤":723,"íĤ¤":724,"Ġëĭ¬":725,"Ġìŀĳ":726,"Ġëĵľ":727,"ĠíĽ":728,"Ġê¸°ìŀĲ":729,"Ġì´Ī":730,"íĴ":731,"Ġì¢ĭ":732,"ì¹´":733,"Ġì¶ľ":734,"ìĹ¬":735,"Ġì±":736,"Ġíķ¨":737,"Ġê°Ĳ":738,"ĠëĿ¼ëĬĶ":739,"Ġë°ķ":740,"ë¬¼":741,"ħĮ":742,"ĠëĺĲ":743,"ĠëłĪ":744,"ê²½":745,"Ġëģ":746,"ìĹ°":747,"Ġ...":748,"Ġë§¤":749,"ìłĲ":750,"Ġd":751,"Ġëī´ìĬ¤":752,"íĶĦ":753,"ë¡Ŀ":754,"ĠíĹ":755,"ëĶ":756,"Ġì§Ħ":757,"Ġâĸ¶":758,"ĠìłĦë":759,"íİ":760,"íĺ¸":761,"Ġp":762,"Ġì£¼ë":763,"ëł¹":764,"ìĨį":765,"ì¦Ī":766,"ĠíķĻ":767,"ĠëĭĪ":768,"Ġìľ¼ë©":769,"íĨł":770,"Ġìĺ¬":771,"ĠíĿ":772,"ëĤ´":773,"ë°ľ":774,"ĠíĶ¼":775,"ê¹Į":776,"ê¸ī":777,"íĥľ":778,"ĠíĺĦ":779,"ì°¨":780,"Ġi":781,"ĠìłĦì":782,"Ġb":783,"ĠëĳĲ":784,"ìŀħ":785,"ĠìķĦëĭĪ":786,"Ġë¶Ħ":787,"Ġíģ":788,"ĠìĨį":789,"ĠëĶ°":790,"Ġëħ¸":791,"ëŀĺ":792,"ĠëĮĢíķľ":793,"ìħ":794,"Ġìķ¼":795,"Ġì¹ĺ":796,"Ġê¶Į":797,"ê±´":798,"ì¢":799,"Ġë¶ĢíĦ°":800,"Ġëª»":801,"ìĭ¬":802,"ìĦĿ":803,"Ġco":804,"Ġì½Ķ":805,"ë£¨":806,"ĠìĤ¬ëŀĮ":807,"Ġ=":808,"tn":809,"ĠìłĲ":810,"ĠëĦ¤":811,"ì¤ĳ":812,"Ķ¨":813,"ĠëĲľëĭ¤":814,"ĠíĽĦ":815,"ëĵ¤":816,"Ġytn":817,"íķ©":818,"er":819,"ì¤Ģ":820,"Ġë²Ħ":821,"ëª¨":822,"Ġíģ¬":823,"ë¦Ħ":824,"ĠìĿ¸ë":825,"ĠìĤ´":826,"êµ°":827,"Ġf":828,"Ġë¶ģ":829,"ĠíĻķ":830,"Ġìº":831,"´ĳ":832,"Ġíıī":833,"Ġê²½ìļ°":834,"ìĸĳ":835,"ìłĢ":836,"ì¢ħ":837,"ĠìĦ¤":838,"ëĬĺ":839,"íĹ":840,"íĭ°":841,"Ġìĵ":842,"bs":843,"íĮĮ":844,"Ġì§ĳ":845,"ìłģ":846,"Ġë¨¹":847,"ĠìĿĮ":848,"ê¶Į":849,"ë²ķ":850,"ëł¨":851,"·¨":852,"Ġì°¸":853,"Ġíĺ¸":854,"ì¼":855,"ëĳĲ":856,"Ġíİ¸":857,"ëı":858,"ĠìĤ¬ìļ©":859,"íĴĪ":860,"Ġl":861,"Ġêµ°":862,"ĠëĴ":863,"Ġë³´ëĭ¤":864,"Ġì²ľ":865,"ìĺ¨":866,"Ġì§ģ":867,"Ġíĸī":868,"Ġì¡":869,"ĠëĤł":870,"Ġëŀ":871,"Ġë¯":872,"ĠìľĦì":873,"Ġì¢ħ":874,"ì¸":875,"ĠìĥĪ":876,"ëĵł":877,"Ġë©Ķ":878,"¶Ģ":879,"on":880,"Ĥĺ":881,"Ġê°ĢëĬ¥":882,"ĠíĪ¬":883,"ì´":884,"Ġíķ©ëĭĪëĭ¤":885,"ĠìĹ´":886,"ĠìłķëıĦ":887,"Ġìļ´":888,"Ġë³¸":889,"ĠâĢ":890,"ê·¼":891,"Ġë´":892,"ê°ľ":893,"ë¸Į":894,"Ġìĭľê°Ħ":895,"ĠíķľêµŃ":896,"Ġã":897,"ĠìĦľìļ¸":898,"ĠìĿ´íĽĦ":899,"Ġìĸĳ":900,"Ġê²Ģ":901,"Ġê·¸ë¦¬":902,"ìĬ¹":903,"in":904,"ìĦ¤":905,"ĠíĶĦë":906,"Ġh":907,"ì¶ľ":908,"Ġíĺķ":909,"Ġr":910,"Ġìĺ¤ëĬĺ":911,"Ġìĭ¬":912,"ĠíĮĲ":913,"Ġìŀĺ":914,"Ġëĸ":915,"Ġë¯¼":916,"ê»":917,"ì°°":918,"ìĬµ":919,"th":920,"§Ī":921,"Ġì²´":922,"Ġê°Ħ":923,"íĶ¼":924,"Ġê³Ħì":925,"Ġì´Ŀ":926,"íĿ":927,"³¸":928,"Ġì²Ń":929,"ĠìĻ¸":930,"ĠëĲĲ":931,"Ġë§ŀ":932,"Ġì·¨":933,"ĠëıĮ":934,"Ġë¹Ħì":935,"ĠìľĦíķ´":936,"ë³µ":937,"ë£Į":938,"ĠìŀĲìĭł":939,"ì²Ń":940,"Ġíķ´ìĦľ":941,"ì²ľ":942,"íĮĲ":943,"ĠìķĦìĿ´":944,"Ġn":945,"Ġìļ©":946,"ĠÂ":947,"ëłĩ":948,"íĻ©":949,"Ġìĸ´ë":950,"ëĶĶ":951,"Ġë£":952,"Ġë³Ģ":953,"¿ł":954,"Ġì¸":955,"ì¡±":956,"ìĪł":957,"id":958,"ĠìĿ´ëĤĺ":959,"ì½Ķ":960,"Ġê±¸":961,"Ġê¸Īì§Ģ":962,"ĠíĨł":963,"Ġê³Ħ":964,"ĠìĿ¼ë³¸":965,"ĠëĴ¤":966,"Ġë¯¸êµŃ":967,"ìĨ¡":968,"ĠíĮ¨":969,"ĠãĢ":970,"ì§Ī":971,"Ł°":972,"Ġë¬¸ìłľ":973,"ëŁ°":974,"Ġëĭ¤ë¥¸":975,"ëłĪìĿ´":976,"íĺķ":977,"ìħĺ":978,"ìĥ":979,"ìĽĮ":980,"Ġê³µê²©":981,"an":982,"ë°Ķ":983,"ĠìĬ¹":984,"¸Ķ":985,"ĠìĤ°":986,"ĠÂ·":987,"Ġg":988,"Ġëª©":989,"ìĻĢ":990,"ë²Ħ":991,"Ġìĵ°":992,"Ġë³µ":993,"ĠíĶĮ":994,"Ġìļ°ë¦¬":995,"ìł¸":996,"ë°ĺ":997,"ĠëĨĴ":998,"ĠìºĲ":999,"Ġê²½ê¸°":1000,"ëŁī":1001,"Ġìķŀ":1002,"Ġì¦Ŀ":1003,"ê·¸":1004,"íĹĺ":1005,"íĸ¥":1006,"Ġìĭľìŀĳ":1007,"³´":1008,"ê²°":1009,"Ġìķł":1010,"ĠâĹ":1011,"ĠíıŃ":1012,"ª½":1013,"ë¦½":1014,"Ġë¬¼":1015,"Ġë°°íı¬":1016,"ì¡Į":1017,"íĺĦ":1018,"ë§¤":1019,"ê»ĺ":1020,"ĠíĬ¸":1021,"ĠìĶ¨":1022,"ĠìĿ´ìĥģ":1023,"íĻĺ":1024,"Ġì»¤":1025,"ĠìĤ¬ìĭ¤":1026,"ĦìĬ¤":1027,"Ġe":1028,"ĠìĥĿê°ģ":1029,"ì§ģ":1030,"į°":1031,"Ġìķ½":1032,"ĠíħĮ":1033,"íĨµëł¹":1034,"ë¦¼":1035,"ĠëĪĪ":1036,"ĠëĲł":1037,"ëĿ¼ë":1038,"íħ":1039,"ìĬ¤íĬ¸":1040,"Ġíļ":1041,"ëĭ´":1042,"Ġê·¸ë¦¬ê³ł":1043,"Ġíĳľ":1044,"ê°Ĳ":1045,"Ġì§Ħì":1046,"ĠëĮĢíĨµëł¹":1047,"ĠìĭĿ":1048,"Ġâĺ":1049,"ĠìĿ´ë²":1050,"Ŀ½":1051,"Ġìħ":1052,"Ġíķ¨ê»ĺ":1053,"ĠíķĺëĤĺ":1054,"Ġíĥľ":1055,"ĠëĦĪ":1056,"ĠìĨĲ":1057,"ì§ĳ":1058,"ĠíĽĦë":1059,"Ġë²ł":1060,"ì§Ģë§Į":1061,"ĠìĹĶ":1062,"ĠíĻľ":1063,"ĠìĪľ":1064,"Ĥ´":1065,"Ġsbs":1066,"ĠëģĿ":1067,"Ġê·¸ëŁ¬":1068,"ì»¤":1069,"Ġê´ĳ":1070,"íģ":1071,"Ġì¤Ģ":1072,"Ġìĸ´ìĦľ":1073,"ìķĦë":1074,"ë¶ģ":1075,"ì±":1076,"Ġë²ķ":1077,"ĠíĮĢ":1078,"Ġëĭ¤ê°Ģ":1079,"ĠëĦĺ":1080,"Ġo":1081,"Ġ&":1082,"Ġê°ģ":1083,"ĠíĤ¤":1084,"Ġëĥ":1085,"bc":1086,"ĠíĴ":1087,"íĪ¬":1088,"ig":1089,"Ġì§ĢëĤľ":1090,"Ġ+":1091,"¡ł":1092,"Ġj":1093,"ĠìĤ¬ìĿ´":1094,"ìĻ¸":1095,"ĠìĹħ":1096,"Ġëĭ¤ìĭľ":1097,"Ġíķĺì§Ģë§Į":1098,"ìĸ¸":1099,"Ġì¶©":1100,"Ġë¹Ħë":1101,"Ġì£½":1102,"Ġìľ¼ë©°":1103,"ëħĦ":1104,"ĠëĶĶ":1105,"Ġë°Ŀ":1106,"Ġê³³":1107,"Ġë°±":1108,"ìłĪ":1109,"Ġë³ĳ":1110,"Ġì§ĢìĹŃ":1111,"Ġwid":1112,"Ġíĭ":1113,"Ġwidth":1114,"ìľ¼ë":1115,"ar":1116,"ëıħ":1117,"Ġëıħ":1118,"¬´":1119,"ĠìĬ¤í":1120,"Ġë§Ľ":1121,"Ġìłķë¶Ģ":1122,"Ġê·¸ëŁ°":1123,"ì¸ł":1124,"al":1125,"Ġëĵ±ìŀ¥":1126,"Ġëĵ¯":1127,"į¼":1128,"Ġëĵ¤ìĸ´":1129,"ĠëĮĢíķ´":1130,"Ġëł¤":1131,"ĠíķŃ":1132,"ĠìĤ¼":1133,"Ġë£¨":1134,"Ġì¹ľ":1135,"Ġë¬¼ë":1136,"ëĤ¨":1137,"Ġë°ı":1138,"Ġëħ¸ë":1139,"Ġìĸ´ëĸ":1140,"Ġê²ĮìŀĦ":1141,"ìķ½":1142,"Ġê´Ģëł¨":1143,"ĠìĬ¤íĥĢ":1144,"Ġì§Ģê¸Ī":1145,"ĠëĬĲ":1146,"Ġìľ¼ë©´":1147,"ĠëĬĶëĭ¤":1148,"ĠëĮĢíĳľ":1149,"Ġíİĺ":1150,"ëŀĳ":1151,"ĠëĤĺìĺ¤":1152,"ëŁ¼":1153,"ëł¸":1154,"°ĺ":1155,"Ġå":1156,"ê°ķ":1157,"Ġë¬´ëĭ¨":1158,"ë§Ŀ":1159,"Ġì½":1160,"ĠìĥģíĻ©":1161,"ëĿ½":1162,"ìĹĲ":1163,"ĠìĺģíĻĶ":1164,"Ġìķµ":1165,"íĥĿ":1166,"ĠìĦ¸ê³Ħ":1167,"ì³":1168,"Ġë¸Į":1169,"ĠëĶ°ëĿ¼":1170,"Ġë§İìĿ´":1171,"ĵľ":1172,"Ġë§Įëĵ¤":1173,"ĠíķĦ":1174,"Ġë¯¸ë":1175,"Ġë§ī":1176,"Ġì¼":1177,"ëģ":1178,"Ġëª¨ìĬµ":1179,"Ġê°Ģìŀ¥":1180,"Ġì¤ĳêµŃ":1181,"ĠëĤľ":1182,"Ġë¶ģíķľ":1183,"ĠìłĢìŀĳ":1184,"or":1185,"en":1186,"ĠìĿ´ëŁ°":1187,"ë¨":1188,"Łģ":1189,"Ġì»":1190,"Ġâĺŀ":1191,"Ġê¸´":1192,"ĠìĿ¸íĦ°":1193,"ë¦Ń":1194,"Ĥ¨":1195,"ëĭ¬":1196,"ë³ĳ":1197,"Ġìŀ¡":1198,"ëĵ±":1199,"Ġíģ´":1200,"Ġìĺ¨":1201,"ĠĠ":1202,"ĠíĻĺ":1203,"ŀ¨":1204,"íİ¸":1205,"íļ":1206,"ìĿĢ":1207,"Ġíŀĺ":1208,"ëĦĪ":1209,"Ġëª¨ëĳĲ":1210,"ĠíĺĦìŀ¬":1211,"Ġê¸ī":1212,"Ġê°Ģì§Ģ":1213,"ĠìĿ´ë²Ī":1214,"Ġì¡´":1215,"Ġíĺĳ":1216,"Ġtv":1217,"ê²¬":1218,"ìĥī":1219,"ĠíĶĦë¡ľ":1220,"es":1221,"Ġë³¼":1222,"Ġìĸ¸":1223,"ëª©":1224,"ë·":1225,"ê²¨":1226,"íĿ¬":1227,"Ġ@":1228,"ìķħ":1229,"Ġì£ł":1230,"íķŃ":1231,"Ġì¤Ħ":1232,"ĠìĻķ":1233,"Ġì°¾":1234,"Ġíģ°":1235,"ĠìĿ´ë¦Ħ":1236,"Ġë³´ìĿ´":1237,"ĠíŀĪ":1238,"ëŀĢ":1239,"ëįĶ":1240,"Ġíķ´ìķ¼":1241,"Ġê±°ëĤĺ":1242,"ë¥ĺ":1243,"©°":1244,"ë©Ķ":1245,"Ġì²ĺëŁ¼":1246,"Ĩį":1247,"ë°ķ":1248,"Ġíļ¨":1249,"ĠëĪĦ":1250,"íĸĪ":1251,"Ġë¿":1252,"Ġê·¸ëŀĺ":1253,"ĠíĹĪ":1254,"ì±ħ":1255,"ë¡ł":1256,"íİĺ":1257,"ĠìĿ¸ëį°":1258,"Ġth":1259,"ìķĦì":1260,"ĠëŁ¬":1261,"Ġì²ł":1262,"at":1263,"Ġê¸¸":1264,"Ġìĸ´ìļĶ":1265,"ëłĩê²Į":1266,"Ġv":1267,"Ġë°Ŀíĺ":1268,"íķ¨":1269,"Ġëĳ":1270,"ë§Ĳ":1271,"Ġì§Ī":1272,"Ġê°Ī":1273,"ë§ī":1274,"ĠëĤ®":1275,"ìĬ¤íĦ°":1276,"ĠìłĪ":1277,"Ġ*":1278,"ë³¸":1279,"Ġë²Į":1280,"ìĿ´ìĬ¤":1281,"Ġê·ľ":1282,"Ġë¹ł":1283,"Ġëĭ¤ìĿĮ":1284,"ê¶ĮìŀĲ":1285,"it":1286,"ĠìľĦìĽĲ":1287,"©ëĭĪëĭ¤":1288,"Ġë¸Ķ":1289,"Ġëĭ´":1290,"ì´Ī":1291,"ëħ¸":1292,"Ġìĸµ":1293,"¨ìĸ´":1294,"ĠíĻ©":1295,"ĠìĦłìĪĺ":1296,"Ġëĭ¹ìĭľ":1297,"íħĮ":1298,"ĠìķĦëĭ":1299,"ĠìĥģëĮĢ":1300,"íĬ¸ë":1301,"ĠëĮĢíķĻ":1302,"Ġìī":1303,"..":1304,"Ġì²«":1305,"Ġì¶ķ":1306,"Ġì¶Ķê°Ģ":1307,"ìª½":1308,"Ġê²½ìłľ":1309,"Ġë¶Ħì":1310,"ĠìłĢìŀĳê¶ĮìŀĲ":1311,"Ġìĭ¶":1312,"ìłĳ":1313,"Ġíľ":1314,"ìľ¡":1315,"ĠëĬĶëį°ìļĶ":1316,"Ġê²½ì°°":1317,"Ġìĥģíĥľ":1318,"ëĥ":1319,"¬¸":1320,"Ġì°½":1321,"ĠìĻĦ":1322,"ĠâĨ":1323,"ê²ĥ":1324,"ĠíĶ¼íķ´":1325,"ĠíĦ°":1326,"ĠíĨµíķ´":1327,"Ġìĺģìĥģ":1328,"ìĽĢ":1329,"ĠíķĦìļĶ":1330,"ĠíĽĦë³´":1331,"ĠëĬ¥":1332,"Ġë°©ìĨ¡":1333,"ë°°":1334,"©´":1335,"Ġëª¨ëĵł":1336,"Ġëı¼":1337,"Ġæ":1338,"ìĿ´íĬ¸":1339,"un":1340,"ĠíĬ¹íŀĪ":1341,"ì²ĺ":1342,"ĠëĲ©ëĭĪëĭ¤":1343,"Ġì¡°ìĤ¬":1344,"Ġë¡":1345,"íķł":1346,"ĠìłĦìŀ¬":1347,"Ġì¼Ģ":1348,"ë·°":1349,"Ġê´Ģê³Ħ":1350,"Ġê³ĦìĨį":1351,"ĠìĿĺìĽĲ":1352,"Ġkr":1353,"Ġì¿ł":1354,"ëĦ¤":1355,"ì³Ĳ":1356,"ĠëĦĪë¬´":1357,"´´":1358,"ìķ¼ê¸°":1359,"ĠëŃ":1360,"st":1361,"Ġë¯¼ì£¼":1362,"Ġì¢Ģ":1363,"ìĤ´":1364,"Ġì§¸":1365,"ì£":1366,"ì²ł":1367,"Ħ´":1368,"íĥĦ":1369,"Ġì§Ģë°©":1370,"Ġë°Ķë¡ľ":1371,"ĠíĻį":1372,"Ġì±Ħ":1373,"Ġëľ":1374,"¬¼":1375,"ê´ĳ":1376,"Ġê²°êµŃ":1377,"Ġìķµì»¤":1378,"Ġìķħ":1379,"¶ģ":1380,"ë´":1381,"ëĵĿ":1382,"Ġê·Ģ":1383,"ìĶ¨":1384,"ê¸Ģ":1385,"ĠìĹ°íķ©":1386,"ĠìĤ¬ê±´":1387,"ë³Ħ":1388,"Ġìĭľìŀ¥":1389,"Ġê¼":1390,"ĠìŀĦ":1391,"ĠëıĻìķĪ":1392,"ĠíĶĦ":1393,"ì¦Į":1394,"ë¦´":1395,"Ġê·¸ëŀ¨":1396,"ëŁ½":1397,"ĠíķĻêµĲ":1398,"ì¦Ŀ":1399,"Ġì²ĺìĿĮ":1400,"ĠìĿ´ìĸ´":1401,"§ģ":1402,"Ġíĭ°":1403,"íģ¼":1404,"ĠìĿ¸íĦ°ë·°":1405,"ë²Ķ":1406,"ëħĢ":1407,"ĠíĥĪ":1408,"Ġìłķì¹ĺ":1409,"ìĻĶ":1410,"Ġìŀł":1411,"Ġì¸¡":1412,"Ġcom":1413,"Ġê³¨":1414,"ì¶Ķ":1415,"Ġë³´ìĹ¬":1416,"Ġíħ":1417,"ŀĢ":1418,"Ģë¡ľ":1419,"Ġê¸°ìĤ¬":1420,"Ġëĸ¨ìĸ´":1421,"el":1422,"ĠìĿ´ìľł":1423,"ĠêµŃê°Ģ":1424,"ĠëĨį":1425,"Ġë°Ģ":1426,"íļį":1427,"ĠìºĲë¦Ń":1428,"Ġê¸°ë¡Ŀ":1429,"Ġë²Ķ":1430,"Ġê·¹":1431,"ì¡´":1432,"ĠëĺĲíķľ":1433,"ĠëĨĵ":1434,"Ġì¹´ëĵľ":1435,"ĠìĹ¬ëŁ¬":1436,"ìĽĶ":1437,"ëĤł":1438,"ĠìĹ¬ê¸°":1439,"ì¼Ģ":1440,"ĠëĤ´ìļ©":1441,"Ġëª°":1442,"ĩ´":1443,"ĠíĺĦì":1444,"ĠìĿ´ìļ©":1445,"íĶĮ":1446,"Ġìµľê³ł":1447,"igh":1448,"Ġìľ¼":1449,"Ġë°ĿíĺĶ":1450,"Ġê·¸ëŁ¬ëĤĺ":1451,"ĠëĬ¥ëł¥":1452,"ĠìºĲë¦ŃíĦ°":1453,"ì»":1454,"Ġë³Ħ":1455,"Ġì§Ħíĸī":1456,"Ġìĭľì¦Į":1457,"Ġëĭĺ":1458,"Ġë¶Ģë¶Ħ":1459,"ì°½":1460,"ĠìĶ":1461,"Ġëĭ¤ë©´":1462,"Ġìĭľë¦¬":1463,"Ġë¨¸":1464,"ªħ":1465,"ĠíĮĶ":1466,"ĠâĹĨ":1467,"íį¼":1468,"Ġë°ĸ":1469,"Ġíļ¨ê³¼":1470,"am":1471,"ĠëĬĺ":1472,"ĠíĬ¸ë":1473,"ĠëĥĲ":1474,"ê·¹":1475,"ĠëıĦë¡Ŀ":1476,"ë¨¸":1477,"Ġê¸°ìĪł":1478,"Ġê°ĻìĿ´":1479,"ĠêµŃë¯¼":1480,"Ġì±ħ":1481,"Ġë³´ëıĦ":1482,"ĠìĬĪ":1483,"ë¯¼êµŃ":1484,"ic":1485,"Ġë¿Ĳ":1486,"ĠìĿ´ë¯¸":1487,"ê°Ŀ":1488,"Ġê½":1489,"ĠëĬĶì§Ģ":1490,"Ġê³¡":1491,"ìĿ¼ë":1492,"Ġìłĳ":1493,"ight":1494,"Ġì·¨ìŀ¬":1495,"ĠíĶĮëłĪìĿ´":1496,"ë¡Ģ":1497,"¹ĺ":1498,"ìĪľ":1499,"Ġx":1500,"ì°©":1501,"ì½":1502,"Ġê²°ê³¼":1503,"ĠìķĦëĭĮ":1504,"ëĭĪê¹Į":1505,"le":1506,"Ġëĭ¤ë§Į":1507,"ĠìĿ¼ë¶Ģ":1508,"ĦëĮĢ":1509,"į¨":1510,"Ġì§ĢìĽĲ":1511,"ĵ¤":1512,"ê³¡":1513,"Ġ]":1514,"Ġìĭ¸":1515,"Ġthe":1516,"ĠëĮĢíķľë¯¼êµŃ":1517,"Ġê·¼":1518,"ĠìĽĮ":1519,"ĠëıĪ":1520,"âĸ¶":1521,"Ġìĥģëĭ¹":1522,"us":1523,"ìĿĳ":1524,"ê·¸ë":1525,"ĠìĿ´ìķ¼ê¸°":1526,"ì°¬":1527,"ëĤ¬":1528,"ĠìĹŃìĭľ":1529,"ì¹ľ":1530,"ìĺĢ":1531,"íĻľ":1532,"Ġë¬¼ë¡ł":1533,"íĭĢ":1534,"Ġìľ¡":1535,"¼ë§Ī":1536,"ì¶ķ":1537,"ĠëĤĺìĺ¨":1538,"ĠìĹ°êµ¬":1539,"íĺĢ":1540,"Ġìĭ¤ìłľ":1541,"Ġìłķë³´":1542,"ĠëĿ¼ìĿ´":1543,"ĠìľĦíķľ":1544,"ĠìķĦìĦľ":1545,"ĠêµŃíļĮ":1546,"Ġmbc":1547,"ĠëĤ´ìĿ¼":1548,"ĠìĹĨìĿ´":1549,"ê¸¸":1550,"Ġë¨¼":1551,"Ġkbs":1552,"Ġë§Įíģ¼":1553,"ĠìĭľíĤ¤":1554,"ĠìĦ¸ë":1555,"ĠìĿ´ëłĩê²Į":1556,"ì§ķ":1557,"ì¿ł":1558,"ìĿĦ":1559,"ĠíĻķìĿ¸":1560,"Ġëĳĺ":1561,"¥´":1562,"íĥĪ":1563,"Ġìĩ":1564,"ew":1565,"ë©°":1566,"ìļ´ëį°":1567,"ing":1568,"ĠëŀĢ":1569,"íĮ¨":1570,"ĠìłĦêµŃ":1571,"ĠìłĦíĪ¬":1572,"Ġê³µìĭĿ":1573,"ë¶Ģë¶Ħ":1574,"Ġìĭľë¦¬ì¦Ī":1575,"ìķł":1576,"ĠíĴĢ":1577,"Ġì¡°ìĦł":1578,"Ġê¸Ģ":1579,"ê°Ī":1580,"ĠìĨ¡":1581,"ed":1582,"ĠãĢĭ":1583,"íĺľ":1584,"ĠìĿ¼ë°ĺ":1585,"ĠíĻľëıĻ":1586,"Ġë§¤ìļ°":1587,"ĠìŀĲì²´":1588,"íĴį":1589,"Ġíĸ¥":1590,"ĠìĿ¸ì§Ģ":1591,"Ġíķµ":1592,"ëıĮ":1593,"ĠìĬ¤íĤ¬":1594,"ìĻķ":1595,"ìĿ´ì§Ģ":1596,"ĠãĢĬ":1597,"íĽ":1598,"ìľ¼ë©°":1599,"ĠëĤĺëĿ¼":1600,"ê·ľ":1601,"ĠìĤ¬íļĮ":1602,"ì¼ľ":1603,"ë²¨":1604,"ê±°ë¦¬":1605,"==":1606,"Ġì¡´ìŀ¬":1607,"ĠìķĦë¬´":1608,"Ġë¶Ļ":1609,"ĠëĮĢë¶Ģë¶Ħ":1610,"ĠĊ":1611,"ĠìĦ¼":1612,"ĠìķĮëł¤":1613,"ĠìĤ¬ê³ł":1614,"ë¶Ī":1615,"Ġê°Ģìļ´ëį°":1616,"ĠëĤĺíĥĢ":1617,"ëĬĲ":1618,"íħľ":1619,"ĶĶ":1620,"Ġìĸ»":1621,"ë¦¬ìķĦ":1622,"Ġì§ģìłĳ":1623,"ĠìµľëĮĢ":1624,"Ġìĸ¼":1625,"ĠâĨĴ":1626,"ë²Į":1627,"ëŀľ":1628,"ĠìĹ¬ìĦ±":1629,"Ġìľ¤":1630,"Ġê·¼ë":1631,"Ġá":1632,"ĠìĻľ":1633,"Ġìĺ¬ëĿ¼":1634,"Ġì¡°ê¸Ī":1635,"Ġì£¼ìĿ¸":1636,"Ġìŀħìŀ¥":1637,"Ġê¸°ìĹħ":1638,"Ġëĸł":1639,"Ġê·¸ëłĩ":1640,"ĠìķĦì¹":1641,"Ġìĸ´ëĸ¤":1642,"Ġë¬´ê¸°":1643,"Ġ...)":1644,"Ġëª»íķĺ":1645,"Ġëĵł":1646,"ì§Ģë§ī":1647,"Ġê¸°ì¤Ģ":1648,"Ġê²©":1649,"ê¸´":1650,"ĠíĮ¬":1651,"ĠíĹ¤":1652,"Ġìļ¸":1653,"Ġst":1654,"íĺ¼":1655,"Ġë¦":1656,"ĠìĪĺì¤Ģ":1657,"Ġìľ¼ëĤĺ":1658,"Ġê±°ìĿĺ":1659,"ĠìłĦì²":1660,"Ġì¦ī":1661,"ĠíĻĪ":1662,"**":1663,"ë¦¬ìĬ¤":1664,"Ġëĭµ":1665,"ìļ±":1666,"ĠìŀĳíĴĪ":1667,"ĥ¥":1668,"Ġë°ľìĥĿ":1669,"Ġëĭ¤ìļ´":1670,"ĠëĤłìĶ¨":1671,"Ġíķ´ëĭ¹":1672,"íĦ´":1673,"Ġê°ĸ":1674,"Ġê·¸ëĥ¥":1675,"ĠìŀĲë¦¬":1676,"Ġê°ľë°ľ":1677,"Ġëįķ":1678,"ìĿ¸ëĭ¤":1679,"Ġu":1680,"ĠëıĦìĭľ":1681,"ë³Ģ":1682,"ĠìĿ´ë":1683,"ĠíĺĦìŀ¥":1684,"Ġë°¤":1685,"Ġì£¼ìŀ¥":1686,"ĠìĦłê±°":1687,"²Ħ":1688,"ìľ¨":1689,"Ġë§Īì§Ģë§ī":1690,"Ġë´Ĳ":1691,"Ġíıīê°Ģ":1692,"ch":1693,"ëī´ìĬ¤":1694,"Ġì¹¨":1695,"íıī":1696,"Ġê³Ħíļį":1697,"Ġê¸°ë³¸":1698,"Ġê°Ĳëıħ":1699,"is":1700,"Ġê³µê°ľ":1701,"ĠêµĲìľ¡":1702,"ĠëĿ¼ë©´":1703,"Ħì²":1704,"Ġìĸ´ëĸ»":1705,"ĠìĥĪë¡ľ":1706,"Ġëªĩ":1707,"ĠìĦĿ":1708,"ĠìĦ¤ëªħ":1709,"Ġìª½":1710,"Ġê¸°ìĺ¨":1711,"ĠìķĶ":1712,"Ġíľ´":1713,"ë¸Ķ":1714,"§Ŀ":1715,"Ġê²°ìłķ":1716,"ìĸ´ëĤĺ":1717,"ìĺĪ":1718,"ëĮĢë¡ľ":1719,"Ġíķ´ëıĦ":1720,"Ġì½ĺ":1721,"ĠêµŃëĤ´":1722,"ìĬ¨":1723,"ìľ¼ëĤĺ":1724,"ìķĻ":1725,"Ġìłķë§Ĳ":1726,"ĠëłĪìĿ´":1727,"Ġëħ¼ë":1728,"Ġê²Ģì°°":1729,"Ġê´Ģë¦¬":1730,"ŀĳ":1731,"ìłĦíŀĪ":1732,"ĠìķĦì§ģ":1733,"Ġch":1734,"Ġëª¸":1735,"ĠìĺĪìĥģ":1736,"íı°":1737,"ìĿ´ìħĺ":1738,"ĠëłĪë²¨":1739,"re":1740,"íĽĪ":1741,"ĠìĪĺìĤ¬":1742,"ĠìĹĲìĦł":1743,"Ġìķķ":1744,"ĠìĻĶ":1745,"Ġë¬¸íĻĶ":1746,"Ġé":1747,"ĠíĿ¬":1748,"ro":1749,"Ġë°ĶëŀĮ":1750,"ĠìĺĪìłķ":1751,"Ġì¦Ŀê°Ģ":1752,"Ġin":1753,"ëĳ":1754,"Ġì¹ľêµ¬":1755,"Ġë§ĪìĿĮ":1756,"ĠìĤ¬ì§Ħ":1757,"ìĿµ":1758,"ll":1759,"Ġìĺģíĸ¥":1760,"ì´Ŀ":1761,"ĠìĬ¬":1762,"ĠìĪ¨":1763,"Ġëķ":1764,"ĠìĹ¬ìŀĲ":1765,"ë¦°ëĭ¤":1766,"Ġê°Ģê²©":1767,"ĠêµŃìłľ":1768,"ĠìľĦì¹ĺ":1769,"Ġë´ī":1770,"ĠëĮĢìĥģ":1771,"Ġç":1772,"ĠìĹ°íķ©ëī´ìĬ¤":1773,"ews":1774,"ëħĲ":1775,"ĠìĤ¬ëŀĳ":1776,"ê³³":1777,"Ġìłķìĥģ":1778,"Ġìµľê·¼":1779,"ë´ī":1780,"ĠìĮ":1781,"ì¹Ń":1782,"Ġìĸ´ëĬĲ":1783,"Ġë¦¬ê·¸":1784,"ë¯":1785,"§ľ":1786,"ĠìŀĲê¸°":1787,"Ġëĭ¬ë¦¬":1788,"Ġíı¬íķ¨":1789,"Ġê°ĳ":1790,"ë°±":1791,"Ġê·¸ëŁ°ëį°":1792,"Ġim":1793,"íķĻêµĲ":1794,"Ġìı":1795,"ĠìĶ©":1796,"ĠíıĲ":1797,"Ġíķľëĭ¤ëĬĶ":1798,"ĠìĦ±ê³µ":1799,"Ġë°ľíĳľ":1800,"íĤ¨":1801,"Ġì§Ħì§ľ":1802,"Ĭ·":1803,"Ġë§Īëĭ¤":1804,"ìĸµ":1805,"Ġê³¼ìłķ":1806,"Ġìłľìŀĳ":1807,"¾¸":1808,"ĠìłĦìŁģ":1809,"ĠëĦ£":1810,"ĠìĤ¬ìĹħ":1811,"Ġíĺ¸ë":1812,"Ġíĳ":1813,"ĠìĦ¸ìļĶ":1814,"êµ´":1815,"Ġë¶ĢìĤ°":1816,"ĠëĤĺê°Ģ":1817,"ĠìĹĺ":1818,"ĠìĿ´ìłľ":1819,"ĦĲ":1820,"ĠìłĦì²´":1821,"Ġë¹ĦìĬ·":1822,"íĨ":1823,"Ġíĺ¼":1824,"ou":1825,"ĠëĤĺìĻĶ":1826,"ì¸¡":1827,"Ġì¦Ĳ":1828,"Ġë§Īë²ķ":1829,"Ġê·¸ëŀĺìĦľ":1830,"ĠëĨĢ":1831,"ìģ":1832,"Ġìŀ¥ê´Ģ":1833,"ķ¼":1834,"ìĹ¼":1835,"oo":1836,"ìĭľìķĦ":1837,"íĨłë¦¬":1838,"Ġ[":1839,"ĠíĽĦì":1840,"ìĺ¬":1841,"ìŀĪ":1842,"ĠìĿ¸ë¬¼":1843,"íĺ¹":1844,"Ġë²ĦìĬ¤":1845,"ìĹ´":1846,"Ġê²ģ":1847,"ĠëĤ´ëł¤":1848,"Ġpx":1849,"ĠëĭĪê¹Į":1850,"ĠìĿ¸ê°Ħ":1851,"íŀ":1852,"Ġë§¡":1853,"ëĪ":1854,"ĠëĮĢë¡ľ":1855,"Ġê·¸ëĮĢ":1856,"ĠìĨįëıĦ":1857,"ĠìĤ¬ë§Ŀ":1858,"ì¹¨":1859,"ĠëĮĢìĭł":1860,"ë²ł":1861,"Ġëª¬":1862,"ë¶ĢíĦ°":1863,"Ġíķĺë£¨":1864,"ĠìĨįë³´":1865,"ê´´":1866,"Ġìĸ´ìłľ":1867,"ad":1868,"ĠìłĦë¬¸":1869,"Ġë§Ŀ":1870,"Ġëħ¹":1871,"ì§Ħëĭ¤":1872,"ìĬ¬":1873,"Ľ°":1874,"as":1875,"ion":1876,"Ġëī´":1877,"Ġë¹¨":1878,"ĠëŃĲ":1879,"Ġì¸µ":1880,"Ġì°¨ëŁī":1881,"Ġë§ĮëĤĺ":1882,"Ġë°©ìĸ´":1883,"ìļĶìĿ¼":1884,"Ġìī½":1885,"ê·ł":1886,"Ġì¤ĳìļĶ":1887,"ac":1888,"Ġì°į":1889,"Ł¼":1890,"ë¥ł":1891,"ëľ":1892,"Ġê³łìļĶ":1893,"ìŁģ":1894,"Ġì§ĢëĤĺ":1895,"Ġë¯¼ì£¼ëĭ¹":1896,"Ġë°©ë²ķ":1897,"íľ":1898,"Ġëĵ¤ìĸ´ê°Ģ":1899,"íĮħ":1900,"íı¬íĬ¸":1901,"ĠíĶ¼ë":1902,"ĠìĿĺë¯¸":1903,"Ġìļ´ìĺģ":1904,"Ĥ¹":1905,"ìĿ´ìĸ´":1906,"ĠìĿ´ìłĦ":1907,"ëĨ":1908,"ĠíķĻìĥĿ":1909,"et":1910,"Ġì°¸ê³ł":1911,"Ġìĺ¤íĽĦ":1912,"Ġìļ´ëıĻ":1913,"§Ĳ":1914,"Ġë¹Į":1915,"ĠìĤ¼ìĦ±":1916,"ĠìļĶêµ¬":1917,"Ġê¿":1918,"ë©ĺ":1919,"ĠâĹĢ":1920,"ë¯¸ì§Ģ":1921,"ĠëĤ¨ìŀĲ":1922,"ĠëĮĢíļĮ":1923,"ĠìķĦì¹¨":1924,"Ġê°Ģì¡±":1925,"ĠëĮĢíķ´ìĦľ":1926,"ê²Ģ":1927,"ĠâĢĻ":1928,"ìĹĨ":1929,"ĠìĹŃìĤ¬":1930,"Ġëħ¼":1931,"ê°Ķ":1932,"Ġë°°ìļ°":1933,"ëĿ¼ìĿ´":1934,"Ġê°ķíĻĶ":1935,"Ġëĭ¤ë©°":1936,"ĠìĦłíĥĿ":1937,"Ġë³¸ìĿ¸":1938,"ĠìĿ´ëıĻ":1939,"ìĶ":1940,"Ġë²Ħë¦¬":1941,"Ġì±Ħë":1942,"os":1943,"Ġmb":1944,"ëĤĺëĿ¼":1945,"ĠìĨĮìĨį":1946,"Ġì¤Ģë¹Ħ":1947,"Ġìłķì±ħ":1948,"ĠëĽ°":1949,"ìľ¼":1950,"²Ħì§Ģ":1951,"Ġìĸĺ":1952,"Ġìĩ¼":1953,"ëĶ©":1954,"ĠìŀĦì":1955,"Ġë´¤":1956,"ĠëĦ¤ìļĶ":1957,"Ġì¶ľìĭł":1958,"íıŃ":1959,"Ġìĥģëĭ¹íŀĪ":1960,"Ġíķľëĭ¤ê³ł":1961,"ëĦĲ":1962,"Ġì¶ķêµ¬":1963,"Ġê·¸ëĮĢë¡ľ":1964,"Ġon":1965,"ìĿ´íģ¬":1966,"Ġì£¼ìĿ¸ê³µ":1967,"Ġì¿":1968,"ħ¸":1969,"ê·Ģ":1970,"Ġë³¸ë":1971,"ê±¸":1972,"Ġì°©":1973,"Ġëª¨ë¥´":1974,"Ġww":1975,"ĠìĿĳ":1976,"ĠìĿ¸íķ´":1977,"ĠìĿ´ê²ĥ":1978,"ĠíĥĦ":1979,"ĠìŀĲëıĻ":1980,"ĠíĪ¬ìŀĲ":1981,"ìĬ¤íģ¬":1982,"ĠíļĮìĤ¬":1983,"Ġë§¨":1984,"Ġê·ľëª¨":1985,"Ġan":1986,"Ġê¸°ê´Ģ":1987,"Ġê±°ë¦¬":1988,"ìĿ¸ë":1989,"Ġëŀĳ":1990,"ĠíĴį":1991,"Ġìĥī":1992,"Ġëħ¼ëŀĢ":1993,"Ġìľłì§Ģ":1994,"Ħì²Ń":1995,"ĠìŀĲìľł":1996,"Ġë¨¸ë¦¬":1997,"ĠâĢĺ":1998,"ĠìłĦë§Ŀ":1999,"Ġìĸ´ëł¤":2000,"ĠíĥĢìĿ´":2001,"ĠëĬĲëĤ":2002,"Ġì¤ĳìĭ¬":2003,"Ġë¨¼ìłĢ":2004,"ìķĦê°Ģ":2005,"ìľµ":2006,"ĠìŀĶ":2007,"ow":2008,"Ġë°ľê²¬":2009,"Ġìĸ´ëĸ»ê²Į":2010,"ìŀ¡":2011,"Ġê¶ģ":2012,"Ġof":2013,"...":2014,"Ġìĺ¬íķ´":2015,"Ġë³Ħë":2016,"ĠìłľìĻ¸":2017,"íĩ´":2018,"Ġìĭľì²Ń":2019,"ĠìŀĲìĦ¸":2020,"Ġë¥ĺ":2021,"Ġì¤ĳìķĻ":2022,"Ġëł¤ê³ł":2023,"Ġë¬¸ìĦľ":2024,"ĠíĽĪ":2025,"ĠìĥģìĬ¹":2026,"Ġë¦¬íı¬íĬ¸":2027,"ĠìĭľëĮĢ":2028,"Ġêµ¬ì¡°":2029,"ĠìĿ¼ëĭ¨":2030,"ĠëĮĢìĤ¬":2031,"Ġê¸°ëĮĢ":2032,"Ġë³´ìĿ¸ëĭ¤":2033,"ĠìĹħì²´":2034,"Ġëľ»":2035,"ħĢ":2036,"ì¼ĵ":2037,"ĠëĮĢìłĦ":2038,"ĠíļĮìĿĺ":2039,"Ġë¹Ħë¡":2040,"ĠíĶĦëŀĳ":2041,"ĠíĺĦëĮĢ":2042,"Ġíį¼":2043,"Ġìĭ¤ìłľë¡ľ":2044,"ĠíĨ":2045,"ê²¼":2046,"ì¦ĺ":2047,"Ġêµ¬ìĦ±":2048,"ĠëĿ¼ë©°":2049,"£¹":2050,"ĠíļĮìŀ¥":2051,"ëĿ¼ëıĦ":2052,"Ġê³¼ê±°":2053,"ê°ĳ":2054,"ĠìĥĿíĻľ":2055,"Ġè":2056,"Ġì»¨":2057,"Ġì²ĺë¦¬":2058,"ĠìĨĮë¦¬":2059,"ĠìĹĦì²Ń":2060,"íĻķ":2061,"Ġíĺ¹":2062,"ĠìķĦìļĶ":2063,"ĠìĿĮìķħ":2064,"Ġì°¨ìĿ´":2065,"ĠíĢ":2066,"Ġê¸°ê°Ħ":2067,"Ġê²¨":2068,"ĠíļĮëĭ´":2069,"Ħìķ":2070,"ĠëĵľëŁ¬":2071,"ĠíĮĲë§¤":2072,"ĠìĪł":2073,"ìĿ´ëĵľ":2074,"Ġê²ģëĭĪëĭ¤":2075,"Ġê´´":2076,"ĠìĽĢ":2077,"®¤":2078,"Ġê¸Īìľµ":2079,"ol":2080,"Ġì¯":2081,"ital":2082,"ĠìĭľìłĪ":2083,"ĠíİĺìĿ´ìĬ¤":2084,"ìŀħëĭĪëĭ¤":2085,"Ġdig":2086,"Ġê°ľìĿ¸":2087,"ìļķ":2088,"Ġë°Ķê":2089,"Ġì£¼ìļĶ":2090,"ëĭĿ":2091,"§Į":2092,"Ġì¶ľìĹ°":2093,"Ġmbn":2094,"íķľëĭ¤":2095,"ìĪĻ":2096,"ĠìłľíĴĪ":2097,"Ġìĸ´ìķ¼":2098,"ĠìĹ°ê²°":2099,"Ġ;":2100,"Ġwww":2101,"ĠìĥĪë¡ľìļ´":2102,"Ġdigital":2103,"íĶ½":2104,"Ġìĸ¸ê¸ī":2105,"Ġë¡ľìĦľ":2106,"Ġë§Įëĵł":2107,"ëģ¼":2108,"Ġìľłëªħ":2109,"ĠìĦ¬":2110,"ëŀĲ":2111,"Ġì°¸ìĹ¬":2112,"ĠìĽĲëŀĺ":2113,"ĠëıĦë¡ľ":2114,"Ġkm":2115,"Ġìĸ¸ë":2116,"ĠìĻ¸ë":2117,"ľĦ":2118,"Ġë°ĺëĮĢ":2119,"Ġë§ĽìŀĪ":2120,"°Ķ":2121,"ì£Ħ":2122,"ĠìĺģêµŃ":2123,"ìĩ":2124,"Ġì£¼ìĿĺ":2125,"Ġë³µìłľ":2126,"ĠëĤ´ë¦¬":2127,"ĠìķĦëĵ¤":2128,"Ġë½":2129,"Ġto":2130,"ĠêµĲìĪĺ":2131,"ĠìķłëĭĪ":2132,"Ġìĸĺê¸°":2133,"ìķĦìĺ":2134,"Ġê°Ģê¹Į":2135,"ĠëĮ":2136,"Ġìĸ¼ë§Ī":2137,"ĠëģĮ":2138,"Ġìŀĩ":2139,"ĠìĿ¸ìĤ¬":2140,"ë©ĺíĬ¸":2141,"ĠíĺĲ":2142,"ĠëıħìĿ¼":2143,"íŀĮ":2144,"Ġê¹¨":2145,"ĠìłľëĮĢë¡ľ":2146,"Ġìī¬":2147,"¨¸":2148,"³Ģ":2149,"ent":2150,"ì£¼ìĿĺ":2151,"ìĹĪ":2152,"ĠìĬ¹ë¦¬":2153,"ĠëĿ¼ìĿ¸":2154,"Ġë³´ìŀħëĭĪëĭ¤":2155,"ĠìľĦìĽĲíļĮ":2156,"ĠëĮĢêµ¬":2157,"ëĢ":2158,"Ġë³ĳìĽĲ":2159,"ĠìĿĺíķ´":2160,"Ġëĭ¤ë¥´":2161,"ìį¨":2162,"Ġëĭ¤ìĸĳ":2163,"íģ´":2164,"Ġì£¼ë¯¼":2165,"Ġê·¸ëħĢ":2166,"Łī":2167,"Ġê·¸ê²ĥ":2168,"ĠíĬ¹ë³Ħ":2169,"Ġëħ¸ëŀĺ":2170,"Ġë°©ìĭĿ":2171,"íħĲ":2172,"ĠíĹĮ":2173,"Ġì±ĦëĦĲ":2174,"Ġjt":2175,"Ġê¹Ģìłķ":2176,"ĠíļĮë³µ":2177,"im":2178,"íĺĳ":2179,"Ġì¯¤":2180,"Ġìĭ±":2181,"ë§ģ":2182,"Ġìĸ´ë¦°":2183,"íĺģ":2184,"il":2185,"ë¡ľëĵľ":2186,"Ġê³łëĵ±":2187,"ëłµ":2188,"ĠìķĦíĮĮ":2189,"ìĽħ":2190,"Ġë°ĶëĢ":2191,"ìķ¡":2192,"ĠìĹ¬íĸī":2193,"Ġjtbc":2194,"Ġë¹Ħíķ´":2195,"ĠìĹŃíķł":2196,"ĠìľĦìĽĲìŀ¥":2197,"Ġë§ģ":2198,"ag":2199,"ĠìĦ¤ìłķ":2200,"Ħëĵľ":2201,"Ġíĥĳ":2202,"Ġë¬ĺ":2203,"ì·¨":2204,"ĠìĿ¸ê¸°":2205,"ĠëĶ¸":2206,"ĠëĴ·":2207,"Ġì§ĢëĤľíķ´":2208,"Ġë³´ìĬ¤":2209,"ĠëĮĢíķĻêµĲ":2210,"ĠëĿ¼ëıĦ":2211,"ìĿ¸íĬ¸":2212,"Ġë¹Ī":2213,"Ġê°ķëł¥":2214,"Ġì²ŃìĻĢ":2215,"Ġíĩ´":2216,"ĠëĪĦë¦¬":2217,"ĠíĶĦë¦¬":2218,"Ġì²ŃìĻĢëĮĢ":2219,"ĠìĭľìĬ¤":2220,"ĠìķĦë²Ħì§Ģ":2221,"Ġìĭľë¯¼":2222,"ê³¤":2223,"Ġìľ¼ëĭĪ":2224,"ay":2225,"Ġsn":2226,"Ġê´Ģìĭ¬":2227,"ve":2228,"ĠëıĻìĭľ":2229,"ë§ĪíĬ¸":2230,"íĥģ":2231,"Ġì¢Į":2232,"ĠíİĺìĿ´ìĬ¤ë¶ģ":2233,"Ġêº":2234,"Ġë§Īë¦¬":2235,"ê°Ģì§Ģ":2236,"ëĿ¼ë§Ī":2237,"Ġê·¸ë£¹":2238,"Ġìµľì¢ħ":2239,"Ġì£¼ë³Ģ":2240,"¤íĬ¸":2241,"Ġê°ĲìĤ¬":2242,"Ġê¸°ì¡´":2243,"ëĭ¤ê°Ģ":2244,"ëĿ¼ê³ł":2245,"ĠíĶĦëŀĳìĬ¤":2246,"Ġìį¨":2247,"ĠëĤĺìĿ´":2248,"ĠìħĶ":2249,"Ġmm":2250,"ìĬ¤íĥĢ":2251,"íļ¨":2252,"ĠíĸīìĤ¬":2253,"Ġìĥ¤":2254,"ĠìĽĶëĵľ":2255,"Ġìĭľì¼ľ":2256,"ë²½":2257,"Ġê¸´ê¸ī":2258,"ĠìľĦíķ´ìĦľ":2259,"Ġìŀ¥ë©´":2260,"ĠìŀĳìĹħ":2261,"Ġë¹ĦêµĲ":2262,"īìŀ¥":2263,"ĠìĦľë¡ľ":2264,"ë¥¼":2265,"ìĸ´ëĤľ":2266,"Ġëĵ£":2267,"Ġê±´ë¬¼":2268,"Ġì§ĢëıĦ":2269,"ëįķ":2270,"ì³¤":2271,"Ġìķ¨":2272,"Ĩŀ":2273,"ĠìĥĿìĤ°":2274,"Ġë¥ł":2275,"ĠìĦ¤ì¹ĺ":2276,"ĠìĻ¸êµŃ":2277,"Ġìķ¡":2278,"ĠìĤ¬ëĿ¼":2279,"ĠìĬ¤íĨłë¦¬":2280,"Ġë°©ë¬¸":2281,"ìĸ¼":2282,"Ġë³´ëĤ´":2283,"Ġë°ľìĤ¬":2284,"ì¿":2285,"Ġëª»íĸĪ":2286,"Ġì¸ł":2287,"ĠìĦ±ìŀ¥":2288,"Ġìĸ´ëĶĶ":2289,"ëłĮ":2290,"Ġê²¬":2291,"ĠìĨĶ":2292,"Ġë©¤":2293,"ĠìŀĲì£¼":2294,"ĠëĶľ":2295,"Ġë§ĪìĿĦ":2296,"ĦìĹ":2297,"ĠìĽĥ":2298,"Ħ¸":2299,"Ġìĺ¤ìłĦ":2300,"ìĽł":2301,"Ġìłķìĭł":2302,"ĠìĦ¼íĦ°":2303,"ĠíĿĳ":2304,"Ġì£¼ë¡ľ":2305,"ĠíĬ¸ìľĦ":2306,"Ġì°¬":2307,"Ġê³µê²©ëł¥":2308,"°©":2309,"ĠíĬ¸ìľĦíĦ°":2310,"ĠìĿ´ë£¨":2311,"ëŀľëĵľ":2312,"ì»¬":2313,"ĠìĦ±ìļ°":2314,"ĠíķŃê³µ":2315,"ĠìĹ°ê¸°":2316,"Ġë¯Ģë¡ľ":2317,"Ġë©Ģ":2318,"Ġëĭ¨ì²´":2319,"Ġë§¥":2320,"ĠíĿĶ":2321,"Ġê±´ê°ķ":2322,"ĠìĪĺëıĦ":2323,"ĠìłĦíķ´":2324,"Ġì¡Į":2325,"Ġëĭ¬ëŁ¬":2326,"ìļ´ëĵľ":2327,"Ġì»¤ë©ĺíĬ¸":2328,"ĠìĿ´ëŁ¬":2329,"ë¯¸ë":2330,"Ġì¦Ī":2331,"ëĭĽ":2332,"ĠìłĦíĻĶ":2333,"Ġìļ°ìĬ¹":2334,"ë²Ī":2335,"Ġíŀ":2336,"ĠìĨĮíĻĺ":2337,"Ġë³´íĨµ":2338,"ë¹ĦìĬ¤":2339,"ìľ¤":2340,"âĺ":2341,"ĠëĤĺìĻĢ":2342,"Ġì¡¸":2343,"ĠìĭŃ":2344,"ĠìķĦìĺ":2345,"ĠìĿĢíĸī":2346,"Ġê·¸ëŀĺëıĦ":2347,"Ġì§ľ":2348,"Ġìļ°ëł¤":2349,"Ġä":2350,"ì©":2351,"ĠíĿĲ":2352,"ĠëĵľëĿ¼ë§Ī":2353,"Ġwi":2354,"Ġë¶ĦìľĦ":2355,"Ġë©¤ë²Ħ":2356,"ª¨":2357,"¢°":2358,"ĠìĿ¸ìłķ":2359,"ĠëĦĺìĸ´":2360,"Ġì¤Ģëĭ¤":2361,"ĠìķĦíĮĮíĬ¸":2362,"Ġë¶Ģì¡±":2363,"Ġìĺ¤ë¥´":2364,"ĠëĺĲëĬĶ":2365,"Ġì²´ëł¥":2366,"ĠìĿ´ë²¤íĬ¸":2367,"Ġsm":2368,"íķĦ":2369,"ĠìľĦê¸°":2370,"Ġìĺ¤íŀĪ":2371,"ëĭµ":2372,"ec":2373,"ìĥĪ":2374,"Ġì§Ģêµ¬":2375,"Ġë¶ĦìĦĿ":2376,"ĠíĺĲìĿĺ":2377,"ĠìĬ¤íħĮ":2378,"Ġìĺ¤íŀĪëł¤":2379,"Ġë¶ĦìľĦê¸°":2380,"ìĨĮë¦¬":2381,"ĩĮ":2382,"Ġê°ľìļĶ":2383,"Ġê¸°ëĬ¥":2384,"Ġê°Ķ":2385,"ë¥Ļ":2386,"Ġë°ķê·¼":2387,"ĠëįĶìļ±":2388,"ë°©ìĨ¡":2389,"ëį¸":2390,"Ġë¹ĦíĮĲ":2391,"Ġê·¸ëłĩê²Į":2392,"ëª¬":2393,"ê³¨":2394,"ĠìľłëŁ½":2395,"ĠìĿ¸ì²ľ":2396,"Ġëģ¼":2397,"ĠìķĦëŀĺ":2398,"ĠìĿĺíĺ¹":2399,"ì¶©":2400,"Ġê½¤":2401,"Ġì°¸ê°Ģ":2402,"Ġíŀĺëĵ¤":2403,"ìļ°ìĬ¤":2404,"ĠíĨµíķ©":2405,"ĠìŀĦë":2406,"ĠìĭľìĬ¤íħľ":2407,"ëĥĲ":2408,"Ġìľ¨":2409,"Ġìµľì´Ī":2410,"ê·¸ëŀ¨":2411,"ĠëĤĻ":2412,"ĠìľĦíĹĺ":2413,"Ġì§ķ":2414,"Ġëļ":2415,"Ġê´":2416,"ĠëŁ¬ìĭľìķĦ":2417,"Ġë¯¸ìĤ¬":2418,"Ġë°¥":2419,"ĠìĬ¤ë§ĪíĬ¸":2420,"Ġë°ķê·¼íĺľ":2421,"Ġì§Ħë":2422,"ĠëĬĲëĤĮ":2423,"ìĺ¥":2424,"ĠìķĪìłĦ":2425,"Ġì´Ŀë¦¬":2426,"om":2427,"Ġëĭ¨ê³Ħ":2428,"Ġë°ĶìĿ´":2429,"ĠìļĶì¦ĺ":2430,"ì±Ħ":2431,"ĠëĮĢíĻĶ":2432,"Ġìĸ¼êµ´":2433,"Ġìĵ¸":2434,"Ġìłľë³´":2435,"Ġsns":2436,"íĥķ":2437,"Ġë³Ģê²½":2438,"Ġì¥":2439,"Ġê»":2440,"Ġë¥´":2441,"ĠëĶ±":2442,"íķĳ":2443,"ĠìľłëĭĽ":2444,"ĠìľłìłĢ":2445,"Ġëĭ¤ìļ´ë¡ľëĵľ":2446,"ot":2447,"ĠëĮĢì²´":2448,"ĠìĽĢì§ģ":2449,"Ġëį°ë¯¸ì§Ģ":2450,"Ġíı¬ìĿ¸íĬ¸":2451,"Ġê±´ìĦ¤":2452,"Ġì§ĳì¤ĳ":2453,"ĠíĸīëıĻ":2454,"Ġíķ´ê²°":2455,"Ġì±ħìŀĦ":2456,"ĠëĶ°ë¥´":2457,"Ġì§Ģì§Ģ":2458,"ì§Ŀ":2459,"íĶĦíĬ¸":2460,"ĠìĿĺê²¬":2461,"ĠêµĲíĨµ":2462,"ĠìĭľìĦ¤":2463,"íĬ¼":2464,"Ġíĺķíĥľ":2465,"ĠìĿ¸ê°Ģ":2466,"ĠëĤĺìĺ¨ëĭ¤":2467,"Ġë²ĦìłĦ":2468,"Ġì½ľ":2469,"ĠëıĦìĽĢ":2470,"Ġëª¬ìĬ¤íĦ°":2471,"Ġì¶Ķì²ľ":2472,"Ġêµīìŀ¥":2473,"ëĭ¥":2474,"ub":2475,"ĠìķĦì£¼":2476,"Ġìļ°ì£¼":2477,"py":2478,"ë°Ģ":2479,"Ġì²łëıĦ":2480,"ĠìĿĢëį°":2481,"Ġìłģìļ©":2482,"Ġê³¼íķĻ":2483,"Ġì£¼ë§Ĳ":2484,"íħĶ":2485,"ì°®":2486,"Ġëĭ¤ëĭĪ":2487,"ĠâĢľ":2488,"ĠíĹ¬":2489,"ìĿ´íĦ°":2490,"¼ë¦¬":2491,"ëłĪìĬ¤":2492,"Ġê³¤":2493,"Ġê°ľìĽĶ":2494,"ĠìĻ¸êµĲ":2495,"Ġë®¤":2496,"ŀµ":2497,"ĠìĪĻ":2498,"ĠìĿ¼ìłķ":2499,"Ġëħ¸ìĦł":2500,"Ġì¶Ķì§Ħ":2501,"ĠìłĦë¶Ģ":2502,"Ġì§Ģíķĺ":2503,"ìĿ´ë²Ħ":2504,"ìĨĲ":2505,"Ġê°ķì¡°":2506,"Ġë°ĺìĿĳ":2507,"ĠíĬ¹ìĪĺ":2508,"Ġëĭ¹ìĹ°":2509,"Ġê¸°íĥĢ":2510,"ĦìĪĺ":2511,"====":2512,"ìĤ":2513,"Ġëĸ¨ìĸ´ì§Ģ":2514,"ĠìĿĮìĭĿ":2515,"ĠìĤ°ìĹħ":2516,"Ġê´ĳì£¼":2517,"ëģĶ":2518,"Ġìĸ´ëıĦ":2519,"Ġëĭ¹íķĺ":2520,"Ġê±°ê¸°":2521,"ī¬":2522,"ĠìłķíĻķ":2523,"ëĨĵ":2524,"ĠìĥĿë°©ìĨ¡":2525,"ĠìĿµ":2526,"news":2527,"Ġê³łëł¤":2528,"Ġì´ī":2529,"Ġëª¨ìĸĳ":2530,"ĠìĨĮìĭĿ":2531,"ĠìĹĦë":2532,"Ġìĭľê¸°":2533,"ĠëĤ¨ìĦ±":2534,"Ġì³":2535,"Ĺ´":2536,"ª©":2537,"Ġëķħ":2538,"Ġìłľì£¼":2539,"Ġì§ĢìĨį":2540,"ur":2541,"Ġê¿Ī":2542,"ĠëĶ°ëĿ¼ìĦľ":2543,"ì¹ł":2544,"ĠíĳľíĺĦ":2545,"Ġq":2546,"ĠâĹĢâĸ¶":2547,"ł¤":2548,"Ġíĸīìłķ":2549,"Ġì¡°ì§ģ":2550,"ë¦¬ìĸ´":2551,"ĠëĮĢìĦł":2552,"Ġìŀĥ":2553,"ĠâĢĿ":2554,"ķ½":2555,"Ġê³µìĹ°":2556,"ĠìĹ°ìĨį":2557,"Ġì´Īë°ĺ":2558,"íľĺ":2559,"Ġê°Ģì§Ħ":2560,"ĠíĶĦë¡ľê·¸ëŀ¨":2561,"ĠíħĲ":2562,"Ġë°©íĸ¥":2563,"Ġê²½ìŁģ":2564,"ĠìĿĦê¹Į":2565,"ëĦĪì§Ģ":2566,"Ġëĭ¨ë³µ":2567,"ĠëĤĺëĪ":2568,"ĠìĨĮê°ľ":2569,"ëĦ·":2570,"Ġë¶Ģë¥´":2571,"Ġ`":2572,"Ġë°ĸìĹĲ":2573,"ĠëĮĢì±ħ":2574,"Ġë°ľë§¤":2575,"Ġë¶ĢëĮĢ":2576,"Ġìĺģìĸ´":2577,"ĠìķĦìĿ´íħľ":2578,"¶ľ":2579,"Ġìŀ¥ë¹Ħ":2580,"Ġë§Īì°¬":2581,"Ġê´Ģê³ĦìŀĲ":2582,"ĠíķľëĤĺëĿ¼":2583,"Ġê³łëĵ±íķĻêµĲ":2584,"ĠíķľëĤĺëĿ¼ëĭ¹":2585,"Ġìĸ´ëłµ":2586,"ĠìłĦíĺĢ":2587,"Ġìķ±":2588,"ĠëįĶëĿ¼ëıĦ":2589,"ĠíķľíħĮ":2590,"ĭł":2591,"ëĥĪ":2592,"Ġì°¨ì§Ģ":2593,"Ġíķ´ìĻ¸":2594,"Ġð":2595,"Ġì§Ģìłģ":2596,"Ġëł¤ëĬĶ":2597,"Ġë¹Ľ":2598,"ĠìķĪìłķ":2599,"ĠìĨĮë¹Ħ":2600,"ir":2601,"Ġë³ĢíĻĶ":2602,"ĠíĥĲ":2603,"ĠíĽĪëł¨":2604,"Ġë¹¼":2605,"Ġë§Īì°¬ê°Ģì§Ģ":2606,"Ġê¸°ìĸµ":2607,"Ġ_":2608,"Ġë¹Ħë¡¯":2609,"Ġìłľê³µ":2610,"Ġê³µëıĻ":2611,"ëŀµ":2612,"Ġëħ¸ëıĻ":2613,"ĠêµŃìłķ":2614,"¨¸ëĭĪ":2615,"íħĲì¸ł":2616,"Ġë½ĳ":2617,"ĠáĨŀ":2618,"Ġê·¸ë¦¼":2619,"ĠìĤ¬ë¬´":2620,"ĠíĪ¬íĳľ":2621,"ë¥¸ëĭ¤":2622,"ĠíĽĦë°ĺ":2623,"Ġëª¨ëį¸":2624,"Ġìŀĳê°Ģ":2625,"ĠìĽ¨":2626,"ĠíĮĮê´´":2627,"Ġë¡ł":2628,"ëįĺ":2629,"Ġêµīìŀ¥íŀĪ":2630,"Ġì»´":2631,"Ġíı´":2632,"ĠëĵĿ":2633,"Ġì¡°ê±´":2634,"ìĹĩ":2635,"ĠìĿ´ìĸ´ì§Ģ":2636,"Ġë§Īëł¨":2637,"Ġìĺ¬ë¦¼":2638,"ì£¼ë":2639,"ĠìĻĦë":2640,"ĠíĶĮëłĪìĿ´ìĸ´":2641,"ĠíıŃë°ľ":2642,"em":2643,"Ġíİ¸ì§ĳ":2644,"ĠìĦľë¹ĦìĬ¤":2645,"Ġíķ©ìĿĺ":2646,"ĠíķĺëĬĺ":2647,"ĠìĪľê°Ħ":2648,"Ġëª¨ëĵľ":2649,"Ġê¼¬":2650,"ĠìĹ¬ìłĦíŀĪ":2651,"Ġì½ĶìĬ¤":2652,"Ġê½ĥ":2653,"Ġê°ķìĽĲ":2654,"ëŀĻ":2655,"ĠìĿ´íķ´":2656,"ĠìķĦë§Ī":2657,"ëª»":2658,"um":2659,"ĠëĤ¨ë¶ģ":2660,"Ġê´Ģê´ĳ":2661,"Ġíľĺ":2662,"Ġì£¼íĥĿ":2663,"Ġë¯¿":2664,"ĠíķĺìĿ´":2665,"Ġê²°íĺ¼":2666,"°¨":2667,"00":2668,"ĠíĻĺê²½":2669,"Ġëª»íķľ":2670,"Ġë²łìĿ´":2671,"ì¶ĺ":2672,"ìĦ¸ë":2673,"Ġsk":2674,"Ġê´ľ":2675,"ë¢°":2676,"ights":2677,"Ġì¤ĺ":2678,"ĠëĤ¨ë¶Ģ":2679,"ĠìĬ¤íĥ":2680,"ìĿ´ëıĦ":2681,"ì¹Ļ":2682,"ĠìłĦëŀµ":2683,"ĠíĴĪ":2684,"Ġì§ģìĽĲ":2685,"ëĤ¸":2686,"Ġcm":2687,"Ġê°ķíķľ":2688,"ĠíĿ¥":2689,"ĠìĬ¤íİĺ":2690,"Ġê³Ħìķ½":2691,"Ġëĭ´ëĭ¹":2692,"ĠìĺĨ":2693,"ĠíĺĦìĭ¤":2694,"ë¦¬ì¹´":2695,"Ġâĸ":2696,"ĠìĬĪíį¼":2697,"Ġíĺĳìĥģ":2698,"Ġimnews":2699,"ĠëįĶëĭĪ":2700,"Ġê²ĢìĤ¬":2701,"¸ëĵľ":2702,"ĠìĪĺë¡Ŀ":2703,"Ġìĸ¸ìłľ":2704,"ĠíĻľìļ©":2705,"Ġìĭ¤íĮ¨":2706,"ìĦ¼":2707,"£¨":2708,"ĠìŀĲìĹ°":2709,"ê¶ģ":2710,"Ĥľ":2711,"Ġëħ¼ìĿĺ":2712,"ĠìķłëĭĪë©Ķ":2713,"Ġë§ĪìĿ´":2714,"íĬľ":2715,"ĠëĬ¦":2716,"Ġë³´íĹĺ":2717,"ĠìķĦìĭľ":2718,"Ġë²¨":2719,"Ġê°ĲìĨĮ":2720,"ĠìŀĲëıĻì°¨":2721,"ĠíĮĮìĿ¼":2722,"ì´Į":2723,"ĠìĦ±ëĬ¥":2724,"¸ë¡ľ":2725,"ĠëĤ´ë¶Ģ":2726,"ĠìĿ´ëķĮ":2727,"Ġë°ĶëĢĮ":2728,"ĠíĻķëĮĢ":2729,"Ġê¸°ëĭ¤":2730,"ì¼°":2731,"Ġê±°ëŀĺ":2732,"ĠìĬ¤ë§ĪíĬ¸íı°":2733,"ĠíĮĲëĭ¨":2734,"ìĻĦ":2735,"pyr":2736,"ĠíĻķìĭ¤":2737,"Ġëĵľëŀĺ":2738,"ĠëĮĢìĿĳ":2739,"ĠìĿ¸íĦ°ëĦ·":2740,"ĠíĨµìĭł":2741,"ĠìĹ¬ìķ¼":2742,"Ġhe":2743,"Ġì¡°ì¹ĺ":2744,"ĠëĶĶìŀĲ":2745,"Ġê°Ģìł¸":2746,"ĠìķĦìķ¼":2747,"Ġë¯¸ìĤ¬ìĿ¼":2748,"Ġë°ĿíĺĢ":2749,"ĠìķĦìĺĪ":2750,"ĠìłĦê¸°":2751,"Ġìĸ¸ë¡ł":2752,"Ġì¤¬":2753,"ĠìĭľíĤ¨":2754,"Ġë²Įìĸ´":2755,"Ġcopyr":2756,"Ġì¹¼":2757,"ĠíĬ¹ìĦ±":2758,"Ġë§Ľì§ĳ":2759,"Ġë¬´ìĹĩ":2760,"Ġê¼Ń":2761,"ĠíĸĪìľ¼ëĤĺ":2762,"ĠìĦ±ê²©":2763,"Ġìķ¨ë²Ķ":2764,"Ġë¡ľë¶ĢíĦ°":2765,"ĠìĬ¤ëŁ¬":2766,"ĠìķŀìĦľ":2767,"Ġìĭ¤ìĭľ":2768,"Ġê¸°ìĥģ":2769,"ëĥ¥":2770,"ĠìĭľíĹĺ":2771,"ìĹĺ":2772,"ĠìĦ¸íĬ¸":2773,"ì¶°":2774,"bo":2775,"ĠìĿ½":2776,"ìĦŃ":2777,"Ġíķľíİ¸":2778,"Ġìĺ¬ë¦¼íĶ½":2779,"ìķĶ":2780,"Ġìĺ¬ë¦¬":2781,"Ġìĺ¥":2782,"ĠëĮĢë¹Ħ":2783,"ëī´":2784,"Ġê²Įëĭ¤ê°Ģ":2785,"ĠìķłëĭĪë©ĶìĿ´ìħĺ":2786,"ìĦ°":2787,"ĠìĻĦìłĦíŀĪ":2788,"Ġìľ¼ë¡ľìĦľ":2789,"Ġìłľíķľ":2790,"Ġêµ¬ìĨį":2791,"Ġand":2792,"ìĬĪ":2793,"ĠìĹĦë§Ī":2794,"Ġì°¨ë¡Ģ":2795,"Ġíİ¼":2796,"Ġê³µìĤ¬":2797,"ë¦½ëĭĪëĭ¤":2798,"ĠíĭĢ":2799,"Ġì£¼ë¬¸":2800,"ìŀĲê¸°":2801,"Ġë¯¸ëŀĺ":2802,"Ġvs":2803,"ë§¹":2804,"ĠëĿ":2805,"Ġì§Ħì¶ľ":2806,"Ġê°¤":2807,"Ġê³§":2808,"Ġìĺ·":2809,"ë²ĦìĬ¤":2810,"Ġë³´ìĺĢ":2811,"Ġë¹µ":2812,"Ġìħ¨":2813,"Ġë³´íĺ¸":2814,"Ġë³¸ê²©":2815,"ĠìľłìĿ¼":2816,"ĠìľĦë":2817,"Ġëª©ìĨĮë¦¬":2818,"Ġì¹´íİĺ":2819,"ĠìĦ¸ìĥģ":2820,"ĠëĤ©":2821,"ìķķ":2822,"ìłĦìŀĲ":2823,"Ġì§ĵ":2824,"ìĹĶ":2825,"Ġêµ°ìĤ¬":2826,"Ġìĵ´":2827,"ĠíĦ´":2828,"ia":2829,"Ġìķ¼êµ¬":2830,"Ġê°ģê°ģ":2831,"Ġê²½ê¸°ëıĦ":2832,"Ġëħ¸ëł¥":2833,"Ġëľ¨":2834,"ĶĶìĺ¤":2835,"Ġêµ¬ê°Ħ":2836,"Ġìºł":2837,"ĠìĤ¬íĥľ":2838,"ĠëĪĦë":2839,"ĠëģĬ":2840,"Ġìĭľê°ģ":2841,"Ġë²Ħëł¸":2842,"ë£¡":2843,"Ġë°ľìĸ¸":2844,"¹Ħ":2845,"ìĭ±":2846,"Ġìŀ¬íĮĲ":2847,"ìŀĲë¦¬":2848,"ĠëĤ¸":2849,"ĠìĨįìĦ±":2850,"Ġì¦Ĳê¸°":2851,"Ġìł¸":2852,"ut":2853,"ĠìĽĲìĿ¸":2854,"Ġê·¼ëį°":2855,"ĠíĻķë¥ł":2856,"ĠìĿ¸ëį°ìļĶ":2857,"ĠíķŃëª©":2858,"Ġì¡°ìłķ":2859,"ĠìĿ¸ìĥģ":2860,"ëĭ¤ëĬĶ":2861,"Ġë¶Īë¦¬":2862,"Ġìĭ¬ì§Ģ":2863,"Ġë§ĮíĻĶ":2864,"âĹ":2865,"ë°¥":2866,"íĹĮ":2867,"Ġ\"âĸ¶":2868,"Ġsp":2869,"ĠìĭľìłĲ":2870,"Ġpl":2871,"ìĵ":2872,"Ġlv":2873,"ëłī":2874,"ĠíĸĪìľ¼ë©°":2875,"ëĭĪìķĦ":2876,"ĠìĥģìľĦ":2877,"íĿ¥":2878,"ìµľ":2879,"Ġsh":2880,"ĠìĺģìĽħ":2881,"Ġë°Ķëĭ¤":2882,"Ġì§Īë¬¸":2883,"ap":2884,"ĠëĿ¼ìĦľ":2885,"Ġì¶ľìĭľ":2886,"Ġìłľê¸°":2887,"ĠìĿ´ë¤":2888,"ĠëŁ°":2889,"Ġê¾":2890,"Ġë±":2891,"Ġë¬»":2892,"Ġì´Īëĵ±":2893,"ĠìĭľëıĦ":2894,"Ġì¢ħíķ©":2895,"Ġz":2896,"Ġë»":2897,"Ġë§Įëĵľ":2898,"ë§¨":2899,"Ġìŀĺëª»":2900,"Ġëĭ¹êµŃ":2901,"ce":2902,"Ġëĭ¤ìĿ´":2903,"Ġìĭ¬ì§Ģìĸ´":2904,"Ġì¹¸":2905,"Ġì¹ĺë£Į":2906,"ĠìĿĺìĤ¬":2907,"ĠìĬ¤íĥł":2908,"Ġì´Īê¸°":2909,"Ġë¡¯":2910,"Ġíĺ¹ìĿĢ":2911,"Ġìĺ¤ë¦¬":2912,"ĠìĿ¼ìĥģ":2913,"Ġíĺģ":2914,"Ġìļķ":2915,"Ġyou":2916,"ĠìħĢ":2917,"Ġì«":2918,"Ġìķ½ê°Ħ":2919,"Ġíıīê·ł":2920,"na":2921,"Ġê²½íĹĺ":2922,"ĠëĪĦêµ¬":2923,"ĠíĿ¡":2924,"Ġëįķë¶Ħ":2925,"Ġì¤ĳëĭ¨":2926,"ë¨¼":2927,"Ġì¶Ķìłķ":2928,"Ġíļį":2929,"ĠìĦ¸ëł¥":2930,"ĠìĿ´ê²Į":2931,"Ġì¡±":2932,"ĠíĬ¹ì§ķ":2933,"Ġ>":2934,"Ġìĸ´ë¨¸ëĭĪ":2935,"ĠìĹ¬ë¶Ģ":2936,"Ġëŀľ":2937,"ìĶ¬":2938,"ĠìĦ¸ëĮĢ":2939,"Ġì¡¸ìĹħ":2940,"ver":2941,"Ġíģ¬ë¦¬ìĬ¤":2942,"Ġ|":2943,"ĠìĿ¸ëıĦ":2944,"Ġì¶©ë¶Ħ":2945,"§Ħ":2946,"°Ģ":2947,"įëĭĪëĭ¤":2948,"ì§¸":2949,"Ġnews":2950,"ĠíĥĿ":2951,"ì²Ļ":2952,"Ġìļ´íĸī":2953,"Ġë¶Ģëĭ´":2954,"Ġì³Ĳ":2955,"ĠëĦ¤ìĿ´ë²Ħ":2956,"Ġë¸ĶëŀĻ":2957,"Ġë¹łë¥´":2958,"Ġë°°ì¹ĺ":2959,"Ġíĺ¼ìŀĲ":2960,"Ġë©ĶìĿ´":2961,"Ġë°ĺë©´":2962,"Ġì¶©ê²©":2963,"Ġall":2964,"ĵ¨":2965,"Ġë°ľìłĦ":2966,"Ġsms":2967,"ĠìłľëıĦ":2968,"Ġì¤ĳê°Ħ":2969,"ĠíĤ¹":2970,"Ġê³µíķŃ":2971,"ìĹĨìĿ´":2972,"ĠìĥĿìĥĿ":2973,"Ġë²Ĺ":2974,"íĬ¸ëĿ¼":2975,"Ġìĺ¤ë¥¸":2976,"ĦìķĦ":2977,"íĭ´":2978,"ĠìĿ´ìĤ¬":2979,"Ġëª©ìłģ":2980,"Ġì§Ģìłķ":2981,"ë°Ľ":2982,"ìģĺ":2983,"Ġë¹Ħíĸī":2984,"ĠìĿ´ê³³":2985,"ì§ľ":2986,"ĠíĬ¸ëŁ¼":2987,"Ġma":2988,"ëŁ¬ìĬ¤":2989,"íĤ¹":2990,"Ġìĭłê²½":2991,"Ġíĳ¸":2992,"Ġê³łê¸°":2993,"íĤ¬":2994,"ĠìĿ´ëģ":2995,"ĠìĦłë¬¼":2996,"ŀľ":2997,"Ġê°ľìĦł":2998,"ĠëįĶëĿ¼":2999,"ĠëĮĢíĺķ":3000,"Ġìľłë¦¬":3001,"ĠìĥĿëªħ":3002,"Ġì°¨ëĭ¨":3003,"Ġíķľëį°":3004,"ĠìĪĺìĥģ":3005,"ĠëĶĶìŀĲìĿ¸":3006,"ĠêµŃë°©":3007,"ëħģ":3008,"ĠìļĶë¦¬":3009,"ìĬ¤ë¡ľ":3010,"Ġì±Ķ":3011,"Ġì²Ļ":3012,"Ġê°ķíķĺ":3013,"Ġìľ¼ë©´ìĦľ":3014,"Ġë¬¸ìŀ¬":3015,"ĠìĹ´ë¦°":3016,"ëĭ¤ê³ł":3017,"Ġê°Ĵ":3018,"Ġê³µê°Ħ":3019,"ħëĭĪëĭ¤":3020,"íıĲ":3021,"ĠìĹ¬ë¦Ħ":3022,"ĠìłľêµŃ":3023,"ê³łê¸°":3024,"Ġìĭ«":3025,"ĠíĬ¸ëŁ¼íĶĦ":3026,"ë·Ķ":3027,"ĠìłĢëħģ":3028,"ĠìŀĲë£Į":3029,"Ġêµ´":3030,"ĠëŃĶ":3031,"ì¿Ħ":3032,"ĠíħĮëŁ¬":3033,"Ġê±±":3034,"Ġëĵ±ê¸ī":3035,"ĠëĤĺë¬´":3036,"ĠìĿ´ëªħ":3037,"Ġëªħì¹Ń":3038,"ĠìĮį":3039,"Ġìĺ¤ëŀĺ":3040,"ĠíıīíĻĶ":3041,"Ġê³łìĨį":3042,"ĠëıĻë¬¼":3043,"ĠìĤ¬ìĥģ":3044,"ëĶ°":3045,"Ġì½ĺíħĲì¸ł":3046,"Ġìļ°ìĦł":3047,"Ġë¿Į":3048,"Ġê±±ìłķ":3049,"ëĭī":3050,"Ġë¶Ģìĥģ":3051,"ĠíĽ¨":3052,"ĠíĶ¼ë¶Ģ":3053,"Ġre":3054,"ĠìĦ¸ê¸°":3055,"ĠìłĦë¬¸ê°Ģ":3056,"ì°Į":3057,"ood":3058,"ì°¸":3059,"Ġê´ľì°®":3060,"ë¹Ī":3061,"ĠëįĶë¶Ī":3062,"ĠìĿ´ë¯¸ì§Ģ":3063,"Ġìĺ¤ë¸Į":3064,"Ġê¹Ĭ":3065,"ìĿ¸ë¬¼":3066,"ĠíĻľìķ½":3067,"Ġëį°ë·Ķ":3068,"Ġë§µ":3069,"Ġìłķëĭ¹":3070,"ĠíĻĺìŀĲ":3071,"ta":3072,"Ġëª©íĳľ":3073,"ĠìĨĮìĦ¤":3074,"Ġíķ´ìļĶ":3075,"ĠìĽĲìŀĳ":3076,"Ġë¬¼ë¦¬":3077,"ĠìĤ¬ìĿ´íĬ¸":3078,"ĠìĹĳ":3079,"Ġê°ĳìŀĲê¸°":3080,"Ġë¶Ħê¸°":3081,"ĠìĤ¬ìĭ¤ìĥģ":3082,"Ġë¹Ħìļ©":3083,"Ġê°Ħì":3084,"ĠìĬµëĭĪê¹Į":3085,"ĠìĻĦìłĦ":3086,"ëłĪìĿ´ëĵľ":3087,"****":3088,"ĠìļĶì²Ń":3089,"Ġë¸ĮëĿ¼":3090,"ĠìĿ´íĥĪ":3091,"ki":3092,"ĠíĸīìľĦ":3093,"ĠëĵĢ":3094,"ĠìķĦíĶĦ":3095,"tt":3096,"íĹĪ":3097,"ĠìĿ´ëĿ¼ê³ł":3098,"Ġì¡°ì°¨":3099,"Ġì¤Ħì":3100,"ëľ¨":3101,"ĠëĩĮ":3102,"Ġëĺĳ":3103,"Ġë¶Īêµ¬":3104,"ĠìŀĲê¸Ī":3105,"Ġë²Īíĺ¸":3106,"Ġë§ĳ":3107,"ĠëĤĺíĥĢëĤĺ":3108,"oc":3109,"ĠìłĦìŀĲ":3110,"ê¼":3111,"Ġëĵ±ìŀ¥ìĿ¸ë¬¼":3112,"ĠìķĦë¥´":3113,"Ġëĥī":3114,"Ġë°´":3115,"ĠíĬ¸ë¦¬":3116,"ri":3117,"ë¦¿":3118,"íĨ¡":3119,"ĠíĽ¨ìĶ¬":3120,"Ġê¸°ëħĲ":3121,"Ġì¤ĳë¶Ģ":3122,"Ġëĭ¤ìĿ´ìĸ´":3123,"ĠáĦ":3124,"ff":3125,"Ġis":3126,"ĠìĪľìľĦ":3127,"Ġê¾¸":3128,"ĠíĻĢ":3129,"ëį°ìĿ´":3130,"ĠìĺĪìĤ°":3131,"Ġìĺ®":3132,"ĠìĹĲëĦĪì§Ģ":3133,"íĶĪ":3134,"ĠëıĦì¿Ħ":3135,"Ġë¹ħ":3136,"ĠìĦłìĸ¸":3137,"ĠìĿ¼ìľ¼":3138,"ĠëĤ´ëħĦ":3139,"Ġë²½":3140,"Ġê°ĢìĪĺ":3141,"ìĪĺë¡Ŀ":3142,"ĠìĪĺìłķ":3143,"Ġì§Ģì¼ľ":3144,"ĠíŀĲ":3145,"Ġìķ¤":3146,"Ġê°ģì¢ħ":3147,"Ġê±°ëĵł":3148,"ëĳ¥":3149,"ĠìłľìĿ¼":3150,"ĠìĬ¤ëŁ½":3151,"Ġê¹Ķ":3152,"ĠìĬ¤íı¬":3153,"Ġë¡¯ëį°":3154,"ìķĦëĵ¤":3155,"ĠíĮ©":3156,"ĠìĦłë°ľ":3157,"ĠëĤĺë¨¸":3158,"ëł¬":3159,"Ġì£½ìĿĮ":3160,"Ġë°°ê²½":3161,"ĠíĥĦì":3162,"ĠëıĻìĿ¼":3163,"ĠíĺĪ":3164,"Ġê·¸ë§Į":3165,"Ġê·¸ëĤĺ":3166,"ë¬´ìĽĲ":3167,"ĠìĿ´ê±´":3168,"ĠìĤ¬ìŀ¥":3169,"ĠëĳĶ":3170,"ĠëĤľìĿ´ëıĦ":3171,"ĠíĺĦì§Ģ":3172,"Ġíĺĳëł¥":3173,"Īł":3174,"ĠâĹı":3175,"ĠëıĦìŀħ":3176,"ĠëĤĺë¨¸ì§Ģ":3177,"ĠìĮĵ":3178,"ê°Ħëĭ¤":3179,"ĠìĬ¤ìĬ¤ë¡ľ":3180,"Ġê³ĦìĹ´":3181,"Ġê³³ê³³":3182,"ann":3183,"Ġë²ĶìľĦ":3184,"Ġex":3185,"Ġì¡°íķ©":3186,"Ġìŀĳì¤ĳ":3187,"ĠìĪĺìŀħ":3188,"Ġëī´ìļķ":3189,"Ġëĭ¨ìĪľ":3190,"Ġì¢ħë¥ĺ":3191,"ê½":3192,"âĺŀ":3193,"ĠìĨĮëħĢ":3194,"ĠëĤĺìļĶ":3195,"ĠíķĻëħĦ":3196,"ĠìŀĳìłĦ":3197,"Ġìŀ¥ìĨĮ":3198,"Ġë§Īì¹ĺ":3199,"Ġ'...":3200,"ĠìµľìĨĮ":3201,"ìłĦì":3202,"íĺĪ":3203,"ĠìĽĲëĤ´":3204,"ĠëıĦì°©":3205,"and":3206,"Ġê²¨ìļ¸":3207,"ĠìĨĮìŀ¬":3208,"ì¹´ìĺ¤":3209,"Ġì°¸ìĦĿ":3210,"^^":3211,"ĠìĥģíĴĪ":3212,"ĠíĻķìłķ":3213,"Ġì±Ļ":3214,"Ġìłķì²´":3215,"ĠìķĮëł¤ì¡Į":3216,"Ġìłķë¦¬":3217,"Ġë°ľëıĻ":3218,"ĠìĻ¸êµŃìĿ¸":3219,"ĠìķĪíĥĢ":3220,"Ġli":3221,"Ġë¶Īë²ķ":3222,"Ġë¬´ìĬ¨":3223,"Ġres":3224,"ct":3225,"ìĶĢ":3226,"Ġìĭłê³ł":3227,"ĠëĬĲëĥĲ":3228,"Ġì´¬":3229,"Ġì£¼ëª©":3230,"Ġë°©ìķĪ":3231,"Ġìĭ¤ëł¥":3232,"ë¡Ń":3233,"ps":3234,"Ġë¬´ìĭľ":3235,"ĠíĻķë³´":3236,"Ġìĭľì¼°":3237,"Ġì°¸ì¡°":3238,"ĠìºĲìĬ¤íĦ°":3239,"ìĭŃ":3240,"ëł¤ìĦľ":3241,"Ġë¦°":3242,"Ġì§§":3243,"ĠìĿ´ë¥´":3244,"ĠìĥĪë²½":3245,"ìĨĮëĵľ":3246,"Ġëĸ¡":3247,"ĠìĦ¤ë¦½":3248,"Ġê·¸ëĤĺë§Ī":3249,"Ġë§ĲìĶĢ":3250,"Ġìłģê·¹":3251,"Ġë¬´ìŀ¥":3252,"ĠíĮ¨ë°°":3253,"ìĩĦ":3254,"Ġë²¤":3255,"ĠëŁī":3256,"Ġìŀĸ":3257,"ĠìłĦëł¥":3258,"Ġê²ª":3259,"ĠíĺĦìĥģ":3260,"ĠíĻĶìŀ¥":3261,"ê°Ļ":3262,"ĠìķĮìķĦë":3263,"Ġë´Ħ":3264,"ĠìłĦìļ©":3265,"ĠìıŁ":3266,"Ġìĸ´ë¦°ìĿ´":3267,"Ġì´¬ìĺģ":3268,"Ġëŀĺ":3269,"Ġë§¤ìĿ¼":3270,"ra":3271,"Ġì¼ĢìĿ´":3272,"Ġíĺľ":3273,"ĠíĨµê³¼":3274,"ìģľ":3275,"Ġíĸīë³µ":3276,"ĠëŀŃ":3277,"ĠëĦĵ":3278,"ĠëłĮ":3279,"Ġê³łìĸĳ":3280,"ĠâĢĵ":3281,"Ġê¸°íļĮ":3282,"Ġë§Īë¬´":3283,"íĻį":3284,"ìĸ´ëĤ¬":3285,"Ġêµ³":3286,"ĠëĨĴìĿ´":3287,"Ġëĵ¯ìĿ´":3288,"Ġë°ĳ":3289,"ĠíĹĪë¸Į":3290,"Ġìŀ¬ë¯¸":3291,"ter":3292,"ĠëıĮìķĦ":3293,"Ġëĵľëŀĺê³¤":3294,"ì»µ":3295,"ĠëıĮìķĦìĺ":3296,"ĠìĹĲíĶ¼":3297,"Ġê°ĢëŁī":3298,"ĠíŀĪë¡ľ":3299,"íĭ°ë¸Į":3300,"ĨĮ":3301,"ëĭĺ":3302,"Ġê±°ë¶Ģ":3303,"į¼ë":3304,"ĠìĤŃ":3305,"ation":3306,"Ġíģ¬ë¡ľ":3307,"Ġì¹ł":3308,"Ġfc":3309,"ëį¤":3310,"Ġë¶Ħëªħ":3311,"Ġêµ¬ë§¤":3312,"Ġëıħë¦½":3313,"Ġëĭ¤ë¦¬":3314,"Ġë²Ķì£Ħ":3315,"Ġë¹¨ë¦¬":3316,"ìħĶ":3317,"ĠìłĢíĿ¬":3318,"Ġíķľìłķ":3319,"ì¸µ":3320,"Ġë¬´ëĮĢ":3321,"Ġì¿¨":3322,"ĠíķĺëĿ½":3323,"osun":3324,"Ġì±Ħì":3325,"Ġë§ĺ":3326,"Ġìĭ¸ìĽĢ":3327,"ĠìĹĲìļĶ":3328,"Ġë²ķìĽĲ":3329,"Ġëĭ¹ìĦł":3330,"Ġê³µê¸°":3331,"Ġ%,":3332,"Ġë¶Ģëª¨":3333,"Ġì°¨ìĽĲ":3334,"ëª°":3335,"íİĺìĿ´ì§Ģ":3336,"ķĪ":3337,"Ġë§ĪìĬ¤íĦ°":3338,"ĠêµĲì²´":3339,"ë¶Ļ":3340,"Ġëĭ¹ìĭł":3341,"ĠìĹ¼":3342,"Ġë§Īë¬´ë¦¬":3343,"Ġë¶ĢìĿ¸":3344,"Ġê»ĺ":3345,"ĠíĻĪíİĺìĿ´ì§Ģ":3346,"Ġë³´ìĥģ":3347,"Ġê²ĢíĨł":3348,"ĠíĿĺ":3349,"íĶĦë":3350,"ĠíĨ¤":3351,"ìĿ¼ë¦¬":3352,"ĠìĿ´íķĺ":3353,"£Į":3354,"Ġë©Ķëī´":3355,"ĠíĤ¬":3356,"Ġìĸ¼ë§ĪëĤĺ":3357,"ë°į":3358,"ea":3359,"Ġê°ľìµľ":3360,"Ġíĥ±":3361,"ĠëĮĢê¸°":3362,"Ġê²½ìĺģ":3363,"Ġëĭ¹ìĹ°íŀĪ":3364,"ĠëĤĺìĺ¬":3365,"ë³¼":3366,"Ġë°Ķê¿":3367,"Ġìŀ¥ê¸°":3368,"Ġë¶Ģìłķ":3369,"¤ĳ":3370,"ë¦¬ì¼Ģ":3371,"ĠìĿ¼ìĸ´ëĤĺ":3372,"ĠìĿ´ëªħë°ķ":3373,"Ġë³Ģíĺ¸":3374,"ĠëĤĺì¤ĳ":3375,"Ġlg":3376,"Ġíĥĵ":3377,"Ġë¶ĪëŁ¬":3378,"Ġíķľëĭ¤ë©´":3379,"Ġëĵ±ë¡Ŀ":3380,"ĠìĹĲíĶ¼ìĨĮëĵľ":3381,"ĠìĹ¬ëĭ´":3382,"ì´ī":3383,"ĠëĤ¬":3384,"ĠìĿ´ëŀĳ":3385,"Ġíķµìĭ¬":3386,"Ġë¶ĢëıĻ":3387,"ĠíĮĮìĽĮ":3388,"Ġìķ¼ëĭ¹":3389,"ĠíİĢ":3390,"ëħķ":3391,"ĠìłĪëĮĢ":3392,"ĠìĬ¤íĥĢìĿ¼":3393,"ëĮĢíĳľ":3394,"Ġë¬¸ë":3395,"Ġìŀ¥ìķł":3396,"ĠíĸĪìĹĪ":3397,"Ġë¶Ħìķ¼":3398,"ĠíĮĮìĿ´":3399,"ĠìĦ±ìłģ":3400,"Ġê³µìĽĲ":3401,"Ġë¹Ħë°Ģ":3402,"Ġap":3403,"Ġê´ĳê³ł":3404,"Ġë§Įìķ½":3405,"Ġëĭ¤ìĨĮ":3406,"ìĽ¨":3407,"Ġê³¼ë":3408,"Ġë°©ë©´":3409,"Ġìĭ¸ìļ°":3410,"ĠëıĻë£Į":3411,"ĠëĶ°ë¡ľ":3412,"Ġê¸°íļį":3413,"íĬ¸ë¦¬":3414,"ìķ¼ë":3415,"Ġìłľëª©":3416,"Ġë¹Ļ":3417,"Ġì¹Ń":3418,"Ġíķ«":3419,"ĠìĿ¸êµ¬":3420,"Ġit":3421,"ĠíķŃìĥģ":3422,"ĠìĪĺìĦĿ":3423,"Ĥł":3424,"Ġìľ¼ëł¤":3425,"Ġìĭłì²Ń":3426,"ìĬ´":3427,"ìĺģìĥģ":3428,"Ġë§ĪìłĢ":3429,"ĠíĦ¸":3430,"ĠìĹĦì²ŃëĤľ":3431,"ĠíĢĺ":3432,"Ġno":3433,"Ġë³´ìľł":3434,"Ľĥ":3435,"íķ´ìķĪ":3436,"Ġìŀłìĭľ":3437,"ĠìĦłìĥĿ":3438,"ĠìŀĲìĽĲ":3439,"Ġê±°ëĵłìļĶ":3440,"ĠìľĦíĺĳ":3441,"Ġìĸ´ì©":3442,"ëĭĮ":3443,"ë´ĩ":3444,"ìĦ¯":3445,"íķĻìĥĿ":3446,"Ġê³µê¸ī":3447,"ë¹Ħì":3448,"ì§ĵ":3449,"Ġë¶Īê°Ģ":3450,"©Ķ":3451,"ĠìĹĦ":3452,"ĠíĥľíĴį":3453,"Ġê·¸ëŁ¼":3454,"ĠíļįëĵĿ":3455,"íķµ":3456,"êµ¬ìļĶ":3457,"ĠìĿ¸ìĭĿ":3458,"ĠìĿ´ê±°":3459,"ĠíĬ¹ìłķ":3460,"Ġë·":3461,"âĹĨ":3462,"ĠìĹħë¬´":3463,"erv":3464,"Ġê¸Īë¦¬":3465,"ëŀĢëĵľ":3466,"Ġì£½ìĿ´":3467,"ĠíģĲ":3468,"ìĿĺìĽĲ":3469,"Ġíĳľìĭľ":3470,"ack":3471,"Ġìŀī":3472,"Ġê°ľíĺģ":3473,"Ġê°Ģì¹ĺ":3474,"ĠëħĢ":3475,"Ġìĭ¬ê°ģ":3476,"ĠìĺĽ":3477,"ìī¬":3478,"ĠíĬĢ":3479,"Ġëª©ë¡Ŀ":3480,"íľ´":3481,"ìłł":3482,"Ġë©ĺ":3483,"Ġëł¤ë©´":3484,"ë¹ł":3485,"Ġì±ĶíĶ¼":3486,"ĠìĺģìĹħ":3487,"Ġì²´ìłľ":3488,"Ġìĺµ":3489,"Ġì§ģìĹħ":3490,"ë©¸":3491,"Ġëĭ¨ëıħ":3492,"ĠìĿĺìŀ¥":3493,"Ġê¸°ìĹĲ":3494,"ĠëıĻìĺģìĥģ":3495,"ì½ľ":3496,"Ġì¶©ì²Ń":3497,"ĠíĮ¨ì¹ĺ":3498,"ĠìĤ¬íķŃ":3499,"ak":3500,"ĠìħĪ":3501,"ĠìĦłìłķ":3502,"Ġìłķê¶Į":3503,"ĠìĺĪìĪł":3504,"Ġì²ľë§Į":3505,"Ġhtt":3506,"Ġë¡¤":3507,"¯Ģë¡ľ":3508,"ĠëĿ¼ìļ´ëĵľ":3509,"Ġíı¬ê¸°":3510,"Ġíĳľê¸°":3511,"ĠíħĶ":3512,"ĠëıĮìķĦê°Ģ":3513,"Ġì¹´ì¹´ìĺ¤":3514,"ê»´":3515,"Ġëł¨":3516,"ĠíĮ¨íĦ´":3517,"ĠìĪĺì¶ľ":3518,"ĠëĮĢë³Ģ":3519,"ĠìłĦíĨµ":3520,"Ġì²ŃìĨĮ":3521,"ĹŃ":3522,"ĠíħĮë§Ī":3523,"ĠëĮĢì¶ľ":3524,"Ġcon":3525,"ë¦ī":3526,"Ġëĭ¨ì§Ģ":3527,"Ġì£¼ìĭĿ":3528,"ĠíĻĶë©´":3529,"Ġê°ķìłľ":3530,"ĠìĤ¬ë¡Ģ":3531,"Ġë¡Ŀ":3532,"íĬľë¸Į":3533,"Ġíĺ¼ë":3534,"ĠëĿ¼ìĿ´ë¸Į":3535,"²ķ":3536,"ĠìĤ¬ê³¼":3537,"ĠìłľìķĪ":3538,"ĠÃ":3539,"Ġkg":3540,"ĠìľłíĬľë¸Į":3541,"Ġëĺĳê°Ļ":3542,"Ġë³Ħë¡ľ":3543,"Ġê³µìŀ¥":3544,"ĠíĥĢìŀħ":3545,"ê¹ĮìļĶ":3546,"¼ì§Ģ":3547,"ĠìĿ´ìŀ¬":3548,"Ġë¶ĪìķĪ":3549,"Ġë¬´ë¦¬":3550,"ul":3551,"ĠìłķìĿĺ":3552,"ìķĦìĻ":3553,"Ġëį±":3554,"ê½ĥ":3555,"ĠìĹŃëĮĢ":3556,"ĠìłĬ":3557,"ĠìĬ¤íı¬ì¸ł":3558,"ĠíĪ¬ìĪĺ":3559,"Ġë§¹":3560,"ĠíĶ¼íķ´ìŀĲ":3561,"ard":3562,"Ġde":3563,"Ġê³łë¯¼":3564,"Ġ..\"":3565,"ĠëĸłëĤĺ":3566,"Ġar":3567,"ab":3568,"ë¨¹":3569,"Ġëĭ¬ëĿ¼":3570,"Ġâĺħ":3571,"Ġì»¬":3572,"Ġëĭ¹íĸĪ":3573,"ìĭ¸":3574,"Ġë¨¸ë":3575,"ŁŃ":3576,"ĠìĹĶì§Ħ":3577,"Ġë¶ĢëıĻìĤ°":3578,"Ġë°©ì¹¨":3579,"ĠìķĦêµ°":3580,"ì½ĺ":3581,"Ġë³¸ë¶Ģ":3582,"ĠëĬĲëģ¼":3583,"ĠíĥĢê²©":3584,"Ġë¹Ħìĥģ":3585,"Ġë¬ĺìĤ¬":3586,"ĠìŀĲë©´":3587,"Ġì¤Ħìĸ´":3588,"ìħľ":3589,"ĠêµŃë¬´":3590,"annel":3591,"Ġê±°ëĮĢ":3592,"Ġê²¸":3593,"Ġì¤ĳíķĻêµĲ":3594,"ĠìĿ´ëģĮ":3595,"Ġê³µíĻĶ":3596,"Ġal":3597,"Ġê·¼ì²ĺ":3598,"íĺĶ":3599,"ĠìĹ°ìŀ¥":3600,"Ġê¹ĢìłķìĿĢ":3601,"ĠìĹ¬ë¡ł":3602,"ĠìķĦê¸°":3603,"Ġë¡ľë´ĩ":3604,"ìĤ¼":3605,"ĠíıīìĨĮ":3606,"ang":3607,"ĠìĥĿê¸°":3608,"Ġì§ĢíĤ¤":3609,"Ġê°ĢëģĶ":3610,"Ġë©ĶìĿ¸":3611,"ĭĿ":3612,"ìł¤":3613,"Ġ<":3614,"ĠìĽĶëĵľì»µ":3615,"Ġë§Įì¡±":3616,"ong":3617,"Ġëĵľë¦¬":3618,"ĠìłĦìĭľ":3619,"ħĦ":3620,"Ġê°Ģìłķ":3621,"Ġìĭ¤íĹĺ":3622,"Ġby":3623,"Ġ',":3624,"ĠìķĪë³´":3625,"ĠìĹ°ì¶ľ":3626,"Ġì§Ģíľĺ":3627,"ë°ĺëıĦ":3628,"íģĲ":3629,"Ġìĺģíķĺ":3630,"Ġê°Ģìŀħ":3631,"Ġì·¨ê¸ī":3632,"ë¥¸ë":3633,"Ġíı°":3634,"ëķĮ":3635,"Ġì§ĢìĪĺ":3636,"ëĿ¼ìĿ¸":3637,"ine":3638,"ĠìĨĮíĨµ":3639,"¾Į":3640,"ë¡±":3641,"ĠìĮĢ":3642,"Ġë¬¸ìŀ¬ìĿ¸":3643,"ìĹĦ":3644,"--":3645,"Ġì»µ":3646,"ìķĮ":3647,"Ġì§Ĳ":3648,"Ġê°ķëĤ¨":3649,"ĠìĬ¤íĮĮ":3650,"ĠìĽ¹":3651,"ëłĢ":3652,"ĠëĳĺëŁ¬":3653,"ëŁŃ":3654,"ĠìĹĶëĶ©":3655,"ĠìķĦìĭľìķĦ":3656,"Ġë°Ķê¾¸":3657,"Ġë¶Īê³¼":3658,"ĠëıĻìĥĿ":3659,"íķ´ìĦľ":3660,"Ġìķī":3661,"Ġìĭ±ê¸Ģ":3662,"Ġëįľ":3663,"ĠíĿ¬ë§Ŀ":3664,"ĠíķĻìĽĲ":3665,"Ġíģ¬ê¸°":3666,"ĠìĥĿì¡´":3667,"³ĳ":3668,"ĠìľłëĭĪ":3669,"ĠìĹ´ì°¨":3670,"Ġë°ĽìķĦëĵ¤":3671,"ìłĿ":3672,"ĠíĺĳìĿĺ":3673,"ĠìĦ¸ìĽĶ":3674,"ĠìĬ¤ëŁ¬ìļ´":3675,"Ġë¹łë¥¸":3676,"Ġìŀĳê³¡":3677,"Ġì»¤íĶ¼":3678,"op":3679,"ê¹Ģ":3680,"Ġì¢ħë£Į":3681,"Ġun":3682,"ĠíĶ½":3683,"ĠìĹł":3684,"Ġê°Īëĵ±":3685,"¸Ĳ":3686,"Ġì½¤":3687,"ĠìłĦë°ĺ":3688,"ĠìļĶìĨĮ":3689,"Ġíķ´êµ°":3690,"ĠìĤ¶":3691,"Ġëª½":3692,"Ġìľ¼ë¡ľìį¨":3693,"įĶ":3694,"ĠëıĦìłĦ":3695,"Ġbl":3696,"ìķĦì§Ģ":3697,"ãĥ":3698,"Ġì¶ľë°ľ":3699,"Ġìļ¸ìĤ°":3700,"ìĹŃìĭľ":3701,"ĺģ":3702,"Ġë¡Ń":3703,"Ġíı¬ìĬ¤":3704,"Ġê°Ĳìłķ":3705,"Ġë¬´ëł¤":3706,"Ġìĸ´ëł¤ìļ´":3707,"ram":3708,"Ġìĺ¬ëĿ¼ê°Ģ":3709,"Ġë¯¼ê°Ħ":3710,"ìĪ¨":3711,"Ġëĭ¬ìĦ±":3712,"Ġíİľ":3713,"ĠìĿĺì§Ģ":3714,"Ġë³´ê³ł":3715,"ĠíıŃíĥĦ":3716,"Ġì§Ģìĥģ":3717,"ĠëŃĶê°Ģ":3718,"Ġíķľë°ĺëıĦ":3719,"Ġë°ĺë°ľ":3720,"ĠìĬ¤íħĮìĿ´ì§Ģ":3721,"ĠìĿĺìĭĿ":3722,"ìĿ´ìķ¼ê¸°":3723,"Ġê¸°ë¶Ħ":3724,"ĠìĨĮëª¨":3725,"erved":3726,"íĦ¸":3727,"ĠëıĦë§Ŀ":3728,"Ġë´Ĳìķ¼":3729,"ĠìĹ´ë¦¬":3730,"ĠëĤĺìĦ°":3731,"Ġì¥¬":3732,"ìĹ½":3733,"Ġìĵ°ëŁ¬":3734,"ĠìłĦíĻĺ":3735,"ĠëıĦì¤ĳ":3736,"ì§Ĳ":3737,"Ġreserved":3738,"Ġê°Ģê¹Įìļ´":3739,"ĠìĽĲëĤ´ëĮĢíĳľ":3740,"Ġíķ´ìĦĿ":3741,"ĠìĥĿê¸´":3742,"Ġbe":3743,"Ġìľ¼ë¡ľë¶ĢíĦ°":3744,"Ġë¯¸ë¦¬":3745,"Ġìıĺ":3746,"Ġì£¼ìłľ":3747,"Ġëł¥":3748,"ĠíĪ¬ìŀħ":3749,"ĠëĭŃ":3750,"Ġë²Ħë¦°":3751,"Ġë¶ķ":3752,"Ġwiki":3753,"ĠëĴ·ìĿ´ìķ¼ê¸°":3754,"ĠìĤ¬ê¸°":3755,"Ġkt":3756,"Ġë³´ìĪĺ":3757,"Ġì§ģíĽĦ":3758,"Ġì¡°ìŀĳ":3759,"Ġë²Ħë":3760,"ĠíĮĮíĭ°":3761,"ìłĿíĬ¸":3762,"ĠìŀĲëŀĳ":3763,"ĠìĤ¬ìłĦ":3764,"íĬ¹":3765,"Ġêµ¬ë¦Ħ":3766,"ĠìĬ¤ì¹´":3767,"ëĵľìĭľ":3768,"Ĭ¹":3769,"ìľĦì":3770,"og":3771,"ĠìĿ´íĥĪë¦¬ìķĦ":3772,"Ġë§Īìĭľ":3773,"Ġìĺ¤ëŀľ":3774,"Ġ20":3775,"ĠìķĻ":3776,"ĠëĶ°ë¥¸":3777,"ĠìķŀëĳĲ":3778,"²ł":3779,"Ġê·¹ìŀ¥":3780,"ĠíĮĮìķħ":3781,"Ġë°ĺëĵľìĭľ":3782,"Ġìĺ¬ëł¤":3783,"ê²Ĳ":3784,"Ġì£¼ëıĦ":3785,"ĠìłķìĭĿ":3786,"ĠìķĦëıĦ":3787,"Ġwh":3788,"ĠëĮĢë¶ģ":3789,"ì¤Ħ":3790,"ë¦¬ìĺ¤":3791,"Ġmar":3792,"ĠìĿ´ë£¨ìĸ´":3793,"ĠëĥĪ":3794,"ĠëĤĺíĥĢëĤ¬":3795,"íĶĮë¦¬ì¼Ģ":3796,"íĶĮë¦¬ì¼ĢìĿ´ìħĺ":3797,"ĠìĻĢìĦľ":3798,"Ġìľ¼ë¯Ģë¡ľ":3799,"ĠìķĦìĿ´ëıĮ":3800,"Ġë²ĦíĶĦ":3801,"Ġìķ½ìĨį":3802,"ĠìĤ¬ìłķ":3803,"Ġ\"...":3804,"Ġì§ĳëĭ¨":3805,"ìĵ°":3806,"ëĤĻ":3807,"Ġìŀ¬ìłķ":3808,"Ġëªħëł¹":3809,"Ġê±¸ë¡ľ":3810,"Ġë°©ìĺģ":3811,"ĠìĪĺíĸī":3812,"Ġë°°íĭĢ":3813,"Ġê°ĢëĵĿ":3814,"Ġê·ľìłķ":3815,"Ġìłľìĭľ":3816,"Ġìłľê±°":3817,"Ġìĭľíĸī":3818,"ĠëĬĶê°Ģ":3819,"Ġìłľìŀ¬":3820,"Ġfor":3821,"¨¹":3822,"Ġê·¸ë¦¬ìĬ¤":3823,"Ġê°ľìłķ":3824,"ĠëĮĢë³ĢìĿ¸":3825,"Ġëĭ¤ìĿ´ìĸ´íĬ¸":3826,"Ġë¹ĦëĤľ":3827,"ĠìłĲìĪĺ":3828,"Ġplus":3829,"ĠìłĦëĭ¬":3830,"ĠìłĦìĦ¤":3831,"ĠìŀĸìķĦ":3832,"Ġë¶ĢíĻľ":3833,"Ġì£¼ìĨĮ":3834,"ĠëĤ¨íİ¸":3835,"Ġì¦Ŀìĭľ":3836,"Ġë©ĭ":3837,"íĪ":3838,"Ġëĭ¬ëł¤":3839,"Ġëį°ìĿ´":3840,"Ġê¹Ģìĺģ":3841,"Ġíģ´ëŀĺ":3842,"Ġìłĳê·¼":3843,"Ġë¯¸ìħĺ":3844,"ĠëĬĲê»´":3845,"ĸĳ":3846,"Ġìĺ¬ëŀĲ":3847,"Ġë§ģíģ¬":3848,"Ġêµ¬ìĹŃ":3849,"Ġì¶ķìłľ":3850,"Ġë²Ħë¦°ëĭ¤":3851,"Ġle":3852,"Ġê³Ħë":3853,"ë§Ľ":3854,"Ġë¬¼ê±´":3855,"if":3856,"ìĭľë§Ī":3857,"ë©ĶëĿ¼":3858,"ĠìĺĪìłĦ":3859,"ê¹Ŀ":3860,"ł¥":3861,"Ġëĭ¤íĸī":3862,"ľ¨":3863,"Ġê³µíı¬":3864,"Ġëª¨ìķĦ":3865,"Ġ\"(":3866,"od":3867,"ĠëģĿëĤĺ":3868,"íĮĶ":3869,"Ġchosun":3870,"íĵ¨":3871,"ie":3872,"ĠìĿ´ê¸°":3873,"ĠìľĪ":3874,"ĠìĹĺë¦¬":3875,"ë¹Ļ":3876,"ĠìĪĺìĽĲ":3877,"Ġse":3878,"ĠëĤ´ëĨĵ":3879,"Ġë¯¸ëĭĪ":3880,"Ġìŀ¥ì°©":3881,"Ġì§ĦíĻĶ":3882,"Ġë¶Ħëħ¸":3883,"Ġì±ĶíĶ¼ìĸ¸":3884,"ĠìķĦìĬ¤":3885,"ì½¤":3886,"ebo":3887,"Ġ^^":3888,"ĠìĻĦìĦ±":3889,"Ġê¸°ê³Ħ":3890,"Ġêµ¬ì²´":3891,"ë§ĪìŀĲ":3892,"Ġë²ĮìĿ´":3893,"ĠëĥĲê³ł":3894,"ĠëįĶëĿ¼êµ¬ìļĶ":3895,"Ġì¶ľìłĦ":3896,"ĠëĥĲëĬĶ":3897,"ĠìĭľëĤ´":3898,"Ġì¶©ëıĮ":3899,"Ġìĭľì²ŃìŀĲ":3900,"Ġê°ĢìĿĦ":3901,"ìĿĢíĸī":3902,"íĳ":3903,"ĠìĿĺë£Į":3904,"ĠìĤ¬ê²©":3905,"ĠìĻ¼":3906,"ĠíĿ¬ìĥĿ":3907,"ĠìłĢì§Ģ":3908,"Ġrights":3909,"Ġíģ¬ë¦¼":3910,"Ġhp":3911,"Ġì§ĢëĤľëĭ¬":3912,"Ġê°Ģë¦¬":3913,"Ġê¸Ģë¡ľ":3914,"ì¢Į":3915,"°°":3916,"ĠíĻĪëŁ°":3917,"ĠìĿ¸íķľ":3918,"Ġì´ĿìĦł":3919,"Ġíı¬ì¼ĵ":3920,"ĠëĮĢë¯¸ì§Ģ":3921,"Ġë³´ìĹ¬ì¤Ģ":3922,"Ġìį":3923,"ĠìĹ¬ëŁ¬ë¶Ħ":3924,"ëĭ¤ë©´":3925,"ĠëĤĺìĦľ":3926,"ëĶĶìĸ´":3927,"Ġë§ŀì¶°":3928,"ìł¸ìĦľ":3929,"Ġì»´íĵ¨":3930,"ĠìĿĦì§Ģ":3931,"Ġcopyright":3932,"Ġê°ľëħĲ":3933,"Ġê°Ħë":3934,"ĠìķĦë¦Ħ":3935,"Ġì¶ĶìľĦ":3936,"est":3937,"Ġìŀ¥ì¹ĺ":3938,"Ġì°Į":3939,"Ġê¸°ë°ĺ":3940,"ĠìĦ¸ìĿ´":3941,"Ġê·¸ëķĮ":3942,"Ł´":3943,"Ġê³µì¤ĳ":3944,"íĺĦì":3945,"ĠìĪĺìĿµ":3946,"Ġë¹ĦìĦľ":3947,"ĠìľłìĹĶ":3948,"Ġê·¸ë¦°":3949,"Ġì§ģìłĦ":3950,"íķĢ":3951,"Ġë¶Ģë¬¸":3952,"ì°į":3953,"Ġê°Ģê¹ĮìĿ´":3954,"¼ëĵľ":3955,"ĠìĿ¼íĸī":3956,"Ġìķ¼ë§Ī":3957,"ĠìłĲìłĲ":3958,"ĠìĤ¬ëł¹":3959,"Ġìĭľíĭ°":3960,"ĠëĲľëĭ¤ê³ł":3961,"ĠìķĦëĤ´":3962,"Ġimbc":3963,"Ġê²½ëĤ¨":3964,"Ŀ¼ìĿ´":3965,"ĠìĪĺì¹ĺ":3966,"ëľ»":3967,"Ġê°ĢìĬ¤":3968,"Ġë²ĪìĹŃ":3969,"Ġê³Ħê¸°":3970,"Ġê´Ģíķľ":3971,"ĠíĻĶìŀ¬":3972,"²½":3973,"Ġëĭ¹íķľ":3974,"ĠíĥĪì¶ľ":3975,"ĠíĢĺìĬ¤íĬ¸":3976,"Ġyna":3977,"ĠëĤĺë¦Ħ":3978,"ĠìĤ´ìĿ¸":3979,"ì£¼ëıĦ":3980,"Ġê³µë¬´ìĽĲ":3981,"Ġë¶Ģíĥģ":3982,"Ġê°Ģë¥´":3983,"ĠìĿ´ìĬ¹":3984,"íĺ¸ë":3985,"ĠíĻįë³´":3986,"ĠìĦľìļ¸ìĭľ":3987,"Ġë¹Ħìĭ":3988,"Ġë¶ģë¶Ģ":3989,"ĠíĻ©ìłľ":3990,"ĠëĲľëĭ¤ëĬĶ":3991,"ê¹Ĳ":3992,"ëĿ¼ìĬ¤":3993,"ĠíĮĲìłķ":3994,"ĠêµŃíļĮìĿĺìĽĲ":3995,"ĠÃĹ":3996,"ĠìĭľíĤ¬":3997,"Ġì»´íĵ¨íĦ°":3998,"Ġìłľì£¼ëıĦ":3999,"ĠìĿ¸ê·¼":4000,"Ġìķķë°ķ":4001,"Ġen":4002,"Ħìĭľ":4003,"Ġì¡°ìĦ±":4004,"Ġê°ĢìĬ´":4005,"ĠìĿ¸ìĪĺ":4006,"Ġ%)":4007,"ĠìłĦìĤ¬":4008,"Ġë´ĲëıĦ":4009,"ëł´":4010,"Ġê±°ì³Ĳ":4011,"ĠìĺĢìľ¼ëĤĺ":4012,"ë¥¸ë°Ķ":4013,"ĠìĿ´ë¥¸ë°Ķ":4014,"ì§Ģìħĺ":4015,"ì½©":4016,"ĠìĿĺìĭ¬":4017,"Ġor":4018,"Ġìħĭ":4019,"yle":4020,"Ġë³µê·Ģ":4021,"Ġë¶ĢìĹ¬":4022,"Ġë³Ģíĺ¸ìĤ¬":4023,"Ġíı¼":4024,"ĠíĶĦëłĪ":4025,"Ġë·°":4026,"ĠìłĦì£¼":4027,"Ġìħĺ":4028,"Ġme":4029,"ĠìĭľìľĦ":4030,"Ġìĸ´íĶĮë¦¬ì¼ĢìĿ´ìħĺ":4031,"ĠìĺĢìľ¼ë©°":4032,"Ġìľ¼ëĭĪê¹Į":4033,"Ġìłľì¡°":4034,"Ġì§Ħìłķ":4035,"Ġëĵ¤ìĸ´ìĺ¤":4036,"Ġë¯¸êµ°":4037,"ĠìŀĩëĶ°":4038,"Ġìŀ¬ë£Į":4039,"Ġì¶ĺ":4040,"Ġ...).":4041,"Ġì§Ģìĭľ":4042,"ĠìĬ¤íĥłëĵľ":4043,"íĭ±":4044,"ĠìĨĮë¹ĦìŀĲ":4045,"Ġê±¸ë¦¬":4046,"ĠìłĦì°¨":4047,"Ġë¹ļ":4048,"ıĻìķĪ":4049,"Ġê·¸ëıĻìķĪ":4050,"ĠêµĲìĤ¬":4051,"ê¾¸":4052,"Ġë¹Ħì¤ĳ":4053,"Ġìĥģê´Ģ":4054,"Ġê³łìļ©":4055,"ĠíĻķìĤ°":4056,"Ġê³µë¶Ģ":4057,"Ġê²½ìĥģ":4058,"ìķ¼ë§Ī":4059,"Ġìĺ¤ë°Ķ":4060,"Ġëį¤":4061,"Ġë¡ľë§Ī":4062,"ĠìłĦìĽĲ":4063,"Ġì§Ģíķĺì²ł":4064,"ìº":4065,"ĠìĬ¤íĨ":4066,"ĠëĮĢì¤ĳ":4067,"Ġë³Ģìĭł":4068,"Ġë©ľ":4069,"Ġì£Ħ":4070,"µëĭĪëĭ¤":4071,"ess":4072,"ĠìħĶìķ¼":4073,"Ġì¶©ë¶ĦíŀĪ":4074,"¦Ī":4075,"Ġëĭ¥":4076,"Ġì½©":4077,"Ġì¹´ìĿ´":4078,"ĠëıĦë°ľ":4079,"Ġì²´ìľ¡":4080,"ĠìķĦì¹´":4081,"¹ìĬ¤":4082,"Ġê²½ë¶ģ":4083,"Ġ#!":4084,"ĠìĥĿê²¼":4085,"ĠìĨĮìľł":4086,"Ġê¹ĢìĦ±":4087,"Ġì§Ģê¸ī":4088,"Ġëį´":4089,"ĠìĿ´ëĤł":4090,"Ġëĭ¨ìĸ´":4091,"ĠìĭĿíĴĪ":4092,"ĠìĨĮë°©":4093,"Ġìĭłë¬¸":4094,"ëĭĪìĬ¤":4095,"ëĵŃ":4096,"Ġìĭ¤ìŀ¥":4097,"ĠìŀĲë§ĪìŀĲ":4098,"ê°Ĵ":4099,"Ġë¬¼ì§Ī":4100,"ĠíĺĳíļĮ":4101,"Ġê³łìĸĳìĿ´":4102,"ĠíĶĦë¡ľìłĿíĬ¸":4103,"Ġìłķìŀĳ":4104,"Ġë°©ìĸ´ëł¥":4105,"Ġì¹¼ë":4106,"ĠìŀĬ":4107,"ĠìĬ¤íİĺìĿ¸":4108,"ĠëĪĦê°Ģ":4109,"Ġíľ´ëĮĢ":4110,"Ġì¢ħêµĲ":4111,"Ġìľłì¹ĺ":4112,"Ġ}":4113,"Ġìķłì´Ī":4114,"ĠìĤ¬ê±°ë¦¬":4115,"Ġcl":4116,"ì²łìĪĺ":4117,"Ġì¦Ŀê±°":4118,"ell":4119,"ĠìĹī":4120,"Ġë°ķìĤ¬":4121,"Ġë°Ķëŀ":4122,"ìĥ¤":4123,"ers":4124,"ĠëłĪëĵľ":4125,"Ġìĵ°ìĿ´":4126,"ìļ¸ë":4127,"ĥĪ":4128,"ĠíĨłë¡ł":4129,"ĠëĲ¨":4130,"ĠíĥĢìŀĦ":4131,"ĠìĤ´íķ´":4132,"ĠíĻĶìłľ":4133,"ĠíĿī":4134,"ĠëıĻíķ´":4135,"ĠëĨĪ":4136,"Ġìł¤":4137,"Ġì§ĳíļĮ":4138,"Ġë³´ìŀ¥":4139,"Ġë§ĪìĤ¬":4140,"Ġ\\":4141,"ĠìĿĺëıĦ":4142,"Ġíģ¬ë¦¬":4143,"Ġêµ¬ìŀħ":4144,"§Ĳë¡ľ":4145,"Ġë¡ľëĵľ":4146,"Ġê¶ģê¸Ī":4147,"pg":4148,"Ġê³łìŀĲ":4149,"Ġìłķê·ľ":4150,"Ġíĺ¸íħĶ":4151,"Ġpc":4152,"ĠìĿ´ìĻ¸":4153,"Ġê·¼ìłĳ":4154,"ìĿ¸ì§Ģ":4155,"Ġêµ°ëĮĢ":4156,"========":4157,"Ġê°Ģêµ¬":4158,"Ġíķĳ":4159,"ĠìķĦíĤ¤":4160,"Ġê¸°ì§Ģ":4161,"all":4162,"ĠìŀĳìĦ±":4163,"Ġë°Ķëĭ¥":4164,"ìŀĶ":4165,"Ġê³µì£¼":4166,"Ġê¹Ģì¢ħ":4167,"ĠíĻķìŀ¥":4168,"ëª½":4169,"ĠìĹ°ìĬµ":4170,"Ġë¸Įë¦¬":4171,"íĴĢ":4172,"ĠìĤŃìłľ":4173,"Ġê°Ħëĭ¨":4174,"ìĭ¬íŀĪ":4175,"ĠëıĦìĻĢ":4176,"ĠíıĲì§Ģ":4177,"Ġë³´ì¡°":4178,"Ġëĭµë³Ģ":4179,"ĠìĺĪìļĶ":4180,"Ġì¢ĭìķĦ":4181,"Ġë¶Ģë¶Ģ":4182,"Ġëħ¸ì¡°":4183,"Ġêµ¬íķĺ":4184,"Ġê°ľë´ī":4185,"Ġë¶Īíİ¸":4186,"Ġê·ł":4187,"ĠìĹ°ëĮĢ":4188,"ĠëĵĿìłĲ":4189,"ĠìłĪë°ĺ":4190,"Ġì·¨ìĨĮ":4191,"Ġíķ´ìłľ":4192,"Ġêº¼ë":4193,"Ġíļ¨ìľ¨":4194,"ĠìłĦìŀĳ":4195,"ĠìľłíĨµ":4196,"Ġì´īêµ¬":4197,"Ġii":4198,"Ġëĭ¹ìŀ¥":4199,"ĠëĮĢìŀ¥":4200,"Ġê¸°ëıĻ":4201,"Ġëĵ¤ìĸ´ê°Ķ":4202,"ĠìĤ¬ëĥ¥":4203,"art":4204,"Ġìľ¡ìķĦ":4205,"Ġê³łìłķ":4206,"Ġê²°ìĬ¹":4207,"ëį°ìļĶ":4208,"ĠíĨµìĿ¼":4209,"nbc":4210,"Ġê°ľìĦ±":4211,"ĠíĬ¹íĮĮ":4212,"Ġê¾¼":4213,"¨¼ì§Ģ":4214,"Ħ¤":4215,"ìĦ¸ë¨¼ì§Ģ":4216,"Ġëįĺì§Ģ":4217,"ĠëĪĪë¬¼":4218,"Ġë©Ī":4219,"Ġë¶ī":4220,"ĠíĬ¹íĮĮìĽĲ":4221,"ĠíħĶëłĪ":4222,"ĠìĨĮëĵĿ":4223,"Ġë¯¸ìĦ¸ë¨¼ì§Ģ":4224,"Ġìķħë§Ī":4225,"ìħī":4226,"Ġë¡ľìĬ¤":4227,"Ġì¡°ì¢ħ":4228,"Ġì¢ħì¡±":4229,"Ġíķ´ìĥģ":4230,"ì£½":4231,"Ġìļ´ìłĦ":4232,"§¨":4233,"Ġê²½ìĦł":4234,"Ġíģ´ëŁ½":4235,"ĠëıĮíĮĮ":4236,"Ġë¯¼ì¡±":4237,"ĠëĦĲ":4238,"Ġä¸":4239,"Ġíı¬ì¼ĵëª¬":4240,"Ġ10":4241,"íİĻ":4242,"Ġë³ĳëł¥":4243,"ĠìĦŃ":4244,"Ġê¸°ì²´":4245,"Ġì§Ģì§Ħ":4246,"ëį°ìĿ´íĬ¸":4247,"ĠìĻĦë²½":4248,"Ġë¶Ħë¦¬":4249,"ëĤľëĭ¤":4250,"ĠìľłìĤ¬":4251,"ĠìĹħëį°ìĿ´íĬ¸":4252,"ĠêµŃë¦½":4253,"Ġê°ľíİ¸":4254,"Ġë°Ķë¥´":4255,"Ġë°Ģë¦¬":4256,"Ġì§Ħìŀħ":4257,"ìķĹ":4258,"ĠëĶĶì§Ģ":4259,"Ġë³µì§Ģ":4260,"Ġìĺ¤ë°Ķë§Ī":4261,"ĠëĮĢì²´ë¡ľ":4262,"ĠìĪĺë¹Ħ":4263,"ĠìķĪì²łìĪĺ":4264,"Ġë°ĺë³µ":4265,"ĠìĿ¸ìĥĿ":4266,"Ġìŀ¥ê°ĳ":4267,"ĠíĺķìĭĿ":4268,"ĠìŀĦë¬´":4269,"ĽĮ":4270,"Ġëª¨ë°Ķ":4271,"Ġíħľ":4272,"ĠìŀĦëªħ":4273,"ĠìĹĲìĸ´":4274,"Ġlo":4275,"Ġì§Ģë°°":4276,"Ġê³µëĭ¨":4277,"ŀľëĵľ":4278,"ip":4279,"Ġëį°ìĿ´íĦ°":4280,"Ġêµ¬ëıħ":4281,"Ġë¸Įëŀľëĵľ":4282,"Ġë¹ĦëĶĶìĺ¤":4283,"Ġì²¨":4284,"ĠìłĢíķŃ":4285,"ê²ģ":4286,"Ġë°ĺìĺģ":4287,"ĠìĿĺíļĮ":4288,"ĠìłĦê°ľ":4289,"ĠíķĦì":4290,"Ġìĭ¬ë¦¬":4291,"ĠíĬ¹ìĿ´":4292,"Ġíĳľìłķ":4293,"Ġê¼½":4294,"Ġê·¸ê²Į":4295,"Ġìĩł":4296,"Ġê¶":4297,"ĠìĽĮëĤĻ":4298,"ëļ":4299,"Ġì«ĵ":4300,"ëĦĪìĬ¤":4301,"Ġë¯¸ì¹ĺ":4302,"ĠêµĲíļĮ":4303,"Ġìĥ·":4304,"Ġíķľê¸Ģ":4305,"Ġë°´ëĵľ":4306,"Ġë¨¹ìĬ¤":4307,"ìķĦëĤ´":4308,"Ġë²ķìķĪ":4309,"Ġë¸Ķë£¨":4310,"Ġìĸ¸ëĭĪ":4311,"und":4312,"íĬ¸ë¡ľ":4313,"Ġì²´íı¬":4314,"Ġê¸Ģë¡ľë²Į":4315,"ê±°ìļ´":4316,"¥¸":4317,"Ġíĸĩ":4318,"ĠìºĶ":4319,"ĠëĶ°ëľ»":4320,"Ġê¸°ëĭ¤ë¦¬":4321,"ëĭ¤ëĭĪ":4322,"Ġìķ¼ë":4323,"ëĵ¬":4324,"Ġë§Īë¥´":4325,"ĠíķľêµŃìĿ¸":4326,"ĠìłĲì°¨":4327,"ĠìłĦë©´":4328,"Ġë»Ķ":4329,"ĠìĥĮ":4330,"Ġip":4331,"ëħ¸ë":4332,"ĠíħĮìĿ´":4333,"Ġì¹´ë©ĶëĿ¼":4334,"Ġëª¨ë°ĶìĿ¼":4335,"Ġëº":4336,"Ġêµ¬ë¶Ħ":4337,"Ġìĥģì§ķ":4338,"Ġë¦¬ëįĶ":4339,"Ġëª¨ìŀĲ":4340,"ë¨¸ëĭĪ":4341,"Ġíĥľìĸĳ":4342,"ĠíļĮìĽĲ":4343,"Ġìŀ¥ìłĲ":4344,"ĠìĹ°ê¸Ī":4345,"Ġìĭ¬ìĤ¬":4346,"ĠìĿ´ìĬ¤":4347,"Ġê°ģìĦ±":4348,"Ġíķľë¯¸":4349,"ĠëĽ°ìĸ´":4350,"ëŁ¬ë¦¬":4351,"Ġêµ¬ì¶ķ":4352,"ĠìĿ´ìłķ":4353,"ìķ¼ë§Ĳë¡ľ":4354,"ĠìĿ¸íķĺ":4355,"ĠíĹĪìļ©":4356,"ìĿį":4357,"Ġëª©ìĪ¨":4358,"ìĽĮìĦľ":4359,"Ġas":4360,"ke":4361,"ĠâĢ»":4362,"ĠìļĶê¸Ī":4363,"Ġìĭ¤ì¢ħ":4364,"ĠíĨµíĻĶ":4365,"Ġìľ¡êµ°":4366,"Ġíİ¸ìĦ±":4367,"ĠíĨµìłľ":4368,"íĢ":4369,"Ġëı¼ì§Ģ":4370,"ĠìĿ´ê±¸":4371,"ĠíĦ°ë¯¸ë":4372,"ìĿĺìŀĲ":4373,"Ġê³¨ëĵľ":4374,"ĠìĻ¸ë¶Ģ":4375,"ĵł":4376,"Ġíŀĺëĵł":4377,"ĠìĹ´ìĭ¬íŀĪ":4378,"Ġìŀ¬ìĤ°":4379,"Ġëĵľë¦½ëĭĪëĭ¤":4380,"ĠìĪĺìļĶ":4381,"ĠíĻ©ê¸Ī":4382,"¡¤":4383,"Ġê·¼ë¬´":4384,"ĠëĮĢê²°":4385,"ĠìķĪíĮ":4386,"ĠìķĪíĮİ":4387,"ĠìŁģ":4388,"Ġì½Ķëĵľ":4389,"Ġìĸ¸ìĸ´":4390,"Ġëĭ¨ìłĲ":4391,"Ġnam":4392,"ĠìĹĳìĬ¤":4393,"ĠëıĮëł¤":4394,"Ġê±´ëĭ´":4395,"Ġìĺ¨ëĿ¼ìĿ¸":4396,"ĠìŀĲìĤ´":4397,"Ġê·ľìłľ":4398,"ate":4399,"ë¹Ľ":4400,"Ġì£¼ëħĦ":4401,"Ġíı¬ì§Ģìħĺ":4402,"ĦëıĦ":4403,"Ġë³ĳìĤ¬":4404,"Ġë¯¸ëĶĶ":4405,"Ġìĸ´ëĳ":4406,"Ġíķľê³Ħ":4407,"ĠìĦłë³´":4408,"Ġì§ľë¦¬":4409,"ĠëįĺìłĦ":4410,"ëį°ìĬ¤íģ¬":4411,"ĠìĭĿìĤ¬":4412,"Ġì¸¡ë©´":4413,"Ġìį¼":4414,"Ġëī´ìĬ¤ëį°ìĬ¤íģ¬":4415,"Ġstyle":4416,"Ġì§Ģëªħ":4417,"Ġíĺ¸ëĤ¨":4418,"Ġì§ĢìĤ¬":4419,"Ġë¹Ĺ":4420,"ĠíķĦëĵľ":4421,"Ġê³µê³µ":4422,"Ġì¹´íĨ¡":4423,"ĠíĥĢì¹´":4424,"Ġì¹´ìļ´":4425,"Ġì¤ĳë°ĺ":4426,"Ġì£¼ëł¥":4427,"ë§ĪìĬ¤":4428,"Ġë¯¸ìĪł":4429,"ĠìŀĲëĬĶ":4430,"ĠìĨĮìĨ¡":4431,"Ġëĭ¤íģ¬":4432,"ëĳĶ":4433,"ĠìĿ´íĭĢ":4434,"Ġëį§":4435,"Ġla":4436,"ĠìĬ¤ì½Ķ":4437,"Ġìŀ¥ëĤľ":4438,"ãģ":4439,"Ġê°ĢìĤ¬":4440,"Ġê¸°ìĽĲ":4441,"ĠìĹ¬ëĭ¹":4442,"íĥĳ":4443,"Ġì°¨ë³Ħ":4444,"Ġìļ´ìļ©":4445,"ĠíĻĶëł¥":4446,"ĠìŀĦìĭľ":4447,"ist":4448,"ĠìĤ¬íĩ´":4449,"Ġê³µì²ľ":4450,"Ġë¬´ìĹŃ":4451,"ĠìĹ°ì£¼":4452,"ĠëĮĵ":4453,"Ġê±´ì¡°":4454,"Ġheight":4455,"ĠìĹĲìĿ´":4456,"ĠìłĦíĸĪ":4457,"Ġíķĺëĵľ":4458,"Ġì¥Ĳ":4459,"ĠíķĦìĪĺ":4460,"Ġíģ´ë¦¬ìĸ´":4461,"ĠìĭĿëĭ¹":4462,"ĠìĿ¸ìĽĲ":4463,"Ġë¶ģë¯¸":4464,"ĠëĶĶìĬ¤":4465,"Ġì´ĪëĮĢ":4466,"Ġë°ĿíŀĪ":4467,"Ġë°ĶëŀįëĭĪëĭ¤":4468,"ê¹¨":4469,"ëŁ´":4470,"°ķ":4471,"ĠìłģìłĪ":4472,"Ġê°ķìĽĲëıĦ":4473,"ĠëĿ¼ëĶĶìĺ¤":4474,"ĠìĽĢì§ģìŀĦ":4475,"ĠìĦ±ê³¼":4476,"ĠìĽĲìŀ¥":4477,"Ġìĭ¤ìĪĺ":4478,"ĠëıĦìĦľ":4479,"ĠìĤ´ìķĦë":4480,"ĠìĦŀ":4481,"ĠíĶ¼íķĺ":4482,"ĠìĪ²":4483,"ĠìĿ´ìĿµ":4484,"Ġëļ«":4485,"Ġì§ĢìłĲ":4486,"ĠëĬĺìĸ´ëĤĺ":4487,"ĠìłĦëĤ¨":4488,"ĠìķĦë¹":4489,"ì¡°ê±´":4490,"Ġì§±":4491,"ĠëıĻìĽĲ":4492,"Ġìĺ¤íĶĪ":4493,"Ġëĭ¤ìĪĺ":4494,"Ġë§ŀì¶Ķ":4495,"Ġëĸ¼":4496,"Ġlt":4497,"Ġì¼Ħ":4498,"Ġíħį":4499,"ĠíĬ¸ëŀ":4500,"Ġë¹Ħíķĺ":4501,"Ġë©Ķìĭľ":4502,"Ġì²ĺë²Į":4503,"ĠíķľëķĮ":4504,"Ġê·¸ëŁ¬ëĭĪê¹Į":4505,"Ġëĭ¤ëħĢ":4506,"Ġì²´ê³Ħ":4507,"ĠíİĺìĿ´":4508,"Ġê³µìłķ":4509,"ĠìłĪì°¨":4510,"Ġê±·":4511,"ĠìĽĢì§ģìĿ´":4512,"Ġëĸ¨ìĸ´ì§Ħ":4513,"ĠâĺĨ":4514,"Ġë¹Ħìľ¨":4515,"Ġì¶ľë§Ī":4516,"ìĸ´ë¡ľ":4517,"ĠíĹĮë²ķ":4518,"ĠìļĶìĭľ":4519,"ĠíĬ¹ê²Ģ":4520,"íĿĺ":4521,"Ġë¬¸ìŀĲ":4522,"íİ´":4523,"ĠìķĮë¦¬":4524,"ĠìĪ«":4525,"ĠíŀĪìĸ´ë¡ľ":4526,"Ġìłľì¶ľ":4527,"Ġê²½ê³ł":4528,"ĠìĿ´ìłģ":4529,"Ġë§¤ì¶ľ":4530,"ĠíıŃëł¥":4531,"ľł":4532,"ĠìĪĺìĪł":4533,"ĠìĭľìĽĲ":4534,"ĠíĥĪëĿ½":4535,"Ġê³łê°Ŀ":4536,"ĠëģĮìĸ´":4537,"Ġíķ´ì¡Į":4538,"ĠìĹ°êµ¬ìĽĲ":4539,"Ġì²ŃëħĦ":4540,"Ġmy":4541,"ĠìĨĮëħĦ":4542,"ĠëĤ´ë¥Ļ":4543,"ĠìĿ´ìª½":4544,"ëŀ«":4545,"Ġë¬´íķľ":4546,"Ġê¾¸ì¤Ģ":4547,"Ġì¶ľìĥĿ":4548,"ĠìķĦìī¬":4549,"ĠìķķëıĦ":4550,"íı´":4551,"ìĭ±íĦ´":4552,"Ġì¢ħëª©":4553,"ĠìĨĮëł¨":4554,"Ġë¬´ì¡°ê±´":4555,"Ġpro":4556,"Ġìº¡":4557,"ĠìŀĳëħĦ":4558,"Ġsu":4559,"ĠìķĮìķĦë³´":4560,"ĠìĿ¼ëŁ¬":4561,"Ġëį®":4562,"Ġtr":4563,"Ġë§º":4564,"íĨ¤":4565,"Ġê³łê¸ī":4566,"Ġëħ¹ì·¨":4567,"ĠëĿ¼ìĿ´íĬ¸":4568,"ĠëģĿëĤ´":4569,"ĦĪ":4570,"Ġat":4571,"âĨ":4572,"Ġê°ĲìĹ¼":4573,"ĠìĿĮë°ĺ":4574,"Ġë¹łì§Ģ":4575,"Ġê´Ģê°Ŀ":4576,"Ġìĭłì²´":4577,"Ġë°Ķê¿Ķ":4578,"ĠìĹ°ìĺĪ":4579,"Ġì§Ħìĭ¤":4580,"ĠìŀĲê²©":4581,"Ġë¶Ģìŀ¥":4582,"ĠëĤ«":4583,"Ġê²¹":4584,"Ġë³¼ë":4585,"ĠìĻķêµŃ":4586,"ĠíĨµíķ´ìĦľ":4587,"Ġê·¸ê±¸":4588,"ĠìķĦë¬´ë¦¬":4589,"Ġê¸°ìĤ¬ë¬¸":4590,"ĠìĬ¤íĬ¸":4591,"ĠìĺĪê³ł":4592,"ìĿ¼ëŁ¬":4593,"ĠìĪĺë¦¬":4594,"ĠìĹ°êµ¬ìĨĮ":4595,"Ġíĺķìłľ":4596,"Ġ'âĺŀ":4597,"ĠíĦ°ë¯¸ëĦĲ":4598,"Ġì¤ĳìĨĮ":4599,"ĠìĬ¤íģ¬":4600,"Ġfta":4601,"ĠìłķíĻķíŀĪ":4602,"Ġê¹Ģíĥľ":4603,"ĠëıĻë§¹":4604,"Ġsc":4605,"Ġìĭłë¢°":4606,"ĠìŀĲê³ł":4607,"ĠìĿ´ë¤Ħ":4608,"ĠìĹĩ":4609,"Ġìŀĳìļ©":4610,"ĠëłĪìĸ´":4611,"ĠìľĮ":4612,"Ġê°Ģë¬¸":4613,"ëıĦë¡ľ":4614,"ĠìŀŃ":4615,"Ġì²´íĹĺ":4616,"Ġíĳ¸ë":4617,"Ġë¹łìł¸":4618,"ìĺµëĭĪëĭ¤":4619,"ĠìĦ±íĸ¥":4620,"Ġìµľìķħ":4621,"Ġë¶Ħìĸĳ":4622,"ĠëĤ¼":4623,"Ġê°Ģë¡ľ":4624,"ĠëĬĶëĭ¤ëĬĶ":4625,"ĠëįĶëĿ¼ê³ł":4626,"ĠìĿ´ìĦ±":4627,"ĠìľĦëł¥":4628,"ĠìĻĦë£Į":4629,"Ġì£¼ìĿ¼":4630,"ĠëĿĦ":4631,"Ġê±°ì§ĵ":4632,"Ġam":4633,"ĠìĽĮìĭ±íĦ´":4634,"ĠìĹĲìĬ¤":4635,"Ġì¢ģ":4636,"ĠìĪĺìļ©":4637,"ĠëĿ½":4638,"ë¹ĦìķĦ":4639,"Ġëĭ¤ë©´ìĦľ":4640,"ëª¨íĨł":4641,"ĠìĤ´íİ´":4642,"Ġì¹ĺì¦Ī":4643,"Ġìĭ¤ì§Ī":4644,"ĠìķĪê°ľ":4645,"Ġìľłê°Ģ":4646,"ĠíķłìĿ¸":4647,"ĠìĹĲê²ĮìĦľ":4648,"Ġëħ¸ë¦¬":4649,"Ġì¡°ê°ģ":4650,"Ġëĸ¨ìĸ´ìł¸":4651,"Ġìľłë¡ľ":4652,"Ġê³łíĨµ":4653,"ĠëħĢìĦĿ":4654,"Ġìµľê°ķ":4655,"Ġhttp":4656,"ĠíķĢ":4657,"Ġìļ°ìĪĺ":4658,"Ġì£¼ì°¨":4659,"ue":4660,"Ġëĭ¨ìĿ¼":4661,"ê°ĢëĿ½":4662,"ĠìľłëıĦ":4663,"Ġcopyrights":4664,"ĠíıŃìĹ¼":4665,"ĠëıĻìĿĺ":4666,"ge":4667,"Ġê¶Įëł¥":4668,"ĠìĿ¸ë¯¼":4669,"Ġíİ¸ìĿĺ":4670,"Ġda":4671,"ì²©":4672,"Ġë°ķìĬ¤":4673,"Ġì¹ĺëªħ":4674,"Ġê¸´ìŀ¥":4675,"ĠíĿĶëĵ¤":4676,"ĠíĽĮ":4677,"Ġê°ĲìķĪ":4678,"Ġìĭłìļ©":4679,"ë§¥":4680,"ë°ĺê¸°":4681,"ĠìłĲíĶĦ":4682,"Ġ=\"":4683,"ëĤĺìĿ´":4684,"ë¥´íĬ¸":4685,"Ġìĺ¤íĨł":4686,"Ġëħ¸ìĿ¸":4687,"Ġê´Ģì¸¡":4688,"ĠìķĪëħķ":4689,"ë¹Ħë":4690,"Ġì²ľìķĪ":4691,"ĠìĪĺìĹħ":4692,"Ġë¶Ļìŀ¡":4693,"Ġìĺģìŀ¥":4694,"Ġå¤":4695,"ĠìĬ¹ë¶Ģ":4696,"ì§ĳëĭĪëĭ¤":4697,"ĠìĿ´ëĭĿ":4698,"Ġì¶ĶëĿ½":4699,"Ġë§Īíģ¬":4700,"ëĭĲ":4701,"Ġê·¸ìķ¼ë§Ĳë¡ľ":4702,"ĠëĤ´ëł¸":4703,"ĠìĿĺíķĺ":4704,"ĠìĿ´ëŀĢ":4705,"Ġëħ¸íĬ¸":4706,"Ġìĩ¼íķĳ":4707,"Ġê¸°êµ¬":4708,"ëŀĺëıĦ":4709,"ĠëĮĢëĭ¨":4710,"ĠìĪ«ìŀĲ":4711,"Ġê³łëĮĢ":4712,"ding":4713,"ĠìĨĮìĬ¤":4714,"ĠìķĦë¹ł":4715,"Ġê²½ê³Ħ":4716,"ĠíĥľëıĦ":4717,"ĠìķĮëł¤ìł¸":4718,"Ġjo":4719,"ĠìĻ¼ìª½":4720,"Ġìĸ´ìļ¸":4721,"Ġê±´ì¶ķ":4722,"ëį´":4723,"ĠìĿ¸ê¶Į":4724,"Ġë¬´ìĤ¬":4725,"ĠìķĦë¦Ħëĭ¤":4726,"ĠëĦĺìĸ´ê°Ģ":4727,"Ġìķ¡ìħĺ":4728,"Ġëĭ¤ë£¨":4729,"ĠìĬ¤íĶ":4730,"ĠìĽĲìŀĲ":4731,"Ġê²°ë¡ł":4732,"Ġë¬µ":4733,"ĠìĪĺëĭ¨":4734,"ìķĦë¦¬":4735,"ëĤ©":4736,"ëıĪ":4737,"Ġ{":4738,"ĠìĿĢíĩ´":4739,"Ġì¡°ìĭ¬":4740,"ĠìĤ´ì§Ŀ":4741,"ìĿ´ì¹ĺ":4742,"Ġì¦Ŀê¶Į":4743,"Ġë§ĪëĤĺ":4744,"ĠëĦ¥":4745,"Ġê·ĢìĹ¬":4746,"ĠìľĦíĤ¤":4747,"Ġdi":4748,"ĠëĭĮ":4749,"Ġêµ³ìĿ´":4750,"Ġì²Ńë¬¸":4751,"ë¦ĩ":4752,"Ġinst":4753,"Ġì²łìłĢ":4754,"íĦ°ë¦¬":4755,"ë§İ":4756,"ĠìłĦìĦł":4757,"Ġë¡ľì¼ĵ":4758,"Ġê²Ģìĥī":4759,"Ġë³Ħëªħ":4760,"Ġë¯¼ë":4761,"ĠìĿ¼ìļĶìĿ¼":4762,"ĠìĪĺë§İ":4763,"ê³Ħì":4764,"ĠìĦłê³ł":4765,"Ġì§ģìŀ¥":4766,"ĠëĤ´ëĤ´":4767,"ìľĪ":4768,"íİľ":4769,"Ġëį°ìĬ¤":4770,"ĠëķĲ":4771,"Ġìłĳì´ī":4772,"Ġë¬´ê²Į":4773,"Ġtop":4774,"ë£¬":4775,"Ġì±Ħìļ©":4776,"der":4777,"ìĬ¤ì½Ķ":4778,"ĠíĥĢìĿ´íĭĢ":4779,"Ġê°ľìŀħ":4780,"Ġìĺ¤ë¥¸ìª½":4781,"Ġì¶¤":4782,"ĠìĦľë²Ħ":4783,"ëĵľë¡ľ":4784,"ĠìĭľëĤĺ":4785,"Ġ'âĸ¶":4786,"Ġêµ°ìĿ¸":4787,"ĠìľĦë°ĺ":4788,"ĠìĦ±ìĿ¸":4789,"Ġìĭ¤ìłģ":4790,"Ġê·¼ê±°":4791,"ĠíĮĮë¦¬":4792,"ìĽĥ":4793,"Ġë¬¼ëŁ¬":4794,"ĠíĺķìĦ±":4795,"Ġê¸°ì´Ī":4796,"ĠìĨĮíĶĦíĬ¸":4797,"ëĤĺëĭ¤":4798,"Ġê²Ł":4799,"Ġê¸¸ë":4800,"Ġëĭī":4801,"ĠìĨĮëĤĺ":4802,"ĠìĤ¼ìĦ±ìłĦìŀĲ":4803,"ĠìķĦë¬´ëŀĺëıĦ":4804,"Ġë¶ķê´´":4805,"Ġê·¼ë¡ľ":4806,"ĠíĮĲê²°":4807,"Ġì´Ŀìŀ¥":4808,"ĠíļĮíĶ¼":4809,"Ġbo":4810,"ant":4811,"Ġë£¨íĬ¸":4812,"ĠìĿĺë¬¸":4813,"Ġê±°ëĵŃ":4814,"ĠìĻĦíĻĶ":4815,"ĠìłĲê²Ģ":4816,"ort":4817,"Ġë°Ķíĥķ":4818,"ë¥´íģ¬":4819,"Ġìĺ®ê²¨":4820,"Ġë¬´ë£Į":4821,"Ġë°©íķ´":4822,"Ġìĸ´ëĳł":4823,"ìĨĶ":4824,"ĠëĤĺëĪĦ":4825,"Ġê¸į":4826,"ĠëĪĦêµ°":4827,"Ġíķłì§Ģ":4828,"ĠíĿ¡ìĪĺ":4829,"Ġìĥģì²ĺ":4830,"Ġwe":4831,"ĠìĨĮìŀ¥":4832,"Ġë³¸ëŀĺ":4833,"ë¡ľìļ°":4834,"Ġìłķì§Ģ":4835,"Ġìĵ°ëłĪ":4836,"Ġê³ĦìĤ°":4837,"ë³Ħìĭľ":4838,"ĠìĺĪë¹Ħ":4839,"Ġë³´ê±´":4840,"Ġì·¨ìĹħ":4841,"ĠìķĶìĤ´":4842,"Ġë³µìĪĺ":4843,"ìħĢ":4844,"Ġì°°":4845,"ĠìĥĿë¬¼":4846,"Ġì·¨ìŀĦ":4847,"ĠìĹħê³Ħ":4848,"Ġìĸ¼ìĿĮ":4849,"ĠìĭľìłĦ":4850,"Ġìĺµìħĺ":4851,"Ġì§ĢìĭĿ":4852,"ĠìľĦìķĪ":4853,"Ġíĥģ":4854,"ĠëĤ©ì¹ĺ":4855,"Ġë¯¸ì¹ľ":4856,"Ġê³µëŀµ":4857,"Ġì²Ńì£¼":4858,"ëĿ¼ë³´":4859,"ì´Ŀë¦¬":4860,"ì»¨":4861,"Ġëį°ìĿ¼ë¦¬":4862,"Ġad":4863,"ëıĻìķĪ":4864,"ĠíķľêµŃìĸ´":4865,"ĠëĨĢëĿ¼":4866,"ĠìĪĺìĪĺ":4867,"Ġê³µìľł":4868,"ous":4869,"Ġì¶Ķìłģ":4870,"Ġë¬¶":4871,"Ġíıīë²Ķ":4872,"¢ħ":4873,"Ġìŀ¥ë¥´":4874,"íį¼ë":4875,"ĠãĢī":4876,"ĠíŀĪíĬ¸":4877,"ĠëĤŃ":4878,"ĠíĻķìĭ¤íŀĪ":4879,"ĠíļĮê²¬":4880,"íĶ¼ìĬ¤":4881,"ĠíĻĶíķĻ":4882,"Ġë²łìĿ´ì§ķ":4883,"ĠìķĦíĶĦë¦¬ì¹´":4884,"ĠìĤ¬ëĭ¨":4885,"Ġëĸ¨":4886,"Ġê°Ħëĭ¤":4887,"ĠìĿ¼ëŁ¬ìĬ¤íĬ¸":4888,"Ġëį©":4889,"Ġì¹ĺíĤ¨":4890,"ê·¸ëłĪìĿ´ëĵľ":4891,"Ġê·¸ëŁ´":4892,"ĠìĹħê·¸ëłĪìĿ´ëĵľ":4893,"ë¬ĺ":4894,"ĠìĤ¬ëĿ¼ì§Ģ":4895,"ĠìĹ°ëĿ½":4896,"Ġëĵ¤ìĸ´ê°Ħ":4897,"ĠíĤ":4898,"Ġì°¸ë":4899,"Ġìŀ¬ê°ľ":4900,"Ġì¶©ìłĦ":4901,"ĠìĽħ":4902,"ì§Ģì»¬":4903,"Ġjebo":4904,"ĠìĿ´ìĬ¬":4905,"ī½":4906,"Ġì°©ìļ©":4907,"ĠëĮĵê¸Ģ":4908,"ĠëĤĺìĦł":4909,"Ġus":4910,"Ġë§¤ëł¥":4911,"ĠëĽ°ìĸ´ëĤľ":4912,"Ġê·¸ëł¤":4913,"Ġë§¤ìŀ¥":4914,"Ġê°ĵ":4915,"Ġíķ¨ìłķ":4916,"ìĸĢ":4917,"ĠâĨĲ":4918,"íŀĲ":4919,"Ġê¼´":4920,"Ġìĭ¬íķĺ":4921,"Ġíĥľìĸ´":4922,"ìĺ·":4923,"ì¹¸":4924,"ĠìĥģìŀĲ":4925,"Ġ\"âĹĨ":4926,"ĠëĤĺìĿ´íĬ¸":4927,"ĠìĿ¼ìłľ":4928,"ĠëĤĺëĪł":4929,"ĠëıħìŀĲ":4930,"Ġëĸ¨ìĸ´ì¡Į":4931,"Ġíķ©ë¥ĺ":4932,"ë¸Ĳ":4933,"ëįľ":4934,"ĠìĦ¤ê³Ħ":4935,"ĠíĶĮëŀĺ":4936,"Ġìĺ¹":4937,"ĠíĻľìĦ±":4938,"Ġê°Ģëĵľ":4939,"ìł¸ë":4940,"Ġê±°ì£¼":4941,"ĠìłĲìĭ¬":4942,"ĠêµŃë°©ë¶Ģ":4943,"ĠìłĦíķĺ":4944,"Ġì¡°ìłĪ":4945,"ĠìĹ°ë°©":4946,"Ġë³´ì»¬":4947,"ĠìķĦìĽĥ":4948,"ĠìķĮëł¤ì§Ħ":4949,"Ġì¢ħì¢ħ":4950,"Ġìľłì¶ľ":4951,"ĠìĿ´ë¤Ħì":4952,"Ġíķ´ìķĪ":4953,"Ġê³łìľĦ":4954,"ĠìĹ°ê³Ħ":4955,"Ġì¶Ķì¸¡":4956,"ĠëįĶëĿ¼ê³łìļĶ":4957,"ĠìŀĲì¹ĺ":4958,"Ġê¹Ģì§Ģ":4959,"Ġë©Ķë¥´":4960,"Ġë¡ľìį¨":4961,"Ġë¸ĮëłĪìĿ´":4962,"Ġëħ¸ë¬´":4963,"Ġê³µë°©":4964,"ĠãĢĪ":4965,"êº":4966,"Ġëª¨ë¥¸ëĭ¤":4967,"ìĽĮëĵľ":4968,"Ġì»¤ì§Ģ":4969,"Ġë®¤ì§ģ":4970,"ĠìĿ¸íĺķ":4971,"Ġìĸ´ì":4972,"Ġê³¼ìŀ¥":4973,"¼Ī":4974,"ëªĩ":4975,"Ġê³µíĻĶêµŃ":4976,"ë¡ľê·¸":4977,"Ġëªĩëªĩ":4978,"ĠìµľìłĢ":4979,"Ġíļ¡":4980,"Ġte":4981,"ëĤ¼":4982,"ĠìĿ¸ì¦Ŀ":4983,"Ġìĺ¤ë¦¬ì§Ģ":4984,"ĠìĥĿìĿ¼":4985,"Ġì¤ĦìĿ´":4986,"Ġê³µêµ°":4987,"ĠëıĮìķĦìĻ":4988,"ĠìĿĺíķľ":4989,"ill":4990,"Ġì²ŃìĨĮëħĦ":4991,"ĠìĹ¬ê°Ŀ":4992,"ëĭ¤ë¥¸":4993,"Ġë§ĪìĿ´íģ¬":4994,"ĠìĽĲì¹Ļ":4995,"ĠìĿĳìĽĲ":4996,"Ġê±´ì§Ģ":4997,"Ġìŀ¬ëĭ¨":4998,"Ġìĺ¤ë²Ħ":4999,"íĬ¸ëĤ¨":5000,"ê´ĳìĹŃìĭľ":5001,"ĠíĿĲë¦Ħ":5002,"Ġãģ":5003,"Ġì¤Ħìĸ´ëĵ¤":5004,"Ġê¶¤":5005,"Ġì²ľìĸµ":5006,"ĠíĮ¨ìħĺ":5007,"Ġê·¸ëŀ":5008,"Ġíİ¼ì³Ĳ":5009,"ĠìķĦëĭĻ":5010,"Ġë°©ì§Ģ":5011,"ĠëıĻëĦ¤":5012,"Ġë¦´":5013,"Ġë¸ĮëĿ¼ì§Ī":5014,"Ġë³¸ìĦł":5015,"ĠíĥĦìĥĿ":5016,"Ġë¹Ħë¦¬":5017,"ë»":5018,"ë¹Į":5019,"Ġìŀ¥êµ°":5020,"Ġìĺ¨ëıĦ":5021,"ĠìķĦëĿ¼":5022,"íĨ¨":5023,"ĠíĮĿ":5024,"Ġìĵ°ëłĪê¸°":5025,"ĠêµŃìŀ¥":5026,"ĠëªħìĺĪ":5027,"ĠìµľëĮĢíķľ":5028,"ĠíĹ¤ìĸ´":5029,"Ġíĺģìĭł":5030,"Ġì£¼ê°Ģ":5031,"Ġps":5032,"ĠìķĦëĭĮê°Ģ":5033,"ĠíĪ¬ëį°ìĿ´":5034,"ĠëįĶìľĦ":5035,"ĠíĽĦì¿ł":5036,"ĠëŀŃíģ¬":5037,"Ġì°¾ìķĦë":5038,"Ġíĺ¼ëŀĢ":5039,"Ġíıīìĸĳ":5040,"Ġë¯¸íĦ°":5041,"ĠìĦ¸ê¸Ī":5042,"ĠíĻįì½©":5043,"ĠìĿĺë¬´":5044,"ĠëĤ³":5045,"Ġë¿Įë¦¬":5046,"Ġíĭ°ìĸ´":5047,"ĠëĮĢìĽĲ":5048,"ëŀĺíĶĦíĬ¸":5049,"Ġë¹Ħê³ł":5050,"Ġíķłë¨¸ëĭĪ":5051,"ĠëĵľëŁ¬ëĤ¬":5052,"ĦìĹĨ":5053,"Ġëª¨ëłĪ":5054,"Ġpr":5055,"ĠìĺĪë°©":5056,"ĠëĤĺë":5057,"Ġë¬´ëł¥":5058,"Ġë§ĮëĤľ":5059,"íĿĲ":5060,"Ġìŀłê¹Ĳ":5061,"Ġìħ°":5062,"Ġgo":5063,"ĠìŀĦëĮĢ":5064,"Ġë©Ķìĭľì§Ģ":5065,"Ġíķ´ìĸĳ":5066,"Ġë¬¼ê°Ģ":5067,"ìĩ¼":5068,"ĠìķĦë²ł":5069,"ĠíĻĶë¬¼":5070,"ĠìĿ´ìĬĪ":5071,"ĠíıŃíĸī":5072,"ĠæĿ":5073,"ìŀī":5074,"ĠìłĦë¶ģ":5075,"ĠìĬ¹ê°Ŀ":5076,"ont":5077,"Ġì²Ńêµ¬":5078,"Ġì§ĢëıĦë¶Ģ":5079,"íĹ¤":5080,"Ġíĸ¥íķ´":5081,"ĠëĮĢìļ°":5082,"Ġíķ´ì§Ħ":5083,"ë°Ķë¡ľ":5084,"Ġê·¸ì¹ĺ":5085,"Ġê·¸ë§Įíģ¼":5086,"Ġê°Ŀ":5087,"Ġê°ľì¡°":5088,"Ġë¶Īë§Į":5089,"Ġìĺ¤íĶĦ":5090,"Ġëį¸":5091,"ĠíĨµìĥģ":5092,"Ġë³´ë³ĳ":5093,"ãĤ":5094,"Ġë³ĦëıĦ":5095,"²¨":5096,"ĠëĤĺìĺµëĭĪëĭ¤":5097,"ĠìŀĦê¸Ī":5098,"Ġê´Ģê´ĳê°Ŀ":5099,"Ġê¹Ģê²½":5100,"Ġë¡±":5101,"Ġcd":5102,"Ġêº¼":5103,"ĠëĵľëĿ¼ìĿ´":5104,"Ġëª¨ìĹ¬":5105,"ĠìĪĺíķĻ":5106,"ĠíĶĦëĿ¼":5107,"Ġëĭ®":5108,"Ġë²Ħê·¸":5109,"Ġì»·":5110,"ĠìĪĺìĺģ":5111,"per":5112,"ĠíĬ¹ìľł":5113,"Ġì¶ĶìĦĿ":5114,"ĠíĽĦê¸°":5115,"Ġë±ħ":5116,"ĠìĹ°ìŀ¬":5117,"ĠìĿ¼ì¢ħ":5118,"ĠìĻĢì¤ĳ":5119,"Ġë³´ìķĪ":5120,"âĺħ":5121,"Ġë²Įìį¨":5122,"ĠíĥĿìĭľ":5123,"ĠìŁ":5124,"Ńī":5125,"Ġíİĺë¥´":5126,"Ġë°ĶëĿ¼":5127,"Ġì§ĳíĸī":5128,"ity":5129,"ë¶ģëıĦ":5130,"ĠìĽĲìłķ":5131,"Ġë¯¸ëĶĶìĸ´":5132,"ĠìłĦíķ´ì¡Į":5133,"Ġâĸł":5134,"ê¸°ìĹħ":5135,"Ġê¸°ë¦Ħ":5136,"ëŁ¬ëĵľ":5137,"Ġë¡ľìļ´":5138,"ĠêµŃëĭ¹":5139,"Ġê¿Ģ":5140,"Ġëį§ë¶Ļ":5141,"ĠëĵľëŁ¬ëĤĺ":5142,"ĠìĿ¼ìŀĲë¦¬":5143,"Ġê³¼ìłľ":5144,"ĠìĭĿëĭ¨":5145,"ĠìĹ°íľ´":5146,"Ġìľµ":5147,"Ġì¼ĢìĿ´ìĬ¤":5148,"Ġíı¬ë¥´":5149,"ung":5150,"Ġëģ¼ë¦¬":5151,"Ġë¦¬ì¹ĺ":5152,"pl":5153,"ĠìĬ¤ì¼Ģ":5154,"Ġê°Ģë©´":5155,"ĠíĭĪ":5156,"ĠíķĻë¶Ģ":5157,"¶Ħ":5158,"ĠêµŃìłķìĽĲ":5159,"ĠìķĦëĭĲ":5160,"Ġëļľ":5161,"Ġë¶ĢíĴĪ":5162,"ĠìķĦë©Ķ":5163,"Ġë¶Ģíķĺ":5164,"íĿ¡":5165,"ëĵľë¦¬":5166,"Ġì¶ľê·¼":5167,"ìķĦìĺ¤":5168,"ĠëĬĶëĭ¤ê³ł":5169,"Ġìĭłíĺ¸":5170,"ìľ¼ëĭĪ":5171,"ĠìŀħíķĻ":5172,"ĠìĺĪìĦł":5173,"Ġcont":5174,"ê¶":5175,"Ġì£¼ìĿĺë³´":5176,"Ġìłł":5177,"ĠëıĻë°ĺ":5178,"Ġê¹ľ":5179,"ĠìĿ´ëŀĺ":5180,"Ġì¶©ëĤ¨":5181,"Ġìĺ¤ë¹ł":5182,"Ġne":5183,"Ġì§Ħìĺģ":5184,"ë´Ĳ":5185,"Ġê³¼ìĹ°":5186,"ĠíĪ":5187,"Ġê¸įìłķ":5188,"Ġë¶Ģì§Ħ":5189,"Ġê¾¸ì¤ĢíŀĪ":5190,"Ġìĭłê¸°":5191,"Ġë¬¸íķĻ":5192,"Ġíĺģëªħ":5193,"ĠìµľíĽĦ":5194,"ĠëıĻë¬¸":5195,"Ġë¹¼ìķĹ":5196,"Ġë³´ëĤ¸":5197,"ëľ¨ë¦¬":5198,"Ġìłķíķ´":5199,"Ġì§ĢìļĶ":5200,"age":5201,"Ġì§ĢëĮĢ":5202,"Ġê°Ģê²Į":5203,"Ġ201":5204,"ê´":5205,"ĠëģĿëĤľ":5206,"ĠíĺķìĤ¬":5207,"Ġíĳ¸ëĵľ":5208,"Ġìĭľìĭł":5209,"Ġê°Ģê¹Ŀ":5210,"Ġìĸ´ì°Į":5211,"íĢ´":5212,"ĠíĿ°":5213,"ìĬ¤íĭ°":5214,"Ġêµ¬ëĭ¨":5215,"Ġë²łíĬ¸ëĤ¨":5216,"ë®¤":5217,"Ġë§Īë²ķìĤ¬":5218,"ĠìĿ¼ë³¸ìĸ´":5219,"ĠìĿ¼ìĸ´ëĤľ":5220,"íĥĢìŀĦ":5221,"Ġê³°":5222,"ëª¨ë¦¬":5223,"Ġìĸ¼ë":5224,"Ġê·¸ìłĢ":5225,"Ġac":5226,"ë±":5227,"ĠìºĲëĤĺëĭ¤":5228,"ëħ¼":5229,"ëıĻìĥĿ":5230,"ah":5231,"ĠíĸīìĦ±":5232,"¡Į":5233,"Ġmo":5234,"Ġê°Ģìĭľ":5235,"Ġìĭ¤ìłĲ":5236,"Ġë°©ìĤ¬":5237,"ìŀĦì":5238,"Ġìłģëĭ¹":5239,"Ġìłģë°ľ":5240,"Ġê·¸ëŀ¬":5241,"ld":5242,"Ġëį°ëł¤":5243,"Ġíĥľìĸ´ëĤ¨":5244,"Ġìĺģìŀħ":5245,"Ġêµ¬ëĤĺ":5246,"Ġê±¸ì³Ĳ":5247,"ĠëıĻë¶Ģ":5248,"ĠíĨµíķľ":5249,"Ġrub":5250,"Ġê²Ģì¦Ŀ":5251,"Ġì¤ĺìķ¼":5252,"ĠìľĦì£¼":5253,"ë¬´ëĿ¼":5254,"ĠìĿĦê¹ĮìļĶ":5255,"Ġì¤ĳê³Ħ":5256,"Ġë¬´ìĦľ":5257,"Ġëŀ©":5258,"íĻĶìłĲ":5259,"ĠìĬ¤ìľ":5260,"ĠíĥĢìŀĲ":5261,"Ġë³´ê´Ģ":5262,"ĠíĻĺìľ¨":5263,"Ġê³łìĨĮ":5264,"ĠìĦłì§Ħ":5265,"ëĿ¼ë¦¬":5266,"ĠëįĶë¸Ķ":5267,"ê¿":5268,"Ġë§Īê°Ĳ":5269,"ìľĦëĮĢ":5270,"ĠíķľíĻĶ":5271,"Ġë²Įìĸ´ì§Ģ":5272,"Ġë²łìĿ´ìĬ¤":5273,"Ġìĺ¤ë¦¬ì§ĢëĦĲ":5274,"ĠìĿ´ì¹ĺ":5275,"ëĤ¨ëıĦ":5276,"ĠíĻĺìĺģ":5277,"Ġê°Ģì¡Į":5278,"Ġì½Ķë¯":5279,"ĠìĽ¬":5280,"Ġì§ĢëĤ´":5281,"Ġìĭ¬ìŀ¥":5282,"Ġê²½ëł¥":5283,"ĠëŀĦ":5284,"Ĩ¡":5285,"íĳ¸":5286,"Ġë©Ģë¦¬":5287,"Ġì£¼ìĹ°":5288,"ë²¤":5289,"Ġê¹Ģë¯¼":5290,"ĠìĺģìĹŃ":5291,"ĠëłĪìĿ¸":5292,"Ġê°±":5293,"Ġë©ķ":5294,"ĠìĿ´ìŀĲ":5295,"Ġê°Ħë¶Ģ":5296,"Ġìĺģíĺ¼":5297,"Ġë°¸ë":5298,"ĠêµĲíĻ©":5299,"ĠìĪĺìĭŃ":5300,"ĠíĽĦìĨį":5301,"ĠíĻĶëł¤":5302,"ë°ĶìĿ´":5303,"ìĤ¬ì¹´":5304,"ëĳĳ":5305,"ĦëŁ¬":5306,"ĠâĻ":5307,"ĠëıĮìķĦìĺ¤":5308,"ry":5309,"Ġfl":5310,"ĠìĬ¹ê°ķ":5311,"ĠêµĲíĻĺ":5312,"ĠìłĦëĿ¼ë":5313,"łĪ":5314,"Ġíģ´ë¦Ń":5315,"ĠìĥĿê²¨":5316,"ĠëĤĺìģĺ":5317,"ĠìĦ±íıŃ":5318,"ĠìĤ¬ì¿ł":5319,"Ġì§Ŀ":5320,"Ġmp":5321,"Ġê¸°ê¸°":5322,"ĠíĮ¨ëŁ¬":5323,"ĠìłĢê²©":5324,"Ġìĭłê·ľ":5325,"ĠìķĦìĤ¬":5326,"Ġê°Ĳìĭľ":5327,"Ġêµ¿":5328,"ĠëĪĦêµ°ê°Ģ":5329,"ĠëĭµëĭĪëĭ¤":5330,"ë¦¬ìĬ¤íĬ¸":5331,"Ġê³łíĸ¥":5332,"ĠíĬ¸ëŀĻ":5333,"Ġë¹ĦíĬ¸":5334,"ĠìĪľìĦľ":5335,"Ġëª»íķľëĭ¤":5336,"ĠìĹĦì²ŃëĤĺ":5337,"Ġê³łìľł":5338,"ĠìĿĺìĻ¸":5339,"Ġê°ľë§ī":5340,"ĠìĦ±ë¶Ħ":5341,"Ġë°ľìĿĮ":5342,"Ġì²Ńë¬¸íļĮ":5343,"ĠìĿ¸ë¥ĺ":5344,"Ġëħ¸ë¬´íĺĦ":5345,"Ġë¬´ëĦĪ":5346,"Ġê²ĮìĿ´":5347,"ë©į":5348,"ìĸ´ëıĦ":5349,"Ġë²ĦíĬ¼":5350,"Ġë³´ìĹ¬ì¤Ģëĭ¤":5351,"ĠìĹ¼ë":5352,"ĠíĥĳìĬ¹":5353,"Ġê´ĳìŀ¥":5354,"Ġì°¨ê´Ģ":5355,"Ġruby":5356,"Ġìĸ´ëł¤ìĽĢ":5357,"Ġê±´ëĦĪ":5358,"Ġíĸīë³´":5359,"ĠìĹĲê²Ĳ":5360,"Ġê°ľíĨµ":5361,"Ġëª¨ë¦¬":5362,"ust":5363,"ĠëĮĢë¦¬":5364,"Ġìŀ¬ë°":5365,"ect":5366,"Ġëħ¸ì¶ľ":5367,"Ġì±ĦíĥĿ":5368,"Ġìŀ¬ë°Į":5369,"ĠìļĶìĽĲ":5370,"ì§Ħì":5371,"ĠíĬ¹ë³´":5372,"ĠëĦ·":5373,"ìĦľíĬ¸":5374,"Ġë³´ëĦĪìĬ¤":5375,"Ġíĺ¹ìĭľ":5376,"ëĭĪìĸ´":5377,"ëłĪìĿ´ìħĺ":5378,"ĠìŀłìĪĺ":5379,"Ġì»¨ìħī":5380,"ë¬µ":5381,"ĠëĴ¤ì§ĳ":5382,"Ġíį¼ë":5383,"Ġíģ´ëŀĺìĬ¤":5384,"Ġê¹Ģì¹ĺ":5385,"ĠëĤłê°ľ":5386,"Ġì¤ĳëĮĢ":5387,"Ġëĭ¨ìľĦ":5388,"Ġë§Īì¹¨":5389,"Ġë¯¸ëĵľ":5390,"Ġëª»íķ´":5391,"Ġê°ľê·¸":5392,"ĠìĭľíĤ¨ëĭ¤":5393,"Ġë°ķì§Ģ":5394,"Ġíİ¸íķĺ":5395,"ĠìķĦëĤĺ":5396,"ĠíļŁ":5397,"Ġë²Ħëł¤":5398,"ìĽ¨ìĿ´":5399,"ĠìĿ´ë¡ł":5400,"ëĿ¼íģ¬":5401,"Ġêµ°ìļĶ":5402,"ëłģ":5403,"ĠëĤ´ë¦°":5404,"Ġìĺ¬ëł¸":5405,"Ġup":5406,"Ġêµ°ëĭ¨":5407,"ĠëĤ´ëł¤ê°Ģ":5408,"Ġëıķ":5409,"Ġê²Ĳ":5410,"Ġë´ħëĭĪëĭ¤":5411,"Ġáħ":5412,"ĠìĬ¤íĭ°":5413,"Ġë²Ĺìĸ´ëĤĺ":5414,"ĠìĽĲìłĦ":5415,"Ġë£Į":5416,"ĠëĤĺê°Ī":5417,"Ġìĥģìĥģ":5418,"ĠíİĢëĵľ":5419,"ĠíĮĮê²¬":5420,"Ġë©Ģíĭ°":5421,"Ġåħ":5422,"Ġë¶Ģëĵľ":5423,"Ġëľ¬":5424,"Ġê»ĺìĦľ":5425,"Ġì§Ħëĭ¤":5426,"ëĭĪíĭ°":5427,"Ġë¶Īëªħ":5428,"ĠíĽĶ":5429,"Ġgr":5430,"Ġì§ĦìĪł":5431,"ĠìĦľë¶Ģ":5432,"ĠìĹ°ëıĦ":5433,"ķĦ":5434,"Ġë°ĿíŀĮ":5435,"Ġë§¤ìĪĺ":5436,"Ġë²ķìĿ¸":5437,"Ġëĭ¨ìĪľíŀĪ":5438,"Ġss":5439,"Ġëĭ¨ìĨį":5440,"Ġê¹ĢëıĻ":5441,"Ġë§ĮëĤ¬":5442,"Ġì¶ľíĮĲ":5443,"Ġë²ķë¥ł":5444,"ĠìŀĲìĤ°":5445,"Ġì§ĢëıĦìŀĲ":5446,"ì¶¤":5447,"Ġwith":5448,"Ġì½Ķì¹ĺ":5449,"Ġë°Ł":5450,"Ġìĭ¬íĮĲ":5451,"Ġë¹¼ë":5452,"Ġíĳľì¤Ģ":5453,"ĠíķĦìĤ´":5454,"Ġëĭ¹ë¶Ħ":5455,"ìĺ¤ìĬ¤":5456,"Ġwor":5457,"Ġëĵ¤ìĹ¬":5458,"Ġëł¹":5459,"Ġêµ¬ìļĶ":5460,"ë§ŀ":5461,"ìĤŃ":5462,"ĠíĿĺëŁ¬":5463,"Ġì±Ļê²¨":5464,"Ġëĭ¤íĸīíŀĪ":5465,"ĠìĦľë¸Į":5466,"Ġich":5467,"Ġì¡°ì§Ģ":5468,"ĠìĿ¸ê³µ":5469,"ĠìĻ¸ëª¨":5470,"Ġê±°ëĳĲ":5471,"ĠìĭľëĤĺë¦¬ìĺ¤":5472,"Ġì¢ĭìķĦíķĺ":5473,"ĠìĦ¤ëĵĿ":5474,"Ġltd":5475,"ĠëĵľëĶĶìĸ´":5476,"ĠëĮĢë²ķ":5477,"Ġfood":5478,"ive":5479,"Ġë§¥ì£¼":5480,"ĠíħĮíģ¬":5481,"īĺ":5482,"Ġchannel":5483,"ĠìĥģëĮĢë°©":5484,"ĠíĥĢìĽĮ":5485,"ark":5486,"íĤ":5487,"ĠâĨĶ":5488,"Ġëĳ¥":5489,"ĠìłĦìĪł":5490,"Ġì°½ì¡°":5491,"ìĭľì½Ķ":5492,"Ł°ìĬ¤":5493,"ĠìĥģìĦ¸":5494,"ĠìĹ´ëł¸":5495,"one":5496,"Ġëĭ¹íķ´":5497,"Ġì¡°ìļ©":5498,"ĠëıĦìĭ¬":5499,"ĠÐ":5500,"Ġì½ĶìĬ¤íĬ¸":5501,"ìķĦë²Ħì§Ģ":5502,"ick":5503,"Ġë²łë¥´":5504,"ĠìĨĶë¡ľ":5505,"Ġì½ĶëĦĪ":5506,"ê¹Ķ":5507,"ĠâĪ":5508,"Ġìķ½íķľ":5509,"Ġë³´ê¸ī":5510,"Ġê²Įìĭľ":5511,"Ġê¸°ìĨĮ":5512,"ë¡¤":5513,"ĠëĮĢíķĺ":5514,"Ġëª¨íĹĺ":5515,"ĠíĹĲ":5516,"©ìĿ´":5517,"Ġê¸Īìķ¡":5518,"Ġê¹İ":5519,"ĠìķłíĶĮ":5520,"ĢìĦľ":5521,"ĠìĭĿë¬¼":5522,"ĠìĺģëıĻ":5523,"ĠíĬľ":5524,"ë¦¬íĬ¸":5525,"ë¿":5526,"Ġê·¸ëŁ°ì§Ģ":5527,"ìĪĺìĪĺ":5528,"ĠìĹ¬ìĦľ":5529,"Ġì¶ľìŀ¥":5530,"Ġëĵ±ëĵ±":5531,"ëłĪìĿ¸":5532,"Ġì´Ŀê¸°":5533,"iz":5534,"gin":5535,"ĠíĪ¬ëªħ":5536,"ĠíķĦë¦¬":5537,"ĠíĽĦì§Ģ":5538,"Ġmax":5539,"Ġì¶ľìŀħ":5540,"ĠìłĲëł¹":5541,"Ġro":5542,"Ġê´´ë¬¼":5543,"ĠìķĮëłī":5544,"Ġêº¼ëĤ´":5545,"ĠíķľìŀĲ":5546,"Ġë°Ģëł¤":5547,"Ġëĭ´ë°°":5548,"Ġë¦½":5549,"Ġë³´ëĥĪ":5550,"Ġëª¨ìľ¼":5551,"Ġì½ĺìĦľíĬ¸":5552,"áĦ":5553,"ĠëŃĺ":5554,"Ġê²°ìĿĺ":5555,"ĠëŁ°ëįĺ":5556,"Ġso":5557,"ë¨¸ë¦¬":5558,"ĠëĤ¨ìª½":5559,"Ġê²¨ìļ°":5560,"ĠëĪĪì¹ĺ":5561,"ìĭľìĺ¤":5562,"Ġì²łëıĦìĹŃ":5563,"ĠëĮĢëĭµ":5564,"Ġê³łë¬¸":5565,"ĠìĤ¬ë²ķ":5566,"Ġíİ¼ì¹ĺ":5567,"ĠëĮĢë°ķ":5568,"Ġê¹Ģìŀ¬":5569,"ë¬¼ê´Ģ":5570,"íĮ¡":5571,"Ġìĺ¤ìĬ¤":5572,"ĠìĨĮìĪĺ":5573,"ĠìĪĺìĥī":5574,"Ġì¡°ê¸°":5575,"Ġëĵłì§Ģ":5576,"ĠìłĢëł´":5577,"ĠìķħíĻĶ":5578,"ĠëĶĶì§ĢíĦ¸":5579,"ĠìĤ½":5580,"Ġê°ĢëıĻ":5581,"ĠìĿ¼ê¸°":5582,"ĠëĤĺìģľ":5583,"ĠìŀĲëħĢ":5584,"ĠëĨĢìĿ´":5585,"Ġê²ī":5586,"ĠíĦ°ì§Ģ":5587,"ĠìµľìĪľ":5588,"ĭ¬":5589,"ĠâĹĭ":5590,"ĠìĪĺíĺ¸":5591,"Ġëĵ¤ìĿ´":5592,"ëĳĺ":5593,"Ġíķ¨ëĮĢ":5594,"ĠëĤĺì¹´":5595,"Ġëĭ¹ë¶Ħê°Ħ":5596,"Ġë²Ķíĸī":5597,"Ġë§Īëł¥":5598,"Ġëĵľëł¸":5599,"ĠëĮĦìĬ¤":5600,"Ġë°±íĻĶìłĲ":5601,"Ġê¹ĶëģĶ":5602,"ë¥Ń":5603,"íĻĢ":5604,"įķ":5605,"Ġfe":5606,"Ġê³łìĦľ":5607,"ëŀĦ":5608,"ĠìĭłíĻĶ":5609,"Ġì½Ķìĸ´":5610,"ĠíķĦë":5611,"ĠêµŃíĨł":5612,"Ġë§ĽìĬ¤íĥĢ":5613,"Ġíĺ¸ì£¼":5614,"ĠíĤ¤ìļ°":5615,"Ġìĺ¤ëŀľë§Į":5616,"ĠëĪĦë¥´":5617,"Ġë¹Ħíĸīê¸°":5618,"Ġë²ķìłķ":5619,"ĠìŀĲìĭĿ":5620,"Ġë´īìĿ¸":5621,"Ġì£¼ìŀĲ":5622,"Ġê°ķë¦ī":5623,"Ġë¶ĻìĹ¬":5624,"ĠìŀĲê·¹":5625,"ëĸ":5626,"Ġë©¸":5627,"ĠìĺĪì¸¡":5628,"Ġë©į":5629,"ĠìĦľë¯¼":5630,"íĭ¸":5631,"Ġ**":5632,"Ġíķ©ëıĻ":5633,"ĠíĶĮëŁ¬ìĬ¤":5634,"ĠìĤ´ìķĦëĤ¨":5635,"Ġlove":5636,"Ġì§ĢëĤĺê°Ģ":5637,"ĠìĸĳêµŃ":5638,"annela":5639,"Ġichannela":5640,"Ġíķ´ëªħ":5641,"ĠìĭŃëĭĪê¹Į":5642,"ĠìķĦë¦¬":5643,"ĠìĦ±ëĤ¨":5644,"íĿĳ":5645,"Ġê°ĪìĪĺë¡Ŀ":5646,"ĠìłĦíĪ¬ê¸°":5647,"Ġëª¨ìŀĦ":5648,"ĠíĦ°íĤ¤":5649,"Ġíķĺê³ł":5650,"ĠìķĦíĬ¸":5651,"ix":5652,"Ġem":5653,"Ġë¯¸ìĬ¤":5654,"Ġì§ĳìķĪ":5655,"Ġê·¸ëłĪìĿ´":5656,"ĠìĬ¤íİĺìħľ":5657,"ĠìĽ¨ìĿ´":5658,"Ġìłķê¸°":5659,"Ġìŀħêµ¬":5660,"ĠëĮĢê°Ģ":5661,"ĠìĿ´ìĬ¬ëŀĮ":5662,"ian":5663,"ĠìĿ¸ëł¥":5664,"Ġê´ĢëŀĮ":5665,"ud":5666,"ĠìŀĸìķĦìļĶ":5667,"ìĩł":5668,"ĠëĮĢë¥Ļ":5669,"ĠêµĲê³¼":5670,"Ġê³µìĤ°":5671,"ĠíĻĶìĿ´íĬ¸":5672,"íĹ¨":5673,"ĠìĿĮìĦ±":5674,"Ġíĥĳìŀ¬":5675,"Ġëĭ¥íĦ°":5676,"Ġê°ľêµŃ":5677,"Ġìĸ´ì¨":5678,"ĠíħĲëį°":5679,"Ġë¯¸ëĤĺ":5680,"Ġìĥģíķĺ":5681,"ĠíĪ¬ìĸ´":5682,"Ġìĥĺ":5683,"Ġê²½ê¸°ìŀ¥":5684,"ĠíļĮìłĦ":5685,"Ġëŀį":5686,"ë¹ĦìłĦ":5687,"ĠìķĦë¦Ħëĭ¤ìļ´":5688,"ĠìŀĳìĤ¬":5689,"ĠëĮĢë§Į":5690,"Ġë°ķë¬¼ê´Ģ":5691,"Ġëı¼ìĦľ":5692,"ĠìĹ¬ìľł":5693,"ë©Ķëĭ¬":5694,"ĠëĤĺìĻĢìĦľ":5695,"ĠëıĦìĦľê´Ģ":5696,"ĠìĦ¸ì¢ħ":5697,"ê´Ħ":5698,"ĠìĤ¼êµŃ":5699,"ĠëıĻê¸°":5700,"ĠìĬ¤íĤ¨":5701,"Ġìŀ¬ë¯¸ìŀĪ":5702,"Ġíĸ¥íĽĦ":5703,"ëĶĶìĺ¤":5704,"Ġìĸ´ì©Ķ":5705,"ĠëıĮë¦¬":5706,"Ġëª°ëł¤":5707,"ĠíĮĢìŀ¥":5708,"Ġë£°":5709,"Ġì´Į":5710,"ìŀĦìĬ¤":5711,"Ġfa":5712,"Ġëª¹":5713,"Ġê°ĢìļĶ":5714,"ĦìĥĪ":5715,"Ġai":5716,"ĠìŀĲìłĦ":5717,"¡Ģ":5718,"ĠìĦľìª½":5719,"Ġì¾Į":5720,"ĠìĨĲíķ´":5721,"ĠìĥĿìĦ±":5722,"ëĮ":5723,"Ġë°ķìłķ":5724,"Ġë®¤ì§Ģì»¬":5725,"ĠìłĦìĹŃ":5726,"ìĸ´ì§Ģ":5727,"ĠìķĪëĵľë¡ľ":5728,"Ġë¦¬ìĬ¤":5729,"Ġì§ķìĹŃ":5730,"ë¯¸íĦ°":5731,"Ġíĭ±":5732,"ĠëĤłë¦¬":5733,"ĠíķŃê³µê¸°":5734,"ĠëĤłëł¤":5735,"¼ë¦":5736,"ĠìłĦê³µ":5737,"ĠíķĻê³¼":5738,"Ġê°Ģë°©":5739,"ìĽ¨ìĸ´":5740,"ĠìĦľìĪł":5741,"ì¥":5742,"Ġê²¬ìłľ":5743,"ĠìĬ¤íĤ¤":5744,"ĠíĨłìļĶìĿ¼":5745,"ìĸ´ëĤł":5746,"Ġê°ľë°©":5747,"Ġêº¾":5748,"ĠíļĮìĪĺ":5749,"ĠëĤ¨ê¸°":5750,"Ġë§¤ì¹ĺ":5751,"Ġê´ĢíĨµ":5752,"Ġì¹ĺìĹ´":5753,"âĸ":5754,"Ġë¹Įë¦¬":5755,"Ġìľłíĺķ":5756,"Ġíı¬ìŀ¥":5757,"ĠëĵĿíĳľ":5758,"Ġë±Ģ":5759,"Ġê´ĳìĹŃ":5760,"ĠëĥĦìĥĪ":5761,"ĠíĮĲíĥĢ":5762,"Ġê²½ì£¼":5763,"ê»ı":5764,"ily":5765,"ìłĦë":5766,"Ġëĭ¤ìĦ¯":5767,"ĠëĮĢíıŃ":5768,"ĠíĥĦíķµ":5769,"Ħ±":5770,"Ġíķ´ìĨĮ":5771,"Ġìĸ´ì©Į":5772,"ĠíķĺìľĦ":5773,"ĠìķĪëĤ´":5774,"Ġê°Ģìĥģ":5775,"ĠìĤ´ë¦¬":5776,"Ġíİ¸ì§Ģ":5777,"ĠëĮĢì²ĺ":5778,"ĠìĹ°ìĦ¤":5779,"Ġê³½":5780,"ĠìŀĲìĿ´":5781,"Ġfr":5782,"ĠíķľíĮĮ":5783,"Ġì¤ĳíĻĶ":5784,"ĠìŀĩëĶ°ëĿ¼":5785,"Ġíģ¬ë¡ľìĬ¤":5786,"Ġë°©íĮ¨":5787,"ĠìķĦëŀ":5788,"ìĬ¤íĥĦ":5789,"Ġìĭ¤íĸī":5790,"ĠíĺĦê¸Ī":5791,"Ġíĵ¨":5792,"ins":5793,"Ġê³µíķĻ":5794,"Ġê·¸ê±´":5795,"ĠìĤ¬ìĿ´ì¦Ī":5796,"Ġê²½ì°°ìĦľ":5797,"Ġëĭ«":5798,"Ġì§ĢëĭĮ":5799,"ĠíıŃíĴį":5800,"ĠíĮ¨ìĬ¤":5801,"Ġêµ¬ìłľ":5802,"Ġì½ĶìĬ¤íĶ¼":5803,"Ġíı¬íķŃ":5804,"ĠìĦľìļ¸ë":5805,"ĠìĦ¸ìļ°":5806,"ĠìĹĶíĦ°":5807,"Ġê²½ìľł":5808,"Ġê³µíĨµ":5809,"íģ¬ëŀĺíĶĦíĬ¸":5810,"ĠìĹ¬ìĻķ":5811,"ĠìĭłìĦ¸":5812,"ĠíİĺìĿ´ì§Ģ":5813,"ìĤ¬ìŀĲ":5814,"ĠíĶĦë¦¬ë¯¸":5815,"Ġê·¸ê±°":5816,"íħĢ":5817,"Ġì¤ĳìĨĮê¸°ìĹħ":5818,"ĠìĿ´ì§Ģ":5819,"Ġê³§ë°Ķë¡ľ":5820,"ĠìĦłê±°êµ¬":5821,"Ġë°ĶëĢĲ":5822,"Ġê°¤ëŁŃ":5823,"ĠëĲľëĭ¤ë©´":5824,"ĠëıħëıĦ":5825,"Ġed":5826,"ĠëĶ±íŀĪ":5827,"ĠìĤ¬ëĵľ":5828,"ĠìĪľìĪĺ":5829,"Ġëį°ë¦¬":5830,"ok":5831,"Ġíĥķ":5832,"ĠìĿ¼ìĭľ":5833,"ìĤ°ë¬¼":5834,"ĠìĿ´ì¢ħ":5835,"Ġìĺ¤ìĹ¼":5836,"Ġë¹łì§Ħ":5837,"ĠíĿĶíŀĪ":5838,"ĠëĤļ":5839,"ıĮ":5840,"Ġë¶ĦëªħíŀĪ":5841,"ĠìłĢëŁ°":5842,"ĠìĥĲ":5843,"Ġë¯¸ìĨĮ":5844,"af":5845,"Ġë©ķìĭľì½Ķ":5846,"Ġì§Ģìĺ¥":5847,"Ġê³łêµĲ":5848,"ĠìĦľíķ´ìķĪ":5849,"ĠëĦĺê²¨":5850,"Ġë¬¸ìłľìłĲ":5851,"Ġíĺĳìłķ":5852,"Ġì¶ľë²Ķ":5853,"Ġê³µìŀĳ":5854,"ĠìĭľìĤ¬":5855,"ĠìĹ°ê·¹":5856,"Ġëĭ¹ì´Ī":5857,"Ġê¹ĢëĮĢ":5858,"Ġê¸ĪìļĶìĿ¼":5859,"Ġê±´ê°Ģ":5860,"ĠìłĦíĺķ":5861,"ĠëĮĢíĶ¼":5862,"ĠíĮ¡":5863,"ĠíĹ¬ê¸°":5864,"ì¾Į":5865,"Ġì»¤íĶĮ":5866,"ĠìĬµê²©":5867,"ĠëŁ¬ë¸Į":5868,"Ġíĺ¸ìĨĮ":5869,"ĠíķĺíĬ¸":5870,"Ġë§¤ëħĦ":5871,"Ġê°ĸì¶Ķ":5872,"Ġê¶Įíķľ":5873,"Ġê¸°ëıħ":5874,"Ġë¦¬ìĸ´":5875,"Ġìĥģëĭ´":5876,"Ġìłľë¡ľ":5877,"ë¦ħëĭĪëĭ¤":5878,"ĠìĿ¼ì°į":5879,"Ġê±´ëį°":5880,"Ġìĸ´ì¨Į":5881,"Ġê°¤ëŁŃìĭľ":5882,"íĶ¼ìķĦ":5883,"ĠíĹ¤ëĵľ":5884,"Ġìī¬ìļ´":5885,"ĠëıĮìķĦìĺ¨":5886,"ìĺ¤ë¥´":5887,"Ġíķľë²Ī":5888,"Ġìĺ¤ìĬ¤íĬ¸":5889,"ìĭľë¸Į":5890,"Ġìļ´ìłĦìŀĲ":5891,"ĠëĿ¼ë©´ìĦľ":5892,"Ġê¸°ìĸ´":5893,"ì©į":5894,"Ġë³µìŀ¡":5895,"Ġë¶Ģìĭ¤":5896,"ĠìĹŃìłĦ":5897,"Ġê·¸ëŀĺíĶ½":5898,"ĠìĬ¤íĬľ":5899,"ep":5900,"Ġë°±ë§Į":5901,"Ġë¶Ģë¥¸ëĭ¤":5902,"Ġë¶Ģë¦¬":5903,"Ġì¢ħìĿ´":5904,"¤Ħ":5905,"Ġìľłëŀĺ":5906,"ĠìľłíĤ¤":5907,"Ġê³µìĦ¸":5908,"ĠìĬ¤íĨł":5909,"Ġìľłìļ©":5910,"ĠíļŁìĪĺ":5911,"ĠìĦ¸ìĽĮ":5912,"ĠìłĦì§ģ":5913,"Ġê±°ë¡ł":5914,"ber":5915,"íĬ¸ë¡¤":5916,"Ġë³µêµ¬":5917,"ĠëĮĢëĮĢ":5918,"ì´Ŀìŀ¥":5919,"Ġê¹Ģê¸°":5920,"Ġëĭ¿":5921,"ĠìĿ´ëĭ¬":5922,"ĠìĤ¬ëł¹ê´Ģ":5923,"Ġìıł":5924,"ëĶĺ":5925,"ĠìĻķìŀĲ":5926,"ĠíĽĮë¥Ń":5927,"Ġëłī":5928,"íĪ°":5929,"Ġ!!":5930,"ĠìĺģëĤ¨":5931,"Ġì£¼ìĦĿ":5932,"ĠíĬ¸ëłĪìĿ´":5933,"Ġë§ĪíĬ¸":5934,"ĠíħĮìĿ´ë¸Ķ":5935,"Ġph":5936,"Ġë°ľíľĺ":5937,"Ġê³łìĥĿ":5938,"ĠìĺĽëĤł":5939,"ĠëĨįëıĦ":5940,"Ġíķľì§Ģ":5941,"ĠëıĦêµ¬":5942,"íĪ¬ëį°ìĿ´":5943,"Ġìķ½ìłĲ":5944,"ì°¾":5945,"Ġíķ¸ëĵľ":5946,"Ġå®":5947,"end":5948,"ĠìķĦëıĻ":5949,"ëĦĺ":5950,"Ġì¦Ŀëªħ":5951,"ê°ĢìĻĢ":5952,"cnbc":5953,"ore":5954,"Ġìĭľë¦¬ìķĦ":5955,"Ġêµ¬ëıĦ":5956,"ê¾":5957,"Ġë¼Ī":5958,"av":5959,"Ġë²łìĬ¤íĬ¸":5960,"Ġê±°ìłĪ":5961,"ĠìŀĲë³¸":5962,"ëĿ¼ìĿ´ëįĶ":5963,"Ġsbscnbc":5964,"Ġì£¼ê°Ħ":5965,"Ġìķ½íķĺ":5966,"íķĺëĿ¼":5967,"Ġìŀ¥ìĪĺ":5968,"Ġíģ¬ë¦¬ìĬ¤ë§ĪìĬ¤":5969,"Ġìŀ¥ë§Ī":5970,"ìĦ¸ìļĶ":5971,"Ġíģ¬ë£¨":5972,"Ġëİ":5973,"Ġìľłìļ°":5974,"Ġê·¹ë³µ":5975,"ĠìĪ¨ê²¨":5976,"Ġì§Ħëĭ¨":5977,"ĠìĹ°ë§Ĳ":5978,"Ġì§Ħë³´":5979,"Ġëª°ëŀĲ":5980,"ĠìĹĲìĿ´ìĬ¤":5981,"Ġëī´ìĬ¤íĪ¬ëį°ìĿ´":5982,"Ġê±¸ëł¤":5983,"ĠíĻĶìŀ¥íĴĪ":5984,"Ġëª©ê²©":5985,"Ġë§Īì¸ł":5986,"Ġíľ´ê°Ģ":5987,"Ġì»¤ë²Ħ":5988,"Ġê°Ģì§ľ":5989,"Ġë§ĪìĬ¤íģ¬":5990,"ê³µìĤ¬":5991,"ĠëĤ´ë¦´":5992,"Ġë²ĶìĿ¸":5993,"ì¿¨":5994,"Ġë¦¬ìĬ¤íĬ¸":5995,"ìłķë¶Ģ":5996,"Ġíİł":5997,"agram":5998,"Ġíķĺìļ°ìĬ¤":5999,"ëĲ":6000,"Ġë¬´ëįĶ":6001,"Ġê¹ĢìĪĺ":6002,"Ġì¹´ì¦Ī":6003,"Ġì§¤":6004,"ĠìĽĶìļĶìĿ¼":6005,"Ġë¶Ģê·¼":6006,"ëĶĶìħĺ":6007,"Ġë¹Ħìĭ¸":6008,"Ġìĺģìĸĳ":6009,"ĠìĿĮë£Į":6010,"ĠíĮĮìĿ´íĦ°":6011,"ĠêµŃìłģ":6012,"ĠìķĦëĭĻëĭĪëĭ¤":6013,"ĠìĦľìļ¸ëĮĢ":6014,"Ġê°ķëıĦ":6015,"Ġeu":6016,"Ġê°ķìĿĺ":6017,"Ġê¸°ìłĲ":6018,"íķµíĻĶ":6019,"Ġë¬¸ëªħ":6020,"Ġë°ĶìĿ´ëŁ¬ìĬ¤":6021,"Ġë¹ĦíķµíĻĶ":6022,"Ġì¦īìĭľ":6023,"ĠìħĶìĦľ":6024,"ĠìłķìĽĲ":6025,"ĠìĺģìĽĲ":6026,"ĠìĪ¨ì§Ħ":6027,"Ġê°ķíķ´":6028,"Ġëĵľë¦½":6029,"ìĪŃ":6030,"ëłĽ":6031,"Ġì·¨íķĺ":6032,"Ġì§Ļ":6033,"ind":6034,"ae":6035,"ĠìŀĲìĦ¸íŀĪ":6036,"Ġë¬´íļ¨":6037,"ì²¨":6038,"ĠíĻĶìŀ¥ìĭ¤":6039,"ĠíĿł":6040,"Ġë¦Ń":6041,"Ġì²Ńìŀ¥":6042,"Ġìķ¼ê¶Į":6043,"ĠìĦłì¶ľ":6044,"Ġë§¤ì²´":6045,"ĠìĨĮìļ¸":6046,"Ġbr":6047,"ìķĦëĤĺ":6048,"ĠìĺĪìķ½":6049,"ass":6050,"ĠìĿ¼ìľ¼íĤ¤":6051,"ĠíĶĮëĿ¼":6052,"Ġë¨¹ë°©":6053,"ĠíĤ¨":6054,"Ġíĸīìłģ":6055,"Ġìĺ¤íķ´":6056,"ĠìĿ´ìĸ´ì§Ī":6057,"Ġëªħëĭ¨":6058,"ì§Ħë":6059,"Ġms":6060,"Ġìĸ´ì°¨":6061,"ĠíĺľíĥĿ":6062,"²Ķ":6063,"ĠëĪĮ":6064,"ĠíĻĶìĦ±":6065,"Ġìļ´ëªħ":6066,"Ġì¶Ķìĸµ":6067,"Ġê°¤ëŁ¬ë¦¬":6068,"ĠìĿ¼ìĸ´ëĤ¬":6069,"ëģĹ":6070,"ĠëĳĲìĤ°":6071,"Ġì¶ľì²ĺ":6072,"ëĭ¤ë¦¬":6073,"Ġë¶Īê½ĥ":6074,"ĠìĤ´íİ´ë³´":6075,"Ġìĸ´ì°¨íĶ¼":6076,"uc":6077,"Ġìŀ¥ìĭĿ":6078,"ĠìķĦë¬´ëŁ°":6079,"Ġìłľìķķ":6080,"Ġë³´ê³łìĦľ":6081,"ĠâĨĵ":6082,"Ġë¹ĦìĬ¤":6083,"Ġìļ©ìĸ´":6084,"Ġì°¨íĬ¸":6085,"Ġì»¤ë®¤":6086,"ĠíıĲìĩĦ":6087,"ĠìĬ¤íĮĮìĿ´":6088,"Ġê¹ĢìłķìĿ¼":6089,"Ġêµ¬ê²½":6090,"Ġëŀľëĵľ":6091,"Ġë°°ìĭł":6092,"Ġì¶ľìĦĿ":6093,"Ġìłķë¹Ħ":6094,"ĠìŀĲê¾¸":6095,"ĠìĨĮíĻĶ":6096,"Ġë°Ķë¥¸":6097,"Ġêµ¬íķ´":6098,"tv":6099,"Ġìĭ¤ìĭľê°Ħ":6100,"Ġê¾¸ë":6101,"ĠëĮĢì§Ģ":6102,"ĠíĮ½":6103,"ĠìĹ¬ìĿĺ":6104,"ĠìĹĨìķł":6105,"ĠìĬ¤íİĻ":6106,"Ġê¸°ëıħêµĲ":6107,"ëıĦìļ°":6108,"Ġì§ĢëĭĪ":6109,"Ġëĸłìĺ¬":6110,"ĠìĿ´ëĤ´":6111,"Ġì§Ħìĭ¬":6112,"ĠëĦĪë¬´ëĤĺ":6113,"ĠìĬ¹ê°ķìŀ¥":6114,"Ġìķłë§¤":6115,"ĠëĲĺì°¾":6116,"iv":6117,"Ġë§ŀìĿ´":6118,"Ġë§ŀìĦľ":6119,"Ġëªħì¤ĳ":6120,"Ġyes":6121,"ĠìŀĲìłĦê±°":6122,"ë£¨ìĬ¤":6123,"Ġì»¨íĬ¸ë¡¤":6124,"Ġë³Ģíķĺ":6125,"ĠìĨĮíĺķ":6126,"íķĻìŀĲ":6127,"ef":6128,"ìļ©ì°¨":6129,"ĠíĥĦìķ":6130,"ĠìķĦê°Ģ":6131,"ìĺ¤ì¹´":6132,"Ġê·¸ëĿ¼":6133,"Ġìĭłë¶Ħ":6134,"ĠìķĦìī½":6135,"ĠëĮĢíķĻìĽĲ":6136,"Ġíı¬ì°©":6137,"Ġë³¶":6138,"ĠëĤ´ìĦ¸":6139,"Ġë¶ĢìľĦ":6140,"ìĭ¼":6141,"Ġìļ©ëıĦ":6142,"ë¡¯":6143,"Ġë¶ģìª½":6144,"ĠìłĢì£¼":6145,"ĠëłĪìĬ¤":6146,"ĠíĺĦë":6147,"Ġê±¸ìĸ´":6148,"Ġê·¹ìŀ¥íĮĲ":6149,"ĠëĵĢìĸ¼":6150,"Ġsin":6151,"ĠëĭĪëĭ¤":6152,"ìľ¼ë©´":6153,"ĠìłĦëĭ¹":6154,"Ġë³´ë¬¼":6155,"ìĺ¤ë¦¬":6156,"ì§ĳíĬ¸":6157,"ë¡ľìĬ¤":6158,"ĠëłĪìĿ´ìłĢ":6159,"ĠìĿ´ì§ĳíĬ¸":6160,"Ġê¸°ìĹ¬":6161,"ĠìŀħìĪĺ":6162,"ĠìľĦìĦ±":6163,"§¤":6164,"Ġê¼¼":6165,"Ġì¿¨íĥĢìŀĦ":6166,"ast":6167,"ĠìĦłë°ķ":6168,"Ġë²ķë¬´":6169,"Ġcontent":6170,"ĠíĮħ":6171,"Ġë·°íĭ°":6172,"ĠíĻĶìĹ¼":6173,"Ġìĸ´ë¥¸":6174,"Ġìľ¼ëŁ¬":6175,"ĠìĦ±ëªħ":6176,"Ġaf":6177,"Ġë§Īì£¼":6178,"Ġë§Īìķ½":6179,"ĠìŀĳëıĻ":6180,"Ġìĺģêµ¬":6181,"ĠìĪĺì§ĳ":6182,"íĭ°ëĤĺ":6183,"ìĦ¸ìĿ´":6184,"Ġë²ĮìĺĢ":6185,"Ġhub":6186,"ĠíķĦìĤ´ê¸°":6187,"Ġê³Ħìłķ":6188,"Ġãĥ":6189,"ĠìĿ´ë¸Į":6190,"Ġíĺĳë°ķ":6191,"ĠìĦłë°°":6192,"Ġéĩ":6193,"ĠìĿ´ìĸ´ì¡Į":6194,"Ġëª¨íĭ°ë¸Į":6195,"ĠíĨµíķĺ":6196,"ĠìĿ´ìĬ¤ëĿ¼":6197,"ìĮ":6198,"ĠìĿ´ìĺģ":6199,"Ġìłķì¹ĺìĿ¸":6200,"³µ":6201,"ock":6202,"Ġê°ĲëıĻ":6203,"ĠìĪľìĭĿ":6204,"ign":6205,"ĠëĶ°ì§Ģ":6206,"Ġêµ°ì£¼":6207,"ĠëģĪ":6208,"Ġê²½íĸ¥":6209,"ê³łìĨį":6210,"ĠìĭłìĦ¤":6211,"ĠìłĢìŀ¥":6212,"Ġìŀīê¸Ģ":6213,"ĠíĶ¼ìŀĲ":6214,"Ġêµ¬ê¸Ģ":6215,"Ġì²ĺë¶Ħ":6216,"Ġìĺ¤ë¥ĺ":6217,"Ġìŀ¬ìĥĿ":6218,"ĠìºłíĶĦ":6219,"Ġëĭ¨ìŀ¥":6220,"ì¹´ëĵľ":6221,"ice":6222,"ĠìĤ¬ë¬´ìĭ¤":6223,"Ġë§ĮëĤ¨":6224,"ĠìĪľìĭĿê°Ħ":6225,"ĠìļĶìĥĪ":6226,"Ġìłķë©´":6227,"Ġë¬´ëĤľ":6228,"Ġëª°ëŀĺ":6229,"Ġright":6230,"ĠíĺĦìĹŃ":6231,"Ġìĸ´ê¹¨":6232,"Ġì°¾ìķĦê°Ģ":6233,"ìĮĢ":6234,"Ġê³µê°Ĳ":6235,"Ġìĺ¬ë¦°":6236,"ĠìļĶìĿ¸":6237,"ĠìĬ¤íĶ¼ëĵľ":6238,"Ġ\",":6239,"ĦìĹ¬":6240,"ĠëĦ¤íĬ¸":6241,"Ġëĭ¹íĻ©":6242,"Ġì¹´ìļ´íĦ°":6243,"ĠìĿĺë¢°":6244,"Ġì½Ķë¦¬ìķĦ":6245,"ĠêµĲì°¨":6246,"ĠíĬ¸ëŁŃ":6247,"¤Ģ":6248,"ĠíĬ¹ì§ĳ":6249,"ĠìĬ¤íĬ¸ëĿ¼":6250,"ĠìĺģíĨł":6251,"ĠìĤ¬ìļ°":6252,"Ġë³ĢìĪĺ":6253,"Ġìľ¡ìĦ±":6254,"ĠìĽĲê±°ë¦¬":6255,"Ġmargin":6256,"Ġic":6257,"ĠíĨµë³´":6258,"Ġì»¬ëŁ¬":6259,"Ġë¶Ģìŀĳ":6260,"Ġname":6261,"ĠìķĦìĿ´íı°":6262,"Ġë¹Ħë¡Ŀ":6263,"Ġê°ķê²½":6264,"Ġê±°ì§ĵë§Ĳ":6265,"ëłĲ":6266,"ĠìĿ¼ìĽĲ":6267,"Ġë¶Ģì²ĺ":6268,"íļĮìŀ¥":6269,"ĠìĹĲëĭ¤":6270,"ĠíıĲê¸°":6271,"ĠìłķìĪĺ":6272,"Ġìĳ":6273,"ĠìĨĮëĤĺê¸°":6274,"ëłĺ":6275,"ĠìĹ°ìĥģ":6276,"ĠìĿ´ìĬ¤ëĿ¼ìĹĺ":6277,"¸µ":6278,"ĠìĨĮë¬¸":6279,"ĠíĽ¼":6280,"Ġë©¸ë":6281,"ĠãĢĭ(":6282,"Ġìĭ¬íķľ":6283,"ķħ":6284,"ĠëĮĢëŁī":6285,"ĠìĿĢê·¼":6286,"ĠìĿ´ìĽĥ":6287,"ª¬":6288,"ĠëļĿ":6289,"ĠëĤľëĭ¤":6290,"Ġëĭ¹ìĿ¼":6291,"Ġê³łë¥´":6292,"ëįľëŀĢëĵľ":6293,"Ġê¹¨ëģĹ":6294,"''":6295,"ĠëĤłì§ľ":6296,"ĠíķĻê¸ī":6297,"ĠëĦ¤ëįľëŀĢëĵľ":6298,"Ġì²´ê²°":6299,"ĠëĬĲëĿ¼":6300,"Ġìľłëł¥":6301,"ê±°ëĤĺ":6302,"ĠìłĦê²©":6303,"ĠêµĲë¥ĺ":6304,"Ġìŀħì£¼":6305,"Ġíķ©ê²©":6306,"Ġì°¨ê¸°":6307,"Ġíķ´ìļ´":6308,"Ġë¨¼ì§Ģ":6309,"Ġê²ĮìĿ´íĬ¸":6310,"Ġì£¼ìľĦ":6311,"ĠíĬ¹ê¸°":6312,"ĠìĪĺë°±":6313,"Ġìľłíĸī":6314,"ĠìĿ¼ëĮĢ":6315,"Ġê·ĢêµŃ":6316,"Ġnp":6317,"ĠìľĻ":6318,"ìļ°ëĵľ":6319,"ĠìĥĪëģ¼":6320,"Ġê³±":6321,"Ġìĸ´ëĸł":6322,"ĠìĹ°ê´Ģ":6323,"Ġì¹´ë¥´":6324,"Ġë¬¼ëŁī":6325,"Ġpd":6326,"Ġíĸ¥ìĥģ":6327,"Ġê²½ë³´":6328,"Ġmc":6329,"Ġ30":6330,"ĠíĨłìĬ¤":6331,"Ġìŀ¦":6332,"Ġì¶©ë¶ģ":6333,"Ġwow":6334,"Ġì°½ìŀĳ":6335,"Ġë¨¸ë¬¼":6336,"Ġop":6337,"Ġì¢ħìĿ¼":6338,"Ġëľ¯":6339,"Ġê³łë°ľ":6340,"ìĵ¸":6341,"ĠêµĲìŀ¥":6342,"Ġë³´ìĿ¼":6343,"ĠëĮĢë¦½":6344,"ĠëĤĺê°Ķ":6345,"Ġë¯¼ì£¼ì£¼ìĿĺ":6346,"ìĭľìĬ¤":6347,"Ġìĭľì²´":6348,"ĠëıĻìª½":6349,"ĠíĮĮëŀĢ":6350,"ìĬ¤ì¼Ģ":6351,"Ġì°¸ìĤ¬":6352,"Ġê°ķìķĦì§Ģ":6353,"Ġê¹Ģìļ©":6354,"Ġë¹Ķ":6355,"Ġê°ĦìĭĿ":6356,"Ġë³ĳê¸°":6357,"ëħĶ":6358,"ĠíĮĮíĬ¸":6359,"ĠìĪ¨ì§Ģ":6360,"ëĤĺë¬´":6361,"ĠìłķíĻ©":6362,"ĠìłĢì¶ķ":6363,"ĠìĪĺìĨ¡":6364,"ìĽĮíģ¬":6365,"vp":6366,"Ġíģ´ë¦°":6367,"ìĭ¤íĹĺ":6368,"ly":6369,"ere":6370,"ĠíĮĮìĹħ":6371,"Ġdj":6372,"ĠìĦľíķ´":6373,"ĠíĥĢìĿ´ë°į":6374,"Ġíģ´ë¡ľ":6375,"ĠëĬĳ":6376,"ëĭ¤ìĪĺ":6377,"ĠëıĻìŀĳ":6378,"ĠëĲĺëıĮ":6379,"Ġì£Ħì":6380,"ĠëĨįêµ¬":6381,"ite":6382,"Ġë¦¬ìĸ¼":6383,"ĠìķĦìļ°":6384,"Ġê³¨íĶĦ":6385,"Ġë¸Ķë¡ľê·¸":6386,"adi":6387,"ĠìĿ´ë¦¬":6388,"ĠìĭľìĦł":6389,"Ġëĭ¹ë¶Ģ":6390,"ĠíĮĮëĿ¼":6391,"ĠìĦ±íıŃíĸī":6392,"Ġê¸°ìļ¸":6393,"ĠíĥľêµŃ":6394,"Ġíķ´ì²´":6395,"ìĹ°íŀĪ":6396,"Ġë¨¹ìĿ´":6397,"Ġìŀħëł¥":6398,"Ġê¸°ìĥģì²Ń":6399,"ĠìĹ°ë£Į":6400,"Ġíķµìĭ¤íĹĺ":6401,"Ġìĸ¸ìłľëĤĺ":6402,"Ġê³Ħê¸ī":6403,"Ġë©¸ë§Ŀ":6404,"Ġì£¼ë¨¹":6405,"ĠìŁĪ":6406,"ain":6407,"ĠìĹ¬ìĭł":6408,"ĠìĤ¬ì¹´":6409,"Ġê¶ģê·¹":6410,"ĠìľłíĿ¬":6411,"Ġíķ©ì³Ĳ":6412,"Ġìºĺ":6413,"ĠìĨĮì¤ĳ":6414,"Ġìļ©ìĿ¸":6415,"Ġë¶ĪëłĢ":6416,"ĠíĬ¸ëłĪ":6417,"Ġìļ°ìľł":6418,"ĠìĦłíĺ¸":6419,"Ġê·¼ë¡ľìŀĲ":6420,"Ł½":6421,"ĠìķĦìĺ¤":6422,"Ġìĸ´ëł¤ìĽĮ":6423,"Ġìłģìĸ´ëıĦ":6424,"ĠìłĦìŀ¥":6425,"ĠíĻ©ìĤ¬":6426,"Ġë²Ħíĭ°":6427,"Ġë¶Ģì§Ģ":6428,"ĠëĬĺë¦¬":6429,"ĠíĪ¬ìŁģ":6430,"Ġë°ľêµ´":6431,"ì¹´ìĻĢ":6432,"Ġë³´ëĭ¨":6433,"ĠíħĮìĬ¤íĬ¸":6434,"Ġë¶ĢìĦľ":6435,"ĠëĮĢê³µ":6436,"Ġíĥ¯":6437,"Ġcj":6438,"ìĸ´ë¦¬":6439,"Ġë©ĶíĥĪ":6440,"Ġíķ´ë°©":6441,"Ġì²´ê°Ĳ":6442,"ĠíķĦë¦¬íķĢ":6443,"Ġì¡°ì¤Ģ":6444,"Ġbg":6445,"Ġëĥ¥":6446,"ĠìĻĢìĿ´":6447,"ĠìĥģìĭĿ":6448,"ĠìĿ´ë¤Ħì§Ģ":6449,"Ġê°Ģë³":6450,"íļĮìĿĺ":6451,"Ġìļ©ìĿĺìŀĲ":6452,"Ġê³µìķ½":6453,"ķķ":6454,"Ġëĵ¤ìĸ´ìĺ¨":6455,"ĠìĹ°ìķł":6456,"íį¼ìĬ¤":6457,"ĠíĮĲíĥĢì§Ģ":6458,"Ġì¶ķìĨĮ":6459,"ĠëĤ¨ëħĢ":6460,"íļĮìĤ¬":6461,"ĠëĿ¼ìĬ¤":6462,"ĠìłĦë°©":6463,"Ġíĥľíıī":6464,"ĠìĪŃ":6465,"Ġê°Ģë³į":6466,"ĠìĸĳìĤ°":6467,"ĠìĻł":6468,"ĠìĤ¬ìŀĲ":6469,"Ġì§Ħì§Ģ":6470,"Ġìľłê¸°":6471,"ĠìĭłìĿ¸":6472,"Ġê·Ģì¡±":6473,"Ġë¬¸íĻĶìŀ¬":6474,"ĠëĮĢëĨĵ":6475,"Ġëĭ¬íķĺ":6476,"Ġë©Ķê°Ģ":6477,"Ġëª¸ë":6478,"ĠìĪĺëĬ¥":6479,"ĠëĳĲëł¤":6480,"ìĿ¼ëŀľëĵľ":6481,"Ġ'âĹĨ":6482,"Ġ12":6483,"Ġìĥģíĸ¥":6484,"Ġê²©íĪ¬":6485,"ë¶ķ":6486,"ë»Ĳ":6487,"Ġback":6488,"ĠëĦĮ":6489,"ĠìĺĪìģĺ":6490,"ĠìĤ¬ìļ´ëĵľ":6491,"Ġï":6492,"Ġê¹ĥ":6493,"ĠìĦłìłĦ":6494,"Ġìĥģíĺ¸":6495,"ìķĦìĺ¨":6496,"Ġjpg":6497,"Ġêµ¬ë©į":6498,"Ġì²´íģ¬":6499,"Ġíĥ±íģ¬":6500,"Ġê·¹ëĭ¨":6501,"íı¬íĦ°":6502,"ìį":6503,"Ġê°ľìĭľ":6504,"Ġì²ľìĤ¬":6505,"ĠìĿ¼ë¶ĢëŁ¬":6506,"ys":6507,"ĠìĹħì¢ħ":6508,"Ġíľ©":6509,"Ġì§ĢëĤĺì¹ĺ":6510,"Ġë¶ĦìŁģ":6511,"ĠìĿ´ëĿ¼íģ¬":6512,"Ġìĺ¤íĶĦëĭĿ":6513,"Ġìĺ¤ìĤ¬ì¹´":6514,"ĠìĿĺìĥģ":6515,"ĠìĥĪíķ´":6516,"ĠëŃī":6517,"ĠìłľìĿ´":6518,"ĠíĹĪê°Ģ":6519,"ĠìĬ¤íĬ¸ëłĪìĬ¤":6520,"ìĤ¬íĤ¤":6521,"ĠìĿĢëį°ìļĶ":6522,"ĠíıŃê²©":6523,"³¼":6524,"Ġë¯¸ìķĪ":6525,"Ġê¶Įë¦¬":6526,"Ġê°Ģë©´ëĿ¼ìĿ´ëįĶ":6527,"Ġì§Ģíĺķ":6528,"ĠìĽĥìĿĮ":6529,"ìĿ´ëĦĪ":6530,"ĠíĶĮë¡ľ":6531,"Ġë¹Ħìĭ¼":6532,"Ġíıīì°½":6533,"qu":6534,"Ġë©´ìłģ":6535,"Ġìª":6536,"ĠëģĶ":6537,"Ġì§Ħìĥģ":6538,"íİł":6539,"ime":6540,"ĠíĤ¤ìĬ¤":6541,"Ġdis":6542,"ìĿ¼ë³´":6543,"ĠíĶĦë¦°":6544,"ĠìĿ´ëłĩ":6545,"Ġë¶Ģì±Ħ":6546,"Ġì»¸":6547,"Ġìĺ¨ê°":6548,"Ġê¸°ëıĦ":6549,"ĠíĹ¤ìĿ´":6550,"Ġê³łìłĦ":6551,"ĠìµľìĦł":6552,"ëĳ¥ìĿ´":6553,"Ġ\"âĺŀ":6554,"Ġì£¼ê¸°":6555,"Ġë°Ķë³´":6556,"ĠìĤ¬ëĿ¼ì¡Į":6557,"stagram":6558,"ĠíĻĺìĥģ":6559,"Ġìĸ´ìļ¸ë¦¬":6560,"¢Į":6561,"Ġì°½ìĽĲ":6562,"ĠëĬĲëĤĦ":6563,"Ġê·¼ìľ¡":6564,"Ġìĭ¤ë¬´":6565,"Ġë¶Ħëĭ¹":6566,"Ġë°¸ëŁ°ìĬ¤":6567,"Ġíĳ¸ë¥¸":6568,"ĠíħĶëłĪë¹ĦìłĦ":6569,"Ġìµľìļ°":6570,"Ġìĺ¨ê°ĸ":6571,"Ġìĺ¬ëĿ¼ìĺ¤":6572,"íĨ¨ë¦Ń":6573,"íĺĦë":6574,"ĠëĤ¨ê²¨":6575,"Ġë§ĪìĻķ":6576,"ĠìĿ´ë©Ķ":6577,"ĠìĨĶì§ģ":6578,"Ġê·ľì¹Ļ":6579,"ĠíĮ¨ëŁ¬ëĶĶ":6580,"ëŁ¬ìļ´":6581,"Ġsbsi":6582,"ĠìľĦìŀ¥":6583,"ĠìĻ¸êµĲë¶Ģ":6584,"áĨŀ":6585,"Ġê³¼ìĿ¼":6586,"Ġê¼¬ë¦¬":6587,"ĠëĪĦì":6588,"ìĦ¸ëĮĢ":6589,"ĠìĥģìĿ¸":6590,"ìķĦìĭľ":6591,"Ġì°©ìĪĺ":6592,"Ġë§ĪëħĢ":6593,"ĠìĿ´ë¯¼":6594,"êµ¬ë¦¬":6595,"ĠìĦ¸ê³Ħê´Ģ":6596,"Ġëĭ¨ê¸°":6597,"ëĺ":6598,"Ġìłķë¥ĺ":6599,"Ġë£¸":6600,"Ġâĸ²":6601,"ik":6602,"ìĿ¸ëĵľ":6603,"Ġë²Īê°ľ":6604,"Ġfif":6605,"ĠìķĦë¬´ê²ĥ":6606,"ê°ĢìĬ¤":6607,"Ġë°ĿíĺĢì¡Į":6608,"Ġì¶ĺì²ľ":6609,"ĠìľĦíķĺ":6610,"ĠíĤ¥":6611,"ë¡¬":6612,"Ġëĵľë¦´":6613,"ctv":6614,"ģ¼":6615,"ĠìĬ¹ìļ©ì°¨":6616,"ìĬ¤íĨłë¦¬":6617,"Ġìĺ¤ìĺ¤":6618,"Ġìĸ´ì¨Įëĵł":6619,"Ġë³¸ëªħ":6620,"Ġëħ¹ìĿĮ":6621,"ĠìłĦìĦ¸":6622,"Ġì§ĪíĻĺ":6623,"Ġë°ľëĭ¬":6624,"Ġëį¥":6625,"ĠëĦĺê¸°":6626,"Ġìĺ¤ê°Ģ":6627,"ĠìĬ¤ì¹´ìĿ´":6628,"Ġì²ľìĹ°":6629,"ĠíĮ¨ìĭľë¸Į":6630,"ĠëĮĢëĭ¤ìĪĺ":6631,"ĠìĹ¬ê²¨":6632,"ĠëķĮë¦¬":6633,"Ġíķ´ë³ĳ":6634,"Ġìļ©ê¸°":6635,"Ġë°°ìłľ":6636,"ê¸´ëĭ¤":6637,"ĠëķĮëł¤":6638,"Ġìļ©ë³ĳ":6639,"ĠìĿ´ì£¼":6640,"Ġì·¨íĸ¥":6641,"Ġkn":6642,"Ġë¶ģì¸¡":6643,"ê¹ĥ":6644,"ë¯¸ëĶĶ":6645,"Ġë°ĺë°ķ":6646,"ĠìłĦì²ł":6647,"Ġì¦Ŀìĸ¸":6648,"ë°ĶëŀĮ":6649,"ĠìĺĪìĻ¸":6650,"Ġcp":6651,"ìķĦëħ¸":6652,"ĠíķłìķĦë²Ħì§Ģ":6653,"ì¦ĪíĤ¤":6654,"ĠìķĦê¹Į":6655,"ĠìĬ¤ìĽ¨":6656,"ìĹĲëıĦ":6657,"ĠìķĦíĭ°":6658,"Ġìŀīê¸Ģëŀľëĵľ":6659,"ĠëĶľëŁ¬":6660,"Ġì¼ľ":6661,"ĠìĿ¼ìŀĲ":6662,"ì£ł":6663,"Ġë©ĶìĿ´ìłĢ":6664,"Ġê²ĮìĿ´ì§Ģ":6665,"ĠíķŃìĿĺ":6666,"Ġë¶ĢíļĮìŀ¥":6667,"our":6668,"ĠíĻĢë¡ľ":6669,"Ġì¶ķíķĺ":6670,"********":6671,"°½":6672,"Ġìľłìŀħ":6673,"ĠìĬ¹ìĿ¸":6674,"ure":6675,"Ġë³¸ëĭ¤":6676,"ĠëĦī":6677,"Ġë¬´ì²Ļ":6678,"Ġëŀ¨":6679,"ë²Ħë":6680,"Ġë¹Ħë¡Ģ":6681,"ma":6682,"ĠìłĦíĽĦ":6683,"Ġë°ĺëŀĢ":6684,"ĠíĽĦìĽĲ":6685,"Ġì¤ĦìĹ¬":6686,"se":6687,"ĠìĤ¬ìĿ´ë²Ħ":6688,"Ġì¡°ëªħ":6689,"Ġì¹´ëĤĺ":6690,"Ġë¹łìł¸ë":6691,"Ġë§Īì¼Ģ":6692,"Ġì´Ľ":6693,"Ġìłķë§Ĳë¡ľ":6694,"Ġìĭľê³Ħ":6695,"Ġìĭłìŀ¥":6696,"Ġê·¸ê³³":6697,"ĠìļĶìłķ":6698,"ĠíĬ¼":6699,"ĠìŀĦê¸°":6700,"íķ©ëĭĪëĭ¤":6701,"ĠëĮĢìĤ¬ê´Ģ":6702,"ì§ģìŀĲ":6703,"Ġdo":6704,"ĠëĵľëŁ¬ëĤ´":6705,"ê¹¥":6706,"ĠíĮĮíģ¬":6707,"Ġë°°ëĭ¬":6708,"Ġë°Ķê¹¥":6709,"Ġì¶Ķê²©":6710,"ĠìĭłëĿ¼":6711,"ĠíĿ¥íĸī":6712,"ìĸ´ë²Ħ":6713,"ĠìĥĪë¡Ń":6714,"Ġì°¸ê°ĢìŀĲ":6715,"ĠëĶ©":6716,"Ġê²½ë¹Ħ":6717,"Ġë¬´ë¦":6718,"Ġì´ĿíļĮ":6719,"Ħë¦¬":6720,"Ġê°ĢìĨį":6721,"ĠìĹ°ìĺĪìĿ¸":6722,"Ġhd":6723,"ĠëĤĺíĥĢëĤ´":6724,"Ġëĵ¤ìĸ´ê°Ī":6725,"Ġcctv":6726,"Ġë¦¼":6727,"ĠëĬĺìĸ´ëĤľ":6728,"ich":6729,"Ġëĭ¤ìĭľíĶ¼":6730,"ëĵĢìĦľ":6731,"ĠíĶĦë¡ľëĵĢìĦľ":6732,"ĠìĤ¬ë§ĿìŀĲ":6733,"Ġê³łêµ¬":6734,"Ġìĭľëĵľ":6735,"ĠìłĳìĨį":6736,"ft":6737,"Ġê³łìĪĺ":6738,"ĠíĽĦë°ĺë¶Ģ":6739,"Ġê°ĢíĨ¨ë¦Ń":6740,"Ġíĺ¸íĿ¡":6741,"Ġëª¨ìħĺ":6742,"ĠìĬ¤ì½Ķìĸ´":6743,"Ġê¸ĢìŀĲ":6744,"Ġëĭ¤ìĬ¤":6745,"Ġëĳĺì§¸":6746,"Ġê¸Īê°ķ":6747,"Ġhttps":6748,"Ġì¦Ŀìĥģ":6749,"Ġìŀ¥ìłĦ":6750,"Ġê¸°ìĽĲìłĦ":6751,"ĠëłĪìĺ¤":6752,"Ġì§Ģì¼ľë³´":6753,"Ġha":6754,"Ġfifa":6755,"ĠìķĪëĵľë¡ľìĿ´ëĵľ":6756,"Ġì¿łíĤ¤":6757,"Ġ---":6758,"ĠìĹ¬ëıĻìĥĿ":6759,"ide":6760,"ĠìľĦìķĪë¶Ģ":6761,"ĠìĿµìĪĻ":6762,"Ġìĭ¬íķ´":6763,"Ġì²´ìľ¡ê´Ģ":6764,"Ġíķ´ê¸Ī":6765,"Ġëħ¸ëıĻìŀĲ":6766,"ĠíķĻìŀĲ":6767,"ĠìłĦëĮĢ":6768,"ĠìĹ¿":6769,"ĠëıĮì§Ħ":6770,"ĠíĬ¸ëĿ¼":6771,"ëĪĪ":6772,"Ġë°ĽìķĦëĵ¤ìĿ´":6773,"ĠëĤĺê°Ħ":6774,"Ġëį§ë¶ĻìĺĢ":6775,"Ġê¹Ģë¬´":6776,"Ġìĵ´ëĭ¤":6777,"Ġê²°ìłľ":6778,"Ġver":6779,"Ġê³Ħì¢Į":6780,"ë²¼":6781,"Ġê°Ģíķ´":6782,"Ġë¸Įë¦¬íķĳ":6783,"íŀĮëĭ¤":6784,"ĠìĥģìĹħ":6785,"ëĩĮ":6786,"Ġì¡°ìĸ¸":6787,"ë²ĦíĬ¸":6788,"ĠìĨĲëĭĺ":6789,"ĠìĤ´ëł¤":6790,"ìŀł":6791,"ĠìķĦìĭľìķĪ":6792,"up":6793,"Ġê±¸ë¦°":6794,"ĠìĿ´ë©ĶìĿ¼":6795,"Ġíķ´ìĦ¤":6796,"ĠìĪ¨ì¡Į":6797,"Ġë°ľíļ¨":6798,"Ġcv":6799,"Ġë§ĮëĤł":6800,"Ġì±Ļê¸°":6801,"Ġê³ģ":6802,"Ġì§ĳê¶Į":6803,"ĠíķĺìĸĢ":6804,"Ġæľ":6805,"Ġíķ©ë³ĳ":6806,"ĠìĪľíĻĺ":6807,"ĠìĪĺìľĦ":6808,"Ġë°ĺê²©":6809,"Ġë¬¼ê²°":6810,"ê¼¬":6811,"ĠíŀĻ":6812,"ìģ¨":6813,"Ġëħ¹ìĥī":6814,"ìłĦëĵľ":6815,"ĠìĻ¸íĻĺ":6816,"ĠìīĲ":6817,"Ġê´ĳìĹŃìĭľ":6818,"Ġëŀľëį¤":6819,"Ġìłľë²ķ":6820,"ĩ¨":6821,"Ġìĭľìķ¼":6822,"Ġìĺ¤ë¡ľ":6823,"íĮ©":6824,"Ġë§ĪìĿ´íģ´":6825,"ĠëĭĪìĭľ":6826,"Ġë³´ìłķ":6827,"ee":6828,"Ġë£¬":6829,"Ġë§¤ëĭĪ":6830,"»¿":6831,"Ġê°Ħê²©":6832,"ĠëĤ¨íķ´ìķĪ":6833,"ĠìľłìĤ°":6834,"Ġë¹¡":6835,"Ġìľ¼ëł¤ê³ł":6836,"ĠíĻĶìĤ´":6837,"Ġê³ĦìĬ¹":6838,"ĠíĦ°ëĦĲ":6839,"rom":6840,"Ġìŀ¥ìķħ":6841,"Ġíĺĳì¡°":6842,"Ġëį°ìĿ´íĬ¸":6843,"ĠëıĮìŀħ":6844,"ì¤Ģíĳľ":6845,"ê³±":6846,"Ġì§Ģì§Ģìľ¨":6847,"ëĵ¤ìĿ´":6848,"Ġì²łìĪĺ":6849,"ĠëıĻíĻĶ":6850,"Ġë°ĺì§Ģ":6851,"Ġjc":6852,"Ġone":6853,"ĠìķĹ":6854,"Ġìĩłê³łê¸°":6855,"Ġìłķëł¹":6856,"Ġë°ľíĸī":6857,"Ġë³Ħëĭ¤ë¥¸":6858,"ĠìłĳìĪĺ":6859,"Ġì¸¡ìłķ":6860,"Ġë³µìĽĲ":6861,"Ġëħ¼ë¦¬":6862,"ĠìĹ°ìĿ¸":6863,"ory":6864,"ĠíĿĶìłģ":6865,"ĠíĦ°ì¹ĺ":6866,"ìķĦë¨¹":6867,"ìĬ¤íĦ´":6868,"°ľ":6869,"ĠìķĦëĭĪë©´":6870,"ĠìłľìŀĲ":6871,"ĦìĹ°":6872,"íĶĶ":6873,"Ġì±ł":6874,"ĠíĽ¼ìĨĲ":6875,"ĠëŀĮ":6876,"Ġman":6877,"Ġê³łë°±":6878,"ĠíĻįì¤Ģíĳľ":6879,"ìľłíĤ¤":6880,"ĠíķĺìĪĺ":6881,"Ġê¸°ë¶Ģ":6882,"sh":6883,"ial":6884,"Ġëı¼ìķ¼":6885,"ĠìĿ¸ì§ĢëĿ¼":6886,"ĠëĤ´ìłķ":6887,"Ġíĺ¸ê¸°":6888,"ĠíļĮëıĻ":6889,"ace":6890,"Ġì»¤ë®¤ëĭĪíĭ°":6891,"Ġì²ĺì¹ĺ":6892,"ĠìĿ´ìĭľ":6893,"Ġì»¨íħĲì¸ł":6894,"ĠìłĦìłģ":6895,"ĠëıĮê²©":6896,"Ġë³¸ìĤ¬":6897,"ĠìĤ¬ìĿ´ëĵľ":6898,"Ġë¶ĢìŀĲ":6899,"Ġê³¨ëĵł":6900,"ê¸ĭ":6901,"Ġëħ¸ë²¨":6902,"§ī":6903,"ĠìĿ´ì¤ĳ":6904,"ĠëĤ´ê°ģ":6905,"ĠìłģìŀĲ":6906,"ĠíĮĲìĤ¬":6907,"Ð°":6908,"Ġë¯¸ë§Į":6909,"ìĺ¹":6910,"Ġ11":6911,"Ġê¸īì¦Ŀ":6912,"Ġìļ°ìĬ¤":6913,"Ġë²Įìĸ´ì¡Į":6914,"ĠìĦĿìľł":6915,"Ġì½Ķë¯¹ìĬ¤":6916,"Ġíı¬íĬ¸":6917,"ëĭ¤ì§Ģ":6918,"ĠíķĻìĬµ":6919,"ì¹ľëĭ¤":6920,"íĨ±":6921,"Ġë°ĶëĿ¼ë³´":6922,"Ġê·łíĺķ":6923,"Ħì²ł":6924,"Ġê±¸ëł¸":6925,"ĠìĭľëĤ´ë²ĦìĬ¤":6926,"ouse":6927,"Ġë¹¨ëĿ¼":6928,"ook":6929,"ĠìķĪê²½":6930,"Ġì°¸ìłĦ":6931,"ĠíĹ¨":6932,"Ġê¸°ìĬµ":6933,"ĠíĢ¸":6934,"Ġcr":6935,"Ġìŀ¬ëĬ¥":6936,"ëĭīìĬ¤":6937,"Ġê¸°ìłĪ":6938,"Ġê¹Ģìĥģ":6939,"Ġíķĺë°ĺê¸°":6940,"Ġìĸ´ì§¸":6941,"ë¸Įë¦¬":6942,"íģ¬ìĬ¤":6943,"ther":6944,"Ġëıĭ":6945,"Ġì¤ĳëıħ":6946,"Ġìĭłë¶Ģ":6947,"ĠìŀĲêµŃ":6948,"Ġì´Ľë¶Ī":6949,"ìĪĺìĪĺìĥī":6950,"Ġì°¬ìĦ±":6951,"ĠìķķìĪĺìĪĺìĥī":6952,"Ġê³łì§Ģ":6953,"Ġë¬´ìĤ°":6954,"man":6955,"ĠâĢ¢":6956,"ĠìĿ¼ë°©":6957,"ĠëıħíĬ¹":6958,"ĠìķĦìĿ´ìĬ¤":6959,"Ł¿":6960,"ĠìĬ¤íĬ¸ë¦¬":6961,"Ġìī´":6962,"ĠìĨĮì§Ģ":6963,"Ġíķľê°ķ":6964,"Ġë¹ĦìĦľê´Ģ":6965,"ĠìĿ´íĸī":6966,"Ġì´ĪìĽĶ":6967,"ëĨį":6968,"ĠìķĪìĭ¬":6969,"ĠëĬĶëĭ¤ë©´":6970,"ĠëªħíĻķ":6971,"ms":6972,"ish":6973,"ĠëıĻë°©":6974,"ĠíĮĮë¬¸":6975,"Ġak":6976,"ĠæĿİ":6977,"Ġìŀ¥ìĦ±":6978,"Ġìľłì¹ĺìĽĲ":6979,"ĠíĨłë¦¬":6980,"ĠìĿĢíķĺ":6981,"ĠìıŁìķĦì§Ģ":6982,"ĠëĿ¼ìĿ´íĶĦ":6983,"Ġë¶ĻìĿ´":6984,"ìľĦì¹ĺ":6985,"Ġëª»íķł":6986,"Ġìµľìĥģ":6987,"Ġíĺ¸ìļ°":6988,"ĠìµľìĨĮíķľ":6989,"ĠìĸĳìĦ±":6990,"Ġê°ĢìĿ´":6991,"Ġë¯¸êµŃìĿ¸":6992,"ĠìĺĪìģľ":6993,"ëģĪ":6994,"ĠìĪĺì§Ģ":6995,"ĠëĳĺëŁ¬ìĭ¼":6996,"ĠìķĦìĿ¼ëŀľëĵľ":6997,"Ġìĺ¤ëŀ«":6998,"íĬ¸ëĦĪ":6999,"ĠìĹĲìĦľë¶ĢíĦ°":7000,"Ġíı´ëŀĢëĵľ":7001,"Ġë³µíķ©":7002,"ĠêµĲìĭ¤":7003,"Ġë§Īêµ¬":7004,"ĠíĴĢë¦¬":7005,"ĠìķĦë¨¸":7006,"ĠìŁģìłĲ":7007,"ĠêµĲê³¼ìĦľ":7008,"Ġë¹Ħì¶":7009,"ĠìĭłìĨį":7010,"Ġë§ĪìĪł":7011,"Ġêµ¬íĺĦ":7012,"ĠíĹĺ":7013,"ĠìĶ¹":7014,"ĠëĿł":7015,"ĠÎ":7016,"ĠìĭłìĦł":7017,"Ġìĭ¤ë§Ŀ":7018,"ĠëĮĢíķĻìĥĿ":7019,"Ġï»¿":7020,"ĠìĨĮë©¸":7021,"Ġìĭ¤ëĤ´":7022,"Ġê°ģìŀĲ":7023,"ĠëĬĳëĮĢ":7024,"ĠíĨ±":7025,"Ġë¹łì¡Į":7026,"Ġì¶Ķëª¨":7027,"Ġìĭ¤ìĹħ":7028,"Ġíİ¸ìŀħ":7029,"Ġëª°ëĿ¼":7030,"Ġë°Ģìĸ´":7031,"ĠìķĮíĮĮ":7032,"Ġê±°ì¹ĺ":7033,"Ġê¹Ģë¬´ìĦ±":7034,"Ġë©Ķëª¨ë¦¬":7035,"Ġëĵľë¦¼":7036,"Ġë§¤ëĭ¬":7037,"Ġnew":7038,"ìľĦìĽĲ":7039,"ĠëģĦ":7040,"Ġíķľì°½":7041,"Ġì§Ģë¦¬":7042,"ĠëĦ¤íĬ¸ìĽĮíģ¬":7043,"ĠëłĪìłĦëĵľ":7044,"ĠìłķìĦ¸":7045,"ĠëıĦë°ķ":7046,"Ġíı¬ê·¼":7047,"Ġsd":7048,"Ġê¸¸ìĿ´":7049,"ëĶª":7050,"Ġíģ´ë¦¬":7051,"Ġë§¤ê°ģ":7052,"ĠìĿ¸ìļ©":7053,"ĠìĿ´ëĵĿ":7054,"Ġìļ©ìĤ°":7055,"ë³´ëĵľ":7056,"ĠìĭľìĿ¸":7057,"ĠìĹ°ë§¹":7058,"ĠìŀĦìĭł":7059,"Ġê·¸ë¦¼ìŀĲ":7060,"Ġë¸Ķë¡Ŀ":7061,"ëĴ":7062,"ĠìĪĺê¸ī":7063,"ĠëĮĢë²ķìĽĲ":7064,"Ġìĥģëĭ¹ìĪĺ":7065,"Ġìĥīê¹Ķ":7066,"ĠìłľìŀĦìĬ¤":7067,"ë³¶":7068,"ĠìĿĺíķĻ":7069,"Ġìķ¼ìĬ¤":7070,"ĠíĨ¡":7071,"Ġë³´ìĦĿ":7072,"ĠìŀĲë§¤":7073,"Ġê°ĳìĺ·":7074,"Ġì§Ģíĳľ":7075,"Ġì§ĢìĹ°":7076,"ĠìĨĲê°ĢëĿ½":7077,"ĠìľłìķĦ":7078,"ë£¸":7079,"íİĺìĿ¸":7080,"ĠíķĻìĤ´":7081,"ĠëĿ¼ìĿ´ë²Į":7082,"ĠíĮĮìĿ´ìĸ´":7083,"ĠìľĮë¦¬":7084,"ĠìĤ¬ìľł":7085,"Ġê³ĦëŀĢ":7086,"Ġë¶ĪêµĲ":7087,"Ġcc":7088,"ĠìĦ¸íı¬":7089,"Ġê³Ħëĭ¨":7090,"Ġìĵ¸ë":7091,"ĠìķĦë©Ķë¦¬ì¹´":7092,"Ġsw":7093,"ug":7094,"ĠíĪ¬ìŀĲìŀĲ":7095,"ĠìĬ¤íĬľëĶĶìĺ¤":7096,"Ħ·":7097,"ĠìŀĲìłľ":7098,"Ġì£¼ìĤ¬":7099,"ĠìĿ¼ì§Ģ":7100,"Ġìį¬":7101,"ĠìĦ¹":7102,"Ġíķľë§Ī":7103,"ĠëĨįìĹħ":7104,"ë¹µ":7105,"Ġì¹¨ëª°":7106,"Ġë³µìŀ¥":7107,"Ġë°ķìĺģ":7108,"ĠìĹ¬ì§Ģ":7109,"Ġëħ¸ëıĻëĭ¹":7110,"ĠëĮĢëĨĵê³ł":7111,"ê²¹":7112,"ĠìĿ´ëĿ¼ë":7113,"ĠëıĦëĭ¬":7114,"ĠëįĶêµ°":7115,"ë¡ľìļ´":7116,"Ġíĸ¥íķĺ":7117,"Ġëħ¸ìĺĪ":7118,"ëħĦì":7119,"Ġìŀ¬ê±´":7120,"Ġë©°ì¹ł":7121,"Ġç¾":7122,"Ġid":7123,"ĠìķĦìĿ´ëĶĶìĸ´":7124,"Ġíĸīì§Ħ":7125,"ëĭ«":7126,"ĠëıĦìļ°":7127,"Ġíĥľìĸ´ëĤľ":7128,"ëľ©":7129,"ì²łëıĦ":7130,"Ġë³Ħê°ľ":7131,"ê³µíķŃ":7132,"²ĦìĬ¤":7133,"Ġì¶ĶìĦ¸":7134,"ìĤ¬ìĿ´":7135,"Ġê·¸ëĭ¤ì§Ģ":7136,"Ġgs":7137,"ìħ¨":7138,"ĠìĬ¤íĨ¤":7139,"ĠìĿ¸ëªħ":7140,"Ġëħ¸ë¥´":7141,"Ġì¦īê°ģ":7142,"ì·":7143,"ĠêµŃêµ°":7144,"Ġìĭłì¤ĳ":7145,"te":7146,"Ġë¶ĢëĶª":7147,"ìĸ´ì§Ħ":7148,"ĠìĥĲëŁ¬ëĵľ":7149,"Ġê°ĲìŀĲ":7150,"Ġë¶Īê°ĢíĶ¼":7151,"Ġì¹´ì¹´ìĺ¤ìĬ¤íĨłë¦¬":7152,"Ġë°ĺëıĦ":7153,"ĠìĤ¬íĨł":7154,"Ġë§īíĮĲ":7155,"ĠìĭłìĦ±":7156,"Ġìĥģíķľ":7157,"Ġìŀ¥êµĲ":7158,"round":7159,"Ġëª¨ëĭĪ":7160,"ëį©ìĿ´":7161,"Ġì½Ķë¯¸ëĶĶ":7162,"íı¬ë¥´":7163,"Ġíķ©ìĦ±":7164,"ĠëĵľëĿ¼":7165,"ĠìŀĲëĿ¼":7166,"ĠìĨĲìĭ¤":7167,"Ġì¹´ëĿ¼":7168,"ĠìĤ¬íĿĺ":7169,"ì»´":7170,"¸ł":7171,"Ġab":7172,"Ġê·¼ë³¸":7173,"Ġì§Ģë¶Ħ":7174,"ìķĺ":7175,"Ġëĵ¤ìĸ´ìĻĢ":7176,"ĠìĤ¬ë¬´ì´Ŀìŀ¥":7177,"ĠìĥĪìļ°":7178,"Ġìľ¼ë¡ł":7179,"ĠìĪĺìĬµ":7180,"Ġê·¸ëŁ¬ë©´":7181,"ëĬ¦":7182,"Ġì¸¡ê·¼":7183,"Ġë°°íĦ°ë¦¬":7184,"Ġë°±ìķħ":7185,"Ġê°Ģê³µ":7186,"ĠìĿ¸ëĶĶ":7187,"ĠìĹ½":7188,"ts":7189,"ĠìłĦíķ¨":7190,"Ġì§Īë³ĳ":7191,"ëĲĺ":7192,"Ġfi":7193,"ĠìĿ´íĺ¼":7194,"Ġíĺ¸ìĪĺ":7195,"Ġì±ĦìĽĮ":7196,"Ġdr":7197,"Ġì¢ħìłĲ":7198,"ĠìķĪìĬµ":7199,"Ġê³µëª¨":7200,"Ġìłķì°©":7201,"Ġì§Ħì£¼":7202,"ĠíıīìĿ¼":7203,"Ġê·¸ëŁ¼ìĹĲëıĦ":7204,"Ġë²Ħë¦´":7205,"ĠìĿ´ìłł":7206,"Ġìľłíķ´":7207,"ĠëĤĺíĥĢëĤľ":7208,"Ġì¶ľíĺĦ":7209,"ĠëĨĶ":7210,"ĠìĨįíķĺ":7211,"Ġë¶Ģê°ģ":7212,"Ġ100":7213,"Ġì¶ľëł¥":7214,"Ġë¬´ìłģ":7215,"Ġë¬¸ìŀ¥":7216,"Ġíķľë°©":7217,"ĠíĨµìĿ¼ë":7218,"ĠëĮĢíĸī":7219,"Ġëĭ·":7220,"ĠíıŃìļ°":7221,"Ġëģĵ":7222,"íĬ¹ë³Ħìĭľ":7223,"Ġë©Ķëĭ¬":7224,"Ġë³Ģíĺķ":7225,"ĠìĿ´ë³ĳ":7226,"ĠëĮĢëŀµ":7227,"ĠëĤ´ìŀ¥":7228,"Ġìĭľëĭ¬":7229,"Ġë³´ìĻĦ":7230,"Ġíı¬ìĬ¤íĬ¸":7231,"Ġ***":7232,"Ġìĺģíĸ¥ëł¥":7233,"ĠìĭłìĤ¬":7234,"ĠìĭĿëŁī":7235,"ĠëĽ°ìĸ´ëĤĺ":7236,"ĠâĪ¼":7237,"ĠìĨĮìħľ":7238,"Ġëª¨ëŀĺ":7239,"Ġì¢Įìļ°":7240,"Ġë°ĶìĿ´ìĺ¤":7241,"Ġthat":7242,"ĠëıĮìķĦìĻĶ":7243,"ĠëĪĦëĤĺ":7244,"ĠìłķìĦ±":7245,"ĠìĹĲëĵľ":7246,"ĠíĢ´":7247,"ĠìĿ´íĥľ":7248,"Ġìį°":7249,"Ġíķ´íĤ¹":7250,"ĠìĦľìļ¸íĬ¹ë³Ħìĭľ":7251,"ĠíĹĪë¦¬":7252,"Ġì¹©":7253,"ĠìłķëıĻ":7254,"Ġëĭ¹íķľëĭ¤":7255,"ĠìŀĲìĿ´ìĸ¸":7256,"Ġì¶ľêµ¬":7257,"Ġì¤įëĭĪëĭ¤":7258,"ĠëĤĺìķĦê°Ģ":7259,"Ġë¸ĮëłĪìĿ´íģ¬":7260,"Ġëľ¨ê±°ìļ´":7261,"ĠíĻľë°ľ":7262,"Ġíĥľìĸ´ëĤ¬":7263,"Ġê°Ģë²¼":7264,"Ġìŀħëĭ¨":7265,"ĠìŀłìĪĺíķ¨":7266,"Ġëĵ±íĮĲ":7267,"Ġëħ¸ëŀĢ":7268,"ê·¸ëŁ¬":7269,"Ġë§īìŀ¥":7270,"Ġê°ĩ":7271,"Ġìł¸ìĦľ":7272,"ĠíıīìĥĿ":7273,"Ġì£¼íķľ":7274,"Ġë¬´ë¦İ":7275,"ĠìĹ°ê°Ħ":7276,"ĠíĮĮìĿ´ëĦĲ":7277,"Ġíİ¸ìĿĺìłĲ":7278,"ĠìĦľìĸĳ":7279,"Ġê°ľìĹħ":7280,"¶Ī":7281,"ĠíĶĮëŀ«":7282,"Ġìķ½íķ´":7283,"íķĺë©´":7284,"íķŃê³µ":7285,"Ġê¸īê²©":7286,"Ġìĥģìĭ¤":7287,"âĺħâĺħ":7288,"ĠìĿ¸ìłķë°Ľ":7289,"Ġë¹ĦëĮĢ":7290,"ĠìĿ¸íħĮ":7291,"ĠíĦ±":7292,"Ġì§ĳëĭĪëĭ¤":7293,"Ġê¸°ìłģ":7294,"ê³½":7295,"Ġì¼Ī":7296,"Ġë¦¬ë·°":7297,"Ġëĺĳê°ĻìĿ´":7298,"Ġê¹ľì§Ŀ":7299,"Ġë°°ì¶ľ":7300,"Ġì¤ĺìĦľ":7301,"ĠìĥģìłĲ":7302,"ĠìłĦìĭł":7303,"ĠìĺĪë³´":7304,"ìºĲ":7305,"ìĦ¬":7306,"ĠìĨĮìĽĲ":7307,"êµĲì°¨":7308,"Ġë°ĺìĤ¬":7309,"ĠíĿĲë¥´":7310,"Ġíķ¨ìĦł":7311,"Ġê¶Įì´Ŀ":7312,"ĠëĲĺê²Į":7313,"Ġìĸ´ëĳĲ":7314,"ë¦ŃìĬ¤":7315,"Ġê²°ì½Ķ":7316,"ĠëĿ¼ëĵł":7317,"Ġëĭ¬ë¦°":7318,"Ġsince":7319,"ĠìĬ¤ìĽ¨ëį´":7320,"Ġì¹´ìĬ¤":7321,"ìĿ´ì¦Ī":7322,"ĠìļĶì½Ķ":7323,"ì£¼ìĭľ":7324,"ĠãĢĮ":7325,"Ġë´ĲìĦľ":7326,"ĠíĥĪëĭ¹":7327,"Ġìłľìłķ":7328,"ĠëıĻëł¥":7329,"Ġì±Į":7330,"Ġìļ©ìĤ¬":7331,"Ġìĭłë°ľ":7332,"Ġë®":7333,"ĠìºĲìĬ¤":7334,"ê°ĳëĭĪëĭ¤":7335,"ĠíıŃì£¼":7336,"Ġì£½ìĹ¬":7337,"ìķĦìĭľìķĦ":7338,"ĠëŁŃ":7339,"ĠêµŃê²½":7340,"ĠëłĪìĿ´ëįĶ":7341,"Ġíķłê¹Į":7342,"Ġlive":7343,"ĠìľłëĮĢ":7344,"Ġë©Īì¶Ķ":7345,"ëłĪëĤĺ":7346,"íĥĢë¡ľ":7347,"Ġì£¼ìŀ¬":7348,"pe":7349,"ĠìĤĲ":7350,"ĠíķĻê¸°":7351,"Ġê°ľíĹĮ":7352,"ĠìĻķì¡°":7353,"Ġíķ´ì§Ħëĭ¤":7354,"ĠìĿ´ìĸ´ìĦľ":7355,"ĠìĬ¹ê²©":7356,"Ġë§Īë¹Ħ":7357,"ĠíĺĦìķĪ":7358,"ĠíĮĮëıĦ":7359,"Ġíİĳ":7360,"ĠíĨµê³Ħ":7361,"Ġê¸ĪìĨį":7362,"ĠãĢį":7363,"Ġì¤ĳëıĻ":7364,"ĠìĬ¤íĶ¼":7365,"Ġë¶ĦëŁī":7366,"Ġë¶ĢìĤ¬":7367,"Ġì²łê±°":7368,"Ġíķľë§ĪëĶĶ":7369,"ĠìĨĮìľĦ":7370,"Ġìľµíķ©":7371,"ĠìĨĮì´Ŀ":7372,"Ġë¯¸ìķ¼":7373,"ìĿ¼ëĵľ":7374,"Ġì°¨ëĿ¼ë¦¬":7375,"ĠíĨłëª¨":7376,"Ġcnbc":7377,"Ġíģ´ëŀĺìĭĿ":7378,"Ġ'.":7379,"Ġê´´ë¡Ń":7380,"ĠìĿ¸ì§Ī":7381,"Ġêµ¬ì¶ľ":7382,"Ġê·Ģì°®":7383,"Ġê°Ģë£¨":7384,"ĠìĨĮëĵľ":7385,"ĠìĿ¸ìĹ°":7386,"Ġë¶ĢìĪĺ":7387,"ì¥Ĳ":7388,"Ġíĩ´ê·¼":7389,"Ġë¦¬ë²Ħ":7390,"Ġê²°íķ©":7391,"ĠëĩĮë¬¼":7392,"Ġì§ĳê³Ħ":7393,"Ġìĸĳìª½":7394,"Ġê³¼ëª©":7395,"Ġë£¡":7396,"Ġë£©":7397,"ĠëĭĮìŀĲ":7398,"Ġìľłëł¹":7399,"Ġdaily":7400,"ĠëĮĢì¹ĺ":7401,"ìĺ¤íĶĦ":7402,"ì¸łíĤ¤":7403,"ĠìĿ¼ë³¸ìĿ¸":7404,"ĠëĤĺë£¨":7405,"Ġì´Ŀìŀ¬":7406,"Ġìį¨ìĦľ":7407,"Ġê³łê°ľ":7408,"Ġì¡°ìķ½":7409,"Ġê²©íĮĮ":7410,"Ġbb":7411,"¸ëĿ¼":7412,"port":7413,"Ġê³łë§Ī":7414,"ĠìĦłìŀĦ":7415,"Ġnc":7416,"Ġê²ĮìĬ¤íĬ¸":7417,"Ġë©´ìĹŃ":7418,"īģ":7419,"Ġì¶ľìĤ°":7420,"Ġwar":7421,"íĮĮìĿ´ìĸ´":7422,"ĠìĤ¬ë¬´ìĨĮ":7423,"Ġag":7424,"Ġê²°ìĬ¹ìłĦ":7425,"Ĥ¸":7426,"ĠìĿ¼êµĲì°¨":7427,"ĠìĶ»":7428,"Ġê²½ìŁģëł¥":7429,"Ġì´Īì²Ń":7430,"Ġì¶¥":7431,"io":7432,"ĠìľłìĬ¹":7433,"Ġë°ĺê¸°":7434,"Ġæĸ":7435,"Ġì¹¨ì²´":7436,"Ġì½Ķì½Ķ":7437,"ĠìĻľëĥĲ":7438,"Ġíķľëĭ¤ë©°":7439,"Ġnpc":7440,"ĠëĨįë¯¼":7441,"ìŀ¡ìĿ´":7442,"ĠëıĻìķĦë¦¬":7443,"Ġëħ¼ë¬¸":7444,"ĠíĶ¼ìĿĺìŀĲ":7445,"ĠìĬµëĵĿ":7446,"ëĭ·":7447,"ĠìĭłëıĻ":7448,"Ġfo":7449,"ĠìĤ¬íĺķ":7450,"Ġê²½ë¡ľ":7451,"Ġäº":7452,"Ġê²½ìĥģë¶ģëıĦ":7453,"ì¹ĺê¸°":7454,"Ġê³łë¦¬":7455,"¹ĦìķĦ":7456,"Ġê·ĢìĹ¬ìļ´":7457,"ë°¤":7458,"ĠìĽ¹íĪ°":7459,"ĠìĿĺì¡´":7460,"Ġë²Īì§Ģ":7461,"Ġì²łíķĻ":7462,"Ġë©ĶíĥĢ":7463,"Ġìłľìķ½":7464,"Ġê²½ì°°ì²Ń":7465,"Ġìºłíį¼ìĬ¤":7466,"ĠìĹĩê°Ī":7467,"Ġë§¤ì§ģ":7468,"Ġìłķë¥ĺìŀ¥":7469,"Ġep":7470,"ĠêµĲëıĦ":7471,"Ġë§Īë£¨":7472,"Ġë³ĢëıĻ":7473,"Ġì¢ĮìĦĿ":7474,"ĠìĤ¼ë":7475,"ĠíĨłë§Ī":7476,"Ġëª¨ì§ĳ":7477,"Ġìłľìĸ´":7478,"ĠìĪĺë©´":7479,"Ġìłķíķĺ":7480,"ĠíļĮì°¨":7481,"ĠìĤ¬ìĸĳ":7482,"Ġë°ĶíĢ´":7483,"Ġíľ´ìĿ¼":7484,"Ġìĺ¤ëŀ«ëıĻìķĪ":7485,"ĠìĹ°ëł¹":7486,"Ġë³µë¬´":7487,"ê³łë¦¬":7488,"ĠëĿ¼ëĭĪ":7489,"ĠìķĶíĿĳ":7490,"ĠíĮĮíĬ¸ëĦĪ":7491,"Ġë¶Ģìłģ":7492,"ĠíĻĺìĬ¹":7493,"ĠíĨłì§Ģ":7494,"Ġë¨¸ìĭł":7495,"ĠìĿ´ë£¨ìĸ´ì§Ģ":7496,"Ġë¯¼ìĥĿ":7497,"Ġê´Ģíķł":7498,"ĠìĤ¬ìłľ":7499,"Ġê°ķìĦ¸":7500,"Ġstar":7501,"ĠìłģíĺĢ":7502,"ĠìľĹ":7503,"ìļ´ëĭ¤":7504,"Ġì¶ľëıĻ":7505,"Ġê²°ìĦ±":7506,"ĠìĿ´ë¥¸":7507,"Ġìĥīìĥģ":7508,"ìŀĲíĤ¤":7509,"íĭ°ì»¬":7510,"iss":7511,"Ġëĭ´ê¸´":7512,"Ġëĭ¹íķł":7513,"ĠíĿ¥ë¯¸":7514,"ĠëĤłìķĦê°Ģ":7515,"ĠëĤĺëīĺ":7516,"Ġê°ķìłĲ":7517,"Ġê¸Īë°©":7518,"Ġë°ķìĦ±":7519,"Ġê³łëıĦ":7520,"íŀĪë¡ľ":7521,"ĠìķĦíģ¬":7522,"Ġìľ¼ìĭľ":7523,"ĠíĥĢìłĲ":7524,"ì»¤ìĬ¤":7525,"ĠìłĦëĤł":7526,"ĠêµĲìľ¡ì²Ń":7527,"ĠêµŃë¬´ì´Ŀë¦¬":7528,"áĦı":7529,"Ġì£¼ìľł":7530,"ĠìºłíİĺìĿ¸":7531,"Ġìĸĳì¸¡":7532,"íı¼":7533,"ĠìĽĲíķĺ":7534,"ì©¡":7535,"Ġë§Īì¼ĢíĮħ":7536,"Ġë°±ìķħê´Ģ":7537,"ĠëĶ°ìľĦ":7538,"ĠìĤ¬ì¿łëĿ¼":7539,"ĠíĿ¬ìĥĿìŀĲ":7540,"Ġê²Ģê±°":7541,"ĠíĮ¨ëĦĲ":7542,"Ġes":7543,"Ġê·ĢìĹ½":7544,"Ġíķĳíģ¬":7545,"íĥĢìĿ¸":7546,"ĠíĶĦë¡ľíķĦ":7547,"ĠëłĪìĿ´ìĬ¤":7548,"Ġê°ĸì¶ĺ":7549,"ìķ¤":7550,"Ġê·ĢíĻĺ":7551,"Ġë§Īëĥ¥":7552,"ĠåĮ":7553,"ĠìĿ´ëª¨":7554,"ĠíĥĢìĿ´ê±°":7555,"ĠíĶĦëłĪìŀĦ":7556,"ĠëĲłì§Ģ":7557,"ome":7558,"ĠìĻĦì":7559,"ĠëĨįìŀ¥":7560,"Ġëĸ¡ë°¥":7561,"Ġêµ¬ìĽĲ":7562,"Ġíĺ¸íĻĺ":7563,"ĠìĮĢìĮĢ":7564,"Ġë°ĺìłĦ":7565,"Ġì§Ħìķķ":7566,"ĠìĿ´ì¦Ī":7567,"Ġë¬´ëłµ":7568,"Ġìĸ´ì§Ģ":7569,"ĠìĿį":7570,"Ġì°¨ìŀ¥":7571,"Ġëĭ¹ìĽĲ":7572,"Ġapp":7573,"ìĽĮíķĺ":7574,"íĶĦëĿ¼":7575,"ĠìĹ¬ìĿĺëıĦ":7576,"ĠìĹ¬ìĪĺ":7577,"Ġíĥľíıīìĸĳ":7578,"act":7579,"ĠìłķêµŃ":7580,"Ġíİ¸ê³¡":7581,"Ġì¿Ħ":7582,"Ġë¯¹":7583,"Ġë¹łìł¸ëĤĺ":7584,"ìķĦìĽĥ":7585,"ëĨ¨":7586,"Ġìľłë¹Ħ":7587,"ĠìĤ¬ëł¹ë¶Ģ":7588,"ê·¸ë£¹":7589,"ĠëĮĢì¶©":7590,"hz":7591,"ĠëĮĢê±°":7592,"Ġë´ĩ":7593,"Ġíķı":7594,"Ġíķľì°¸":7595,"ĠëĿ¼ìĿ´ëįĶ":7596,"Ġìķķëł¥":7597,"¼ë¡ľ":7598,"Ġëĭ¹ëĤ´":7599,"Ġíĳľëªħ":7600,"ĠìĺģíĻĶìłľ":7601,"Ġì·¨ì§Ģ":7602,"Ġê°Ħìłĳ":7603,"Ġìŀ¡ì§Ģ":7604,"ĠìĤ°ê°Ħ":7605,"Ġë¸ĶëłĪìĿ´ëĵľ":7606,"Ġworld":7607,"Ġ19":7608,"Ġì·¨ìķ½":7609,"Ġjr":7610,"Ġê¸°ì¢ħ":7611,"Ġë¯¼ê°Ĳ":7612,"Ġë°ĶìľĦ":7613,"ĠíĬ¸ë¡ľ":7614,"ìķī":7615,"ĠìĬ¤íģ¬ë¦°":7616,"Ġê³łìŀ¥":7617,"ies":7618,"ash":7619,"Ġyour":7620,"ĠìĭłëĤĺ":7621,"Ġì²ŃìĤ¬":7622,"ĠíĨ°":7623,"ĠêµĲìłĦ":7624,"ĠíĺĦëĮĢì°¨":7625,"Ġì£¼ì°¨ìŀ¥":7626,"ĠìĤ¬ìĽĲ":7627,"ĦìĹĨìĿ´":7628,"ĥī":7629,"ë°Ķì§Ģ":7630,"ĠìĽĮì¹ĺ":7631,"ph":7632,"Ġë§Īë¦¬ìĺ¤":7633,"ĠëĦĲë¦¬":7634,"Ġë©´íĹĪ":7635,"ì»·":7636,"Ġê°ķíĴį":7637,"Ġëĸ¨ìĸ´ì§Ħëĭ¤":7638,"ë£©":7639,"ĠëĪĦìłģ":7640,"ĠìŀĲìľ¨":7641,"Ġíķ´ë¦¬":7642,"ì¹¼":7643,"Ġë§ĪëıĦ":7644,"ĠêµŃìłľê³µíķŃ":7645,"Ġì¢ħìĭľ":7646,"Ġì°½ê³ł":7647,"Ġë¹Ħíķ´ìĦľ":7648,"Ġì¹´íĥĢ":7649,"²Ī":7650,"Ġê¹Ģì§Ħ":7651,"Ġë¶Ģê³¼":7652,"Ġë°ķìĥģ":7653,"Ġì¦Ĳê¸¸":7654,"ĠìĹ°ìĤ¬":7655,"Ġì¢ħíİ¸":7656,"Ġëĵ¤ëł¤":7657,"Ġì°ľ":7658,"Ġë¬¸ê±´":7659,"Ġë³´ì¡´":7660,"Ġpart":7661,"ĠìĿ¼ë°ĺìĿ¸":7662,"ĠìĿ´ë§Ī":7663,"Ġìĸĳìĥģ":7664,"Ġë¬´ìĿ¸":7665,"Ġê²ĮìĭľíĮĲ":7666,"ĠëĴ¤ëĬ¦":7667,"Ġì°¸ëª¨":7668,"Ġëķ¡":7669,"ĠëĤłìķĦ":7670,"Ġë½Ģ":7671,"Ġê½Ĥ":7672,"Ġê¹ĢìĬ¹":7673,"Ġsr":7674,"ĠìłĦíĪ¬ëł¥":7675,"Ġë¬¸êµ¬":7676,"Ġìļ°ë¦¬ëĤĺëĿ¼":7677,"Ġê°ķìļĶ":7678,"Ġì§Ģìļ°":7679,"Ġì¡´ëĤĺ":7680,"Ġìĸ´ë¦´":7681,"Ġê°ķíĸī":7682,"Ġëĭ¤ë¥¼":7683,"ĠìĿ´ìĤ¬ìŀ¥":7684,"Ġì¼ĢìĿ´ë¸Ķ":7685,"Ġëĭ¤ë¦":7686,"ĠëıĦì£¼":7687,"Ġë°ĶëĶĶ":7688,"ĠìĶ¬":7689,"Ġë°°ìĥģ":7690,"Ġíİ«":7691,"lc":7692,"Ġìĭ¤íĺĦ":7693,"Ġì°Ķ":7694,"================":7695,"ëŀŃ":7696,"Ġday":7697,"Ġéĩĳ":7698,"Ġìĥģë°ĺê¸°":7699,"ĠìĬ¤ìľĦìĬ¤":7700,"Ġ15":7701,"Ġë¬´ìĸ¸":7702,"ĠëªħìĿĺ":7703,"ĠëıĻìĸĳ":7704,"Ġìµľìĭł":7705,"ĠìĿ´ìĪĺ":7706,"ĠìĦľëªħ":7707,"Ġë©Ķë¥´ìĬ¤":7708,"Ġì£¼ìµľ":7709,"ë§Ļ":7710,"Ġê³łë§Ļ":7711,"ĠëĮĢìĪĺ":7712,"Ġê³¼ìŀĲ":7713,"Ġê¶¤ëıĦ":7714,"ib":7715,"ëĪĦ":7716,"ĠêµŃìĦ¸":7717,"Ġì²´ìĿ¸":7718,"ĠíĤ¤ë¦¬":7719,"ĠíİĮ":7720,"ħìĬ¤":7721,"vel":7722,"Ġ'(":7723,"ĠëıĻê³Ħ":7724,"Ġì§ļ":7725,"ĠëĮĢê°ķ":7726,"ìłĢíĬ¸":7727,"ance":7728,"Ġìŀłìŀ¬":7729,"Ġì§ĢëĬ¥":7730,"íħį":7731,"Ġêµ½":7732,"Ġìĥģë¥Ļ":7733,"ìļ´ìĦľ":7734,"Ġë³´ì¢Į":7735,"ĠìĹ¬ìłĦ":7736,"Ġíĥľê·¸":7737,"Ġë´īìĤ¬":7738,"Ġë°ķìĪĺ":7739,"ĠíĻĶë³´":7740,"ord":7741,"Ġì§Ģëª©":7742,"ĠìķĦëĤĺìļ´ìĦľ":7743,"Ġê²½ìľĦ":7744,"ĠìĦ¸ë¶Ģ":7745,"ĠìĦ¸ë¥´":7746,"ĠìľĦìĥģ":7747,"Ġê°ľìŀ¥":7748,"Ġgb":7749,"Ġìĥģë´ī":7750,"Ð¾":7751,"Ġì§ĢìľĦ":7752,"ĠÂ°":7753,"ĠìĥĢ":7754,"Ġíķľê°Ģ":7755,"Ġê¸īëĵ±":7756,"ë°ĶëĿ¼":7757,"Ġì·¨ë¯¸":7758,"Ġíı¬ë¥´íĪ¬":7759,"ĠìĻ¸ë¬´":7760,"Ġíĥľìĸ´ëĤĺ":7761,"Ġìķ¼ìĻ¸":7762,"Ġë²Įìĸ´ì§Ħ":7763,"ëª¨ë¡ľ":7764,"ĠìĿ´ê²½":7765,"Ġë¡ľì¦Ī":7766,"Ġë¬ĺì§Ģ":7767,"ĠíĺĪìķ¡":7768,"Ġlike":7769,"Ġì¡°ë¦¬":7770,"ĠìĹ¬ê¶Į":7771,"Ġê³¼ëıĦ":7772,"ê°Ħì":7773,"ĠìĸĳëħĲ":7774,"ë¥ľ":7775,"Ġë§Īì¼ĵ":7776,"ĠëĥĲë©°":7777,"Ġëĵ¤ë¦¬":7778,"ĠíķľëıĻìķĪ":7779,"Ġë°©ì¹ĺ":7780,"ĠìĽ°":7781,"ĠìĻ¸ì¹ĺ":7782,"Ġê´ĢìĦ¸":7783,"ê°Ģë¦¬":7784,"Ġê°ľìłķìķĪ":7785,"Ġê°Ģëł¤":7786,"Ġë°©ìľĦ":7787,"Ġë©Ķì¹´":7788,"Ġìĥģê³µ":7789,"ĠìĤ¬ìļ©ìŀĲ":7790,"ng":7791,"ëĤ®":7792,"Ġë§Īë¦¬ìķĦ":7793,"ì²ľìĭľ":7794,"Ġì²ĺíĺķ":7795,"Ġfm":7796,"Ġë§Įë§Į":7797,"ë§Īíģ¬":7798,"ĠíĹĮíĦ°":7799,"Ġì¸Ħ":7800,"Ġì§ĢìĿ¸":7801,"ĠëĤĺë¯¸":7802,"Ŀł":7803,"Ġìŀ¥ë¡Ģ":7804,"ĠëıĻìĦ±":7805,"Ġìµľëĭ¤":7806,"ĠëĨ¨":7807,"Ġëĭ¤ê°Ģìĺ¤":7808,"Ġì£¼ë¶Ģ":7809,"Ġì¹ĺê°Ģ":7810,"ëŀĢíŀĪ":7811,"ĠìľłëıĻ":7812,"Ġë¹Įëł¤":7813,"Ġì¹´ì¹´ìĺ¤íĨ¡":7814,"ĠìĨĮíĶĦíĬ¸ìĽ¨ìĸ´":7815,"ment":7816,"Ġsl":7817,"Ġìĸ´ìĦł":7818,"ĠëłĪìĿ¸ìłĢ":7819,"Ġê¹Ģíķ´":7820,"Ġê°ľì²´":7821,"Ġå¥":7822,"ĠìĻ¸ê³Ħ":7823,"ĠíĹĿ":7824,"Ġcol":7825,"ĠíĨłëģ¼":7826,"ĠìĿ´ìĤ°":7827,"ìĦ±ê¸°":7828,"Ġì°©ê°ģ":7829,"ëĮĢë¬¸":7830,"Ġì²ľìŀ¬":7831,"âĢ":7832,"Ġìĺ¤ëĿ½":7833,"Ġë³´ë³µ":7834,"ĠëłĻ":7835,"Ġê³łì¡°":7836,"Ġê³µìĿ¸":7837,"Ġxx":7838,"Ġì§Ģíľĺê´Ģ":7839,"ĠëĪĮëŁ¬":7840,"Ġëĭ¤ë£¬":7841,"Ġìŀĳê³¡ê°Ģ":7842,"Ġìĺ¤ì¹´":7843,"ĠìĬ¤íĥĢíģ¬ëŀĺíĶĦíĬ¸":7844,"ë¨¸ìĬ¤":7845,"ĠëĤ´ì£¼":7846,"ĠìĺĪëĬ¥":7847,"ĠìķĦëŀį":7848,"Ġìĭ¹":7849,"ìĻ¸ìĦł":7850,"Ġíķ´ìĪĺ":7851,"Ġìľłë°ľ":7852,"ĠâĢĶ":7853,"ì§Ģë§Ī":7854,"ê³µíĻĶ":7855,"ĠíĮĮìĿ¼ë":7856,"ĠíĥĪíĩ´":7857,"ĠìĿĮì£¼":7858,"Ġmin":7859,"ê°Ģíı¬ë¥´":7860,"Ġë©ĭì§Ħ":7861,"ĠìĹ°íıī":7862,"ĠìĸĳìĭĿ":7863,"Ġì½ĶìĿ¸":7864,"Ġê°Ĳìĺ¥":7865,"Ġìĭ±ê°Ģíı¬ë¥´":7866,"Ġë³¼íĬ¸":7867,"Ġost":7868,"ĠìłĦìłľ":7869,"ĠìĹ¬ëŁ¬ëª¨ë¡ľ":7870,"Ġìļ©ëŁī":7871,"ĠìĪĺë¶Ħ":7872,"ĠìĿ¸ì¡°":7873,"old":7874,"Ġë¶Ģëĭ¹":7875,"Ġê°Ĳê¸°":7876,"ĠëĮĢíķŃ":7877,"Ġíģ¬ë¦¬íĭ°ì»¬":7878,"Ġìłľìŀĳì§Ħ":7879,"Ġyj":7880,"Ġìĵ°ìĿ¸ëĭ¤":7881,"ĠìľĦëĮĢ":7882,"Ġì¼ĢìĿ´íģ¬":7883,"ëĦ¤ìĭľìķĦ":7884,"ĠíıīëħĦ":7885,"Ġì¿łë¡ľ":7886,"Ġìŀ¥ìĤ¬":7887,"Ġë¦¬ë©Ķ":7888,"Ġê³łìĭľ":7889,"ĠíĥĢì¼Ģ":7890,"Ġìłķì°°":7891,"ĠìĤ¬ë§Ī":7892,"ìĤ°ìĭľ":7893,"Ġìŀ¬íĺĦ":7894,"êµ¬ì¹ĺ":7895,"Ġë¯¸ìĬ¤íĦ°":7896,"ĠíĮĮìĿ¼ëŁ¿":7897,"ĠìĿ¼ëĭ¹":7898,"pm":7899,"Ġê¸°íĽĦ":7900,"ĠëĶ´":7901,"ĠíĨµìĿ¼ë¶Ģ":7902,"-****":7903,"Ġê·ľëªħ":7904,"ëª¸":7905,"ĠëĨįê°Ģ":7906,"Ġê³łìĨįëıĦë¡ľ":7907,"Ġì±Ħìļ°":7908,"Ġìį©":7909,"ĠíĿĳìĿ¸":7910,"ë¶Ģë¥´íģ¬":7911,"ĠìĻĢìĿ¸":7912,"ëŀĢëĭ¤":7913,"Ġer":7914,"ĠíĴįê²½":7915,"Ġëºı":7916,"ĠìĿ¼ì¹ĺ":7917,"Ġì¤ĳìĪľ":7918,"íĻĶë¬¸":7919,"ĠëªħìĦ±":7920,"ĠìķĦë°Ķ":7921,"Ġë°©ë¶ģ":7922,"Ġì¶Ķêµ¬":7923,"Ġëįĺìł¸":7924,"ë°°ìļ°":7925,"ĠìľłíķĻ":7926,"Ġê°ķì²ł":7927,"ĠìĨĲìĥģ":7928,"Ġì¡°ë§Į":7929,"ĠìĦľêµ¬":7930,"Ġëª°ë¦¬":7931,"Ġê°Ģìł¸ê°Ģ":7932,"ĠìķĪë³´ë¦¬":7933,"Ġìĸ´íĥĿ":7934,"Ġcent":7935,"Ġì°½ìĹħ":7936,"ĠìĽ¬ë§Į":7937,"Ġìºĺë¦¬":7938,"Ġê°ľë³Ħ":7939,"Ġë¸Įë¡ľ":7940,"Ġgam":7941,"Ġìĺģë¬¸":7942,"ĠíĶ¼ìķĦëħ¸":7943,"Ġë¶Ģì´Ŀë¦¬":7944,"Ġì£¼ìłĦ":7945,"ê¶Ĳ":7946,"ĠìĸĳìŀĲ":7947,"ĠìłĪë§Ŀ":7948,"}}":7949,"Ġìłķë³µ":7950,"aw":7951,"ĠíħĲëį°ìļĶ":7952,"Ġìłķë°Ģ":7953,"ary":7954,"ĠìĤ¬ìķĪ":7955,"ĠíĢĦë¦¬":7956,"ĠìĨľ":7957,"ĠìĤ°íķĺ":7958,"ĠíĹĽ":7959,"ĠìłģìĿĳ":7960,"Ġë°ľëĿ¼":7961,"Ġë¯¼ìĭ¬":7962,"Ġì¡°ì¡°":7963,"ĠíĬ¹ë³Ħìĭľ":7964,"ìĨŁ":7965,"ĠíĬ¸ëŀľ":7966,"ĠìľłìĦ¸":7967,"Ġëª©ìļĶìĿ¼":7968,"Ġëĭ¨ì¶ķ":7969,"ĠìļĶê´´":7970,"ĠëģĮëł¤":7971,"ĠìĬ¬ë¡¯":7972,"ĠìĬ¤íĥłëĶ©":7973,"Ġë§¥ìĬ¤":7974,"Ġë¡ľë¹Ħ":7975,"Ġíľ´ìĭĿ":7976,"Ġë¿ľ":7977,"ĠíĨµì¹ĺ":7978,"Ġê°Ģê³Ħ":7979,"ëį°ë¯¸":7980,"Ġì¹Ńì°¬":7981,"ĠíĥĢë§Ī":7982,"ĠêµŃë¬¼":7983,"Ġæ°":7984,"Ġë¹ĮëĶ©":7985,"Ġë¶Ģìĭľ":7986,"ĠìĪĺìŀ¥":7987,"Ġì¤Į":7988,"ì§ĢìĤ¬":7989,"ĠìłĦëıĻ":7990,"Ġì§ĢëĥĪ":7991,"ĠìŃī":7992,"©Ģ":7993,"Ġmus":7994,"Ġêµ¬ìĥģ":7995,"Ġìĭľì¦Ī":7996,"ĠìĬ¤ë¯¸":7997,"ĠìĿ¸ê°ĢìļĶ":7998,"orm":7999,"Ġíģ¬ëĿ¼":8000,"ëĤ¸ëĭ¤":8001,"Ġê·¸ë¦ĩ":8002,"Ġë°ľë§¤ëĲĺ":8003,"ì·Ħ":8004,"Ġíķ´ìłģ":8005,"Ġíĺ¸íıī":8006,"ĠëĤ¨ê²¼":8007,"Ġcf":8008,"Ġë¬´ìĸ¸ê°Ģ":8009,"ĠìĦłìĽĲ":8010,"ĠìĨĮëĭī":8011,"Ġë¶ĪëŁī":8012,"Ġë¶ĦìĹ´":8013,"Ġbgm":8014,"Ġë¯¸ì¸ł":8015,"Ġë°ķìĤ´":8016,"Ġì°¾ìķĦìĻ":8017,"ĠìľłìĿĺ":8018,"ĠìĪĺìĪĺë£Į":8019,"Ġë¹¨ê°Ħ":8020,"ĠëĪĪê¸¸":8021,"ĠíĺĦì§ģ":8022,"ĠìĤ¬ì°°":8023,"Ġë²¼ë":8024,"ĠíĨłëĮĢ":8025,"ream":8026,"ëĦ¬":8027,"ëĭ¤ëŀĢ":8028,"íĶĦë¦¬":8029,"ĠìĥĿëªħëł¥":8030,"Ġë¯¸ì¹´":8031,"ĠìĻĪ":8032,"¸ëŁ¬":8033,"ĠêµŃìĻķ":8034,"Ġê°ĢëĿ¼":8035,"Ġíķľìª½":8036,"Ġ----":8037,"Ġëĵľë¬¼":8038,"íĶĦëłĪ":8039,"ëĶ±":8040,"ĠëĮĢêµŃ":8041,"Ġê²Ģì¶ľ":8042,"ì¹«":8043,"Ġë§īëĮĢ":8044,"ĠìĦ¸ìĽł":8045,"ĠëıĻëĤ¨":8046,"Ġê°Ħíĺ¸":8047,"ĠíĶĦë¦¬ë¯¸ìĹĦ":8048,"Ġko":8049,"Ġê¹¡":8050,"Ġê°ģêµŃ":8051,"Ġìĭ¬ìĿĺ":8052,"ĠëłĮì¦Ī":8053,"ëłĪìĿ´íĦ°":8054,"Ġfol":8055,"Ġì§ľì¦Ŀ":8056,"Ġìłĸ":8057,"Ġìĥģë¬´":8058,"ĠíĬ¹íĻĶ":8059,"ìĭľë¡ľ":8060,"Ġê¸¸ëŀĺ":8061,"Ġë§ĪëĿ¼":8062,"ĽĶ":8063,"Ġìĺ¨ëĭ¤":8064,"Ġìłķìľł":8065,"Ġinter":8066,"ĠìķĦì¹´ëį°ë¯¸":8067,"ĠíĻĶìĤ°":8068,"ĠìĥĮëĵľ":8069,"Ġì¡°ìĹ°":8070,"ìĹ¬ìĦľ":8071,"Ġê°ľêµĲ":8072,"Ġì²«ëĤł":8073,"ëķħ":8074,"Ġëħ¸ë©Ģ":8075,"ĠìķĦìłĢ":8076,"ĠìĿ¸ì¹ĺ":8077,"Ġë²łìĿ´ë¹Ħ":8078,"ĠìľłíĿ¬ìĻķ":8079,"Ġê³¨ëĿ¼":8080,"ĠìĹĺíĶĦ":8081,"ĠìĤ¬ëĿ¼ì§Ħ":8082,"ê¼Ī":8083,"ë¦¼ë":8084,"Ġcan":8085,"ĠìķĦìī¬ìļ´":8086,"íģ°":8087,"Ġíİ¸ë":8088,"Ġíı¬ê²©":8089,"Ġêµ¬ë¯¸":8090,"Ġmvp":8091,"Ġåı":8092,"Ġëĺ¥":8093,"orn":8094,"Ġê°ĪëĿ¼":8095,"ĠëĤľë¯¼":8096,"Ġë§¤ìļ´":8097,"ĠìºĲìĬ¤íĮħ":8098,"Ġê³ĦìłĪ":8099,"Ġì´Īì½Ķ":8100,"ë¹¨":8101,"Ġëĵ¤ìĸ´ìĻĶ":8102,"Ġíıīë¡ł":8103,"Ġì»¤ë§¨":8104,"Ġê¸°ìĬ¹":8105,"íĮ½":8106,"ìĦ¸ìĬ¤":8107,"Ġgm":8108,"Ġë¬´ëį¤":8109,"Ġå¤§":8110,"ĠíıīíĥĢ":8111,"ĠìķĦìłĢìĶ¨":8112,"ìĸ´ìĬ¤":8113,"ĠëĬĲë¦¬":8114,"ĠëĦ¤ìŀĦ":8115,"ĠìĿ´ëĿ¼ëĵł":8116,"ĠëıĮìķĦëĭ¤ëĭĪ":8117,"ì¤Ģëĭ¤":8118,"Ġìļ°ìłķ":8119,"Ġê¹Ģì¤Ģ":8120,"Ġë¹Ħì£¼":8121,"Ġë£¨ìĭľ":8122,"Ġì±Ħê¶Į":8123,"ens":8124,"ìłĦì°¨":8125,"Ġëħ¸ë¶Ģ":8126,"ĠìķĪìĸĳ":8127,"ëŃ":8128,"Ġì°¢":8129,"ë¤":8130,"Ġê³µë£¡":8131,"ĠìĭłìŀĦ":8132,"ĠëĤ¸ëĭ¤":8133,"ĠíĮĲë§¤ëŁī":8134,"ĠìĪĺìļĶìĿ¼":8135,"Ġì§ķê³Ħ":8136,"Ġê³łìĨįëıĦ":8137,"ĠìĽĲìĨĮ":8138,"ĠìĭľìľĦëĮĢ":8139,"Ġê¹Ģíı¬":8140,"Ġê¹ĢìĦł":8141,"ëĭ¤ìĿ´":8142,"Ġê½ī":8143,"ĠìĪĺì²ľ":8144,"Ġëį°ìĿ´ë¹":8145,"Ġë¦¬ë©ĶìĿ´íģ¬":8146,"Ġìĸµì§Ģ":8147,"Ġì¹¼ë¦¬":8148,"Ġìŀ¼":8149,"ĠìĭľíĬ¸":8150,"Ġë³´ëĵľ":8151,"Ħìĭł":8152,"own":8153,"ĠíĥĢìļ´":8154,"Ġíķ©ë¦¬":8155,"Ġì¡°ë§Įê°Ħ":8156,"ĠêµŃìĸ´":8157,"ĠíĢĦë¦¬íĭ°":8158,"Ġdram":8159,"ĠìķĦíĭ°ìĬ¤íĬ¸":8160,"ĠìĥĿì¡´ìŀĲ":8161,"Ġë¹ĽëĤĺ":8162,"ëĭ¤ë³´":8163,"ĠíĴĪì§Ī":8164,"ĠìĽĲìŀĲëł¥":8165,"ĠìĭĿë¯¼":8166,"ë°Ń":8167,"Ġjoins":8168,"Ġëª©ìĤ¬":8169,"Ġë¬´ê´Ģ":8170,"ĠíĸĦ":8171,"ĠíħĮìĿ¼":8172,"ëħ¸ìĬ¤":8173,"Ġìĭľë§Ī":8174,"ĠëĦĺì¹ĺ":8175,"Ġë¶Ģìŀĳìļ©":8176,"Ġì¹¨íķ´":8177,"íİĺìĿ´":8178,"Ġê·Ģìĭł":8179,"Ġê³µìĹħ":8180,"ì¡°ë¦¬":8181,"ĠëĶĶìłĢíĬ¸":8182,"Ġë£¨íĥĢ":8183,"ĠìĿ¼ëł":8184,"ink":8185,"Ġìĥģìŀ¥":8186,"ĠìĿ¼ìľ¼íĤ¨":8187,"ĠìĬ¤íĨ°":8188,"ìĤ¬ê³ł":8189,"ëĨĢ":8190,"Ġê³µì§Ģ":8191,"Ġìłģíķ©":8192,"êµŃìĪĺ":8193,"íİĻíĬ¸":8194,"ĠìºĲë¦¬":8195,"Ġëª¨ëª¨":8196,"Ġëĭ¹ìĤ¬ìŀĲ":8197,"Ġì¹ĺìĨŁ":8198,"ĠìĦľë¥ĺ":8199,"ĠìĤ¬íĽĦ":8200,"Ġê°ľìĦ¤":8201,"Ġë§Īì¹ľ":8202,"Ġpad":8203,"Ġë¦¬ëĵ¬":8204,"Ġíĭ°ì¼ĵ":8205,"Ġì²łìłĢíŀĪ":8206,"Ġìĭ±íģ¬":8207,"Ġì¹ĺëªħíĥĢ":8208,"ĠìĻľê³¡":8209,"Ġë¬´ì§Ģ":8210,"Ġë¹ĦíĥĢ":8211,"êº¼":8212,"ë¦¬ê·¸":8213,"Ġë³´ìĿ¸":8214,"µ¸":8215,"Ġë¡ľê·¸":8216,"Ġfrom":8217,"Ġë©Ķë¦¬":8218,"ĠìłģëĮĢ":8219,"ĠíĹĪìľĦ":8220,"Ġê²°ìĭ¬":8221,"Ġë°ķìĽĲ":8222,"Ġë§ĪíĤ¤":8223,"Ġë°Ķì§Ģ":8224,"ĠìĺĪìĪĺ":8225,"ª¬ëĵľ":8226,"Ġëĭ¹ìĦłìĿ¸":8227,"ĠìĹ´ìĩł":8228,"Ġê°ģë³¸":8229,"ground":8230,"vd":8231,"ĠíĥĢìĿ¸":8232,"ĥĲ":8233,"©¸":8234,"ĠìĦ±ë³Ħ":8235,"ĠìĦ¼ìĬ¤":8236,"Ġê²©ì°¨":8237,"Ġë°°ì°¨":8238,"Ġìĭ¤ëĵľ":8239,"Ġì¤ĳë¦½":8240,"Ġìķ¼ìĥĿ":8241,"ĠìķĦë§ĪëıĦ":8242,"ë°Ģë¦¬":8243,"ĠíĶĦëĿ¼ìĿ´":8244,"ĠìŀĲì±ħ":8245,"Ġìĺ³":8246,"íĪ¼":8247,"Ġìļ¸ë":8248,"Ġìĸ´ë§Ī":8249,"ĠíĮŁ":8250,"ai":8251,"Ġì¿¼":8252,"ĠíķĻë¶Ģëª¨":8253,"Ġì¹´ë¯¸":8254,"įĺ":8255,"ĠìŀĶëľ©":8256,"ĠíĶĮëłĪ":8257,"ĠíĶ¼ìĬ¤":8258,"ĠìĮįëĳ¥ìĿ´":8259,"ĠëŀŃíĤ¹":8260,"ĠìĹ®":8261,"ĠëĬĲëĤĢ":8262,"ĠíĽĦë°°":8263,"Ġë²ĦìĦ¯":8264,"Ġìŀħì¦Ŀ":8265,"Ġìŀ¡íĺĢ":8266,"Ġ$":8267,"Ħë¹Ħ":8268,"ëł·":8269,"Ġê¹Ģíĺķ":8270,"ĠìĦ±ìĤ¬":8271,"ĠìĿ¸ëıĦëĦ¤ìĭľìķĦ":8272,"Ġë°ĺì§Ŀ":8273,"ĠìķĦëĭĺ":8274,"Ġë¶ĢëŁ¬":8275,"Ġë¬¼ê³łê¸°":8276,"Ġì¤ĳêµŃìĿ¸":8277,"ĠëĨįíĺĳ":8278,"Ġì¹ĺëŁ¬":8279,"Ġëĵ¤ìĸ´ìĦľ":8280,"ĠíĿ¬ê·Ģ":8281,"íĮĢ":8282,"Ġìĺ¤ìĬ¤íĬ¸ë¦¬ìķĦ":8283,"ĠìĨĮìĿĮ":8284,"ĠìĹ¬ìĤ¬":8285,"ĠìĤ¼ì§Ħ":8286,"Ġê²½íĺ¸":8287,"ĠìĤ¬ë¦½":8288,"ìĭ¸ìĽĢ":8289,"ĠìķĦë¥´íĹ¨":8290,"Ġêµ¬ë¦¬":8291,"ĠëĶĶìĬ¤íģ¬":8292,"ĠìĻ¸ì¶ľ":8293,"Ġë°©ì¶ľ":8294,"ĠìĥĿíĥľ":8295,"ĠìĿ´ê²¨":8296,"íķĦë":8297,"Ġë³¶ìĿĮ":8298,"Ġë§ĲëłĪìĿ´":8299,"ĠìĹ¬ì£¼":8300,"Ġë¯¸ì¹ł":8301,"ë¬¼ë":8302,"Ġíķ´íĶ¼":8303,"ĠëĮĦ":8304,"ë¨¼íĬ¸":8305,"Ġìį¨ìķ¼":8306,"Ġê°ķìĤ¬":8307,"Ġë§Īì¹¨ëĤ´":8308,"¾¼":8309,"ëĦ¤ìĬ¤":8310,"Ġfolding":8311,"Ġìŀ¥ê±°ë¦¬":8312,"Ġì¹ľìłĪ":8313,"Ġë²łëĦ¤":8314,"ĠìĦĿë°©":8315,"Ġìłģëĭ¹íŀĪ":8316,"ìĦ¼íĬ¸":8317,"Ġê´Ģì°°":8318,"íĥĦì":8319,"ĠìĿĺìŀĲ":8320,"Ġìľłë¬¼":8321,"ĠìŀĺëĿ¼":8322,"Ġëª¨ë¥¼":8323,"Ġ~^^":8324,"ĠíĥĦìķ½":8325,"ĠìĦ±ë¦½":8326,"ĠíĶĮëłĪìĿ´ìĺ¤íĶĦ":8327,"Ġìĺ¬ëĿ¼ìĺ¨":8328,"ë³¶ìĿ´":8329,"ĠíĨłë¥´":8330,"ĠíĿĺë¦¬":8331,"ĠìĥģìŀĦ":8332,"Ġìĥģìĺģ":8333,"Ġì§ĢëĤľì£¼":8334,"Ġì¢ħë¡ľ":8335,"Ġë°Ķê¾¼":8336,"Ġìľ¼ìĭł":8337,"ower":8338,"Ġêµ¬ì²Ń":8339,"¬ĺ":8340,"Ġë§¤ë§¤":8341,"ĠìĿĮìĽĲ":8342,"Ġëĭ¤ì³¤":8343,"Ġì£¼íĸī":8344,"Ġíı¬ëŁ¼":8345,"ĠëıĻêµ´":8346,"ĠìĬĪíĬ¸":8347,"Ġml":8348,"Ġë¸Ķë¦¬":8349,"Ġev":8350,"Ġë³´íĹĺë£Į":8351,"ĠìłĢê¸°":8352,"Ġë¦¬ìķĦ":8353,"Ġíģ´ëĿ¼":8354,"Ġìŀ¬ë¬´":8355,"¶Ļ":8356,"ĠìĤ°ì±ħ":8357,"ĠìķĦë¥´íĹ¨íĭ°ëĤĺ":8358,"Ġì´Īì½ľ":8359,"ĠêµĲíĨµìĤ¬ê³ł":8360,"Ġê¹Įëĭ¤":8361,"ĠíıīíĥĿ":8362,"Ġëĭ¨ëĭ¨":8363,"Ġì§ĳìĸ´":8364,"ì°½ê¸°":8365,"ê±¸ìĿ´":8366,"Ġê²½ì°°ê´Ģ":8367,"ĠìĹ¬íĮĮ":8368,"Ġì¦ĿìĿ¸":8369,"Ġê²½íĹĺì¹ĺ":8370,"ĠìłĦíĮĮ":8371,"Ġë³´ì¦Ŀ":8372,"ĠëĵľëĿ¼ìĿ´ë¸Į":8373,"ĠìıŁìķĦì":8374,"Ġì¹ĺë¥´":8375,"Ġì²©":8376,"ster":8377,"Ġìĸ´ëł¤ìļ¸":8378,"Ġê¸¸ëĵľ":8379,"Ġë¹ĦìķĦ":8380,"ĠìĹ¬ìļ°":8381,"ìŀİ":8382,"Ġê°Ģë§Į":8383,"Ġëĸłìĺ¤ë¥´":8384,"ĠìĿ¼ê°ģ":8385,"ĠëķĢ":8386,"ĠëĤĺìĦ¤":8387,"Ġsy":8388,"Ġkia":8389,"Ġê³łì¶Ķ":8390,"Ġìŀħì§Ģ":8391,"Ġì¹¨ê³µ":8392,"Ġë§ĪìĬ¤":8393,"Ġê·¸ì³¤":8394,"Ġoh":8395,"ë®":8396,"ĠíĽĹ":8397,"Ġìĺ®ê¸°":8398,"Ġëĸ¡ë³¶ìĿ´":8399,"Ġìļ°íģ¬":8400,"Ġë¦¿":8401,"ĠëĤļìĭľ":8402,"Ġìĺ´":8403,"ĠìłĦì§Ħ":8404,"Ġë²łë¦¬":8405,"ĶĢ":8406,"Ġìŀ¡íŀĪ":8407,"ì¦Ĳ":8408,"ĠìĿ¸íħĮë¦¬ìĸ´":8409,"Ġìĺ¤íĤ¤":8410,"ĠëĤĺì¹ĺ":8411,"Ġê´ĢìĹ¬":8412,"Ð¸":8413,"Ġìļ°ìļ¸":8414,"ĠíĶĦëŀĢ":8415,"Ġìĭ¤ë²Ħ":8416,"ĠìłĢì§Ī":8417,"Ġê·¸ëłĩì§Ģë§Į":8418,"Ġë¹Ħì£¼ìĸ¼":8419,"Ġëĭ¨íĸī":8420,"Ġëĭ¨íİ¸":8421,"ĠëĸłëĤ¬":8422,"ê°Ģë£¨":8423,"Ġìĭłì§Ģ":8424,"Ġgl":8425,"ĠåĮĹ":8426,"ĠëĤ¨ê¸´":8427,"me":8428,"ĠìķĦìķ":8429,"Ġqu":8430,"ĠìĬ¤íĶĦ":8431,"ë³¼ë":8432,"Ġêµµ":8433,"ĠìĿ´ëģĦ":8434,"anc":8435,"Ġgre":8436,"ĠìĬ¹ë¬´ìĽĲ":8437,"Ġì²łíļĮ":8438,"ëļĿ":8439,"ake":8440,"Ġê³ĦìĹ´ìĤ¬":8441,"ond":8442,"Ġì³¤":8443,"Ġì±Įë¦°":8444,"ĠìĤ¼êµŃì§Ģ":8445,"ĠìĹŃìŀĦ":8446,"ĠëĮĢìķĪ":8447,"Ġê¹Ģë³ĳ":8448,"Ġë¶Ĳ":8449,"Ġë³´ëĿ¼":8450,"ìĬĲ":8451,"ê±°ì§Ģ":8452,"Ġì°½ì¶ľ":8453,"Ġê¸°ìŀ¬":8454,"ì³ĲìĦľ":8455,"ĠìķĦëĭĮëį°":8456,"Ġíĳľì§Ģ":8457,"Ġìĭ¤ìłĦ":8458,"Ġna":8459,"Ġìľłìłģ":8460,"ĠëıĻë¶ģ":8461,"ĠìĿ¼ë³¸êµ°":8462,"ĠëĭĿ":8463,"Ġìĭ¼":8464,"Ġìı´":8465,"Ġìĥµ":8466,"Ġíķ´ìĹŃ":8467,"ĠëĶĺ":8468,"ĠëĭĽ":8469,"ĠìĬ¤íĦ°":8470,"Ġê²°ë§Ĳ":8471,"Ġì´Ŀê²©":8472,"Ġìķĵ":8473,"êµ¬ë¦Ħ":8474,"Ġìľłíļ¨":8475,"Ġ~)":8476,"ĠìĦľìĦľ":8477,"Ġìļ´íķŃ":8478,"Ġmf":8479,"ĠìĹ°ë´ī":8480,"Ġê·¸ë¡ľ":8481,"ĠíıīìłĲ":8482,"ba":8483,"Ġë¹ĦìłĦ":8484,"Ġhy":8485,"Ġìļ°ìľĦ":8486,"Ġds":8487,"ĠìĦ¸ìĿ´ë¸Į":8488,"Ġë°Ķëĭ·":8489,"ĠëĤ´ìĦ±":8490,"ĠëłĽ":8491,"ĠíĿĻ":8492,"Ġë¯¸ëĿ¼":8493,"Ġëª¨ìĿ´":8494,"Ġìŀħë²ķ":8495,"ĠáĦı":8496,"Ġì§Ħë£Į":8497,"ë¯¼ì£¼":8498,"Ġìļ¸íĬ¸ëĿ¼":8499,"Ġdf":8500,"´ī":8501,"Ġìĺģê´ĳ":8502,"ĠìĻłì§Ģ":8503,"Ġíĭ´":8504,"Ĥ¨ëıĦ":8505,"êº¼ë":8506,"Ġìª¼":8507,"ĠìłĦëĿ¼ëĤ¨ëıĦ":8508,"ĠìĨĮê¸Ī":8509,"ĠìĤ¬ëıĦ":8510,"ĠìĦ¸ë¸Ĳ":8511,"Ġë°į":8512,"ĠëĭĪì½Ķ":8513,"ĠìĤ¬ìĭł":8514,"Ġsel":8515,"Ġê¸Īë©Ķëĭ¬":8516,"Ġëħ¸ìĤ¬":8517,"Ġìĥ´":8518,"Ġëıħìŀ¬":8519,"Ġcg":8520,"Ġì°¾ìķĦë³´":8521,"ĠìľłëĤĺìĿ´":8522,"ĠìķŀëĳĶ":8523,"Ġìķ¼ê°Ħ":8524,"Ġke":8525,"Ġê°Ĳì§Ģ":8526,"Ġìºĺë¦¬íı¬":8527,"ĠìĦ±ì¶Ķ":8528,"Ġì¤ĳê³ł":8529,"ĠíķĺíķĦ":8530,"Ġìŀłìĭ¤":8531,"ĠìĤ¬ë§ī":8532,"Ġì´īì´ī":8533,"ëĵľëĿ¼":8534,"ĠìľłìłĦìŀĲ":8535,"ĠìĬĽ":8536,"ì²ĺëŁ¼":8537,"ĠíĴįë¶Ģ":8538,"ĠëıĦëĳĳ":8539,"ii":8540,"ĠìĿ´ê¸¸":8541,"ĠìľłëĤĺìĿ´íĭ°":8542,"Ġìĭłìŀħ":8543,"ade":8544,"ì¤ĺ":8545,"ĠìĬ¤ìº":8546,"Ġìļ©íĴĪ":8547,"Ġë¶Īë¦°ëĭ¤":8548,"Ġìĭłìĥģ":8549,"ĠÑ":8550,"Ġì¹¨ëĮĢ":8551,"ĠíĨµìĤ°":8552,"Ġê¸°ëĮĢê°Ĳ":8553,"§ĳ":8554,"Ġê¹ĢìĿ¼":8555,"ĠíĽĦê³Ħ":8556,"Ġìĸĩ":8557,"Ġì·¨ëĵĿ":8558,"ìķĦì£¼":8559,"Ġì²¨ëĭ¨":8560,"Ġìĭľì¹´":8561,"ëļ±":8562,"ìĮį":8563,"Ġìķłìłķ":8564,"ĠìĺĪëħĦ":8565,"Ġëħ¼ìŁģ":8566,"ĠìŀħìĽĲ":8567,"Ġìļ°ìĹ°íŀĪ":8568,"Ġë©Ģì©¡":8569,"ëŁ¿":8570,"ĠìĿĮëª¨":8571,"ĠëĶ¸ê¸°":8572,"Ġtw":8573,"íĶĮëłĪìĿ´":8574,"ĠìĥģìĬ¹ìĦ¸":8575,"Ġcar":8576,"Ġë§ĪëĶĶ":8577,"ĠâĨĳ":8578,"Ġê°ĳìŀĳ":8579,"Ġìŀ¬ëĤľ":8580,"Ġìľłëıħ":8581,"ĠìĭľìķĦ":8582,"ĠìĿ´ì¤Ģ":8583,"ĠìĿĳëĭµ":8584,"Ġë§Ĳë¦¬":8585,"Ġìĺ¤íĥĢ":8586,"Ġì£ĦìĨ¡":8587,"Ġê°ļ":8588,"ĠìĦĢ":8589,"Ġëĭµëĭµ":8590,"ans":8591,"Ġì¤Ħìĸ´ëĵł":8592,"Ġìĭłë¹Ħ":8593,"ë³´ìĿ´":8594,"ĠíĬ¸ìľĪ":8595,"ĠëĬĺìĸ´ëĤ¬":8596,"Ġê³¤ëŀĢ":8597,"Ġ->":8598,"ĠíĪ¬êµ¬":8599,"Ġfff":8600,"ĠëĵľëłĪ":8601,"ĠìĤ¬ìĿ¸":8602,"ŀĮ":8603,"Ġëĵ¤ìĸ´ê°Ħëĭ¤":8604,"ĠìĦłìŀ¥":8605,"ĺ¤":8606,"!!":8607,"Ġê¹ĬìĿ´":8608,"Ġnh":8609,"ĠìĬ¹ìłĲ":8610,"Ġê°Ĳìĥģ":8611,"Ġpadding":8612,"Ġëįĺëį°":8613,"ëĦĲëĵľ":8614,"Ġëĭ¦":8615,"Ġê¸°ë³ĳ":8616,"Ġìĭłíķľ":8617,"Ġec":8618,"¼ë¦°":8619,"ì¡¸":8620,"Ġë°ĽìķĦëĵ¤ìĹ¬":8621,"Ġper":8622,"ëĳĲë¥´":8623,"Ġë¡ľìļ°":8624,"Ġë¡ľê³ł":8625,"ĠìĪĺëł¨":8626,"Ġkim":8627,"Ġì²´ì¤ĳ":8628,"ĠìķĪíĭ°":8629,"Ã©":8630,"ĠëĮĢê°ľ":8631,"Ġìĺ¤ë§Ī":8632,"ĠëłĪìĿ´ëĵľ":8633,"ĠìĽĲë³¸":8634,"Ġnamu":8635,"Ġì»¤ëĭ¤ëŀĢ":8636,"ëģĦëŁ¬":8637,"Ġë§¤ì£¼":8638,"ìĬ¤íģ¬ë¦¼":8639,"ĠìĺĪìĤ°ìķĪ":8640,"Ġë¸Įë£¨":8641,"Ġìŀ¥ë¯¸":8642,"ì¶ĶìľĦ":8643,"ĠåŃ":8644,"Ġfeat":8645,"ìłĦìĨĮ":8646,"Ġíķ¨ìĪĺ":8647,"Ġare":8648,"Ġíı¬íĥĳ":8649,"ĠìĦ±ì¶Ķíĸī":8650,"Ġìľłì¡±":8651,"Ġëª¨ëĭĪíĦ°":8652,"ĠëªħìłĪ":8653,"Ġê´ĳíĻĶë¬¸":8654,"ĠíĶ¼ê²©":8655,"íģĲìĸ´":8656,"Ġì´Īë¡Ŀ":8657,"Ġíİ´":8658,"ĠìĿ¼ê°Ģ":8659,"Ġíķ´ê²½":8660,"Ġíı¬ë¥´íĪ¬ê°Ī":8661,"Ġ.....":8662,"Ġíķĺíĸ¥":8663,"Ġê°Ģíķĺ":8664,"Ġë²Įê¸Ī":8665,"ĠìĿ¸ì¢ħ":8666,"Ġë¡¬":8667,"Ġì°¾ìķĦìĺ¤":8668,"Ġì´ĪìłĲ":8669,"ëĬ¬":8670,"Ġëĵłëĭ¤":8671,"ìłĦìĤ¬":8672,"Ġì¹ĺìľł":8673,"Ġì¤Ħê¸°":8674,"Ġë²Ħê±°":8675,"ĠìľłìĬ¹ë¯¼":8676,"Ġì±ĦìĨĮ":8677,"ë£°":8678,"Ġì¤ĢìĪĺ":8679,"ĠìĿĢì§Ģ":8680,"Ġìľ¤ë¦¬":8681,"Ġë§¤ëĭĪìłĢ":8682,"ĠíĶ¼íĦ°":8683,"Ġìĭ¤ì²ľ":8684,"Ġê±°ìłĲ":8685,"ê³łìĨįëıĦë¡ľ":8686,"Ġíĳľë©´":8687,"Ġëĭ´ë³´":8688,"ĠìĹ´ìłķ":8689,"Ġë¹Ħìłķ":8690,"Ġë¬´ìļ©":8691,"ĠìķĮëłīìĤ°":8692,"Ġë¦¬ìĬ¤íģ¬":8693,"Ġëĭ¹ì²¨":8694,"ĠëįĶëįĶ":8695,"ĠìľĪëıĦìļ°":8696,"ĠëĤ´ìĪĺ":8697,"ĠëĤ´êµ¬":8698,"ĠìłĪëĮĢë¡ľ":8699,"Ġë¬´ìĦľìļ´":8700,"Ġë°ľëª©":8701,"Ġëª¨íĨł":8702,"ĠëĦ¥ìĦ¼":8703,"ĠëĦ¤íĭ°":8704,"Ġìĭľì¤ĳ":8705,"Ġê·¸ëĤł":8706,"ĠìĬ¤íĦ´":8707,"ĠëŁ¬ìĭľ":8708,"Ġê²½ìĥģëĤ¨ëıĦ":8709,"Ġìĭľìĥģ":8710,"Ġbackground":8711,"Ġìĭľë²Ķ":8712,"Ġë§¤íĬ¸":8713,"Ġê´ĢìłĲ":8714,"ĠìĹ°ìĩĦ":8715,"Ġê·¸ëłĪ":8716,"Ġì¶©ìĦ±":8717,"Ġë¬´ìĥģ":8718,"ĠíĮĮìĬ¤íĥĢ":8719,"Ġce":8720,"ê±¸ë¡ľ":8721,"Ĭ¬":8722,"Ġëª¨íĦ°":8723,"Ġë©ĺíĥĪ":8724,"Ġíĸ¥íķľ":8725,"ĠìķĦì¿ł":8726,"Ġê¹¨ëĭ«":8727,"Ġìŀ¬ë²Į":8728,"Ġëª©íı¬":8729,"ĠêµĲì°¨ë¡ľ":8730,"Ġëĭ¤ëħĢìĻĶ":8731,"Ġê¸°ìļ´":8732,"ĠëĨįëĭ´":8733,"Ðµ":8734,"ile":8735,"Ġë¹ĦìŀĲ":8736,"ĠíĻĶìļĶìĿ¼":8737,"Ġê¹ĢëĮĢì¤ĳ":8738,"Ġmk":8739,"va":8740,"Ġì§ĢìŀĲ":8741,"ĠìŀħíŀĪ":8742,"Ġë§Īì³¤":8743,"Ġíĥ±ì»¤":8744,"ĠìĻľëĥĲíķĺë©´":8745,"ĠìŀĦìĽĲ":8746,"Ġì¦Ĳê±°":8747,"Ġê¸Īê°ķìĤ°":8748,"Ġpo":8749,"ĠìĿ´ëŁ´":8750,"ëĤĺê°Ģ":8751,"Ġìľ¡ìĥģ":8752,"Ġë£¨ìĿ´":8753,"Ġê¹Įì§Ħ":8754,"íĤ¤ìĬ¤íĥĦ":8755,"ĠìķħìĹŃ":8756,"Ġëĭ¤ì¹´":8757,"Ġê°Ĳê°ģ":8758,"Ġê±´êµŃ":8759,"Ġëĭ¤ìĿ´ìĸ´íĦ°":8760,"Ġì¦Ĳê²¨":8761,"ĠíķŃê³µìĤ¬":8762,"Ġì´Īì°½ê¸°":8763,"Ġê¸°ìĪĻ":8764,"ĠìĥģìĽĲ":8765,"Ġê°ĲìĦ±":8766,"Ġëħ¸ìĬ¤":8767,"Ġìĺ¬ë¦´":8768,"Ġêµ¬ìĦĿ":8769,"ëĿ¼ìĿ´íĬ¸":8770,"ĠëĦ¤ìĿ´":8771,"ĠíĬĢìĸ´ëĤĺ":8772,"ê°Ģìĭľ":8773,"ĠíıŃìĦ¤":8774,"ë¬´ê¸°":8775,"ĠìĦ¸ìĿ´ë²Ħ":8776,"ıĪ":8777,"ĠìĬ¤ìĬ¹":8778,"ĠìĨĮì§ĳ":8779,"ĠìĦłíı¬":8780,"Ġìĸ¸ìłł":8781,"Ġyjebo":8782,"ë½":8783,"ĠìĿĺìłķë¶Ģ":8784,"Ġê¸īìĭĿ":8785,"ahouse":8786,"ĠëĤ´ëł¤ìĺ¤":8787,"Ġìŀ¬ë°°":8788,"Ġì°¨ì§Ī":8789,"Ġdramahouse":8790,"Ġëĸ¨ìĸ´ì§Ī":8791,"Ġë§¤ëıĦ":8792,"Ġì£¼ì²´":8793,"íĮ¬":8794,"Ġëł¤ëįĺ":8795,"ĠíĴĢëł¤":8796,"Ġê¸°ëĭ¤ëł¤":8797,"ĠíĽĪìŀ¥":8798,"ĠëĦ¤íĭ°ì¦Į":8799,"Ġíķ´ìĤ°":8800,"ìļ´ëıĻ":8801,"ĠêµŃë©´":8802,"ĠìĹ´ê¸°":8803,"Ġìĺ¤ëĬĺëĤł":8804,"Ġì¤ĳë³µ":8805,"Ġë²ļ":8806,"Ġë°ĺìĦ±":8807,"ĠëĮĢìĻķ":8808,"ĠíķĻëł¥":8809,"Ġê³¨ëª©":8810,"ì£¼ë¯¼":8811,"Ġëª½ê³¨":8812,"íĶĦë§ģ":8813,"ĠíĤ¬ë¡ľ":8814,"íĤ¤ì§Ģ":8815,"Ġìķ½íĻĶ":8816,"Ġíĺ¸ëŀĳ":8817,"Ġì£¼ë¥ĺ":8818,"Ġìļ©ìĦľ":8819,"Ġì¡°ì¢ħìĤ¬":8820,"Ġíĺ¸ê°Ĳ":8821,"ëĭ´íļĮ":8822,"ree":8823,"ĠëįĶëįĶìļ±":8824,"Ġì¤ĳì§Ģ":8825,"ĠìĽĲë¦¬":8826,"Ġìĭłì¢ħ":8827,"êµ¬ëĤĺ":8828,"ë°©ìļ¸":8829,"Ġê±°ìļ¸":8830,"ĠíĶ¼íķł":8831,"Ġìĸ´ëĿ¼":8832,"Ġìĭ¬ìĭ¬":8833,"Ġê´Ģì¤ĳ":8834,"ĠìĬ¤íħĶ":8835,"Ġsa":8836,"ĠìĭłëıĦ":8837,"Ġê²°íĺ¼ìĭĿ":8838,"Ġíģ´ëłĪ":8839,"ĠíĨłëĦĪ":8840,"ĠìŀĲë§ī":8841,"Ġíı¬ë¡ľ":8842,"ĠìĽĲìľł":8843,"Ġë³´ìĿ´ìĬ¤":8844,"Ġíķ´ì§Ī":8845,"ĠëģĶì°į":8846,"Ġê³Ħìĭľ":8847,"ĠëĮĢíķ´ìĦł":8848,"ê±°ëŀĺ":8849,"Ġìĸ´ìĬ¤":8850,"Ġë¬´ëĦĪì§Ģ":8851,"Ġêµ°ë¶Ģ":8852,"ĠìĿĢê·¼íŀĪ":8853,"Ġíıīë¡łê°Ģ":8854,"Ġë°©íķĻ":8855,"Ġê°Ħíĺ¹":8856,"ĠìĻĦê³µ":8857,"Ġë²ķë¬´ë¶Ģ":8858,"ĠëĸłëĤľ":8859,"Ġê±°ìĦ¸":8860,"ĠìĹ°ìĪĺ":8861,"ëĿł":8862,"ĠêµĲìĦŃ":8863,"ŀŃ":8864,"Ġëĵ±ì§Ģ":8865,"Ġë¦¬ëĵľ":8866,"ĳĶ":8867,"Ġìĭ¸ìĿ´":8868,"Ġcat":8869,"ĠêµŃëıĦ":8870,"Ġìĺ¤ì§ģ":8871,"Ġì¹¨ë¬µ":8872,"ĠíķľëĳĲ":8873,"ĠìľłìĿ¸":8874,"Ġout":8875,"Ġê¸īëĿ½":8876,"Ġìľ¡ì²´":8877,"ê²ĮìļĶ":8878,"Ġëĭ¤ëĭĮ":8879,"ĠíĻįëĮĢ":8880,"ĠëĤ´ë³´":8881,"ĠëıĦë§Ŀì¹ĺ":8882,"Ġel":8883,"Ġì¡°ìľ¨":8884,"Ġdvd":8885,"ĠìĹħìłģ":8886,"ëİ":8887,"ĠíĮ¨íĤ¤ì§Ģ":8888,"Ġë§Īë¸Ķ":8889,"Ġì»¤ìĬ¤":8890,"ĠíĨµíĸī":8891,"ê³µíĻĶêµŃ":8892,"Ġgu":8893,"Ġì¹¨ìŀħ":8894,"Ġë¶Ģë¥¸":8895,"¡Ŀ":8896,"Ġì¶ľê·¼ê¸¸":8897,"Ġìĭ¸ìļ¸":8898,"ëĿ¼ëħ¸":8899,"ĠêµĲìľ¡ë¶Ģ":8900,"Ġê±¸ë¦´":8901,"ero":8902,"ĠìĹĲë¦¬":8903,"ĠìĭŃìĭľìĺ¤":8904,"ĠãĤ":8905,"ĠëıĻëªħ":8906,"ëħĦëıĦ":8907,"iver":8908,"ĠíĺĦíĸī":8909,"Ġwowtv":8910,"ëĶľ":8911,"ĠìĦ¸ìļ´":8912,"ĠìĿ¸íĶĮ":8913,"Ġë²ĮìĿ¸":8914,"ĠíĴĢìĿ´":8915,"ì½Ķëĵľ":8916,"Ġìŀ¥ë§Ľ":8917,"Ġì¤Ģìļ°":8918,"ìĭľëĭ¤":8919,"Ġ000":8920,"Ġíķľìļ°":8921,"Ġë¡ľë²ĦíĬ¸":8922,"irl":8923,"Ġì¤ĳêµŃìĸ´":8924,"Ġë¬´ëĿ¼":8925,"Ġëĭ´ê²¨":8926,"ĠìľĦë¡ľ":8927,"Ġì´Īë³´":8928,"Ġì´Īê³¼":8929,"Ġë³¼ëĦ·":8930,"ĠíĿīê¸°":8931,"ale":8932,"ĠìĿ´ë£¨ìĸ´ì§Ħ":8933,"ĠíķĺìĽĲ":8934,"ĠìĿĳê¸ī":8935,"Ġìłķê¸Ģ":8936,"Ġdlc":8937,"ĠíĪ´":8938,"ĠìĹ¬ê³ł":8939,"Ġë¬¼íĴĪ":8940,"Ġëł¤ëĭ¤":8941,"ĠëªħíĴĪ":8942,"Ġë¯¸ë¬ĺ":8943,"Ġì§ĦìłĦ":8944,"êµĲìľ¡":8945,"Ġê²½ë¶Ģ":8946,"Ġê²¨ëĥ¥":8947,"ì¼Ī":8948,"Ġìĭľì§Ħ":8949,"Ġë¬¼ëł¤":8950,"ĠìĨĮìļĶ":8951,"ë¯¸ëĭĪ":8952,"ĠìľłìĿ´":8953,"Ġëĭ¨ìĽĲ":8954,"Ġalign":8955,"ĠìľłìĦ±":8956,"Ġì£¼ìľłìĨĮ":8957,"Ġìĺ¬ëĿ¼ìĻĶ":8958,"ĠíĬ¸ìľ":8959,"ĠìĦ±ëĭ¹":8960,"Ġë°ľê¸ī":8961,"ĠíĮĢìĽĲ":8962,"Ġìĥģê°Ģ":8963,"ĠëĿ¼ìĿ´ìĺ¨":8964,"ĠìĤ¬ìĹħìŀĲ":8965,"ĠìĥĿëŀµ":8966,"ĠëĤ´ì§Ģ":8967,"Ġë§īì°¨":8968,"Ġì¡°ì¹´":8969,"ĠìĿ¸ìŀ¬":8970,"ĠíĬ¸ëłĪìĿ´ëĵľ":8971,"Ġê³ĦíĨµ":8972,"ìł¯":8973,"Ġë¬´ìĦŃ":8974,"ĠìĿ¸ë¯¼ê³µíĻĶêµŃ":8975,"ĠíķĺìĪĺìĿ¸":8976,"ìķĦìĬ¤":8977,"Ġìļ´ëıĻìŀ¥":8978,"ĠëĳĺëŁ¬ìĭ¸":8979,"ĨĲ":8980,"ĠìĪĺë¦½":8981,"Ġì§Ģê²½":8982,"Ġìŀ¬íĮĲë¶Ģ":8983,"Ġëªħì¤ĳë¥ł":8984,"ĠìĭŃìŀĲ":8985,"Ġê³Ħì¸µ":8986,"ĠìķĪíĥĢê¹Į":8987,"Ġì½Ķìļ°":8988,"ëħ¸ìļ°":8989,"Ġgood":8990,"Ġkor":8991,"az":8992,"ĠíĥĿë°°":8993,"Ġê°ľëŁī":8994,"Ġêµ°ìĪĺ":8995,"Ġë²ĦìĬ¤íĦ°":8996,"Ġíİ¸ìķĪ":8997,"ĠìłĪìłķ":8998,"Ġê³łëł¹":8999,"íķĻê·ľ":9000,"ĠìĭłìķĻ":9001,"Ġê³łìĿ¸":9002,"Ġkb":9003,"ence":9004,"Ġìŀ¥ëĤľê°Ĳ":9005,"Ġì¤ĳëıĦ":9006,"Ġë¬´ëįĶìľĦ":9007,"ĠëĤ¨ë§¤":9008,"ê°Ģìļ´":9009,"Ġíķ©ì²´":9010,"ĠëĤ´ìłĦ":9011,"ĠìłķìłĦ":9012,"Ġnot":9013,"Ġë°ĺì°¬":9014,"ĠëıĦìĭľëĿ½":9015,"ĠìłķíĻĶ":9016,"Ġëĥīìŀ¥":9017,"ĠìĮĪ":9018,"Ġë°©ìĨ¡êµŃ":9019,"Ġìĺ¤ìĿ´":9020,"Ġì¤ĳíĺķ":9021,"ical":9022,"ĠìĺģìĦľ":9023,"Ġê¸°ìķĦ":9024,"Ġë°°ìłķ":9025,"ĹĦ":9026,"ĠìĿµìĬ¤":9027,"Ġìŀ¥ë§Ľë¹Ħ":9028,"Ġë¬´ì£Ħ":9029,"ĠìķĦëģ¼":9030,"ë²łë¥´":9031,"Ġë°°ëł¤":9032,"enth":9033,"Ġë§ĪìĿ¸":9034,"ĠíŀĪë©Ķ":9035,"Ġì§Ģë¢°":9036,"ĠìŀħëĭĪê¹Į":9037,"Ġì§Ģë¥´":9038,"ìłĢíŀĪ":9039,"Ġìĸµìłľ":9040,"ank":9041,"ĠíĶ¼ë¡ľ":9042,"Ġë°Ķë¦¬":9043,"Ġthis":9044,"ĠìķĦìĿ´ìĬ¤íģ¬ë¦¼":9045,"Ġdm":9046,"ĠìĦŃì·¨":9047,"Ġê¸°ìŀ¥":9048,"ĠìĬĪíĮħ":9049,"Ġê¸°ìĦ¸":9050,"Ġë°ķì§ĢìĽĲ":9051,"íĻĺê²½":9052,"Ġêµ¬ìĤ¬":9053,"ĠìłĲìľł":9054,"Ġsf":9055,"tle":9056,"Ġê°Ħëĭ´íļĮ":9057,"ĠìĪ¨ê²¨ì§Ħ":9058,"Ġì¼Ģìĸ´":9059,"ìĬ¤íĭ°ë²Į":9060,"ĠìĹĦê²©":9061,"Ġêµ¬íĺ¸":9062,"ĠíİĺìĬ¤íĭ°ë²Į":9063,"Ġê·¸ëŀľëĵľ":9064,"ĠìĹ¬ìĿ¸":9065,"Ġëª¨ìķĺ":9066,"ĠíİĢì¹ĺ":9067,"ĠëĬĺëł¤":9068,"Ġë¹Ħì¹ĺ":9069,"ĠìłĢê·¸":9070,"Ġë²ĮëłĪ":9071,"ĠëıĻíķ´ìķĪ":9072,"Ġì£¼ìĹŃ":9073,"Ġì°½ë¬¸":9074,"ĠíĥĲìĤ¬":9075,"ĠëıĦëĿ¼":9076,"Ġ??":9077,"Ġå°":9078,"ĠìķĪìª½":9079,"ĠìĨĶì§ģíŀĪ":9080,"Ġì£¼ê´Ģ":9081,"ĠìķĦì¦Ī":9082,"Ġì»¤ë§¨ëĵľ":9083,"Ġë¸ĮëĿ¼ìļ´":9084,"ĪĦ":9085,"mer":9086,"ĠìŀħêµŃ":9087,"Ġë±ĥ":9088,"Ġì°¾ìķĦ":9089,"Ġìŀ¥ìĿ¸":9090,"ĠìĦ¸ìłľ":9091,"Ġì¶©ìĭ¤":9092,"ê³Ħë":9093,"Ġdc":9094,"Ġë¶ĵ":9095,"ãĢ":9096,"Ġlc":9097,"ĠíĽĦìĨįìŀĳ":9098,"ĠìĬ¬ë¡ľ":9099,"Ġë¡ľë§¨":9100,"Ġë²łë¥":9101,"Ġëĭ¤íģĲ":9102,"ĠëĭĪê¹ĮìļĶ":9103,"ĠëįĶëŁ¬":9104,"¯¸ë":9105,"ĠìĻ¸íĺķ":9106,"Ġë¹Įëĵľ":9107,"ìĸ´ëĵ¤":9108,"Ġì²Ńìķ½":9109,"Ġíľł":9110,"Ġë±ħíģ¬":9111,"ĠíķľêµŃìĿĢíĸī":9112,"Ġê±°ì¹ľ":9113,"ê³µìĹħ":9114,"Ġíı¬ëĵľ":9115,"Ġiii":9116,"ĠíĻĶíıĲ":9117,"Ġbor":9118,"ì¹´ìĿ´ëıĦ":9119,"xt":9120,"ĠìĿĺíķ´ìĦľ":9121,"ĠìķĦëĭĲê¹Į":9122,"Ġìľ¼ëĿ¼":9123,"ĠìĨĲíķĻê·ľ":9124,"ĠìĦľìĭĿ":9125,"Ġë¦¬ë¹ĦìķĦ":9126,"Ġê°Ģë²¼ìļ´":9127,"ĠìĬ¤íĶĦë§ģ":9128,"Ġì½ĶìĬ¤ëĭ¥":9129,"Ġë¶ĢíĮ¨":9130,"ĠìłľìŀĳìŀĲ":9131,"Ġä¹":9132,"ĠìĤ´ìķĦê°Ģ":9133,"Ġì§Ģì£¼":9134,"Ġì±ķ":9135,"ĠìŀĲìĻ¸ìĦł":9136,"ê³¼ë":9137,"Ġìĭľì§Ħíķĳ":9138,"ĠìĽĲìĪĺ":9139,"Ġê¸°íĺ¸":9140,"ĠëĽ°ìĸ´ëĦĺ":9141,"Ġê°ĳìŀĳìĬ¤":9142,"Ġëªħë°±":9143,"ĠìĿ´íĦ°":9144,"Ġëª°ëĿ¼ëıĦ":9145,"Ġç¾İ":9146,"ĠìĩĦìĭł":9147,"Ġëª«":9148,"Ġëª¨ìĬ¤íģ¬":9149,"ëĦ£":9150,"Ġë°ĺëł¤":9151,"Ġë¶Īì°¸":9152,"Ġåį":9153,"Ġìľłê°Ģì¡±":9154,"ìļ°ë¦¬":9155,"Ġì´Īì½ľë¦¿":9156,"ĠëıĮíĴį":9157,"Ġìį¨ë¨¹":9158,"ĠíĶĦë¦¬íģĲìĸ´":9159,"Ġëĭ¤ê³łìļĶ":9160,"íĬ¸ë§¨":9161,"ĠìĽĲì¡°":9162,"Ġíį¼ì§Ģ":9163,"ŃëĭĪëĭ¤":9164,"Ġë°ľìłĦìĨĮ":9165,"Ġå¯":9166,"Ġì¤ĳêµ¬":9167,"Ġë¿Ķ":9168,"íĤ·":9169,"±ħ":9170,"ĠíĪ¬ê¸°":9171,"Ġë¬¼ëŁ¬ëĤĺ":9172,"Ġìĸ´ë¦¬":9173,"Ġìĥģê¸ī":9174,"ĠëłĪìķĮ":9175,"ģëĭĪëĭ¤":9176,"Ġë²¨íĬ¸":9177,"Ġê°Īë¹Ħ":9178,"ĠìĦłìłľ":9179,"Ġìĭľê³µ":9180,"ĠìĦľê¸°":9181,"Ġsch":9182,"Ġì¹¨ëŀµ":9183,"ë°ķìĬ¤":9184,"Ġê¹Ģíķľ":9185,"Ġìµ¸":9186,"Ġë©ĶìĿ´ëĵľ":9187,"ĠìĦłëĳĲ":9188,"Ġê³łê¸°ìķķ":9189,"ĠêµŃìĤ°":9190,"ĠëĮĢëª©":9191,"Ġë°ĶëĤĺ":9192,"ĠìĿ´ëĵľ":9193,"ĠìĥĿê¸¸":9194,"ĠìĪĺìĥģìŀĲ":9195,"Ġëļľëł·":9196,"Ġìº£":9197,"Ġìłķë¬´":9198,"±±":9199,"Ġìļ´ìĨ¡":9200,"Ġìķ°":9201,"ĠíĿĶëĵ¤ë¦¬":9202,"Ġê°Ģì§Ī":9203,"Ġë³ĳìĹŃ":9204,"ĠìłľìŀĳìĤ¬":9205,"ĠëıĻìķĦ":9206,"ĠìĦłìĤ¬":9207,"Ġìĸ´ëĸ¨":9208,"ĠìłĦìĿ´":9209,"Ġë¶ĢëĵľëŁ½":9210,"ĠëĤ´ìĹŃ":9211,"ĠìĿ´ë¡Ģ":9212,"íĥĲ":9213,"Ġê´ľíŀĪ":9214,"ĠíĮĮìŀ¥":9215,"Ġë£¨ìĪĺ":9216,"ìłĢìĬ¤":9217,"Ġíķ©ê³Ħ":9218,"ĠíķĻëĮĢ":9219,"Ġë§ĲëłĪìĿ´ìĭľìķĦ":9220,"Ġëį°ëĵľ":9221,"Ġë¶Ģì²ľ":9222,"ê¼¼":9223,"Ġë¯¸ëĦ¤":9224,"ĠíĬ¹íĹĪ":9225,"Ġì¶ľêµŃ":9226,"ë°Ķëĭ¥":9227,"ĠêµĲìľ¡ê°Ĳ":9228,"ĨĢ":9229,"Ġìķħê¸°":9230,"Ġë³¸ì²´":9231,"Ġìĭľê¸ī":9232,"ĠíĻ©ëĭ¹":9233,"ĠìĦľìĦľíŀĪ":9234,"Ġì°¾ìķĦìĺ¨":9235,"kim":9236,"Ġíĺ¸ëŀĳìĿ´":9237,"ĠìĹĲëĭ¤ê°Ģ":9238,"ĠëĨĵì¹ĺ":9239,"Ġì§¬":9240,"ĠíĽĦíļĮ":9241,"ĠìĬ¤íħĮìĿ´íģ¬":9242,"Ġìĺ¤ë¥¼":9243,"Ġìĺģì£¼":9244,"Ġì½ĶíĬ¸":9245,"ĠìĬ¤íİĺìĿ´ìĬ¤":9246,"Ġä¸Ń":9247,"ĠëıĦëįķ":9248,"ĠíļĮìĥģ":9249,"Ġì¨":9250,"ĠìĦ¸ìĿ¼":9251,"Ġë§Īìĭł":9252,"Ġëĭ¹ëĭ¹":9253,"ase":9254,"ĠíĽĦìŀĦ":9255,"Ġuef":9256,"ĠìĦ¸íĥģ":9257,"ĠëĤĺë¦¬":9258,"ĠëĤľìĤ¬":9259,"ĠíŀĮ":9260,"Ġê»į":9261,"ĠíĺĲìĺ¤":9262,"ĠìĦłë³´ìĺĢ":9263,"ĠíĬ¸ëŀľìĬ¤":9264,"Ġê¶Įê³ł":9265,"{{":9266,"Ġë¶ģìĥģ":9267,"Ġê±¸ìĿĮ":9268,"Ġì¹´ìĺ¤ìĬ¤":9269,"ìĳ":9270,"Ġë¯¸ì¦Ī":9271,"ĠëĮĢíı¬":9272,"Ġíķĺëĭ¨":9273,"ĠëĬĶì§ĢëĿ¼":9274,"Ġì±ķíĦ°":9275,"amp":9276,"Ġstr":9277,"Ġë²ļê½ĥ":9278,"ìķŀ":9279,"ë§¤ë§¤":9280,"ĠíĦ°ìł¸":9281,"ìĸĦ":9282,"ì¹´ë¦¬":9283,"ĠìĬ¤ì¿¨":9284,"Ġë°°ìĪĺ":9285,"ĠìĹ¬íķĻìĥĿ":9286,"fe":9287,"Ġì¤ĳëŁī":9288,"Ġê¸°ì¡°":9289,"ĠìłķíĨµ":9290,"ĠíĬ¹ìľĦ":9291,"Ġíķ´ì¹ĺ":9292,"ĠìĦłíĮĶ":9293,"ĠíĹĪëĿ½":9294,"Ġâĸ·":9295,"ĠìĿ¼ê¹Į":9296,"ĠíĮģ":9297,"oon":9298,"Ġíķ´ë³ĳëĮĢ":9299,"Ġ.\"":9300,"Ġê°ľìĪĺ":9301,"ĠíĤ¤ì¦Ī":9302,"ĠëĿ¼ê¸°":9303,"Ġint":9304,"ĠìłĦìĹ":9305,"ê°Ģì¡±":9306,"Ġì¶ĶìĽĮ":9307,"ĠíĬ¹ìłĦ":9308,"Ġë¯¸ëģ":9309,"ĠëĶĶì¦Ī":9310,"Ġê¸°ìĤ¬ëĭ¨":9311,"Ġë¯¼ìłķ":9312,"ìĬ¬ëŁ¬":9313,"Ġëĭ¬ëĿ¼ì§Ģ":9314,"ĠìłĦë¬´":9315,"ĠëĶ°ëĿ¼ê°Ģ":9316,"Ġì§ĪìĦľ":9317,"Ġê¹ĢíĺĦ":9318,"Ġì£Ħëĭ¤":9319,"Ġoc":9320,"ë¬¸ë":9321,"Ġkbo":9322,"ĠìŀħëĮĢ":9323,"ĠìĽĮíģ¬":9324,"Ġì§Ģì¶ľ":9325,"ĠëĮĢê²Ģ":9326,"Ġì¿¡":9327,"Ġgd":9328,"ction":9329,"ĠëĮĢìĻ¸":9330,"Ġì§Ģë¶Ī":9331,"ĠìķĦìĿ´ì½ĺ":9332,"Ġê²¹ì¹ĺ":9333,"Ġì¡´ì¤ĳ":9334,"ëĵĪ":9335,"Ġë»Ĺ":9336,"Ġì§ĢìŀĲì²´":9337,"Ġvol":9338,"Ġìķ¼ì±Ħ":9339,"ĠíĤ¤ìĽĮ":9340,"ĠìĿ¸ì§ĢëıĦ":9341,"ĠìľłëĭĪíı¼":9342,"Ġtime":9343,"Ġê°Īë¦¬":9344,"Ġë§Īëĭ¹":9345,"Ġì¡´ê²½":9346,"Ġìĭłíĺ¼":9347,"Ġì§ģë¬´":9348,"ĠìĬ¤íĭ¸":9349,"ĠìĤ¬ë©´":9350,"ĠìĪĻìĨĮ":9351,"Ġì¹´ì¸ł":9352,"íķĺëĤĺ":9353,"Ġë°Ķê¿Ģ":9354,"ĠìĹĦì":9355,"ĠìĪĺëªħ":9356,"Ġ18":9357,"Ġê¸°ìĪĻìĤ¬":9358,"ĠìĬ¤ë¦¬":9359,"Ġìŀ¥ë³ĳ":9360,"ĠìĦłíĸī":9361,"Ġë¯¸ë£¨":9362,"íĪ¬ìĬ¤":9363,"ĠëıĻê²°":9364,"ĠìĿ¼ìĤ°":9365,"ĠëĭĪìĬ¤":9366,"Ġìĭ¤ìĤ¬":9367,"íĭ°ìĬ¤":9368,"ĠìĿ´ìĦĿ":9369,"Ġë¹ĦíĥĢë¯¼":9370,"ìĬ¤íĤ¤":9371,"íĥĢìļ´":9372,"Ġìŀĥìĸ´ë²Ħ":9373,"Ġê°Ħìĭł":9374,"ĠìĦłë³´ìĿ´":9375,"ĠíĹ¤ë¹Ħ":9376,"ĠëĦĪíĿ¬":9377,"Ġë§Īëĵľë¦¬":9378,"ë´¤":9379,"Ġìļ°ìĦ¸":9380,"ĠìĿ´ìľ¤":9381,"Ġì¿łë¦¬":9382,"play":9383,"Ġê³łê³ł":9384,"ĠíĨµë¡ľ":9385,"ĠìĦ¤ë¹Ħ":9386,"ĠìĿ¸ê²©":9387,"Ġæĺ":9388,"Ġìĸ¸ëįĶ":9389,"Ġìĥģëĭ¨":9390,"ĠìĪ¨ê¸°":9391,"Ġë¬´ë°©":9392,"Ġì°©íķľ":9393,"ìĸ´ë§Ī":9394,"íķĺë§Ī":9395,"Ġë¸ĮëłĪ":9396,"ĠëĮĲ":9397,"Ġdd":9398,"ĠìĿ´ìĸ´ì§Ħ":9399,"Ġë°ĺëıĦì²´":9400,"Ġë§Ŀì¹ĺ":9401,"ìĪŃìĿ´":9402,"ĠíĬ¹ë³ĦíŀĪ":9403,"ĠìĽĮíĦ°":9404,"Ġê·¹ìĭ¬":9405,"Ġë¯¹ìĬ¤":9406,"ĠíĽĹëĤł":9407,"ĠìĹ°íĥĢ":9408,"Ġuefa":9409,"Ġæ´":9410,"Ġë¶Ģì°©":9411,"Ġìıľ":9412,"Ġíķĺê³Ħ":9413,"Ĭĺ":9414,"ĠíģĲë¸Į":9415,"Ġì£½ìĿ¸":9416,"Ġê³łêµ¬ëł¤":9417,"Ġë§Īëĵľë¦¬ëĵľ":9418,"Ġêµ¬íķł":9419,"ìľłëŁ½":9420,"ĠìĹ°ìĬ¹":9421,"ĠìĿ´ìĭĿ":9422,"llow":9423,"Ġë¬´ìĦł":9424,"chosun":9425,"§ŀ":9426,"Ġíı´ë¦¬":9427,"Ġtvchosun":9428,"¼Ģ":9429,"ëĳĺëŁ¬":9430,"Ġë¶ĪíĥĢ":9431,"ĠíĥĢê²°":9432,"íĥĦë":9433,"Ġì½ľëĿ¼":9434,"Ġìŀİ":9435,"Ġìĸ´ë§Īìĸ´ë§Ī":9436,"Ġì¶©ì²ŃëĤ¨ëıĦ":9437,"Ġìº¡íĭ´":9438,"Ġíľ´ëĮĢíı°":9439,"Ġíİ¸ë¦¬":9440,"ĠíĬ¹ìĤ¬":9441,"ìĦ¸íı¬":9442,"Ġìĥģê´ĢìĹĨ":9443,"ĠëģĬìŀ":9444,"Ġê¹ĢíĿ¬":9445,"Ġì¡°íķŃ":9446,"ëĶĶìķĦ":9447,"Ġíķĺì°¨":9448,"¹´":9449,"Ġì©":9450,"ĠíŀĪëį°":9451,"Ð½":9452,"Ġê³łìĤ¬":9453,"Ġëª»ì§Ģ":9454,"Ġìĭľì¼ľìĦľ":9455,"Ġêµ¬ìĽĮ":9456,"ĠíĽĦë°©":9457,"Ġì¦ĿìĦ¸":9458,"Ġíģ´ë¦°íĦ´":9459,"Ġì«Ħ":9460,"ĠëıĻíĸī":9461,"Ġë³´íĺ¸ë":9462,"Ġìĸ¸ìłłê°Ģ":9463,"ĠåĲ":9464,"ĠìłĦìĭľíļĮ":9465,"Ġêµ¬ìĬ¬":9466,"Ġíĸīìļ´":9467,"Ġê±°ìĿ¸":9468,"ĠëıĻì°¸":9469,"ĠëıĶ":9470,"Ġê±į":9471,"Ġë¹Ħë¹":9472,"ĠíķŃêµ¬":9473,"ĠìĭĿë¯¼ì§Ģ":9474,"íŀĺ":9475,"Ġìłģêµ°":9476,"ë²łìĿ´":9477,"ĠìłĦë³µ":9478,"Ġíķ´ê³ł":9479,"ĠíĶ¼ìķĦ":9480,"Ġë¬´ìŀĳ":9481,"Ġjcont":9482,"enthub":9483,"Ġjcontenthub":9484,"Ġê°ķì§Ħ":9485,"Ġìŀħë§Ľ":9486,"Ġskt":9487,"ĠìĤ¬ìĹ°":9488,"ê²¹ìĤ´":9489,"íĶĦë¦¬ì¹´":9490,"Ġë³´ì¶©":9491,"Ġê³µë¦½":9492,"íĥ±":9493,"ĠíĮ¬ëį¤":9494,"ëĶ§":9495,"ĠëĬĲê¼Ī":9496,"Ġë¬´ìĤ¬íŀĪ":9497,"Ġê¹ĢëıĦ":9498,"Ġë§¤ë²Ī":9499,"ĠíĶ¼íĬ¸":9500,"Ġpar":9501,"ê°Ģë¯¸":9502,"Ġìĸ´ëĵľ":9503,"ĠìĬ¤ëŁ¬ìĽĮ":9504,"ë¦¬ìķĪ":9505,"ĠçĶ":9506,"ĠíŀĪìĸ´ë¡ľì¦Ī":9507,"Ġíı¬ìĪĺ":9508,"Ġê±°ë¯¸":9509,"Ġì½ĶëłĪ":9510,"ĠìĹĲë¥´":9511,"ì£¼êµĲ":9512,"ĠíĥĲì§Ģ":9513,"ìķĦì°¨":9514,"Ġê³¼íķĻìŀĲ":9515,"Ġì¦Ĳê±°ìļ´":9516,"Ġë¶Īê¸¸":9517,"Ġê³łìĬ¤íĬ¸":9518,"Ġìĺ¤íĨłë°ĶìĿ´":9519,"ìŀĩ":9520,"ĠìĤ¬ìĤ´":9521,"Ġëĭ¤ëħĶ":9522,"ì¹´ìĿ´":9523,"ì½ĶíĨł":9524,"Ġìľłê°Ĳ":9525,"ĠëĤ®ì¶Ķ":9526,"ĠìĤ¼ê²¹ìĤ´":9527,"Ġë°ľëłĪ":9528,"Ġê¸°ëĭ¤ë¦½ëĭĪëĭ¤":9529,"ĠìĹ¬ê±´":9530,"ĠêµŃìĦ¸ì²Ń":9531,"Ġsun":9532,"Ġìŀħìĭľ":9533,"ìŁģìĿ´":9534,"Ġê³łìŀĳ":9535,"Ġë°°ìĨ¡":9536,"Ġoff":9537,"Ġìłľë°ľ":9538,"Ġëĭ¤ìĿ´ìķĦë":9539,"Ġìŀ¬íĮĲìĨĮ":9540,"ĠíĬ¹ê¸ī":9541,"Ġ\"\"":9542,"ĠíĶĦëłĮ":9543,"ĠìĿ´íĨł":9544,"ĠìĸĢ":9545,"Ġë¨¸ëĭĪ":9546,"ĠíļĮê³Ħ":9547,"Ġíĺ¸ìľĦ":9548,"Ġíķ´ìļ´ëĮĢ":9549,"Ġê±´ëį°ìļĶ":9550,"Ġ^":9551,"Ġëĵľë£¨":9552,"row":9553,"Ġì§ĢìĹŃêµ¬":9554,"Ġì°©ë¥Ļ":9555,"ĠíĥĦë":9556,"Ġì£¼ëĳĶ":9557,"Ġìĭľíķľ":9558,"Ġë²ĦíĦ°":9559,"Ġê³łìĦ±":9560,"ize":9561,"Ġê³µìļ©":9562,"Ġíķ´ëĿ¼":9563,"Ġë³¸ìŀĳ":9564,"ĠìĿ´ìĨĮ":9565,"ĠíĿ©":9566,"Ġê±´ê°ĢìļĶ":9567,"Ġíķľì¸µ":9568,"Ġìĸ¸ëįķ":9569,"Ġì½ľëĿ¼ë³´":9570,"Ġì´Ŀê´Ħ":9571,"Ġìĸ´ë¢°":9572,"ĠêµĲíĨł":9573,"ĠìĿ¼ê²©":9574,"Ġê°ĲìĤ¬ìĽĲ":9575,"ĠìĬ¤ìºĶ":9576,"ĠíĮĮëıĻ":9577,"Ġë§¤ìŀħ":9578,"ĠëĤĺëĵ¤":9579,"Ġì£¼ë°©":9580,"Ġê´´ìĪĺ":9581,"íĽĦë":9582,"ĠëıĦëĦĲëĵľ":9583,"Ġìĸµìļ¸":9584,"Ġìłķì°¨":9585,"ì²ľêµ°":9586,"ìĸ¸ìĬ¤":9587,"ĠíİĺìĿ´ì¦Ī":9588,"Ġì§Ģíĸ¥":9589,"ĠìĹ´ë§¤":9590,"ĠëĤĺëĵ¤ëª©":9591,"ĠìķĦíĶĪ":9592,"ĠíĿ°ìĥī":9593,"ëĤĺì¹´":9594,"cl":9595,"ëŀį":9596,"Ġê°ķëıĻ":9597,"Ġê³µì¡°":9598,"ìĸ´ì¡Į":9599,"ĠíĨłíģ¬":9600,"ĠìłĦìĦ±ê¸°":9601,"ĠìłľìĿĺ":9602,"ìĿ´íĮħ":9603,"Ġcpu":9604,"Ġë¹Ħìłķê·ľ":9605,"ĠìĦľì´Ī":9606,"Ġë¸ĮëĿ¼ë":9607,"uk":9608,"ë®¬":9609,"ĠíĹĪëĤĺ":9610,"Ġå¥³":9611,"êº¼ë²Ī":9612,"Ġíķľêº¼ë²Ī":9613,"Ġíķľêº¼ë²ĪìĹĲ":9614,"ĠíĻĶìĥģ":9615,"Ġë°ĺê¸°ë¬¸":9616,"ĠíĥĦëıĦ":9617,"íĿĶ":9618,"íĬĢ":9619,"Ġê°ģë³Ħ":9620,"Ġë§ĮìĿ¼":9621,"Ġline":9622,"ĠìĿ´ìĸ´ìł¸":9623,"ĠìĺĪìĭľ":9624,"ĠíĺĳìĿĺíļĮ":9625,"ĠìŀĲë¥´":9626,"oul":9627,"íĥĢìĿ´":9628,"Ġì¢ħìłĦ":9629,"Ġë¿Įëł¤":9630,"ĠìŃ":9631,"Ġcs":9632,"ëĤ©ëĭĪëĭ¤":9633,"Ġwill":9634,"ëįĶìĬ¤":9635,"ĠìĦłìĦł":9636,"Ġíģ¬ëłĪ":9637,"ĠëĭĪì½ľ":9638,"Ġì»¤ìĦľ":9639,"Ġê³µë°±":9640,"ĠíĴĭ":9641,"ĠìĬµê´Ģ":9642,"ĠëģĮìĸ´ìĺ¬":9643,"ĠìĪĺë¥ĺ":9644,"Ġê¸°ìļ©":9645,"Ġê²½ë§¤":9646,"ĠìĬ¤ëª¨":9647,"ë¨¼ìĬ¤":9648,"Ġë§Īë¦°":9649,"Ġë°©ìĤ¬ëĬ¥":9650,"ĠìºĲëħ¼":9651,"ĠëıĻêµ¬":9652,"Ġê¹Ģê´ĳ":9653,"Ġì£½ìĿ¼":9654,"Ġì¡°êµŃ":9655,"Ġê¸°ì°¨":9656,"ĠíĽĦìĨĲ":9657,"Ġë°±ìĿ¸":9658,"Ġíĳ¹":9659,"ĠìķĦë¬´íĬ¼":9660,"ëĸ¡":9661,"ë²łë¦¬":9662,"Ġê¹Ģëªħ":9663,"Ġëª°ëĿ½":9664,"Ġíķĺë§Ī":9665,"ìŀĲì¹ĺ":9666,"Ġë¹Ħì¦Ī":9667,"ĠìĻĵ":9668,"ê·¸ë§Ī":9669,"íĮ¡ìĿ´":9670,"ĠëĶĶìł¤":9671,"Ġìļ°ìĤ°":9672,"Ġë´ĲìļĶ":9673,"Ġ{{{":9674,"ĠíķĻíļĮ":9675,"ìłĢê¸°":9676,"Ġíľ´ê²Į":9677,"ĠìķĪíĥĢê¹Ŀ":9678,"Ġëĭ¬ì½¤":9679,"Ġëħ¸íĬ¸ë":9680,"ĠìĿ´ëĮĢ":9681,"ĠìĤ°íĥĢ":9682,"Ġê³łë¦½":9683,"Ġê´ĳëªħ":9684,"Ġëĭ¤ìĿ´ìķĦëª¬ëĵľ":9685,"ĠìĪĺìĤ°":9686,"Ġë§¡ê¸°":9687,"Ġë°±ìĦ±":9688,"Ġff":9689,"ĠìļĶê±´":9690,"Ġì¤ĳìŀ¬":9691,"Ġcenter":9692,"ĠìķĦíħĮ":9693,"ë³ķ":9694,"Ġìĸ´ëĶĺ":9695,"Ġì£¼ë¦":9696,"line":9697,"Ġë¯¸ìĪłê´Ģ":9698,"Ġë¯¸íĤ¤":9699,"ĠìĤ¬ë¡ľ":9700,"ĠìĹ°íķ©êµ°":9701,"ĠëĤ´ëĨ¨":9702,"ĠëĤ´ëł¤ì§Ħ":9703,"ĠëĨįì´Į":9704,"Ġë§ĪëĬĺ":9705,"Ġëį°ìĿ´ë¹Ħëĵľ":9706,"Ġíķ´ìŀĦ":9707,"Ġê³łìĬ¤":9708,"Ġê°ĢëĶĶ":9709,"Ġë£¨ì¹´":9710,"ĠìĤ¬ë¦¬":9711,"ĠìĨĮëĭĪ":9712,"Ġos":9713,"ê¸°ìĹĲ":9714,"ĠìĹŃëŁī":9715,"ĠìĹ¬ê¸°ìłĢê¸°":9716,"ìļ´ìłĦ":9717,"Ġê¸ĪíĴĪ":9718,"bm":9719,"ĠìĬ¤ëŁ°":9720,"ĠìłĢì§Ģë¥¸":9721,"Ġ..'":9722,"Ġê³łê°Ģ":9723,"ĠìķĦëĥĲ":9724,"Ġíı¬íĨł":9725,"Ġëį´ë§Īíģ¬":9726,"Ġìĸ´ëĳĲìļ´":9727,"ĠíĴĪëª©":9728,"¥¨":9729,"Ġëªħëª©":9730,"ĠìĮĵìĿ´":9731,"ear":9732,"Ġë¶ĢìŀĦ":9733,"ĠíıŃìĬ¤":9734,"Ġìŀħê±´":9735,"Ġê°ģìĺ¤":9736,"ull":9737,"Ġë¹Ħìłķê·ľì§ģ":9738,"Ġë³¸ê´Ģ":9739,"Ġëª¨ëħ¸":9740,"ĠìĿ´ë¤Ħì¡Į":9741,"Ġíĸīìłķë¶Ģ":9742,"íİĺëĿ¼":9743,"ĠìħĢì¹´":9744,"out":9745,"ë³¸ë":9746,"ĦìĹŃ":9747,"Ġê¼½íŀĪ":9748,"ĠìĥģìĦ±":9749,"Ġê²¬íķ´":9750,"Ġê°ĢìĿ´ëĵľ":9751,"ìĺ¨ëĭ¤":9752,"ĠìĤ°ë¶Ī":9753,"Ľ¸":9754,"¬¼ë":9755,"ìķĦìĿ´":9756,"ĠìŀĲìĿ´ìĸ¸ì¸ł":9757,"Ġë°©ìĨ¡ìĤ¬":9758,"ìļĶìĭľ":9759,"ĠëĮĢì§Ģì§Ħ":9760,"Ġìĭ¤ì¢ħìŀĲ":9761,"ĠìĹ°ìĿ¼":9762,"Ġë¯¸ì§Ģ":9763,"Ġever":9764,"Ġê¼¼ê¼¼":9765,"Ġì²«ì§¸":9766,"Ġë§Īìļ°ìĬ¤":9767,"Ġê³łë¬´":9768,"ĠìľĦì¡°":9769,"Ġê±¸ë":9770,"ĠìĪĺë¥ĺíĥĦ":9771,"Ġë³ĢíĻĺ":9772,"Ġíĺķìĥģ":9773,"ì§±":9774,"ĠìĦ±ìĭ¤":9775,"Ġë°ķìĽĲìĪľ":9776,"ëĿ¼ìĿ´ìĸ¸":9777,"ĠìĬ¤íĮĢ":9778,"ĠíĨłëĭĪ":9779,"Ġì°Įë¥´":9780,"ĠìŀĲë¬¸":9781,"Ġktx":9782,"Ġë§īëĤ´":9783,"ĠìĿ´ë£¨ìĸ´ìł¸":9784,"âĹĭ":9785,"ìĭľê°Ħ":9786,"Ġì¦ĿíıŃ":9787,"Ġê°Ħì§Ģ":9788,"ĠìĬ¹ì°¨":9789,"ĠëĤĺë¹ł":9790,"Ġìłķëª½":9791,"Ġìħľ":9792,"ĠìĤ¬ëªħ":9793,"ĠëĤ¨ìĸĳ":9794,"ĠíĥĢìĿ´ìĸ´":9795,"Ġë©´ìłľ":9796,"ê·¸ëŀĺ":9797,"Ġíķµë¬´ê¸°":9798,"ĠìłľíĬ¸":9799,"Ġradi":9800,"ĠëĤĺê°Ħëĭ¤":9801,"Ġë¬¼ì²´":9802,"¶ķ":9803,"ĠìĿ¼ê´Ģ":9804,"ĠìĨĮìľłìŀĲ":9805,"ĠëĿ¼ìĿ¸ìĹħ":9806,"ĠëĵľëŁ¼":9807,"Ġê´ĳë³µ":9808,"ìĸĳíķ¨":9809,"ĠëıĦëĮĢ":9810,"ĠìĿ´íĺ¸":9811,"Ġì£¼íı¬":9812,"ĠìľłìĹ°":9813,"Ġì´Īê°Ħ":9814,"ĠìĨĲìŀĲ":9815,"Ġë°±ìłľ":9816,"Ġìķ¡íĭ°ë¸Į":9817,"ĠëĤĺìĬ¤":9818,"ĠìĨĮëĿ¼":9819,"Ġred":9820,"Ġì¤Ģìļ°ìĬ¹":9821,"íĭ°ìķĦ":9822,"Ġì¦Ĳê²ģ":9823,"ÑĢ":9824,"ĠëĵľëłĪìĬ¤":9825,"Ġë§ĪìĤ°":9826,"ĠìĹ°ìĦ¸ëĮĢ":9827,"ìħĭ":9828,"Ġìł¤ë¦¬":9829,"ë´Ĳìķ¼":9830,"ë¡ľëĶĶ":9831,"pt":9832,"ĠìĿ´ìĤ°ê°Ģì¡±":9833,"Ġì¤Ģê³µ":9834,"ëĨĪ":9835,"ĠìĿ´ìĿ¸":9836,"ìĹī":9837,"ĠìĤ¼ê°ģ":9838,"Ġëª¨ì¡°ë¦¬":9839,"Ġë£¨ìĿ´ìĬ¤":9840,"Ġê³µìĤ°ëĭ¹":9841,"Ġìĸ´ì§Ģê°Ħ":9842,"Ġmod":9843,"Ġê¹Ģíĺľ":9844,"ĠêµŃë¬´ë¶Ģ":9845,"Ġë¶ĪìĤ¬":9846,"ĠëıĦëģ¼":9847,"ĠíĥĦëł¥":9848,"Ġãĥ»":9849,"Ġë²łë¥¼ë¦°":9850,"ìł¤ëłĪìĬ¤":9851,"ĠìŀĲíıŃ":9852,"Ġty":9853,"ĠìĦľíı¬íĦ°":9854,"Ġdon":9855,"Ġíģ¬ë¦¬ìĬ¤íĥĪ":9856,"Ġìĭ¸ìĽĮ":9857,"Ġì´ĿìķĮ":9858,"ĠíĬķ":9859,"Ġíķ´ë³Ģ":9860,"ë©ľ":9861,"Ġì¹ľíĻĺê²½":9862,"Ġì¹Ńíĺ¸":9863,"ky":9864,"Ġìĸ¸ìĬ¤":9865,"ĠìĹ¬ìĦ¯":9866,"Ġëªħë¶Ħ":9867,"Ġëĭ¤ë¦ĦìĹĨ":9868,"ĠìľĮë¦¬ìĹĦ":9869,"Ġë©Īì¶°":9870,"ĠìĬ¹ìŀĲ":9871,"ĠëĤ´ëł¤ì¡Į":9872,"ĠëĤĺë§Ī":9873,"ĠìĺĪìĸ¸":9874,"Ġì§ĦëıĦ":9875,"Ġê³µìĦ±":9876,"ĠæĹ":9877,"ĠíĥĢìľ¨":9878,"Ġê°Ģë§ĮíŀĪ":9879,"Ġë¯¸ìļ©":9880,"ëĭŃ":9881,"Ġì¡°íĻĶ":9882,"Ġìĭ¬ìĥģ":9883,"Ġë¶Ģë¥¼":9884,"Ġíķĺìķ¼":9885,"Ġìĩ¼íķĳëª°":9886,"ĠìĹ°íĮ¨":9887,"Ġgirl":9888,"Ġê°Ģê¹ĮìĽĮ":9889,"ĠíĽĦíĩ´":9890,"Ġê³Ħìĭł":9891,"ĠíħĮëĿ¼":9892,"ĠëĵľëŁ¬ëĥĪ":9893,"ĠëĮĢìĦ¸":9894,"ìĤ¬íĥľ":9895,"ìĤ¬ìĬ¤":9896,"ĠìĺĪê¸Ī":9897,"Ġì°¨ìĿ´ìłĲ":9898,"ë²ħ":9899,"Ġë§īíŀĪ":9900,"Ġë¦¬ëª¨":9901,"Ġboard":9902,"Ġì¤ĳìłĲ":9903,"ë²łìĬ¤":9904,"Ġê¹ĢìĿ¼ìĦ±":9905,"are":9906,"Ġì£¼ê±°":9907,"Ġì§Ģë¶ķ":9908,"Ġêµ°ëį°":9909,"Ġê¸°ìĥĿ":9910,"Ġíĸīë°©":9911,"Ġì»¤ë¦¬ìĸ´":9912,"Ġìļ°ìĹĲ":9913,"Ġíį¼íı¬":9914,"Ġì§ĢìĦł":9915,"Ġíķľëį°ìļĶ":9916,"Ġíį¼íı¬ë¨¼ìĬ¤":9917,"Ġê¹Ģì£¼":9918,"ĠíĮĮë¥´":9919,"Ġë©´ëĭ´":9920,"ìħĶëĦĲ":9921,"Ġtra":9922,"íīģ":9923,"Ġfont":9924,"íĮ©íĬ¸":9925,"Ġë©ĶìĿ¼":9926,"Ġê³µìĬµ":9927,"ë¬¸íĻĶ":9928,"Ġê¸°ëĳ¥":9929,"ĠíıŃë¡ľ":9930,"Ġì¤ĳìŀ¥":9931,"ĠìĹ¼ëĳĲ":9932,"ĠëĨĴìĹ¬":9933,"Ġì£¼ì¶¤":9934,"ĠìĪľì²ľ":9935,"Ġêµ¬ìłľìĹŃ":9936,"ĠìĬ¹ì§Ħ":9937,"aby":9938,"Ġì´Īë°¥":9939,"Ġë¶Ģìĸĳ":9940,"Ġíķłê¹ĮìļĶ":9941,"Ġìļ°íļĮ":9942,"Ġìľłíĺ¹":9943,"Ġblack":9944,"Ġëĭ¹ìĦłìŀĲ":9945,"ìĥĿíĻľ":9946,"Ġëįĺê°Ģ":9947,"Ġë³µìĤ¬":9948,"ĠìķĦì¼Ģ":9949,"ê²ĮìĿ´":9950,"ìĿĦë":9951,"co":9952,"Ġíķľì¤ĳ":9953,"Ġìķ¨ë¦¬ìĬ¤":9954,"Ġê°ĦìĭłíŀĪ":9955,"ĠìĻ¸ìłĦ":9956,"Ġê³¡ëªħ":9957,"ĠíĥľìĦ¸":9958,"ìĻĢìĦľ":9959,"ĠëĶĶìŀĲìĿ´ëĦĪ":9960,"Ġcn":9961,"¦°":9962,"Ġìļ±":9963,"ĠìĤ¬ìļ°ëĶĶ":9964,"ĠìĹ¬ê°Ŀê¸°":9965,"ĠìķĪëıĻ":9966,"Ġê°ķìĪĺ":9967,"ĠëıħìłĲ":9968,"ĠíĨłë§ĪíĨł":9969,"ìŀĸ":9970,"ĠíĻķìĭł":9971,"ĠìĿ¼ìľ¼ì¼ľ":9972,"ĨĪ":9973,"ĠìĬ¹ë¥ł":9974,"ĠíĥĦì°½":9975,"Ġë³¸íļĮìĿĺ":9976,"ĠíļĮê´Ģ":9977,"ĠíĽĦê³ĦìŀĲ":9978,"ĠìķĦìĿ¸":9979,"Ġbm":9980,"ĠíĤ¤ë¡ľ":9981,"ĠìļĶìķ½":9982,"íħĮë¥´":9983,"Ġë¥ľ":9984,"Ġì½ĶëĤľ":9985,"Ġëĥīìŀ¥ê³ł":9986,"ĠëĤ©íĴĪ":9987,"ĠëĮĢëĭ¨íŀĪ":9988,"Ġëĵľë¡ł":9989,"Ġì½ľë¡ľ":9990,"ĠëıĦëĮĢì²´":9991,"ĠìłĦëĳĲ":9992,"íĤ¤ìķĦ":9993,"hy":9994,"Ġì²«ì°¨":9995,"ĠìĿ¼ëŀĮ":9996,"Ġì¹ĺìļ°":9997,"ìľĦë":9998,"ĠìĶĮ":9999,"Ġì¹´ëłĪ":10000,"ĠíĻĶíķ´":10001,"Ġê°Ģë¦¬íĤ¤":10002,"Ġê°ľìĭł":10003,"Ġê³Ħê³¡":10004,"Ġíĥľìļ°":10005,"ĠìĭłìĥĿ":10006,"ëĿ¼ëĵľ":10007,"Ġíĳ¼":10008,"ĠëĤĺíı´":10009,"ĠëĿ¼íĭ´":10010,"Ġìķħëĭ¹":10011,"ìľ¼ë¡ľ":10012,"ĠëĤĻíķĺ":10013,"Ġìĸĳë³´":10014,"ĠéĿ":10015,"Ġìĭ¤ì²´":10016,"Ġ}}}":10017,"íĶĦì":10018,"Ġë°°ê¸ī":10019,"ĠíĬ¸ëĿ¼ìĿ´":10020,"ĠíĬ¸ëłĮ":10021,"Ġê·¼ëĮĢ":10022,"Ġê´Ģë¦¬ìŀĲ":10023,"Ġê²©ëł¤":10024,"Ġext":10025,"ĠëıĻíĸ¥":10026,"Ġì´Ŀëł¥":10027,"Ġê°Ģì£½":10028,"ëĭ¨ì²´":10029,"ĠíĶĮëŀĺìĭľ":10030,"Ġìĭ¤ë¦¬":10031,"Ġëª¨ìĭľ":10032,"Ġìĺģëĵ±":10033,"ì¹´ëĿ½":10034,"Ġë°ķìłķíĿ¬":10035,"Ġê±°ë¶ģ":10036,"Ġì´Īëĵ±íķĻìĥĿ":10037,"ĠìĥģìĤ¬":10038,"ĠìĭľëĦĪì§Ģ":10039,"ìĹ£":10040,"Ġê°Ħëĭ¨íŀĪ":10041,"ë²³":10042,"Ġë¨¸ë¦¬ì¹´ëĿ½":10043,"ìļķìŀ¥":10044,"ĠìĹ´ëł¤":10045,"Ġë§ĪìĿ´ëĦĪ":10046,"Ġdog":10047,"Ġê±°íĴĪ":10048,"ĠìĬ¤íĨłìĸ´":10049,"ë°Ķëĭ¤":10050,"Ġë²ķì¹Ļ":10051,"Ġif":10052,"ĠíĽĦì¿łìĭľë§Ī":10053,"Ġëª¨ìĿĢ":10054,"Ġë¹Ħê·¹":10055,"ĠìĺĪìĿĺ":10056,"Ġë¬¼ìĸ´":10057,"Ġëĵ±ìĤ°":10058,"ĠìĹ´ëĮĢ":10059,"ĠíĻĭ":10060,"Ġìĺ¤íĶ¼ìĬ¤":10061,"Ġìĺ¤ìĿ¼":10062,"Ġì¦Ŀìĺ¤":10063,"Ġå·":10064,"Ġì¶ľê°Ħ":10065,"Ġì§ĳì°©":10066,"ĠëĶĶì§Ģëª¬":10067,"ĠìĦ¸ë¬´":10068,"ĠëĳĺëŁ¬ë³´":10069,"ĠëĤĺëĤĺ":10070,"ĠìĪĺê°Ĳ":10071,"ĠìłĦë©¸":10072,"Ġì§ł":10073,"Ġëħ¸íķĺ":10074,"ë¶ģìŀĲ":10075,"ê³¡ëıĻ":10076,"ĠìĦ¬ìľł":10077,"ĠìĿ¼ìĸ´ëĤł":10078,"Ġì±Įë¦°ì§Ģ":10079,"Ġë²Ħì":10080,"ĠìĹ°ê³ł":10081,"Ġëª¨ìŀĲëĿ¼":10082,"ìķ¼ìĪĺ":10083,"Ġê¸°ëŁī":10084,"Ġë¶ĦìĤ°":10085,"ĠìĺĢìĿĦ":10086,"Ġìļ°ì¦Ī":10087,"ĠìĹ°ë£¨":10088,"Ġì¹´ìļ´íĬ¸":10089,"Ġë¶Ħíķ´":10090,"íĭĢëŀľëĵľ":10091,"ĠíķĻìĤ¬":10092,"Ġíı¬ì¼ĵëª¬ìĬ¤íĦ°":10093,"Ġìŀ¬ê±´ì¶ķ":10094,"Ġìĸ´ëł¸":10095,"Ġë°ĿíĺĢì§Ħ":10096,"ĠìĬ¤íı°":10097,"Ġì±ĦíĮħ":10098,"Ġê´ĳìĤ°":10099,"Ġwwe":10100,"ĠìĿ´ìĪľ":10101,"Ġnight":10102,"ĠìĭłìŀĲ":10103,"ĠëĶķ":10104,"Ġíķĺíķĺ":10105,"Ġê°Ģëĭ´":10106,"ĠìĸĳíĮĮ":10107,"ĠíĹĿê°Ģë¦¬":10108,"Ġë¸ĮëĿ¼ëįĶ":10109,"Ġê¼¬ë§Ī":10110,"Ġëĭ¬ëĭ¬":10111,"ëģĦë":10112,"ì§ķìĸ´":10113,"ĠìĨĮëĮĢ":10114,"ĠëŁ¼":10115,"ĠìĦłì§ĦêµŃ":10116,"Ġë²¨ê¸°ìĹĲ":10117,"Ġê¸ĢëŁ¬":10118,"Ġìķ½ë¬¼":10119,"ĠíķĺëĤĺíķĺëĤĺ":10120,"Ġpe":10121,"Ġê°ĢëĤľ":10122,"Ġìĭľëĭ¬ë¦¬":10123,"ĠëĥīëıĻ":10124,"Ġêµ¬ì¶ķíķ¨":10125,"ĠíĶ¼ê³¤":10126,"ĠëĳĲëĵľ":10127,"Ġìĺ¤ëłĮ":10128,"ë¦¬ëĤĺ":10129,"ìĥĺ":10130,"Ġëª°ìķĦë":10131,"ĠíĨ¨":10132,"ise":10133,"Ġíķ´ë²ķ":10134,"Ġfw":10135,"ĠíĶĮëŀľ":10136,"ĠëĬĲë¦°":10137,"Ġë¡Ŀë§¨":10138,"Ġëľ¬ê¸Ī":10139,"Ġë§Ŀê°Ģ":10140,"Ġë£¨ë¹Ħ":10141,"ĠìĦłíĥĿì§Ģ":10142,"ĠìĿ¼ìľ¼ì¼°":10143,"ĠíķľìĿ¸":10144,"Ġíİĺìĸ´":10145,"Ġìľłê¶ĮìŀĲ":10146,"ĠìłķêµĲ":10147,"ĠìłĢìŀĲ":10148,"Ġíı¬ìĬ¤íĮħ":10149,"ĹĲ":10150,"Ġëĸłìĺ¬ë¦¬":10151,"Ġìī¬ìĽĮ":10152,"ĠëłĲ":10153,"Ġë²¡":10154,"ĠìķĦëĭĮì§Ģ":10155,"Ġëľ¨ê²ģ":10156,"ĠíĥĶ":10157,"Ġê³łì¹ĺ":10158,"Ġì¡°ë³Ħ":10159,"Ġë¶ĪìķĪê°Ĳ":10160,"ĠìĹ°ìĸ´":10161,"ëĴĢ":10162,"Ġëĵ¤ìĸ´ìĺ¬":10163,"ĠëıĮìĹ°":10164,"Ġìĸ´ì§¸ìĦľ":10165,"ĠíĥĢë¡ľ":10166,"Ġì°½ëĭ¹":10167,"ë¶Ħë":10168,"ĠìłĦëĭ´":10169,"Ġíı¬ëıĦ":10170,"Ġë²łíĥĢ":10171,"Ġëª¨ìĬ¤íģ¬ë°Ķ":10172,"ìĭľíĥĢ":10173,"ĠìĨįì¶ľ":10174,"Ġë§ĮëĳĲ":10175,"Ġì§Ģë£¨":10176,"ĠíĺĢ":10177,"Ġê¹Ģìľ¤":10178,"Ġëı¼ìļĶ":10179,"ìĬ¬ë§ģ":10180,"ĠëĦ¤ìĺ¤":10181,"ĠìĿĮìĭĿìłĲ":10182,"ne":10183,"ĠíŀĲë§ģ":10184,"ĠìĽĶê¸ī":10185,"ĠëĶĶì¦ĪëĭĪ":10186,"Ġì¶Ķë°©":10187,"ìĿĢìĿ´":10188,"ĠìĤ½ìŀħ":10189,"ĠìĭľìĥģìĭĿ":10190,"Ġíĥľê·¹":10191,"Ġì¤ĳìĭľ":10192,"ĠëĥĲë©´":10193,"Ġì¤ĳëł¥":10194,"ĠìĿĺê²°":10195,"Ġê°ĳëĭĪëĭ¤":10196,"ĠìĿ´ìĺ¨":10197,"Ġcor":10198,"ĠëĳĶíĻĶ":10199,"Ġì°½ìĦ¤":10200,"ĠìłĦìĬ¹":10201,"Ġmag":10202,"Ġë§īìĥģ":10203,"ĠëıĻíı¬":10204,"Ġëĵ¬":10205,"Ġê°Ħì£¼":10206,"Ġë°ľëłĮ":10207,"Ġë°ĺíķ´":10208,"Ġíİ¼ì³¤":10209,"Ġì¤ĳìĥģ":10210,"Ġë©´ëª¨":10211,"Ġì¡´ìŀ¬ê°Ĳ":10212,"ĠëıĦë§Ŀê°Ģ":10213,"ĠìĬ¤íĬ¸ëĿ¼ìĿ´íģ¬":10214,"Ġdisplay":10215,"Ġëħ¸íĬ¸ë¶ģ":10216,"ĠëĤĺíĥĢëĤľëĭ¤":10217,"ìĦ¸ìĦľ":10218,"Ġìļ°ëĵľ":10219,"Ġë¯¼ìĺģ":10220,"Ġìĵ°ìĹ¬":10221,"Ġë§Īëķħ":10222,"ĠëĮĢíĳľëĭ¨":10223,"ĠìĬ¨":10224,"Ġê³łë¡ľ":10225,"Ġë¹ĻíĮĲ":10226,"Ġëª¨ê¸°":10227,"Ġê³¼ìĭľ":10228,"ëıĦë¥´":10229,"Ġìĭ¤ìĿĢ":10230,"Ġborder":10231,"Ġì§ģìŀ¥ìĿ¸":10232,"Ġê°Ģë¥´ì³Ĳ":10233,"ĠìĻ¸ê³ĦìĿ¸":10234,"Ġìĸ´ìĿ´":10235,"ĠìĪĺìłľ":10236,"Ġav":10237,"ĠëĤ¨íķľ":10238,"Ġca":10239,"ìĸ´ìļĶ":10240,"ìĹĲìĿ´":10241,"Ġì²¼":10242,"Ġê²©ì¶Ķ":10243,"ĵ±":10244,"ĠìĿ´ë§Į":10245,"Ġì²ĺì§Ģ":10246,"ëĦ¤ìŀĦ":10247,"ê¸°ìĤ¬":10248,"ìĻĢìĿ´":10249,"Ġê½ģ":10250,"ĠìĦ±ì§Ī":10251,"ĠëİĢ":10252,"ble":10253,"Ġkorea":10254,"Ġcomp":10255,"ĠíķŃë³µ":10256,"ĠìĽĮì»¤":10257,"ĠìĺĪë»Ĳ":10258,"Ġìºĺë¦¬íı¬ëĭĪìķĦ":10259,"ĠìŀĲì¹«":10260,"Ġìŀ¥ëĤ¨":10261,"ìĹ°íķ©":10262,"Ġíĺĳìķ½":10263,"Ġê²½ìķħ":10264,"Ġíı¬ìĬ¤íĦ°":10265,"ĠíħįìĤ¬ìĬ¤":10266,"Ġìĺ¬ëĿ¼ê°Ķ":10267,"Ġdream":10268,"Ġì¡¸ìĹħìĭĿ":10269,"Ġëªħìĭľ":10270,"ìĸ´ë¶Ļ":10271,"ĠíķĻìľĦ":10272,"Ġë°ķì¢ħ":10273,"Ġì§ĦíķĻ":10274,"Ġì²ľì²ľ":10275,"Ġë¡ľë¦¬":10276,"Ġìĭľìłķ":10277,"Ġì§ĢëĤ¸":10278,"Ġëĵľë¡Ń":10279,"Ġíļ¡ëł¹":10280,"ĠíĿ¡ìĹ°":10281,"ĠíķľëıĦ":10282,"Ġë§ŀì¶¤":10283,"Ġê°ĦìĤ¬":10284,"ĠìĥĿìĦł":10285,"ĠìĤ¬ë¡ľìŀ¡":10286,"Ġìĺ¤íİĺëĿ¼":10287,"ĠìĨĮê³łê¸°":10288,"Ġë©ĶíĬ¸ë¡ľ":10289,"Ġì§ĳê°Ĵ":10290,"Ġë©´ìłĳ":10291,"Ġë¦¬íĥĢ":10292,"ĠìĿ´ë¤Ħì§Ħ":10293,"Ġ00":10294,"Ġê°Ĳì¶Ķ":10295,"¶ģëıĦ":10296,"ĠìłľëĦ¤":10297,"ĠìłķìĿĺëĭ¹":10298,"Ġì§ĦëıĻ":10299,"°±":10300,"Ġê²Ģìłķ":10301,"ĠìĻ¸ê³½":10302,"ĠëĤĺëħ¸":10303,"ĠíĮĮì¸ł":10304,"ĠìłĦëĿ¼ë¶ģëıĦ":10305,"ĠíĹ¨ë¦¬":10306,"ĠëıĮìķĦìĻĢ":10307,"Ġdiet":10308,"Ġêµ¬ë¡ľ":10309,"ĠìĿ´ë£¬":10310,"ê¼½":10311,"Ġê°ķíĥĢ":10312,"ĠìĦ±ë§¤ë§¤":10313,"İĦ":10314,"Ġì§Ģë¶Ģ":10315,"Ħĺ":10316,"Ġåľ":10317,"ĠìĥĿëªħì²´":10318,"Ġë£¨ëĤĺ":10319,"ĠíĮĮíİ¸":10320,"ĬĦ":10321,"ĠëłĪì§Ģ":10322,"ĠìŀĦìĿĺ":10323,"Ġë°Ķëĳĳ":10324,"Ġê¶Įìľł":10325,"ĠëĮĢìĥģìŀĲ":10326,"ëĩ¨":10327,"Ġë°ľëł¹":10328,"Ġì¶Ķì¢ħ":10329,"Ġë¨¸ë¬´":10330,"Ġê¹¨ëĭ¬":10331,"ĠìĤ¿":10332,"ê´Ģë¦¬":10333,"ĠìĦ¸ë¡ľ":10334,"Ġì°¬ë°ĶëŀĮ":10335,"Ġìĭľíģ¬":10336,"ĠíķĦë¦Ħ":10337,"ëıĮìĿ´":10338,"Ġgt":10339,"ĠìķĮë°Ķ":10340,"Ġìĩ¼íģ¬":10341,"Ġê¹¨ìĸ´":10342,"ĠìĹĺë¦¬íĬ¸":10343,"ĠíķľëĤ®":10344,"Ġmusic":10345,"ĠìĦłëĮĢ":10346,"Ġì¶Ķì¶ľ":10347,"ĠëĵľëĿ¼ìĿ´ë²Ħ":10348,"Ġìĭľê°Ģ":10349,"Ġê¹Ģìŀ¥":10350,"Ġìĵ¸ëª¨":10351,"Ġê°Ħê°Ħ":10352,"ĠëŀįëĭĪëĭ¤":10353,"ĠëıĦìŀ¥":10354,"Ġê¿Īê¾¸":10355,"Ġê°ķìŀĲ":10356,"Ġê¸°ê´Ģì´Ŀ":10357,"Ġê¹ĢìĹ°":10358,"ĠìķĮëłĪ":10359,"Ġìĺ¤ëĶĶìħĺ":10360,"Ġìµľìłģ":10361,"ĠìķĦì¸ł":10362,"Ġì§Īì£¼":10363,"ĠìłĦëĳĲíĻĺ":10364,"ĠíĨµìĭłìĤ¬":10365,"Ġë¦¬íĶĦ":10366,"Ġë°Ń":10367,"Ġë¡ľìĸĦ":10368,"ĠíĥĲíĹĺ":10369,"Ġê°ĦíĮĲ":10370,"ì«":10371,"Ġì»¤ì¡Į":10372,"ĠìľĦìĥĿ":10373,"ĠíĥĢìĦł":10374,"ĠíĬĢê¹Ģ":10375,"ĠëıĦìłĢíŀĪ":10376,"Ġover":10377,"Ġì§Ģìŀ¥":10378,"Ġëī´ìĬ¤ë£¸":10379,"Ġteam":10380,"Ġë¡ľìĬ¤ìķ¤":10381,"Ġë¡ľìĬ¤ìķ¤ìł¤ëłĪìĬ¤":10382,"Ġìĵ°ìĺĢ":10383,"ìĦ¼ìĬ¤":10384,"Ġë¦¬íĦ°":10385,"Ġê¸°ë»Ĳ":10386,"ĠíĥĢëĿ½":10387,"âĺĨ":10388,"ëĿ¼ê¸°":10389,"ĠìĬ¤íĭ°ë¸Ĳ":10390,"Ġhot":10391,"ìŀĲëĵľ":10392,"ĠìĺģìĽĲíŀĪ":10393,"Ġê²½ê¸°ëł¥":10394,"ĠëıĦë£¨":10395,"ition":10396,"Ġì¤Ģëĭ¤ê³ł":10397,"Ġìĭłìłķ":10398,"Ġìļ°ì²´":10399,"Ġìļ°ìĥģ":10400,"ĠìĦ¼ìĦľ":10401,"Ĳģ":10402,"ĠìļĶë¯¸":10403,"ë±ħ":10404,"Ġë³ĢíĸĪ":10405,"ĠìĹ°ìĤ°":10406,"Ġìŀ¬ìłķë¶Ģ":10407,"Ġhs":10408,"áħ":10409,"ìŀĦë":10410,"ĠìĤ¬ìłķê±°ë¦¬":10411,"Ġë¸ĶëŁ¬ëĵľ":10412,"Ġì£¼ëĭĪìĸ´":10413,"Ġjust":10414,"Ġì¤Ģëĭ¤ëĬĶ":10415,"Ġíķľë¥ĺ":10416,"Ġìĭľë°ľ":10417,"Ġì²ľì²ľíŀĪ":10418,"ĠíĮĶëłĪ":10419,"ë¶Ģë¡ľ":10420,"ëįĶìľĦ":10421,"Ġì½Ķë¥´":10422,"ĠìĨĮìļ©":10423,"Ġë¶Ħìĭł":10424,"Ġìĥģê¸°":10425,"Ġìĸ´ìł¯":10426,"ĠìĨĮì£¼":10427,"ĠëıĦìłģ":10428,"Ġìĸ´ìł¯ë°¤":10429,"ĠìķĶìĭľ":10430,"Ġfollow":10431,"Ġê²°ìĿĺìķĪ":10432,"Ġê´Ģë£Į":10433,"Ġê°Ĳì°°":10434,"Ġìĺ¨ì²ľ":10435,"Ġë¶Ļìŀ¡íĺĶ":10436,"Ġì¤Ħì¤Ħ":10437,"ĠíĶĮëĿ¼ìĬ¤":10438,"Ġë°ķê³Ħ":10439,"ool":10440,"Ġìļ°ë¥´":10441,"ĠíĹ·":10442,"Ġê¹Ģìľł":10443,"Ġë³´ë¦Ħ":10444,"ĠìĦľë°©":10445,"Ġíķłë¦¬":10446,"Ġêµ¬ìĿ´":10447,"Ġë§ĲíĪ¬":10448,"Ġê°Ħìŀ¥":10449,"Ġê±¸ë§ŀ":10450,"Ġê°ľìĭłêµĲ":10451,"Ġpop":10452,"ĠêµŃê°Ĳ":10453,"Ġìłľê°Ī":10454,"ĠìĦ¸íĮħ":10455,"ìŀĺ":10456,"Ġpet":10457,"ĠëĬĺìĸ´ëĤł":10458,"Ġìķħëª½":10459,"ĠëĪĦìĽĮ":10460,"ĠíŀĪê°Ģìĭľ":10461,"ĠëĤ´ìĻ¸":10462,"ĠëĳĲë¶Ģ":10463,"Ġì²ľìŀ¥":10464,"Ġìĳ¥":10465,"Ġìĸ´ë¦°ìĿ´ì§ĳ":10466,"Ġrem":10467,"ĠìĪĺíĻķ":10468,"êµ¬ìĹŃ":10469,"ĠíıŃíĮĮ":10470,"Ġìĭľì¹´ê³ł":10471,"ĠìłĦëıĻì°¨":10472,"Ġì¡°ìĿ´":10473,"ĠìĿ´ëĵ¬":10474,"Ġbar":10475,"Ġë¯¼ì²©":10476,"Ġìĺ¤ì§ķìĸ´":10477,"Ġë¯¸ëĤĺë¯¸":10478,"ë¥´íĥĢ":10479,"Ġìĭľê³¨":10480,"Ġê¸ĢìĶ¨":10481,"ê±´ìĦ¤":10482,"ĠìĥĪê²¨":10483,"Ġì¿µ":10484,"Ġì²ľíķĺ":10485,"Ġíĺ¸ì¡°":10486,"ĠìĪĻëł¨":10487,"ĠìĬ¤íĮĮìĿ´ëįĶ":10488,"ĠìĿ¸ë°©":10489,"Ġì¡°ìĺģ":10490,"ĠìĹĲìĸ´ì»¨":10491,"ics":10492,"Ġìĺ¤ëłĮì§Ģ":10493,"íĭĢëŁ¬":10494,"ĠíĶĦëŀŃ":10495,"Ġë¦¬ì¡°":10496,"Ġì²ŃìĤ°":10497,"Ġë¬¸ëĭ¨":10498,"íĮ¨ëĵľ":10499,"ier":10500,"Ġê·¸ëŀĳ":10501,"Ġê±¸ë¦°ëĭ¤":10502,"ĠìĿĢìĭł":10503,"ĠíŀĪíĨł":10504,"ĠëıħìĦľ":10505,"ĦìĹĲ":10506,"ĠíĸĪìľ¼ëĭĪ":10507,"Ġìĥģì£¼":10508,"ìĿ´ì»¤":10509,"ìłĢìļ°":10510,"ìł¸ìķ¼":10511,"Ġìĺ¹íĺ¸":10512,"Ġceo":10513,"ĠìĿ´ê´ĳ":10514,"ĠíħĶëłĪì½¤":10515,"ĠëĤ¨ìķĦ":10516,"Ġíı¬ì¦Ī":10517,"Ġìµľìļ°ìĪĺ":10518,"Ġë´Ħë":10519,"Ġgen":10520,"Ġíķĺë£¨ì¹´":10521,"Ġëĭ¤ëįĺ":10522,"ìĭľìĬ¤íĬ¸":10523,"Ġë¦¬ìĺ¤":10524,"ëĽ°":10525,"Ġì¡°ë¥ĺ":10526,"ĠíĨłë¡łíļĮ":10527,"Ġë±ĢíĮĮìĿ´ìĸ´":10528,"ĠìĹĶìł¤":10529,"ĠìĿ¸ìĸĳ":10530,"ëŀ¨":10531,"Ġëª¨ìĿ¸":10532,"ĠìĤ¬íļĮì£¼ìĿĺ":10533,"Ġê¹ĢìĦ¸":10534,"ĠëĮĢì¡°":10535,"Ġë§Īì¹´":10536,"ìķĦì¹ĺ":10537,"ĠìºĶë²ĦìĬ¤":10538,"ult":10539,"ĠìŀĲì§Ħ":10540,"Ġë°ĺëıĻ":10541,"ĠíĶ¼ê²¨":10542,"ĠìĬ¤íħĮìĿ´ìħĺ":10543,"Ġìķ¼êµ¬ìŀ¥":10544,"½ëĭĪëĭ¤":10545,"ĠíĬ¸ë¦¬íĶĮ":10546,"Ġìĭ¤ìļ©":10547,"ĠëĤŃë¹Ħ":10548,"ìĿ¼ë³¸":10549,"ëĵ¯":10550,"ìĻ¸ë":10551,"Ġëĭ¨íĴį":10552,"ĠìłĢíķĺ":10553,"Ġíľ©ìĭ¸":10554,"Ġìĺ¤ì§Ģ":10555,"Ġë°ĺêµ°":10556,"Ġrpg":10557,"Ġê°ķìĹ°":10558,"ĠëĵĿíĳľìľ¨":10559,"ĠëıĻìĦľ":10560,"ĠìļĶíķľ":10561,"Ġbs":10562,"ĠìķĦë¯¸":10563,"Ġë°©íķľ":10564,"Ġë¦´ë¦¬":10565,"Ġìĭ¬íĻĶ":10566,"Ġë¶Ħíı¬":10567,"Ġì½Ķë¯¹":10568,"int":10569,"Ġìĺ¬ë°Ķ":10570,"Ġê³łëŀĺ":10571,"Ġë³µìĦł":10572,"ĠìĦłì¡°":10573,"Ġíľĺë§Ĳ":10574,"ìĤ¬ê´Ģ":10575,"Ġì¤ĳìĦ¸":10576,"Ġìľłìŀ¬":10577,"Ġëĭ¨ë°±":10578,"ĠíħįìĬ¤íĬ¸":10579,"ĠìĿ´ìļ©ìŀĲ":10580,"ĠìľłìłĦ":10581,"Ġíĸīëł¬":10582,"Ġê°ķìłĲê¸°":10583,"Ġìµľê²½":10584,"de":10585,"Ġë°°ê³ł":10586,"ìķĦìĸ´":10587,"ĠíĥĢìĿ´ìĻĦ":10588,"ĠìĿ¼ë¦¬":10589,"ĠëĵľëŀĺíĶĦíĬ¸":10590,"ì§Īëŀľëĵľ":10591,"ĠíĤ¤ë³´ëĵľ":10592,"ĠìĹİ":10593,"ëĭ¤ëĤĺ":10594,"ĠìĿ¼ê¹ĮìļĶ":10595,"Ġsuper":10596,"Ġë¤":10597,"Ġë¶ĢëĵľëŁ¬ìļ´":10598,"Ġëī´ì§Īëŀľëĵľ":10599,"Ġë°°íĽĦ":10600,"ĠìĻĢìĿ¼ëĵľ":10601,"ë²łìĿ´íĦ°":10602,"ĠíĮĶë¦¬":10603,"íĺĢìĦľ":10604,"Ġìĭ¤íĥľ":10605,"Ġmg":10606,"Ġê¸°íķľ":10607,"Ġwind":10608,"ĠíĨµì¦Ŀ":10609,"Ġë¶Īëł¸":10610,"ĠìĿ´ëĵ¬íķ´":10611,"ĠëıĦë¦¬":10612,"Ġìŀ¡ìķĦë¨¹":10613,"Ġìľ¼ë¦¬":10614,"Ġì²Ńì¶ĺ":10615,"Ġë´īìĩĦ":10616,"Ġìĺ¤ìĦ¸":10617,"Ġìĺ¤íģ¬":10618,"ĠìĹĲë¦Ń":10619,"Ġê±´ëĦ¤":10620,"ĠíĬ¹ë³":10621,"Ġë°¤ìĤ¬ìĿ´":10622,"Ġë°©íĻĶ":10623,"ica":10624,"ìļ¸ëŁ¬":10625,"ĠìĽĲì£¼":10626,"ĠìĿ´ê²¼":10627,"ĠìĥĿìķł":10628,"ĠéĻ":10629,"ĠíĮĮìļ°":10630,"Ġsec":10631,"ĠìĽĲíĶ¼ìĬ¤":10632,"ĠíŀĪëĤĺ":10633,"ĠëĬĻ":10634,"Ġê´Ģìŀ¥":10635,"ĠìĨ¡íĮĮ":10636,"ĠìłĦì§Ģ":10637,"Ġhard":10638,"Ġì¿łëį°":10639,"ĠëıĮìķĦê°Ķ":10640,"Ġìĥ´íĳ¸":10641,"ĠëģĬìŀĦìĹĨìĿ´":10642,"ëį°ìĬ¤":10643,"Ġìĸ¼ìĸ´ë¶Ļ":10644,"ì§Ħë³´":10645,"Ġë¯¸ì³¤":10646,"Ġgp":10647,"Ġë³¸íĨł":10648,"Ġíģ´ëŀľ":10649,"ĠíķĺìĹ¬":10650,"ĠìĬ¤ìľĦì¹ĺ":10651,"Ġê³łìľĦê¸ī":10652,"ĠëĶĶìĬ¤íĶĮëłĪìĿ´":10653,"ĠíĥĢìĪĺ":10654,"Ġìĥģê´ĢìĹĨìĿ´":10655,"ĠëĬĺìĸ´":10656,"ĠìĬ¬íĶĶ":10657,"ĠíĽĦë³´ìŀĲ":10658,"Ġìķħìŀ¬":10659,"ĠíŀĲëŁ¬ë¦¬":10660,"ĠëĤĺíĿĺ":10661,"Ġìĺģëĵ±íı¬":10662,"ĠìĻķìľĦ":10663,"ĠíĽĶì³Ĳ":10664,"Ġarm":10665,"Ġë²Ķì£ĦìŀĲ":10666,"Ġê²°ìłĦ":10667,"ĠëĤ¯":10668,"Ġì¡°ìļ©íŀĪ":10669,"ĠìĤ¬ë£Į":10670,"Ġê¸īê²©íŀĪ":10671,"Ġíĳľê²°":10672,"ĠëĲĺìĤ´":10673,"ĠìĹĳìĬ¤íĬ¸ëĿ¼":10674,"íķĦëĵľ":10675,"Ġìľ¼ëĿ¼ê³ł":10676,"ĠìŀĲíĥĿ":10677,"ëĿ¼ë©´":10678,"ĠêµĲëıĦìĨĮ":10679,"Ġê¸īìĨį":10680,"ĠíĬ¼íĬ¼":10681,"ĠëĤĺíĥĢëĥĪ":10682,"Ġì»¤ëħķ":10683,"ĠìĹ´ë¦´":10684,"ĠìĿ´ê¸Ģ":10685,"be":10686,"Ġíĺ¸ì¹Ń":10687,"Ġë²Ļ":10688,"ĠëıĦìķ½":10689,"Ġìłķìŀ¬":10690,"Ġpp":10691,"Ġìļ°íĺ¸":10692,"Ġ\"'":10693,"Ġê¸°ê°ģ":10694,"Ġë°±ìĭł":10695,"ĠìĮįìļ©":10696,"ìĨĮëħĢ":10697,"Ġ....":10698,"Ġëħ¸ëł¤":10699,"ĠëĦ¨":10700,"ĠìĤ¬ìĿ´íģ´":10701,"ĠìĿ´ìĽĲ":10702,"Ġì§ĢëĤ¬":10703,"Ġêµ¬ë³Ħ":10704,"Ġì¶Ķê¶ģ":10705,"ĠíĻĶíķ©":10706,"Ġì£¼ì£¼":10707,"Ġìķ½ìŀĲ":10708,"Ġì¹¨ìĪĺ":10709,"ĠìĿ¼ìłľíŀĪ":10710,"ĠìĿ´ë¤Ħì§Ī":10711,"ĠíĶĦë¦¬ë¯¸ìĸ´":10712,"Ġë¹ħíĨł":10713,"Ġëĭ¤ëĭĲ":10714,"Ġéĥ":10715,"Ġë°Ķê¿¨":10716,"Ġê¸´ìŀ¥ê°Ĳ":10717,"ĠëıĦë§Ī":10718,"ì¼Ħ":10719,"Ġë°©ìĸ´êµ¬":10720,"ĠìĭľìĦ¸":10721,"br":10722,"Ġìĺ¤ì¼Ģ":10723,"Ġìľ¼ëł¤ëĬĶ":10724,"Ġë©´ìĦ¸":10725,"ĠìłĦëĭ¨":10726,"ĠëłĪëĶ§":10727,"Ġì§Ģì§ĢìŀĲ":10728,"ĠíĺĦíĻ©":10729,"Ġíıīëĵ±":10730,"ĠëĤłì¹´":10731,"ĠíĮĮìĨĲ":10732,"Ġpa":10733,"ĠìĭłëħĦ":10734,"ĠìŀĳíĻĶ":10735,"Ġaw":10736,"ì§Ħë³´ëĭ¹":10737,"ĠìĪĺë¹":10738,"ì½ķ":10739,"ason":10740,"ĠìĦ±íĺķ":10741,"ĠíļĮìĥī":10742,"Ġë¹ĦëĮĢìľĦ":10743,"ĠëĭĲ":10744,"ĠíĮĮëŀĢìĥī":10745,"Ġwhat":10746,"Ġì¡°ìĪĺ":10747,"ê±Ģ":10748,"ĠìĭłìłĦ":10749,"ĽĶìĿ¼":10750,"ëħĦìĽĶìĿ¼":10751,"ĠìĥĿëħĦìĽĶìĿ¼":10752,"ĠáĦıáĦı":10753,"ict":10754,"Ġíĩ´ìŀ¥":10755,"ê·¼ë":10756,"Ġë³´ëĤ¼":10757,"ĠëĿ¼ëĿ¼":10758,"ĠìĤ¬ëĿ¼ì§Ħëĭ¤":10759,"ĠëĦ¬":10760,"ĠìĬ¤ëĭĺ":10761,"ĠìĨĮëıĻ":10762,"Ġê°Ģìł¸ëĭ¤":10763,"Ġë°°ìĹŃ":10764,"ĠìľĦì¶ķ":10765,"Ġìĺ¤ëĿ¼":10766,"lee":10767,"Ġë°°íĬ¸ë§¨":10768,"ĠìŀĩëĶ°ë¥´":10769,"Ġë°°ëĵľ":10770,"Ġìĭľíķ©":10771,"ìŀĲìĻĢ":10772,"Ġíķľìĸĳ":10773,"íħĮìĿ¼":10774,"ìĸ¸ë":10775,"Ġë¦¬ìĺ¨":10776,"Ġë§¨ëĤł":10777,"ĠìĽĲë¬¸":10778,"Ġê³µìĪĺ":10779,"Ġê°ľì²Ļ":10780,"Ġìŀ¬íķĻ":10781,"Ġì¹¨íĪ¬":10782,"ĠìĥĿê¸´ëĭ¤":10783,"ĠíķĢëŀĢëĵľ":10784,"Ġì§Ģê²Ģ":10785,"ĠëĤĺë¹Ħ":10786,"Ġìĭ¬ìłķ":10787,"Ġì§Ģì¹¨":10788,"ĠíĿ¡íĺĪ":10789,"Ġìļ´ìĪĺ":10790,"Ġë°ĶëĤĺëĤĺ":10791,"ĠëıĦìļĶ":10792,"Ġbre":10793,"Ġbut":10794,"Ġë»¥":10795,"Ġìļ¸ë¦ī":10796,"Ġíı¬ìĬ¤ì½Ķ":10797,"Ġë²Ħëĵľ":10798,"ê±°ì§Ħ":10799,"Ġ=)":10800,"Ġì¹¼ëĤł":10801,"ĠìĽĲíĺķ":10802,"íĶĮëłī":10803,"Ġë¦¬ì¹´":10804,"Ġìĸ¹":10805,"ĠìĹħìŀĲ":10806,"£¼ë":10807,"Ġì§ĦíĿ¥":10808,"ĠêµĲë³µ":10809,"ĠìĽĲíĻĶ":10810,"ĠìķĦíĤ¤ëĿ¼":10811,"ì¡°íķ©":10812,"son":10813,"ĠìĭłíķĻ":10814,"Ġë§ĪëĬĶ":10815,"Ġì²ľëĳ¥":10816,"ĠìĪĺíĹĺ":10817,"ĠìĺĲ":10818,"pr":10819,"į½":10820,"ìĭľíĶ¼":10821,"Ġë¬´ìĬ¤":10822,"ĠìĦ±ê²½":10823,"ĠëĵľëŁ¬ëĤľ":10824,"Ġêµ°ìĤ°":10825,"ìħĢë¡ľ":10826,"ĠíĬ¸ìľĹ":10827,"Ġì§ĢëĿ¼":10828,"ĠìĹĺë¦¬ìŀĲ":10829,"ĠìĿ´ëĤ¨":10830,"Ġê°¯":10831,"ìĤ¬ë¦¬":10832,"ĠìĿĳìļ©":10833,"Ġë¹ĦíĭĢ":10834,"Ġìĸ´ëĶĺê°Ģ":10835,"Ġíŀĺìŀħ":10836,"ìļ°ë§Ī":10837,"ë¦´ëĿ¼":10838,"ĠìĪĺë²ķ":10839,"Ġê³µìĭľ":10840,"ĠìĽĲìĪŃìĿ´":10841,"ĠëĤľìŀħ":10842,"Ġì§ĦìĿ´":10843,"Ġì¤ĳê³µìĹħ":10844,"Ġë¶Īíĸī":10845,"ì°¨ë¦¼":10846,"Ġìĭľë°Ķ":10847,"Ġê°Ģìł¸ìĺ¤":10848,"ĠíķŃìĨĮ":10849,"Ġê³łìĿĺ":10850,"Ġë§Įì£¼":10851,"ĠìĦ¸ìĿ¸íĬ¸":10852,"Ġì±Ħë¬´":10853,"ĠìĪĺëıĻ":10854,"ĠìłĢíĥĿ":10855,"ĠìŃĪ":10856,"Ġë¯¼ìĽĲ":10857,"Ġë¶Ħíķł":10858,"ĠíĨłëĦĪë¨¼íĬ¸":10859,"Ġê°ĸì¶°":10860,"Ġê³µì§ģ":10861,"ĠìĿ´ëħĲ":10862,"Ġmon":10863,"ĠíĮĮì£¼":10864,"Ġê·¹íķľ":10865,"Ġê°ķìĦľ":10866,"å®":10867,"ëŃĦ":10868,"Ġìŀ¥ë²½":10869,"Ġì¶ĶìĤ°":10870,"ĠíĻįìĦ±":10871,"Ġcy":10872,"Ġì¡°ë¬¸":10873,"ĠìĥĿê°ģëĤĺ":10874,"Ġì¿łë°Ķ":10875,"Ġì£½ìĺĢ":10876,"Ġìĭłëį°":10877,"Ġì¶Ķìļ´":10878,"Ġìĭłì¡°":10879,"ĠíĮĮìĥĿ":10880,"ĠìĿ¼ì¡±":10881,"Ġì¶ľíĮĲìĤ¬":10882,"Ġì¹ĺìķĦ":10883,"Ġìĭ«ìĸ´":10884,"Ġë³¸ì§Ī":10885,"ĠëıĻìĿ¸":10886,"°į":10887,"ĠìĭľëĿ¼":10888,"Ġì¹ĺìķĪ":10889,"Ġíķ´ìĪĺìļķìŀ¥":10890,"Ġê°ĢëŃĦ":10891,"ĠìĻĢíĥĢ":10892,"Ġê°ĪìķĦ":10893,"000":10894,"ĠìĿ¸íķ´ìĦľ":10895,"ĠãĢı":10896,"Ġì²ŃìĽĲ":10897,"ĠìĪłì§ĳ":10898,"Ġêµ¬íĺķ":10899,"ĠìŀŃìĬ¨":10900,"Ġsing":10901,"Ġê°Ĳìĭ¸":10902,"Ġì¡°ìĥģ":10903,"Ġë§·":10904,"Ġë§īë°Ķì§Ģ":10905,"Ġìļ°ì£¼ìĦł":10906,"Ġíı¬íĦ¸":10907,"ĠíĤ¬ëŁ¬":10908,"Ġëĭ¬ê±Ģ":10909,"Ġì§ĢìĽĮ":10910,"ĦìķĪ":10911,"Ġë©ĶìĿ´ì»¤":10912,"Ġë°ľë¦¬":10913,"ĠìħĢíĶĦ":10914,"Ġmr":10915,"Ġëħ¸íĽĦ":10916,"Ġê°Ħíİ¸":10917,"íĤ´":10918,"Ġê°ģì§Ģ":10919,"Ġë¹Ħìľł":10920,"Ġìĺ¤ë©Ķ":10921,"ĠëĿ¼ëĵłê°Ģ":10922,"ĠíĶĦëŀľ":10923,"ê°Īë¹Ħ":10924,"Ġê±´ë¦½":10925,"Ġìĸ½":10926,"Ġìĵ°ëŁ¬ì§Ģ":10927,"Ġëª©ê²©ìŀĲ":10928,"Ġì°Ĳ":10929,"Ġebs":10930,"Ġíģ½ëĭĪëĭ¤":10931,"ĠìĤ¬íĤ¤":10932,"Ġê¸°ë¦¬":10933,"Ġì±ħìŀĦìŀĲ":10934,"ĠìĥģíĴĪê¶Į":10935,"ĠìĽĥëıĮ":10936,"Ġ16":10937,"ĠìłĦêµĲ":10938,"ĠìĹ´íĴį":10939,"Ġë³´ë¦¬":10940,"Ġë¬´ê±°ìļ´":10941,"Ġë©ľë¡ľëĶĶ":10942,"íĨłëŀĳ":10943,"Ġêµ¬ìĦ±ìĽĲ":10944,"Ġë§ĮìłĲ":10945,"ĠìĨŁ":10946,"ĠìĮĵìĹ¬":10947,"ìī½":10948,"ĠíĬ¸ë£¨":10949,"hn":10950,"ĠìĪĺì§ģ":10951,"ĠëłĪìĬ¤íĨłëŀĳ":10952,"Ġìĸ»ìĸ´":10953,"ĠëĤĺì¸ł":10954,"Ġnd":10955,"ĠíĨµíķ©ì§Ħë³´ëĭ¹":10956,"Ġìĸ´ìĥī":10957,"Ġëį©ì¹ĺ":10958,"Ġëĭ¤ì¹ĺ":10959,"ĠëĤ¨ëıĻ":10960,"ĠëĤľë¦¬":10961,"ĠìĬ¬ëĿ¼ìĿ´":10962,"Ġ%(":10963,"ĠìķĦìĤ°":10964,"Ġì¦īìľĦ":10965,"Ġë¶ģìĦľ":10966,"Ġëª©ìļķ":10967,"Ġê¸ģ":10968,"urn":10969,"Ġì¶ķë³µ":10970,"ĠíĮĲë¬¸":10971,"Ġë°ķëŀĮ":10972,"ĠìĿ´ìĻĢ":10973,"ĠìĸĮ":10974,"Ġë¬´ìĪł":10975,"ĠëıĻê²½":10976,"Ġì²´ì½Ķ":10977,"Ġìľłê²©":10978,"ĠíħĢ":10979,"Ġage":10980,"Ġêµ¬ì¡°ë¬¼":10981,"ĠíĮĮíĤ¤ìĬ¤íĥĦ":10982,"Ġë°ķìŀ¬":10983,"ĠìĬ¤ì¦Ī":10984,"ĠëĮĢìĦ±":10985,"Ġë¶ĢìĬ¤":10986,"íħĿ":10987,"Ġìľłë£Į":10988,"Ġê¸°ê¸Ī":10989,"Ñģ":10990,"ĠëĤ¨ì¸¡":10991,"Ġê¸°ìĿ¸":10992,"Ġì¡°ìĦ¸":10993,"ìľĦìĽĲíļĮ":10994,"ê²½ê¸°":10995,"Ġê¸īìĹ¬":10996,"ĠìķĦìĤ¬íŀĪ":10997,"Ġê·ľê²©":10998,"Ġë¶Ģê°Ģ":10999,"íķĺìĭľ":11000,"Ġì½Ķë©ĺíĬ¸":11001,"Ġìŀ¬ì§ģ":11002,"Ġëª¨ëĭĿ":11003,"ì½§":11004,"ĠìĿ¸ìŀĲ":11005,"Ġì¹´íĬ¸":11006,"Ġíĩ´ì§Ħ":11007,"Ġë³¸ëĭ¤ë©´":11008,"ĠíĮĶë¡ľìļ°":11009,"ĠìĪĺìĽĶ":11010,"ĠíķĻë¬¸":11011,"Ġì¤ĳì²©":11012,"ĠíľĺëĳĲë¥´":11013,"İĭ":11014,"atch":11015,"£¡":11016,"ĠìķĦìī¬ìĽĢ":11017,"ĠíĳľìłĪ":11018,"Ġê°ĲìĪĺ":11019,"ë°ĭ":11020,"Ġê²½ìĤ¬":11021,"ĠëĿ¼ëįĺ":11022,"Ġê·ľíĥĦ":11023,"ĠëĤ´ê²Į":11024,"ĠìĹĲëĶĶ":11025,"Ġê»´":11026,"ĠìĤ¬ëĿ¼ìł¸":11027,"ì¸°":11028,"ĠëĮĢëł¹":11029,"ĠíŀĻíķ©":11030,"ĠìķĦíĭĢ":11031,"Ġì°½ëĭ¨":11032,"Ġì¿łëį°íĥĢ":11033,"Ġë³´ì¢Įê´Ģ":11034,"Ġë§Īíı¬":11035,"Ġì¶ľê²©":11036,"íĴĢìĿ´":11037,"ĠíĨłë§ī":11038,"ì§Ħíĺ¸":11039,"Ġíĭ¸":11040,"Ġëª¨ë¡ľ":11041,"Ġlab":11042,"Ġë§ĿíĸĪ":11043,"ĠìĹĺë¦¬ë²łìĿ´íĦ°":11044,"ĠêµŃëĤ´ìĻ¸":11045,"ĠëĿ¼ë§Ī":11046,"Ġê°ĢëĶĶìĸ¸":11047,"ĠìĻĦê²°":11048,"ĠíĶĦëĿ¼ìŀĦ":11049,"ĠíĻįìĪĺ":11050,"Ġë¸Ķë¡ľ":11051,"Ġì¡°ì§Ĳ":11052,"ĠíĪ¬ìĬ¤":11053,"Ġíķĺì¸ł":11054,"ĠìķĪìĤ°":11055,"ĠíĽĦì¿łìĺ¤ì¹´":11056,"Ġì§ĳíķ©":11057,"ĠìĬ¤íħĮìĿ´":11058,"Ġëħ¸ë°Ķ":11059,"Ġ50":11060,"íħĲëıĦ":11061,"ìŃī":11062,"ĠíĽĦìľł":11063,"ĠëĭĮíħĲëıĦ":11064,"Ġìĸ´ì©Įë©´":11065,"ĠìĽ¨ìĿ´ë¸Į":11066,"Ġê±°ëŀĺìĨĮ":11067,"Ĥ¼":11068,"Ġë¬´ë¹Ħ":11069,"Ġë¹Ĺë°©ìļ¸":11070,"Ġë³´ê°ķ":11071,"Ġë¶Ģì¶Ķ":11072,"ĠëıĻìłĦ":11073,"Ġì°¨ì²´":11074,"Ġì¹ľíķľ":11075,"Ġë¹ĦíķĺìĿ¸ëĵľ":11076,"ows":11077,"Ġëĵľëł¤":11078,"Ġìļ°ëĿ¼":11079,"ì²´ìĬ¤íĦ°":11080,"ĠëĨĢëĿ¼ìļ´":11081,"ë²Ķì£Ħ":11082,"ĠìĿ¸íĶ¼":11083,"ĠìĭłìĽĲ":11084,"ĠëĨĵìĹ¬":11085,"ĠíħĮì¸ł":11086,"Ġíĥľê¶Į":11087,"Ġplay":11088,"Ġë§ŀì¶ĺ":11089,"Ġëª¨ìĿĮ":11090,"ĠìĪĺìĹ¬":11091,"ëĦ¨":11092,"ê»ĳ":11093,"bl":11094,"ĠìĨĮíĸī":11095,"į¸":11096,"ĠìķĦëĵľ":11097,"ĠíĻ©íĽĦ":11098,"ĠìķĦìļ¸ëŁ¬":11099,"Ġìľłë§Ŀ":11100,"ĠìĽ¨ìĬ¤íĬ¸":11101,"Ġê°ľë°ľìŀĲ":11102,"ĠíĮĮê³ł":11103,"Ġê°Ģíķ´ìŀĲ":11104,"ĠíĸĩìĤ´":11105,"Ġê·¹ëĮĢ":11106,"Ġë¨¸ë¬¼ë":11107,"Ġìĺ¤ìļ°":11108,"ĠìķłìĿ¸":11109,"Ġë©ĶìĿ´íģ¬":11110,"ĠíĬ¹íĺľ":11111,"ë²Ħê·¸":11112,"Ġdes":11113,"ĠëŁ½":11114,"ĠìĽĥê¸°":11115,"ĠìłķìĦľ":11116,"ë¯Ģë¡ľ":11117,"Ġê³µìłľ":11118,"ĠãĢİ":11119,"Ġê¸°ê°ĳ":11120,"íģ¬ë¡ľ":11121,"Ġìļ°ë¦°":11122,"Ġë¬´ìłľ":11123,"ĠæŃ":11124,"ros":11125,"Ġê³łì¢ħ":11126,"ĠíĻĭì¹´ìĿ´ëıĦ":11127,"ëģĦëŁ½":11128,"ĠëĮĢíķľíķŃê³µ":11129,"Ġìķħëªħ":11130,"ê°Ģëĵľ":11131,"ì¦Ŀê¶Į":11132,"ĠíķĻìĪł":11133,"ì¿łëĿ¼":11134,"Ġìĺ¥ìĥģ":11135,"ì§Ģë¶Ģ":11136,"Ġë°ķíĿ¬":11137,"ĠìĽĲëįĶ":11138,"ĠìĭĿê°Ĳ":11139,"ott":11140,"Ġë§Ŀëªħ":11141,"Ġì¹´ì§Ģ":11142,"ìĪłìĤ¬":11143,"Ġíĺķíİ¸":11144,"ach":11145,"Ġë¶Ģìŀ¬":11146,"Ġëª¨íĺķ":11147,"Ġled":11148,"êµ¬ìŀ¥":11149,"Ġì¦ĪìĿĮ":11150,"ĠìĻ¸ë©´":11151,"Ġìļ¸ë¦¬":11152,"Ġdna":11153,"Ġëĭ¨ë°±ì§Ī":11154,"Ġìľ¡ë°ķ":11155,"Ġimf":11156,"ëĦī":11157,"ĠíķŃê³µëª¨":11158,"Ġê°Ģë¥´ì¹ĺ":11159,"ëĳ¬":11160,"Ġê·¸ë£¨":11161,"ĠêµĲìĹŃ":11162,"Ġê³łëĵ±íķĻìĥĿ":11163,"Ĭ¥":11164,"ĠìĪĺì¤ĳ":11165,"Ġê³µíĹĪ":11166,"Ġì°¨ì¸°":11167,"Ġë¹ĦëĭĲ":11168,"Ġìĥ¤ìĽĮ":11169,"Ġakb":11170,"Ġë°ĶìĬ¤":11171,"Ġíľ©ìĵ¸":11172,"ocal":11173,"ĠìĿ¸ìłĳ":11174,"ëĤĺìĻĢ":11175,"ĠìĥģìĪł":11176,"ĠíĨłë²Į":11177,"ĠìĿ´ìĦł":11178,"Ġìĸ´ëĸ¨ê¹Į":11179,"ĠìĤ¬ê·Ģ":11180,"ĠìĬ¤íĬ¸ë¦¬íĬ¸":11181,"ĠíĥĦìĨĮ":11182,"inal":11183,"ĠëĶĶë°Ķ":11184,"ĠìłķëıĻìĺģ":11185,"Ġê¶Įìŀ¥":11186,"Ġìķ½ìĦ¸":11187,"ĠìĿĢíıĲ":11188,"ĠìĻ¸êµŃìĸ´":11189,"ĠíĨ¡íĨ¡":11190,"Ġíı¬ìľĦ":11191,"ĠìĿ¼ìĸ´":11192,"Ġë¬¸ìĿĺ":11193,"Ġìļ°ì²´êµŃ":11194,"ĠíķŃíķ´":11195,"Ġ&#":11196,"Ġëį°ëª¬":11197,"Ġìĸµì§Ģë¡ľ":11198,"Ġíİĺë¦¬":11199,"ëłĲëĿ¼":11200,"ĠìĬ¤ë§Ī":11201,"ĠìĿ´ë§ĪíĬ¸":11202,"Ġê³łëĬĶ":11203,"Ġclick":11204,"Ġë¹Ħì¤Ģ":11205,"Ġì£¼ë¨¸ëĭĪ":11206,"ĠìķĦë¦Ħëĭµ":11207,"Ġíĺ¸ìĭľ":11208,"Ġìķķì¶ķ":11209,"ĠíĥŃ":11210,"Ġge":11211,"ĠëĦĺê²¼":11212,"ëģ¼ë¦¬":11213,"ĠìĹħë¡ľëĵľ":11214,"ĠêµŃê¸°":11215,"Ġ;&":11216,"ĠìĦ¸ë¦¬":11217,"ĠíĮĮê²©":11218,"Ġë¶ĢìĤ°ê´ĳìĹŃìĭľ":11219,"ĠìĬ¤ì½ĶíĭĢëŀľëĵľ":11220,"Ġíľ´ê²ĮìĨĮ":11221,"Ġvo":11222,"ĠìĿ´ìĬ¤íĬ¸":11223,"ĠëĮĢêµĲ":11224,"ì§ĢëĬ¥":11225,"ĠíķĺìĿ´íį¼":11226,"ĠìĿ¸ê³µì§ĢëĬ¥":11227,"Ġ17":11228,"ĠìĿ´ë¬¸":11229,"ĠëĿ¼ìļ°":11230,"Ġlet":11231,"unt":11232,"Ġë¹Ħêµ¬ë¦Ħ":11233,"Ġì¿¼íĦ°":11234,"Ġì°½ë¦½":11235,"ĠìĨĮë§¤":11236,"Ġì§Ģíĺľ":11237,"ĠíĹ¤ë¥´":11238,"íĬ¬":11239,"Ġì¤ĳê¸°":11240,"ĠëĶľë§ģ":11241,"ë¹Ħì¹ĺ":11242,"ìłĢë¦¬":11243,"ĠìĬ¤íİł":11244,"Ġë©ĶìĿ´íĶĮ":11245,"ĠëĤĻìĦł":11246,"íĮĮìĿ´":11247,"ĠìĪĺíĺ¸ìŀĲ":11248,"ĠëģĬìĿ´":11249,"Ġì²¼ìĭľ":11250,"ĠìķĦê°ĢìĶ¨":11251,"íŀĪì½Ķ":11252,"ĠìłķìĦ¸ê·ł":11253,"fl":11254,"tr":11255,"Ġì·¨íķ´":11256,"ë²ĮëłĪ":11257,"Ġê³łì³Ĳ":11258,"ĠìĹ¬ëĭ¨":11259,"ĠìĥĿìłĦ":11260,"Ġë°©ê¸Ī":11261,"êµ¬ëĭĪ":11262,"Ġho":11263,"ĠíĥĲìłķ":11264,"ëĵľëłĪ":11265,"ĠìĪĺìĭł":11266,"Ġìĭ¸ìĽł":11267,"Ġë£¨ë¨¸":11268,"ĠìĿ¼ìĿ¼":11269,"Ġele":11270,"Ġë¹¼ëıĮ":11271,"ĠíĮĲë¬¸ìłĲ":11272,"ĠìĿ¼ëªħ":11273,"ĠâĻª":11274,"Ġì§ĦíĨµ":11275,"Ġreport":11276,"Ġusb":11277,"Ġíĸ¥ê¸°":11278,"ĠëıĻê¸ī":11279,"ĠìĿ´ìģĺ":11280,"ĠíķĺëĿ½ìĦ¸":11281,"Ġë¡ľë¹Ī":11282,"Ġê°ĢëĿ¼ìķī":11283,"ĠìĦľë©´":11284,"Ġìĭłëŀĳ":11285,"ĠìĹ¼ìĥī":11286,"ĠìĬĪíį¼ë":11287,"ĠìĿ¸ìĦł":11288,"Ġë³ĳíĸī":11289,"Ġë§Īë²ķìĨĮëħĢ":11290,"ĠíĮ¬íħĢ":11291,"ĠëĮĢëıĻ":11292,"Ġë¶ĢìĬ¤íĦ°":11293,"íķĦëįĶ":11294,"Ġë¯¸ëĵľíķĦëįĶ":11295,"Ġíľĺë°ľ":11296,"Ġìļ°ìĿµ":11297,"Ġê·¸ë§ĮëĳĲ":11298,"ĠìłķìĺĪ":11299,"Ġë£¨ìĬ¤":11300,"ĠìĪĺëł¹":11301,"Ġê¶ĮìľĦ":11302,"ĠìŀĲì¡´":11303,"ìĸ´ëĤ´":11304,"ĠìŀħìŀĲ":11305,"ĠìĿĦìĪĺë¡Ŀ":11306,"ì°Įê°ľ":11307,"Ġìļķìĭ¬":11308,"Ġëĵ±ë¡Ŀê¸Ī":11309,"Ġê·¸ëŁŃ":11310,"Ġë¹Ħì¶Ķ":11311,"Ġë°ľê¸¸":11312,"ĠìĬ¤ìĻĢ":11313,"Ġì¢ĮìłĪ":11314,"Ġë¦¬ì²ĺ":11315,"ĠìĿ´ê²¬":11316,"Ġë¹¨ê°Ħì":11317,"ĠëĤ´ìłķìŀĲ":11318,"Ġëħ¸ë¥´ìĽ¨ìĿ´":11319,"Ġä»":11320,"ĠìĽĲìĤ°":11321,"Ġë°ĶëŀĮì§ģ":11322,"Ġê°ķëł¬":11323,"Ġíķľë³µ":11324,"Ġìķ¼ìĪĺ":11325,"ĠëıĦë¥´":11326,"Ġå¾":11327,"ĠìĤ°ìĨĮ":11328,"Ġê·¸ëŁ°ê°Ģ":11329,"ĠìĿ¼ì²´":11330,"Ġìķ½íĥĪ":11331,"Ġê°ĢìŀħìŀĲ":11332,"Ġíĳ¸ì§Ĳ":11333,"ĠëįĶêµ°ëĭ¤ëĤĺ":11334,"ĠìķĪìĦ±":11335,"Ġê¸īíĸī":11336,"Ġë¶ĢìĨį":11337,"Ġ..)":11338,"Ġì·¨ìŀ¬ì§Ħ":11339,"Ġê³łë§ĪìĽĮ":11340,"Ġëĭ¤ë¦Ħ":11341,"ina":11342,"ĠíĻĺìĪĺ":11343,"ë±ĥ":11344,"Ġfate":11345,"âĨĲ":11346,"ĠìĿ¸íĦ°ëŀĻ":11347,"ĠìĭłìĦ¸ê³Ħ":11348,"Ġlife":11349,"Ġì¹łëłĪ":11350,"ĠëĵŃëĭĪëĭ¤":11351,"Ġìŀ¥ë¡ĢìĭĿ":11352,"Ġìļ°íģ¬ëĿ¼":11353,"Ġë³¸ì§Ħ":11354,"Ġìĥģìłķ":11355,"Ġì¯Ķ":11356,"Ġìĺ¬ìĬ¤íĥĢ":11357,"Ġìŀłìłķ":11358,"Ġë¹łìł¸ëĤĺê°Ģ":11359,"Ġìķ¼ì¿ł":11360,"ĠìĦłì²´":11361,"ĠìĿĺë¥ĺ":11362,"ks":11363,"Ġë°ĶëŀĢëĭ¤":11364,"ĠíķĺìĿ´ëĿ¼ìĿ´íĬ¸":11365,"Ġìĸ´íĮĲ":11366,"Ġìłķìļ°":11367,"ĠìĦľìłķ":11368,"ìłĢëŁŃ":11369,"ĠìĹŃëªħ":11370,"ĠìĻĢì¹´":11371,"Ġhigh":11372,"Ġë¶ĦëĮĢ":11373,"Ġì´ĿìĪĺ":11374,"Ġê°Ħíĺ¸ìĤ¬":11375,"ĠìĪĺìĭľë¡ľ":11376,"ĠíķŃê³µëª¨íķ¨":11377,"ìĦ¸ì§Ģ":11378,"Ġê·¹ëıĦ":11379,"Ġìłĳíķĺ":11380,"Ġìĸ´ìļ©":11381,"ĠâĹĩ":11382,"Ġë¬¼ë¥ĺ":11383,"ĠìļķìĦ¤":11384,"Ġéģ":11385,"ĠìłĢì§Ģë¥´":11386,"ëĤŃ":11387,"ĠíĶĮëŀĺê·¸":11388,"ĠìĿ¸ì²´":11389,"ĠìĨįíķľëĭ¤":11390,"Ġíĳľìłģ":11391,"ë¯¼ì£¼ëĭ¹":11392,"ĠìŀĶìĿ¸":11393,"ĠíĨłìļĶ":11394,"Ġë¯¸ì¿ł":11395,"íĨłìĬ¤":11396,"Ġê·¸ëŁŃìłĢëŁŃ":11397,"ĠíĪ¬ìĭł":11398,"ë¦°ëĭ¤ëĬĶ":11399,"Ġì²Ńíĥģ":11400,"Ġë²ħìĬ¤":11401,"Ġê³łì§ĳ":11402,"ĠíĶ¼ëĭīìĬ¤":11403,"Ġìĸ´ì¹ĺ":11404,"Ġëĵłëĵł":11405,"Ġë§Īíĭ´":11406,"Ġìłķë¬¸":11407,"Ġê³ĦíĮĮ":11408,"Ġìļ¸íĶĦ":11409,"ĠìĿ¸íĦ°ëŀĻíĭ°ë¸Į":11410,"íģ¬ë¦¼":11411,"ìħ°":11412,"Ġkw":11413,"Ġìĸĳìĭ¬":11414,"ĠëĬĲëĥĲëĬĶ":11415,"åŃ":11416,"ĠíĽĦìĪł":11417,"Ġíı¬íĥĦ":11418,"¡±":11419,"ĠíĥĪë¶ģìŀĲ":11420,"Ġë¹¨ê°Ħìĥī":11421,"ĠìĿ¸ë¶Ħ":11422,"Ġì¶©ì²Ńë¶ģëıĦ":11423,"Ġëħ¸ì´Ŀ":11424,"ĠìĬ¤íĥĢëĶĶ":11425,"ì§Ħìĺģ":11426,"ĠíĹ¬ë¡ľ":11427,"Ġë°±ìŀĳ":11428,"Ġê³¼ê°Ĳ":11429,"ĠíĿĳìŀĲ":11430,"Ġê³łë¹Ħ":11431,"bi":11432,"ĠëıĻìĥģ":11433,"ĠìķłêµŃ":11434,"Ġë§Īì°°":11435,"Ġëħ¸ëŀĢìĥī":11436,"Ġì¶ķìĤ°":11437,"Ġì¿¤":11438,"Ġíķ¸ëĵľíı°":11439,"Ġinstaf":11440,"Ġê²½ì§ģ":11441,"Ġì°¬ìĬ¤":11442,"êµĲíĨµ":11443,"Ġíķ©ë²ķ":11444,"Ġì²ľë¬¸":11445,"Ġë°ķì¤Ģ":11446,"ĠìłĦìĨ¡":11447,"ĠìķĺìĹĪ":11448,"ëįĶëĿ¼":11449,"Ġê²©ë¦¬":11450,"ëłīìħĺ":11451,"fc":11452,"Ġë©§":11453,"Ġ;&#":11454,"Ġëĭ¨ìĦľ":11455,"Ġìĭľë¹Ħ":11456,"¶©":11457,"ĠìłĦëĿ½":11458,"ube":11459,"Ġë§¤ì½¤":11460,"ĠìĿ´ì°½":11461,"Ġä½":11462,"ĠìĿĺìķ½":11463,"ĠíİĦ":11464,"ëĦ¤ë§Ī":11465,"ational":11466,"Ġë¯¸ë¥´":11467,"Ġìľłë³ĳ":11468,"ë°ĶìĿ´íĬ¸":11469,"Ġê°ķì¶ĶìľĦ":11470,"Ġë°Ķë¥´ìħĢë¡ľ":11471,"ĠíĥĦíĻĺ":11472,"ĠëĭĪê¹Ĳ":11473,"pa":11474,"ĠìĻķìĭ¤":11475,"Ġìłķì¡°":11476,"Ġë³´ëıĦêµŃ":11477,"ĠëĿ¼ìĿ´íĶĮ":11478,"Ġë°Ķë¥´ìħĢë¡ľëĤĺ":11479,"Ġì§Ħë¡ľ":11480,"Ġìłľì¡°ìĹħ":11481,"íķĺë£¨":11482,"Ġëĭ´íĻĶ":11483,"ĠìĦ¤íĥķ":11484,"ĠìĦłë¡ľ":11485,"ĠëĬĲëł¤":11486,"ĠëĤĺìģ¨":11487,"Ġë¹Ħë¹Ķ":11488,"Ġë²¼ëĿ½":11489,"ĠìĿ´ëĮĢë¡ľ":11490,"Ġë²ĮìĹ¬":11491,"Ġë·Ķ":11492,"ĠëıĻì§Ģ":11493,"ĠãĢĭ,":11494,"ĠíĥĢìĿ´ê±°ì¦Ī":11495,"Ġë°ľëªħ":11496,"ìĤ°ëıĻ":11497,"ĠíĥĢì¿ł":11498,"Ġê¸Īê°Ĳ":11499,"Ġë¶ĢëıĦ":11500,"Ġìĭ¤ì±ħ":11501,"íĥľìļ°":11502,"Ġëĥł":11503,"Ġëª¨ìĥī":11504,"ĠíĹ¬ìĬ¤":11505,"ë²ĪíĬ¸":11506,"Ġíķ´ê³¨":11507,"Ġë¯¸ë¯¸":11508,"Ġì²ĺì°¸":11509,"Ġëĭ¨ìĭĿ":11510,"ĠíĮĮìĬ¤":11511,"ê·¸ëĤĺ":11512,"ĠìĿ´íİĻíĬ¸":11513,"Ġê¸Īíĺ¸":11514,"Ġìĺ¬ëĿ¼ê°Ī":11515,"Ġê´ĳë¶Ģ":11516,"ata":11517,"ĠìĬ¤íĭ±":11518,"Ġ++":11519,"ĠëĤ©ëĵĿ":11520,"ga":11521,"Ġìłķë°ĺ":11522,"Ġì£¼ìĭľ":11523,"Ġíıīìĥģ":11524,"ĠëĤĺë¥´":11525,"Ġëª¨ìĶ¨":11526,"Ġë¦¬ê°Ģ":11527,"ìĺ¤ë£¨":11528,"Ġëĭ¤ì¼Ģ":11529,"Ġìĺ¬ë¦¬ë¸Į":11530,"Ġ=================":11531,"Ġì°¨ëªħ":11532,"ĠêµŃìĪĺ":11533,"ĠìĬ¤íħĿ":11534,"ĠìĹ°ëıĻ":11535,"ĠíĮį":11536,"ĠíĶĮëĿ¼ìĿ´":11537,"Ġìŀ¬ë°ľ":11538,"Ġì¹´ìŀĲ":11539,"Ġì¶©ì¡±":11540,"Ġìĥģíĸī":11541,"Ġë³´íĺ¸ë§ī":11542,"Ġë°ķëŀĮíļĮ":11543,"Ġsum":11544,"ëĦ¤ìĿ¼":11545,"ĠìĲ":11546,"Ġë°ĶìĿ´ìĺ¬":11547,"Ġê·¸ê°Ħ":11548,"ĠëłĢ":11549,"Ġëį°ëª¨":11550,"ĠìĹ¬ëĮĢ":11551,"Ġbpm":11552,"Ġìŀ¥ë¡ľ":11553,"ĠíĮĲëĭ¤":11554,"Ġëĭ¨ì¢ħ":11555,"ĠìĦľë²ĪíĬ¸":11556,"ì½¥":11557,"Ġë¶Īìĸ´":11558,"ĠìłķìĦĿ":11559,"ĠíĶ¼ìĹĲ":11560,"Ġì¡°ìĨį":11561,"ko":11562,"Ġì§Ģì¹Ń":11563,"ĠìĸĳëıĦ":11564,"Ġíķ¨ìľł":11565,"gl":11566,"Ġaa":11567,"ĠìĿ´ê¸´":11568,"Ġëªħë¬¸":11569,"Ġrec":11570,"Ġê²°íķ¨":11571,"Ġìĺ¤ë¡ľì§Ģ":11572,"ĠíĮ¨ë°Ģë¦¬":11573,"ķ¡":11574,"Ġ25":11575,"Ġìłķíķ´ì§Ħ":11576,"Ġìķ¼ë§ĪíĨł":11577,"Ġê±°ëĳĶ":11578,"ĠìłĢëłĩê²Į":11579,"Ġê´ĢëŀĮê°Ŀ":11580,"Ġì¡°ëĭ¬":11581,"ĠíĶĮëĿ¼ìĬ¤íĭ±":11582,"ĠìĨĮë°©ìĦľ":11583,"¨¼":11584,"Ġì¹´ìĻĢ":11585,"ë½ķ":11586,"Ġì¤ĳê³Ħì":11587,"Ġcomm":11588,"ĠìŀħìĤ¬":11589,"Ġìłķì¤Ģ":11590,"ĠíĬ¸ë¡¤":11591,"Ġì°¨ë¶Ħ":11592,"ĠìĦ¬ëĦ¤ìĿ¼":11593,"ivers":11594,"Ġì°¾ìķĦëĤ´":11595,"ĠìĻ¸ìĭł":11596,"Ġì§ģìĦł":11597,"ĠìĤ¬ì§ģ":11598,"ë°Ľì¹¨":11599,"Ġëĭ¤ì§Ĳ":11600,"Ġëīĺ":11601,"ĠíĶ¼ìļ°":11602,"äº":11603,"Ġê³µëĮĢ":11604,"Ġinstafood":11605,"Ġê°ķë¯¼":11606,"Ġëĳł":11607,"Ġì´Īìĥģ":11608,"ĠëŀĢìĬ¤":11609,"Ġìĸ´ëł¤ìĽł":11610,"Ġì¼ĢìĿ¸":11611,"ìĭľìŀ¥":11612,"ĠíĥĦìķķ":11613,"ĠìľĦíķ´ìĦł":11614,"Ġë¹Ħëªħ":11615,"Ġì¶Ķë¦¬":11616,"¹Ī":11617,"Ġë°ĢëıĦ":11618,"Ġì²łìĽĲ":11619,"Ġê°Ŀê´Ģ":11620,"ĠìĽĲíĻľ":11621,"Ġê°Ģë§Ī":11622,"Ġbaby":11623,"ë¸Ķë¦°":11624,"ëĿ¼ëĶĶ":11625,"Ġë³´ìľ¡":11626,"Ġì´ĪìĿ¸":11627,"Ġëª¨ëĵĪ":11628,"Ġëļ±":11629,"Ġìŀ¥ìķłë¬¼":11630,"Ġë®Į":11631,"ĠìĿ¼ê³±":11632,"ĠìĹ¬ê¸´":11633,"Ġair":11634,"ĠìłĦìĤ°":11635,"íĺĦì§Ħ":11636,"ĠëįĶêµ°ìļĶ":11637,"ĠëĿ¼ìĿ´ìĺ¨ì¦Ī":11638,"ĠíĹĮìŀ¬":11639,"Ġê¸īíķĺ":11640,"Ħë²ķ":11641,"Ġêµ¬ìŀ¥":11642,"Ġìļ°ìĽĶ":11643,"ĠëĶ°ìĺ¨":11644,"ĠìĹ¬ë°°ìļ°":11645,"ĠìĪĺìĨĮ":11646,"ĠìĤ¬ë²Ķ":11647,"Ġìĭľìĭľ":11648,"ĠìĻķë³µ":11649,"Ġìłĳìĭľ":11650,"ĠëŃĶì§Ģ":11651,"Ġë§ŀì¶°ìĦľ":11652,"ĠëĮĢê´Ģ":11653,"Ġë³´ì¡°ê¸Ī":11654,"ĠìĿ´ê±¸ë¡ľ":11655,"ari":11656,"ĠìĤ¬ëĤĺ":11657,"Ġë¯¸ëģĦëŁ¬":11658,"Ġwho":11659,"ĠìłĲê±°":11660,"ĠëĽ°ìĸ´ëĵ¤":11661,"Ġiv":11662,"ĠëĴĢ":11663,"ye":11664,"ĠíĥĲìĥī":11665,"Ġê±´ìłĦ":11666,"ĠëĲłê¹Į":11667,"ĠíĴįìĦł":11668,"ìĻ¸ë¡ľ":11669,"Ġë§ĽëĤĺ":11670,"Ġê²½ìĹ°":11671,"Ġê·¸ìłľ":11672,"ìĬ¤íĥĢìĿ¸":11673,"Ġ13":11674,"ĠìłĢì§ĪëłĢ":11675,"ëĭĲëĿ¼":11676,"ĠëıĻìłĲ":11677,"ĠìķĦëłĪëĤĺ":11678,"Ġë¬´ê¶ģ":11679,"íħĮìĿ´ëĦĪ":11680,"Ġì²´ìĿ¸ì§Ģ":11681,"Ġë³Ģíķ´":11682,"Ġíķ«ëī´ìĬ¤":11683,"Ġë¶ģêµ¬":11684,"ĠìĹĲë¡ľ":11685,"ĠìĿĺìĻ¸ë¡ľ":11686,"ĠìĿ´íĥĢ":11687,"Ġì¡°ë¦½":11688,"ĠìļĶê²©":11689,"ĠìĬ¤íĭ°ë¸Į":11690,"Ġíį¼ì¦Ĳ":11691,"Ġmhz":11692,"ĠìĿ¼íĻĶ":11693,"ĠìĿ´ìĻĦ":11694,"Ġê´ĢìłĪ":11695,"°ĶëŀĮ":11696,"Ġéķ":11697,"ìĬ¤íĭ±":11698,"Ġìŀłëĵ¤":11699,"ĠíĿĶíķľ":11700,"Ġê±´ìĿĺ":11701,"Ġë³¼ê¹Į":11702,"Ġget":11703,"Ġì°¨ë¦¬":11704,"ĠìĨĮìŀ¬ì§Ģ":11705,"Ġì¡°ë¡±":11706,"Ġìį¬ëįĶ":11707,"ĠëĤĺëŀĢíŀĪ":11708,"ĠëĮĢìĹŃ":11709,"Ġë²Ħë¸Ķ":11710,"Ġher":11711,"Ġëª¸ë§¤":11712,"ĠêµĲìłķ":11713,"Ġìĭ¤ìĥģ":11714,"ĠëłĪì½Ķëĵľ":11715,"ĠæĹ¥":11716,"ĠìĬ¤íĥĢëĶĶìĽĢ":11717,"Ġsol":11718,"Ġbest":11719,"Ġìĸ´íķĦ":11720,"Ġë¯¼ì¤ĳ":11721,"ĠëĤĢ":11722,"ê²ĮìŀĦ":11723,"ĠìºĲìĭľ":11724,"Ġê±´ì¶ķë¬¼":11725,"Â·":11726,"Ġì²ľêµŃ":11727,"Ġê·¹íŀĪ":11728,"ĠìĭľìĪł":11729,"ĠìłĢê±°":11730,"ĠìłĦê²½":11731,"Ġpre":11732,"Ġêµ¬ëıĻ":11733,"__":11734,"Ġì£¼êµĲ":11735,"Ġë°°ì¶Ķ":11736,"ĠìķĦíĶĦê°Ħ":11737,"Ġì£¼ìĭĿíļĮìĤ¬":11738,"ĠìĿ´ì¼Ģ":11739,"Ġå±±":11740,"Ġê³µëª¨ìłĦ":11741,"Ġíķ©ìŀĳ":11742,"Ġê¿°":11743,"ĠíķĦíĦ°":11744,"ëĤ´ë¦¬":11745,"ĠìĹ°ìĿ´":11746,"ĠìķĦìĿ´ëĶĶ":11747,"ĠëĦīëĦī":11748,"ĠëĳĲëĵ¤":11749,"Ġ14":11750,"ĠìĦ±ìĪĺ":11751,"ĠíĮĮìļ´ëĵľ":11752,"Ġìĭľì¼ľìķ¼":11753,"ëŁ¬ì§Ģ":11754,"cc":11755,"Ġyo":11756,"Ġê³ĦìĪĺ":11757,"Ġì¹ľíķ´":11758,"fff":11759,"²¤":11760,"ĠìķĦìĿ´íĮ¨ëĵľ":11761,"Ġë¦¬ì½Ķ":11762,"Ġë³´íĬ¸":11763,"Ġì°¾ìķĦë³¼":11764,"Ġì§ĢíĮ¡ìĿ´":11765,"Ð¾Ð":11766,"ĠëĮĢì£¼":11767,"íĤ¤íį¼":11768,"Ķĺ":11769,"ìķĦìł¸":11770,"Ġìŀ¥ìĭł":11771,"Ġì§Ħê²©":11772,"Ġë³´ìĬ¤íĦ´":11773,"Ġì´īì§Ħ":11774,"Ġë²ķì¡°":11775,"Ġart":11776,"Ġíķ´ìł¸":11777,"ĠëĲĲìľ¼ë©°":11778,"ë¬´ìĭľ":11779,"ĠìĭľìĨį":11780,"ê·¸ë¦¬":11781,"ĠëĮĢìłĳ":11782,"ĠíĤ·":11783,"Ġêµ¬ë¥´":11784,"ĠëĮĢìĿ¸":11785,"ìĹ¬ê°Ŀ":11786,"ĠëłĪëª¬":11787,"Ġíķĺíĸī":11788,"Ġë°ķì°¬":11789,"ĠìķĶíĺ¸":11790,"Ġê¸°ë¬ĺ":11791,"Ġì§Ĳìŀĳ":11792,"ĠìĦ±ìĶ¨":11793,"Ġì§ĪíĪ¬":11794,"ĠìłĢë²Ī":11795,"Ġê°Ĳëĭ¹":11796,"ĠìĪĺì£¼":11797,"Ġíĩ´ì§ģ":11798,"ĠìĿ¸ë¬¸":11799,"ĠëĿĦì":11800,"ĠíķĻìĥĿíļĮ":11801,"ĠìĿ´íķľ":11802,"ĠìŀĦíĮ©íĬ¸":11803,"ĠìłľìĻķ":11804,"Ġbeat":11805,"Ġê¸°ìģ¨":11806,"Ġje":11807,"Ġë³Ģíķ¨":11808,"Ġê³µê¸°ìĹħ":11809,"Ġìŀłìŀħ":11810,"Ġìļ°ì¹ĺ":11811,"Ġê²°íĪ¬":11812,"ĠìĦłêµĲ":11813,"Ġì¤ĳê²¬":11814,"Ġíķľìĥģ":11815,"ĠìĥĿë¦¬":11816,"Ġë°ĺê°Ĳ":11817,"ĠìĽĮíģ¬ëŀĺíĶĦíĬ¸":11818,"ĠëĨĢëŀĲ":11819,"Ġ''":11820,"Ġë°ĺíĻĺ":11821,"ĠíĬ¸ëłĮëĵľ":11822,"ĠìŀĲìłķ":11823,"Ġì½ķ":11824,"Ġëļľê»ĳ":11825,"Ġìłķê²½":11826,"ĠìĿ´ëĿ¼ëıĦ":11827,"Ġë¶ĢìĽĲ":11828,"Ġsize":11829,"Ġìķ¤ëĵľ":11830,"Ġsv":11831,"Ġìµľìŀ¬":11832,"Ġì¤ĳê°ľ":11833,"Ġë°ľíĮĲ":11834,"ĠìĤ°ë§¥":11835,"ìĬ¹ë¶Ģ":11836,"ĠëĤĺíĥĢëĤł":11837,"Ġbat":11838,"Ġë¦¬ì¦Ī":11839,"Ġíı¼íİĺìĿ´":11840,"ĠíĮĮìĿ´íĬ¸":11841,"Ġê³¨íĤ¤íį¼":11842,"Ġâĺħâĺħâĺħ":11843,"ëĤ¨ëıĻ":11844,"Ġìłĳìĸ´ëĵ¤":11845,"Ġstation":11846,"¼ë³ĳ":11847,"Ġë°©ìĹŃ":11848,"Ġê³µê³ł":11849,"Ġì°¸ì¹ĺ":11850,"ìĭľìĬ¤ì½Ķ":11851,"Ġë¬´ìĭľë¬´ìĭľ":11852,"ĠëĶľëłĪìĿ´":11853,"Ġì¤Ħê±°ë¦¬":11854,"Ġê·¼ê±°ë¦¬":11855,"Ġíı¬íģ¬":11856,"Ġë°±ìĸµ":11857,"Ġìľ¼ëł¤ë©´":11858,"Ġë³´ìĬµ":11859,"ĠìłĦëħĦ":11860,"ĠìłĬìĿĢìĿ´":11861,"ĠìħĶíĭĢ":11862,"ĠíĥĢìĦĿ":11863,"ĠìĹĶì§Ģ":11864,"ĠêµŃíĮĲ":11865,"ĠìĿĺìłľ":11866,"Ġì§ģê¶Į":11867,"Ġæĸĩ":11868,"Ġì°¨ëł¤":11869,"ìĪĺë¦¬":11870,"ëĬĲë¦¬":11871,"ĠëĵĢìĺ¤":11872,"Ġë¶Īíİľ":11873,"ĠíĨµìŀ¥":11874,"ëłĪìĿ¼ë¦¬":11875,"Ġëħ¹íĻĶ":11876,"ĠëłĪìĿ¼":11877,"ĠíĬ¹ê³µ":11878,"ĠíħŁ":11879,"Ġë°ĶëĢĲëĭ¤":11880,"ĠëıĦì²Ń":11881,"Ġ%),":11882,"ĠìľłìĦł":11883,"Ġíģ´ëłĮ":11884,"Ġìĭ¤ëł¤":11885,"ê·¸ë§¨":11886,"Ġì°¸ë°°":11887,"Ġìŀ¬ìĪĺ":11888,"ë¸Ķë¦¿":11889,"©ĺ":11890,"ĠìĿ´ë¸ĮëĭĿ":11891,"Ġìĺģì§Ģ":11892,"ĠíĶĦë¡ł":11893,"Ġíķ¨ë¶Ģë¡ľ":11894,"ìĻ¸ë²ĦìĬ¤":11895,"Ġë¯¼ê°ĦìĿ¸":11896,"ĠìĿ´ê¸ĢìĬ¤":11897,"Ġìĥ¬":11898,"Ġë°ķê¸°":11899,"Ġë²Ħíħ":11900,"ìĺ´":11901,"Ġê¹Ģë¬¸":11902,"ĠíŀĪëĿ¼":11903,"Ġì¢ħê²°":11904,"Ġbc":11905,"íĬ¸ëĿ¼ë":11906,"ron":11907,"ĠìłĦìĪĺ":11908,"Ġëħ¸ë¦°":11909,"ĠíİĺëĦĲ":11910,"ĠìĦ¸ëĿ¼":11911,"ë¦¬ìĺ¨":11912,"ĠìĭľìĻ¸ë²ĦìĬ¤":11913,"Ġê·¼ìĽĲ":11914,"Ġì§ĢìĦ±":11915,"ĠìķĪì£¼":11916,"Ġì§ĳìĸ´ëĦ£":11917,"Ġëŀĺíį¼":11918,"ÑĤ":11919,"Ġì«ĵê²¨":11920,"Ġë³´íĹĺê¸Ī":11921,"ĠìĥĮëĵľìľĦì¹ĺ":11922,"ĠìĽĲì²ľ":11923,"Ġgdp":11924,"ĠíĪ¬ì²Ļ":11925,"Ġë¶ĢìĥģìŀĲ":11926,"ĠíĽĦì§Ħ":11927,"Ġë§¤ëĵľ":11928,"Ġë°¸":11929,"ĠíĽĦìŀĲ":11930,"Ġëĥīê°ģ":11931,"Ġìłķìļ´":11932,"ìĥģë¶Ģ":11933,"Ġíĳ¸íĭ´":11934,"ĠíŀĪë¡ľìĭľë§Ī":11935,"Ġìĸ´ìļ°":11936,"ĠìĽĲë¡ľ":11937,"Ġê²°ëĭ¨":11938,"ĠìĬ¤ë¯¸ìĬ¤":11939,"Ġë¦¬íĭĢ":11940,"Ġê¸°ìĪĺ":11941,"ãĥ¼":11942,"íĶĦìĬ¤":11943,"Ġì¿łìħĺ":11944,"Ġìĭ£":11945,"ĠìķĦìĪĺ":11946,"Ġëĭ¬ìķĦë":11947,"ject":11948,"ĠíĤ¤íĥĢ":11949,"ĠìĤ¬ê´Ģ":11950,"Ġíı¬íļį":11951,"ĠìłĪê°Ĳ":11952,"Ġê²½ìłľíķĻ":11953,"ĠìĪĺëĭ¤":11954,"ĤĺëĿ¼":11955,"Ġê¹Ģë°¥":11956,"Ġëı¼ì§Ģê³łê¸°":11957,"Ŀ¼ë¹ĦìķĦ":11958,"Ġffffff":11959,"ĠêµŃì§Ģ":11960,"Ġë¯¸ìĦ±":11961,"Ġheart":11962,"Ġê¸°ëıĻìĦ±":11963,"ĠìºĲì¹ĺ":11964,"ĠìĪĺëĭ¹":11965,"able":11966,"ëĦĽ":11967,"Ġbea":11968,"Ġê³łëł¤ëĮĢ":11969,"ĠìĦľíģ´":11970,"ĠëįĶë¹Ļ":11971,"Ġìĭ¤ìłķ":11972,"Ġëª¨ìĿĺ":11973,"ê³ĦìĤ¬":11974,"ĠìĹ¬ë¦":11975,"Ġìĥ¤ìĿ´":11976,"Ġìłľê³±":11977,"Ġìŀ¬ê³ł":11978,"ĠíĥĢìĿ¼":11979,"Ġì±ħìŀĦì§Ģ":11980,"ĠëĪĪìķŀ":11981,"Ġë²łíħĮ":11982,"Ġì¡´ìĬ¤":11983,"ĠíıŃê²©ê¸°":11984,"Ġìłľëıħ":11985,"ĠìĿ´ê°ķ":11986,"ĠìķłìĻĦ":11987,"Ġend":11988,"ĠëªħëıĻ":11989,"ĠìĤ¬ì´Į":11990,"Ġíĺ¼ëıĪ":11991,"Ġë°ķë³ĳ":11992,"¦Ŀ":11993,"Ġë¦¬ì½ľ":11994,"Ġë§Īì½ĶíĨł":11995,"Ġìŀ¬ìķĻ":11996,"Ġrock":11997,"vi":11998,"Ġë¶Ģìľł":11999,"ert":12000,"ĠæĪ":12001,"Ġê¸°ë²ķ":12002,"Ġê³µíĹĮ":12003,"Ġê²Ķ":12004,"Ġáħµ":12005,"íĶ¼ë":12006,"Ġìłķë°ľ":12007,"Ġëħ¸íķĺìļ°":12008,"ĠìĿ´ì§Ħ":12009,"Ġê¸°ëł¥":12010,"Ġì¹´ìĭľ":12011,"íį¼ëĵľ":12012,"ĸ¼":12013,"ĠìĹ°ìĨĮ":12014,"Ġì£¼ìłĢ":12015,"Ġê°ģëıĦ":12016,"ĠìķĦë°ĶíĥĢ":12017,"Ġëĵľë¦°":12018,"Ġåº":12019,"ĠíĶ¼ëĤľ":12020,"Ġíķ´ë¨¸":12021,"ĠìĬ¤íĥľ":12022,"Ġê°Ĳì¶ķ":12023,"¾°":12024,"ë¶ĢìĿ¸":12025,"Ġjp":12026,"Ġë§ĪìĿ´ëĦĪìĬ¤":12027,"Ġê»įì§Ī":12028,"Ġì°¨ë¦¼":12029,"Ġinf":12030,"ĠëĦĺìĸ´ìĦ°":12031,"ĠíıŃëĿ½":12032,"íıīê°Ģ":12033,"ë¯¸ìķ¼":12034,"ê¿Ī":12035,"Ġê·¸ìª½":12036,"ĠìĤ¬ë¥´":12037,"Ġëį©ìĸ´ë¦¬":12038,"ë¥¼ë¡ľ":12039,"Ġsong":12040,"Ġts":12041,"Ġ24":12042,"íĥĢì¹´":12043,"Ġì±Ī":12044,"ĠíĹī":12045,"Ġë¶Īì¾Į":12046,"Ġë¹ĦìĬ¤íĬ¸":12047,"Ġìĭłì¶ķ":12048,"ĠëĶ°ëĿ¼ìŀ¡":12049,"ĠëĶ°ìł¸":12050,"ĠëĦĺìĸ´ìĦľ":12051,"Ġë¦¬ëĿ¼":12052,"Ġë¶ģëıĻ":12053,"ìĽ°":12054,"ĠëıĦìĸ´":12055,"Ġëĵ¤ìĿ´ë°Ľ":12056,"Ġê¸°ëıĻìłĦ":12057,"Ġê´Ģëł¨ìŀĲ":12058,"ĠìĹĲë°ĺ":12059,"ĠìĿ¸íĶĦëĿ¼":12060,"ĠíĬ¸ë¦Ń":12061,"Ġì°¨ìĦł":12062,"Ġê·¸ëŀĺìĦľìĿ¸ì§Ģ":12063,"Ġê°ĢëĤĺ":12064,"ater":12065,"ĠìĪĺê³ł":12066,"Ġìŀ¡íĺĶ":12067,"ĠìĤ¬ìĪĺ":12068,"Ġê²¹ì³Ĳ":12069,"Ġê±¸ì¦Ī":12070,"Ġê²©ëł¬":12071,"ĠëĳĲë£¨":12072,"Ġëĭ¬ëŀĺ":12073,"ëŁ¬ê·¸":12074,"Ġëĭ¬íĸĪ":12075,"ĠëĮĢìľĦ":12076,"Ġìĭľëª¨":12077,"Ġêµ¬ê¸ī":12078,"ë¹¡":12079,"ĠíĨłìĭľ":12080,"Ġê²¬ëĶĶ":12081,"ĠíķĺëıĦ":12082,"Ġê´Ģíĸī":12083,"ë©ĺíĦ°ë¦¬":12084,"Ġë¡ľìĿ´":12085,"ĠíĨµì§¸":12086,"ĠêµĲíĨµë¶Ģ":12087,"Ġë³Ģíĺ¸ìĿ¸":12088,"Ġë§ĪìħĶ":12089,"Ġì³ĲìĦľ":12090,"ĠíķĦë¦½":12091,"ĠíĶĦë¡ľíĨł":12092,"ĠëģĿëĤł":12093,"Ġê³µëıĻì²´":12094,"ĠìĥģìĨį":12095,"ëį®":12096,"ĠìĹĦìĹ°":12097,"Ġìľłíı¬":12098,"day":12099,"Ġìļ°ë£¨":12100,"Ġblue":12101,"Ġíķ´ìķ¼ì§Ģ":12102,"ĠìĹĶëĵľ":12103,"Ġì§¬ë½ķ":12104,"Ġë¶ĪìĮį":12105,"ĠìĤ°ëĭ¤":12106,"Ġíĥľë¸Ķë¦¿":12107,"ĠëĿĦìļ°":12108,"Ġëł¤ëĭ¤ê°Ģ":12109,"Ġì½Ķëģ¼ë¦¬":12110,"ild":12111,"Ġíĺ¸ë°ķ":12112,"âĶĢ":12113,"ĠìĪĺìĹ¼":12114,"Ġë¹ĦìĽĥ":12115,"ĠìķŀìĦ¸":12116,"ĠíİĢëĶ©":12117,"Ġì½ĶëĶĶ":12118,"ĠìµľìĥģìľĦ":12119,"íķĺë¥´íĬ¸":12120,"Ġë£¨íģ¬":12121,"ìķĦëĿ¼":12122,"ĠëĤĺë£¨íĨł":12123,"ese":12124,"ĠíķĺìĿ¸":12125,"ĠìĨ¡ëıĦ":12126,"ĠìĿ´íĻĶ":12127,"Ġì¹´ëĭ¤":12128,"Ġì´Īëŀĺ":12129,"ëłĪìĿ¼ë¦¬ìķĦ":12130,"ëľ¨ëł¤":12131,"Ġíİ¸íķľ":12132,"Ġê²½ìĭł":12133,"Ġleft":12134,"Ġê²ľ":12135,"ëľ¨ë¦°":12136,"ĠìŀĲë¹Ħ":12137,"Ġë¶Īìĭł":12138,"ĠëłĪìĿ´ëĶĶ":12139,"ĠëĪĦê·¸ëŁ¬":12140,"ĠìĤ¬ìŀĦ":12141,"ĠëıħìĿ¼êµ°":12142,"ĠíĽĦë°ĺê¸°":12143,"Ġê°Īìĥī":12144,"ĠìĿ´ìŀ¬ìļ©":12145,"Ġê°ķëĤ¨êµ¬":12146,"ĠíĤ´":12147,"Ġë§Įì°¬":12148,"Ġê¹ĢìĽĲ":12149,"ĠìĹīëį©ìĿ´":12150,"Ġê°ķëĵ±":12151,"Ġìŀ¬ì¦Ī":12152,"ĠìĪĺìĦ±":12153,"Ġafc":12154,"ĠìĤ¬ê°ģ":12155,"Ġì¤ĦìĿ¼":12156,"Ġìĺ·ì°¨ë¦¼":12157,"Ġìļ°íĥĢ":12158,"Ġë¶ģê·¹":12159,"Ġíı¬ì»¤ìĬ¤":12160,"Ġíķľì§Ħ":12161,"Ġdu":12162,"ëħ¸ë¯¸":12163,"Ġëĭ¤íģĲë©ĺíĦ°ë¦¬":12164,"ëĿ¼ìĿ´ëĤĺ":12165,"Ġìŀ¬íļĮ":12166,"Ġê¹ĥë°ľ":12167,"Ġíį¼ìĬ¤íĬ¸":12168,"ĠíħĮëĭĪìĬ¤":12169,"Ġë°±ëĳĲ":12170,"Ġë©ĶìĿ´íģ¬ìĹħ":12171,"ĠëĿ¼ìĿ´ìĸ¸":12172,"Ġê°±ìĭł":12173,"íĿ¬ìłķ":12174,"Ġë§Ĳê¸°":12175,"Ġì±Ħì·¨":12176,"Ġë¹Ħì¦ĪëĭĪìĬ¤":12177,"Ġìĺģê°Ĳ":12178,"Ġêµ¬ëĳĲ":12179,"Ġë£¨íĶĦ":12180,"Ġìµľìĺģ":12181,"Ġë´īíĪ¬":12182,"ĠíķĺëĤĺëĭĺ":12183,"ani":12184,"Ġbd":12185,"ê³łëŀĺ":12186,"Ġë°°êµ¬":12187,"Ġëĭ¤íĪ¼":12188,"Ġpower":12189,"ĠëĭĪìķĦ":12190,"ĠëĭĪíĺ¼":12191,"Ġìľ¤ìĦĿ":12192,"ĠìķĦë¥´ë°ĶìĿ´íĬ¸":12193,"ĠìĿ¸ê³¼":12194,"ĠìĦłëıĻ":12195,"Ġìŀħìĸĳ":12196,"ĠìĨĲìī½":12197,"Ġìłķê´Ģ":12198,"Ġë¦¬ì²ĺëĵľ":12199,"Ġê·¸ëĿ¼ìļ´ëĵľ":12200,"Ġìłķê³Ħ":12201,"Ġëª¨ìĬ¤":12202,"Ġìŀ¥íķĻ":12203,"Ġìĵ¸ëį°":12204,"Ġê°Ħì²":12205,"ĠëĿ¼ëĵłì§Ģ":12206,"Ġë°°ëĭ¹":12207,"ĠíĻķê³ł":12208,"ìļ°ì¹ĺ":12209,"Ł³":12210,"ĠìĪľì°°":12211,"Ġì²¸":12212,"ĠëĨįìĤ¬":12213,"Ġë¹ĦëĤĺ":12214,"ĠìĪĺëł´":12215,"ĠëłĪìĭľíĶ¼":12216,"ĠíĬ¸ëŁ¬":12217,"ĠìĤ¬ìķ¼":12218,"ĠíŀĪëĵł":12219,"ĠìĹ°ìķĪ":12220,"Ġë§Īìĺ¤":12221,"Ġëĸ´":12222,"Ġê³µì§ľ":12223,"ĠìĿ¸ì¹ľ":12224,"Ġ{{{#":12225,"ĠëĮĢì¤ĳêµĲíĨµ":12226,"Ġì¹¼ë¡ľ":12227,"Ġê·ĢìĹ¬ìĽĮ":12228,"Ġë¶ĢìĤ¬ìŀ¥":12229,"ë¶Īëªħ":12230,"ëĥł":12231,"ĠìĦľë¦¬":12232,"Ġì»¨íħĮìĿ´ëĦĪ":12233,"Ġê³±ì°½":12234,"Ġë¶ĦìĪĺ":12235,"ĠìŀĦìĥģ":12236,"Ġì¹ľì²Ļ":12237,"Ġëĭ¤ëĭĮëĭ¤":12238,"Ġë°ĺê²½":12239,"Ġê°Ģì§Ħëĭ¤":12240,"ĠëıĮìķĦê°Ī":12241,"Ġêµ¶":12242,"ĠìĦ±ìłĦ":12243,"Ġok":12244,"Ġì²ĺë°©":12245,"Ġhap":12246,"Ġë£¨ë§Ī":12247,"âĨĴ":12248,"Ġìĺ¤ìĬ¤íĬ¸ëłĪìĿ¼ë¦¬ìķĦ":12249,"ìĿĮìĿ´":12250,"ĠìĭľíĿ¥":12251,"Ġíľĺíķĺ":12252,"Ġê¸°ë¥´":12253,"Ġìļ´ë°ĺ":12254,"ĠìķĪìĥģ":12255,"ĠáĦĭ":12256,"ĠëĿ¼ìĿ´ëĦĪ":12257,"ĠìĨĮíıŃ":12258,"ĠìĦĿìĤ¬":12259,"Ġì²łê¶Į":12260,"Ġíĩ´ì¶ľ":12261,"Ġëĭ¹ëĮĢ":12262,"Ġê°Ģì¶ķ":12263,"Ġì¹´ë©Ķ":12264,"ĠëĴ·ë°Ľì¹¨":12265,"ĠëĨįìĤ°ë¬¼":12266,"Ġë³´íĸī":12267,"ĠìĤ¬íĪ¬":12268,"Ġìľłì£Ħ":12269,"Ġë¡ľë§¨ìĬ¤":12270,"Ġìĭ¤ëªħ":12271,"ĺìĸ´":12272,"ĠìľłëĭĪíģ¬":12273,"Ġìĭ¬ìķ¼":12274,"Ġë¸ĶëĿ¼":12275,"Ġê³¤ì¶©":12276,"ëĮĢêµĲ":12277,"ìĸ´ìł¸":12278,"Ġì°¨ê°Ģìļ´":12279,"ĠëıĻìĦ±ìķł":12280,"ĠíķĺíĶĦ":12281,"ĠëĮĢê¶Į":12282,"ìĦŃëĭĪëĭ¤":12283,"Ġê±°ìłľ":12284,"âĸł":12285,"Ġë¶ĢëģĦëŁ¬":12286,"Ġdel":12287,"Ġìŀ¡íŀĮ":12288,"ĠíĺĪìķ¡íĺķ":12289,"Ġìłķíķľ":12290,"ĠìĤ¬ë¬¼":12291,"Ġì¶ľë£¨":12292,"ĠíĶĦëŀĳìĬ¤ìĸ´":12293,"Ġë³´ëĭµ":12294,"ĠìŀĲìĤ¬":12295,"ĠìŀĦì¢ħ":12296,"ĠíĶĦëłĪìĬ¤":12297,"Ġì±ħìĥģ":12298,"Ġë§¤ëĭĪìķĦ":12299,"Ġëĭ¨ë§Ĳ":12300,"Ġíı¬íĦ°":12301,"ìĽĮì¦Ī":12302,"ha":12303,"Ġêµ´ëŁ¬":12304,"ĠìĦľê·Ģ":12305,"Ġê±´ìĦ¤ìĤ¬":12306,"Ġëª¨ìļķ":12307,"Ġë¯¸ìĪĺ":12308,"Ġra":12309,"Ġì¡°ìļ°":12310,"Ġë°ľíĥģ":12311,"ĠìķĦìķĦ":12312,"Ġê¹¨ì§Ģ":12313,"Ġìĺ¤ë§Į":12314,"Ġìĥīëĭ¤ë¥¸":12315,"ê¶Ī":12316,"íĬ¸ëŀ":12317,"Ġë§Įì§Ģ":12318,"ĠëĤ¨ìļ©":12319,"Ġìĭłëį°ëłĲëĿ¼":12320,"Ġìĥ¹":12321,"Ġëĭ¤ê°Ģê°Ģ":12322,"Ġë¬´ëĬ¬":12323,"ĠìĽĲê³¡":12324,"ĠìĽĢì§ģìĿ¼":12325,"Ġë²¤ì¹ĺ":12326,"Ġâĸ¼":12327,"Ġëįĺì§Ħ":12328,"Ġì½Ķë§Ī":12329,"ĠìĬ¤ì¦ĪíĤ¤":12330,"Ġë³´ëĿ¼ìĥī":12331,"ĠìĬ¤íĥĢíĬ¸":12332,"ĠìľłëĿ¼":12333,"Ġ'''":12334,"Ġì§ĢìĥģíĮĮ":12335,"ĠìĤ¬ìĤ¬":12336,"ìķĦë³´":12337,"ĠíĻĺíĺ¸":12338,"land":12339,"Ġëĭ¬ëŀĲ":12340,"Ġê³¼ìĦ¸":12341,"ĠëĨĢëŀį":12342,"Ġê³µìĺģ":12343,"ìĹħìŀĲ":12344,"Ġlp":12345,"Ġë¬´ìŀĳìľĦ":12346,"ĠíĺĳëıĻ":12347,"ìłľíĴĪ":12348,"Ġìĥģê¸Ī":12349,"§¥":12350,"ĠëĮĢíĥĢ":12351,"íĺľì§Ħ":12352,"Ġìĵ°ëŁ¬ëľ¨ë¦¬":12353,"Ġê°ĦìĦŃ":12354,"ĠíķĺìĬ¤":12355,"ĠíĢ´ì¦Ī":12356,"ì§ķê¸Ī":12357,"Ġëģ¼ì¹ĺ":12358,"Ġë¬´ê³µ":12359,"Ġëµ":12360,"ĠëĭīëĦ¤ìŀĦ":12361,"Ġë®ĮíĹ¨":12362,"Ġmed":12363,"ĠëĿ¼ì¦Ī":12364,"Ġê°ľêµ¬ë¦¬":12365,"ĠíŀĪíĭĢëŁ¬":12366,"Ġact":12367,"ĠëĦĺìĸ´ê°Ķ":12368,"-****-****":12369,"Ġìļ°ìĬ¹ìŀĲ":12370,"ĠìĤ¬ìĿ´ì½Ķ":12371,"ĠìĹ´ëĮĢìķ¼":12372,"Ġë§ĪìĿ¼":12373,"Ġë©Ķëª¨":12374,"Ġë§īê°ķ":12375,"Ġsky":12376,"ĠíļĮìĽĲêµŃ":12377,"ĠìĹ£":12378,"Ġinline":12379,"Ġìĸĳë°ĺ":12380,"Ġë©ĶìĿ´ì§Ģ":12381,"Ġhave":12382,"ë²Ħì":12383,"ĠëĬ¥ëł¥ìŀĲ":12384,"ĠëĦĺì³Ĳ":12385,"ê³°":12386,"Ġë²Ħëł¤ìĦľ":12387,"ĠëıĦìĬ¤":12388,"Ġê¹ĮìĬ¤":12389,"Ġëĭ¬ëĿ¼ì§Ħ":12390,"ith":12391,"Ġë°ķìļ©":12392,"Ġpm":12393,"ĠíĿ¥ë¶Ħ":12394,"Ġtype":12395,"Ġë¬´ëįĶê¸°":12396,"Ġser":12397,"Ġëį°ëł¤ê°Ģ":12398,"ë¥´ê¸°":12399,"ìĭľëĮĢ":12400,"Ġnow":12401,"Ġì°©ê³µ":12402,"Ġìĸ¸ëį°":12403,"Ġìŀħì°°":12404,"Ġwin":12405,"ĠëıĻëĮĢë¬¸":12406,"ĠíĪ¬ëĭĪ":12407,"Ġë¯¸ëŁ¬":12408,"ĠíĤ¬ë¡ľë¯¸íĦ°":12409,"Ġê°ĩíĺĢ":12410,"Ġë¯¸ìĥģ":12411,"Ġë°°ìļ´":12412,"ĠìĦ±ë²Ķì£Ħ":12413,"Ġìĺ¤ë¦Ħ":12414,"ĠìĬ¤íı¬ìĿ¼ëŁ¬":12415,"Ġbig":12416,"Ġê·¸ëŀĳíĶĦë¦¬":12417,"Ġë³´ìĹ¬ìĦľ":12418,"Ġë¦¬ì¡°íĬ¸":12419,"ĠíĬ¹ë³Ħë²ķ":12420,"Ġì¡°ìķĦ":12421,"ĠíķĺìĤ¬":12422,"Ġë§Īìļ´":12423,"ĠíĨłë§ĪìĬ¤":12424,"Ġì£¼ê³µ":12425,"Ġtri":12426,"Ġradius":12427,"ob":12428,"ĠìķĶìĤ´ìŀĲ":12429,"Ġê³µì§ģìŀĲ":12430,"ëĭ¤ìļ´":12431,"Ġë¶ĻìĿ¸":12432,"ìĿ¸ë³´":12433,"Ġê´ĳë¬¼":12434,"ĠíĶĦëłĪìĿ´":12435,"Ġìĸ´ìĿ´ìĹĨ":12436,"Ġë¶ĪëĬ¥":12437,"Ġìľłë¯¸":12438,"ä¸":12439,"Ġë¯¸ëħĢ":12440,"Ġíľĺë°ľìľł":12441,"Ġíĺ¸ìĿĳ":12442,"Ġë³¶ìĿĮë°¥":12443,"Ðº":12444,"ĠìŀĲíļĮìĤ¬":12445,"Ġë§ĪìĿ¸ëĵľ":12446,"ìĿĢìĥī":12447,"Ġìĸ¸ëį°ëĵľ":12448,"Ġë³´íİ¸":12449,"ĠìĿ´ëĿ¼ëĵłì§Ģ":12450,"ĠìĨĲëª©":12451,"Ġëª¨ìĺĢ":12452,"ĠêµĲëĭ¨":12453,"Ġì¢ĮíĮĮ":12454,"ĠìĬ¤íķĢ":12455,"Ġê´Ģê±´":12456,"Ġ-\"":12457,"Ġë¬¸ìĭł":12458,"Ġlte":12459,"ĠìĸĳìĨĲ":12460,"Ġë§Īìĵ°":12461,"ĠëĤ´ìĦ¸ìļ°":12462,"ĠìĿ´ìĺ¤":12463,"Ġspec":12464,"ë¦¬ì¹¸":12465,"ĠìĦ¼íĭ°":12466,"ĠìĦľê·Ģíı¬":12467,"Ġì¹ľë¶Ħ":12468,"Ġêµ¬ë§Ī":12469,"ĠåĪ":12470,"ax":12471,"ĠìĬ¤íĢ":12472,"ĠìķĦëĭĻëĭĪê¹Į":12473,"Ġê³µíĨµìłĲ":12474,"Ġê³µìłķìľĦ":12475,"Ġì²´ë¥ĺ":12476,"ĠëıĻêµŃ":12477,"Ġself":12478,"Ġíģ¬ëłĪìĿ´":12479,"Ġëģ¼ìĽĮ":12480,"ĠëĤĺëī":12481,"¶Ķ":12482,"ĠìĹ°ìĬµìĥĿ":12483,"ëĭ¨ì§Ģ":12484,"Ġìłģë¦½":12485,"ĠìĽĲìĭľ":12486,"Ġê¹Ĳ":12487,"ģĦ":12488,"ĠíĮ¨ìłĦ":12489,"Ġì§Ģê°ĳ":12490,"Ġ***-****-****":12491,"Ġìļ¸ë¦īëıĦ":12492,"ĠíĻ©íĥľ":12493,"oid":12494,"Ġëĵľë¡ľ":12495,"ĠíķĻëħĦëıĦ":12496,"ĠìĹīë§Ŀ":12497,"ĠìĽĮì¦Ī":12498,"ĠìłĦíĸ¥":12499,"ĠìĹĲíĶ½":12500,"ĠíĥĢë¥´":12501,"ĠìĦľìĹ´":12502,"ĠíĬ¸ëŀĺ":12503,"Ġë¯¿ìĿĮ":12504,"Ġë¸ĶëŁŃ":12505,"ĠìĺĪê³łíİ¸":12506,"ĠìķĦìĿ´ëŁ¬":12507,"±Ħ":12508,"ĠëĤ¨ìĤ°":12509,"Ġíĸ¥ìĪĺ":12510,"Ġwhite":12511,"Ġìĭłê²½ìłĦ":12512,"Ġì£¼íĮĮ":12513,"Ġì¦īìĤ¬":12514,"ĠíħĲíĬ¸":12515,"ĠêµĲëĮĢ":12516,"Ġì¤ĳíĻĶë¯¼êµŃ":12517,"Ġìŀĥìĸ´ë²Ħë¦°":12518,"Ġìĺ¬ëĿ¼ìĻĢ":12519,"Ġvocal":12520,"ĠâĹĭâĹĭ":12521,"ĪĻ":12522,"Ġìĭ¤ì¡´":12523,"Ġìļ°ëıĻ":12524,"ĠëĤ¡":12525,"ĠìłľëĭĪ":12526,"ê°ĢìļĶ":12527,"ĠíĨµì¹Ń":12528,"ĠíĶĦë¡ľê²ĮìĿ´":12529,"ĠíĶĦë¡ľê²ĮìĿ´ë¨¸":12530,"ĠìķŀìĦł":12531,"ĠíĨµìĺģ":12532,"Ġë¶Ħê³¼":12533,"ĠìĬ¤íı°ìĦľ":12534,"Ġìº¡ìĬĲ":12535,"Ġì¤Ħì¤ĦìĿ´":12536,"Ġìļ°ì¸¡":12537,"Ġê³¼ìŀī":12538,"ëĭĪìĬ¤íĥĦ":12539,"ì²¼":12540,"ëĵ¤ìĹ¬":12541,"Ġë°Ģìĸĳ":12542,"Ġì£¼ìĬ¤":12543,"ĠëĮĢë¶Ģ":12544,"Ġìĺ¤íĤ¤ëĤĺìĻĢ":12545,"ĠìķĮëłīìĬ¤":12546,"Ġë§īë§Ĳ":12547,"Ġìłģì¤ĳ":12548,"ĠíĮľ":12549,"ĠìĹ¬ëŁ¿":12550,"ĠìĨįìĨį":12551,"Ġë°¤ìĥĪ":12552,"ĠìłĪëĭ¨":12553,"ĠëĨįìĦ±":12554,"ĠìŀĦë°ķ":12555,"Ġì²ľì£¼êµĲ":12556,"Ġìķ¼ì§Ģ":12557,"ĠíĮĲëıĦ":12558,"ĠìĦľíı¬íĬ¸":12559,"Ġë¯¸ìĿ¸":12560,"ĠìĪĺë¹ĦìĪĺ":12561,"ĠíĹ·ê°Ī":12562,"ëłĪë°ĺ":12563,"Ġë¸ĮëĿ¼ìĿ´ìĸ¸":12564,"ëĵłì§Ģ":12565,"ĠìĪĺë¹Ħëł¥":12566,"Ġì§ĳìĤ¬":12567,"ĠëĤ¨êµ¬":12568,"Ġë§ŀëĮĢ":12569,"ĠìŀĶíķ´":12570,"ĠìĿ´ìĿ´":12571,"ĠìĤ°ë¦¼":12572,"ĠëĮĢêµŃë¯¼":12573,"ëľ¨ëł¸":12574,"ĠíĬ¸ëłĪìĿ¼ëŁ¬":12575,"ĠìĪľë°©":12576,"ĠëĴ¤ëį®":12577,"ĠëĦĺë²Ħ":12578,"Ġë¬´ìĬ¹ë¶Ģ":12579,"Ġëĭ¹êµŃìŀĲ":12580,"ê´ĢìľĦ":12581,"ĠíĿĲë¦¬":12582,"Ġnm":12583,"Ġë¯¸ìĦ¸":12584,"Ġë³Ģíķľ":12585,"ĠëĮĢìĦ¤":12586,"ĠëĤ´ëł¤ìł¸":12587,"Ġìļ©ìķĶ":12588,"Ġë¶ĦíĻį":12589,"ti":12590,"ëĿ¼ëĿ¼":12591,"Ġìĵ°ìĿ¸":12592,"ĠíĨµíĭĢ":12593,"Ġê³¼ë°ĺ":12594,"Ġë¦¬íı¬íĦ°":12595,"Ġë³´ìĿ¸ëĭ¤ê³ł":12596,"Ġëĥīìłķ":12597,"ĠìłĦìŀĦ":12598,"Ġê´ĳìĦł":12599,"ĠíķĺìĻĢìĿ´":12600,"Ġì¤ĳíķĻìĥĿ":12601,"ĠìĿ¼íĻĺ":12602,"Ġì£¼ê³ł":12603,"Ġfir":12604,"Ġê³łêµ¬ë§Ī":12605,"ĠìĬ¤íĥĪ":12606,"Ġë²łìĸ´ìĬ¤":12607,"ĠíĲģ":12608,"ĠëłīìĬ¤":12609,"ĠìĿ´ìļ©ê°Ŀ":12610,"Ġë§ĪìĿĮëĮĢë¡ľ":12611,"Ġêµ´ìļķ":12612,"ĠìıĻ":12613,"Ġnet":12614,"ĠíĤ¤ìĽĮëĵľ":12615,"Ġëĳ¬":12616,"ĠíĮĮìĤ°":12617,"Ġ=========================":12618,"Ġëĭ¤ìļ°":12619,"ĠìłĪë²½":12620,"Ġì¶ľíĺĪ":12621,"ĠìĿĺìĦĿ":12622,"Ġì¤ĳìľĦ":12623,"ë§Īë¦¬":12624,"Ġëª©ê±¸ìĿ´":12625,"ĠìĹ´íĿĺ":12626,"Ġëĭ¨íĺ¸":12627,"oss":12628,"ĠìłķìłĲ":12629,"ĠìĿ´ìĸ´ì§Ħëĭ¤":12630,"Ġë°°ê¸°":12631,"ĠíĨłíĤ¤":12632,"ĠìĮ¤":12633,"Ġ)\"":12634,"Ġê¶Įìĺģ":12635,"Ġì²łê°ķ":12636,"Ġì¹ľìķł":12637,"ĠíĬ¸ëŀ©":12638,"Ġê°ķëł¥íŀĪ":12639,"ĠìĿ´ëł¥":12640,"Ġë°Ķìģľ":12641,"íĨłëĭĪ":12642,"ĠìĦłëªħ":12643,"íĤ¥":12644,"ĠëıĦì¿ł":12645,"ĠíĮĮìĿ¸":12646,"Ġìĺ¬ëĵľ":12647,"ëĦĮ":12648,"Ġìķ¡ì²´":12649,"¬´ê²Į":12650,"ĠìĨ¡íĻĺ":12651,"Ġê°Ģë§¹":12652,"Ġìŀħë¬¸":12653,"Ġëª¸ë¬´ê²Į":12654,"ĠíļĮìĭĿ":12655,"Ġëĵľë¬¸":12656,"Ġë©ĭì§Ģ":12657,"Ġì±ĶíĶ¼ìĸ¸ìĭŃ":12658,"Ġê¸°ìłĢ":12659,"Ġì¼Ģë¦¬":12660,"Ġì£¼ìĸ´ì§Ģ":12661,"Ġìĺ¤ìĬ¤ë§Į":12662,"Ġëĭ¤ëĭĪìĹĺ":12663,"Ġìľłë¡ľì¡´":12664,"ë³¸ë¶Ģ":12665,"Ġrd":12666,"ì°¨ê¸°":12667,"Ħì²ľ":12668,"Ġê²ĢìĹ´":12669,"Ġë³´ìĦł":12670,"Ġê²ĮëģĶ":12671,"Ġíį¼ìł¸":12672,"Ġì¶Ķê¸°":12673,"Ġíĺ¸ë¶Ī":12674,"Ġíĺ¸ë¶Īíĺ¸":12675,"Ġë§¨ì²´ìĬ¤íĦ°":12676,"ĠìŀĲì¡´ìĭ¬":12677,"Ġìĭľë¡ľ":12678,"ĠìĦľëĳĺëŁ¬":12679,"Ġê³łìĸĳìĭľ":12680,"ĠìĥĺíĶĮ":12681,"Ġê±°ìķ¡":12682,"Ġmiss":12683,"ĠíĽĦëĵľ":12684,"ĠìļĶì½Ķíķĺë§Ī":12685,"Ġ-)":12686,"Ġvi":12687,"Ġì¹ľìĿ¼":12688,"ìĨĮëĵĿ":12689,"Ġì°°ìĬ¤":12690,"ĠìķĦìĪĺëĿ¼":12691,"ĠíĮ¨ëĵľ":12692,"Ġìłķëĭµ":12693,"ĠìĤ°ìķħ":12694,"Ġë¶Ģíıī":12695,"ana":12696,"âģĦ":12697,"Ġë¦¬ë³¸":12698,"Ġë³Ħì":12699,"Ġê°ľì¹Ń":12700,"Ġnhk":12701,"Ġê³łìĭ¬":12702,"Ġë¦¬íį¼":12703,"Ġê¸°ëĭ¤ëł¸":12704,"ĠìķĦíĶĶ":12705,"Ġë°ķê²½":12706,"íĶĦëŀĢ":12707,"Ġë°ĺë¶Ģ":12708,"Ġëŀ´":12709,"Ġë¸ĮëĿ¼ëįĶìĬ¤":12710,"ĠëĨĴìĺĢ":12711,"ĠìĬ¤ë¦´":12712,"ĠëĿ¼ìĬ¤íĬ¸":12713,"Ġvp":12714,"ĠìĿ´ê³Ħ":12715,"ĠëıĦê°Ĳ":12716,"Ġë³µìļ©":12717,"Ġìĺ¬ëĿ¼ê°Ħ":12718,"ĠìĽĲë£Į":12719,"ĠëĮĢë²ķê´Ģ":12720,"ca":12721,"ëĭĪëĭ¹":12722,"ĠìĬ¤ìľĦ":12723,"Ġëª¸íĨµ":12724,"Ġëħ¸ë¦ĩ":12725,"ĠìĹ°íķ©íļĮ":12726,"Ġì°¾ìķĦìĻĶ":12727,"Ġìļ°ìĹ°":12728,"ĠìĨĮìĨĮ":12729,"ĠìĹħìĨĮ":12730,"ë¦°ëĭ¤ê³ł":12731,"ĠìĦ±ì§Ģ":12732,"Ġëıħë¦½ìļ´ëıĻ":12733,"ĠìĿĺìķ½íĴĪ":12734,"êµ¬ë¯¸":12735,"ĸ¸":12736,"ĠíĿ¡ìĤ¬":12737,"ĠíĮĮë©¸":12738,"ìħĪ":12739,"ĠìĦłìĪĺëĭ¨":12740,"Ġë³´ìŀī":12741,"Ġê³¼ìĹ´":12742,"ĠìĹĲìĿ´ì§Ģ":12743,"Ġëħ¸ê°Ģ":12744,"ĠëĤ´ëł¤ê°Ķ":12745,"ìŀ¥ë©´":12746,"íıŃíĥĦ":12747,"ĠìĿĳìĭľ":12748,"Ġë°ĺìŀ¥":12749,"Ġê´Ģê³":12750,"Ġë¬¸ìĸ´":12751,"ĠìĬ¤íĥĢë¦¬ê·¸":12752,"Ġhar":12753,"íĭĪ":12754,"ĠíĥģìĽĶ":12755,"Ġë§Įê¸°":12756,"Ġíĳľì°½":12757,"Ġíĺ¸ë¥´":12758,"ĠíĬ¸ìľĪìĬ¤":12759,"Ġì¹´ëįĶëĿ¼":12760,"ĠìħĶëıĦ":12761,"ëĶ¸":12762,"ĠìĦĢëıĦìļ°":12763,"Ġê¸Īê°ĲìĽĲ":12764,"ĠëįĶìĽĮ":12765,"ĠìĿ´íļĮ":12766,"Ġìľłìłķ":12767,"Ġìľłìĸ¸":12768,"ëĭĪìĬ¤íĬ¸":12769,"Ġíĵ":12770,"ìį¹":12771,"Ġevery":12772,"Ġìłķíĺķ":12773,"Ġê¸Īê³ł":12774,"Ġê³µìĿµ":12775,"ĠìĨįíķľ":12776,"Ġìĭľë®¬":12777,"ĠìĽĲëĮĢ":12778,"Ġë©´ìĦ¸ìłĲ":12779,"Ġãģ®":12780,"ĠíĥĪëłĪë°ĺ":12781,"Ġëľ¨ê±°":12782,"ĠìķķìĪĺ":12783,"ĠíĦ°ìĬ¤":12784,"ĠìŀĬíĺĢ":12785,"ĠìķĦë§Īì¡´":12786,"Ġíķĺì²ľ":12787,"Ġæ³":12788,"Ġ')":12789,"íĥĦìĪĺ":12790,"Ġìŀ¥íĥĦìĪĺ":12791,"ĠìĬ¤íĭ°ì»¤":12792,"Ġì»¤ì§Ī":12793,"ê·Ħ":12794,"ĠìĽĲê³ł":12795,"ĠìĥĿì²´":12796,"Ġì¦Ŀê¶ĮìĤ¬":12797,"ĠëģĿëĤ¬":12798,"ĠìĬ¤ëħ¸ìļ°":12799,"ĠëįĶìļ´":12800,"ĠëĳĲëł¤ìĽĮ":12801,"Ġìĭľíĺ¸":12802,"Ġëĵ±ìŀ¬":12803,"ĠìĨĲê¼½":12804,"ĠìĿ´ë³Ħ":12805,"ada":12806,"Ġì·¨íķľ":12807,"£©":12808,"ìĬ¤ì¹´":12809,"ĠíĶ¼ì¹ĺ":12810,"Ġ200":12811,"Ġìħĭì§¸":12812,"íĦ±":12813,"Ġê³łë¸Ķë¦°":12814,"ëį°ëłĪ":12815,"íĳ¸ë":12816,"ĠíĶ¼ì¹´":12817,"ĠìĨĮìĦ¤ê°Ģ":12818,"ê·¤":12819,"Ġì¹ĺë§¤":12820,"ĠëĵĢìĬ¤":12821,"ĠíĹ¥":12822,"ëĴ¤":12823,"ĠëĶĶìķĦë":12824,"ĠìłģíŀĮ":12825,"ĠìıŁìķĦìł¸":12826,"ĠëĤľë¬´":12827,"Ġë§ŀë¶Ļ":12828,"Ġê´Ģê´ĳì§Ģ":12829,"ĠëıħìĿ¼ìĸ´":12830,"ĠëĤĺëĪĶ":12831,"Ġë¶Ħê¸°ìłĲ":12832,"ĠíĮ°":12833,"ty":12834,"ĠìķĦì§Ģ":12835,"ĠìłĦëıĦ":12836,"Ġë©ĭìŀĪ":12837,"Ġì§Ģê°ģ":12838,"Ġíį¼ìĦ¼íĬ¸":12839,"Ġì£¼ë¦Ħ":12840,"ìĭľíĭ°":12841,"Ġëĭ¨ë°ľ":12842,"ĠìĹĪìĹĪ":12843,"ĠëŁ¬ìĬ¤":12844,"ĠìĦľìłģ":12845,"ë¯¸ë¥´":12846,"Ġê³łì¦Ŀ":12847,"ê²Ķ":12848,"Ġë³Ģíĥľ":12849,"ì°¨ë¡Ģ":12850,"Ġbj":12851,"ĠëłĪë°Ķ":12852,"Ġíķľê²°":12853,"Ġfri":12854,"ĠíĬ¹ê°Ģ":12855,"ĠíĹĪë¬´":12856,"Ġë°Ķìģĺ":12857,"Ġì¡°ì»¤":12858,"ìŀĦì¦Ī":12859,"ê±¸ìĿĮ":12860,"ĠìĿ´ìĥī":12861,"Ġëĭ¹ëĩ¨":12862,"Ġì¢Ģì²ĺëŁ¼":12863,"ĠëĦĪë¨¸":12864,"Ġìĺ¤ë©Ķê°Ģ":12865,"Ġìļķë§Ŀ":12866,"ose":12867,"Ġì§Ħê¸ī":12868,"Ġê²ģëĭĪê¹Į":12869,"ĠìŀīìĹ¬":12870,"Ġê±¸ì¹ľ":12871,"Ġëħ¸ìĪĻ":12872,"ìķĬ":12873,"Ġíģ¬ëĿ¼ìĿ´":12874,"Ġê²ĢìĪł":12875,"ĠíĦ°ì¡Į":12876,"Ġì¹´êµ¬":12877,"Ġê¹ĢëĳĲ":12878,"Ġìĭłì´Į":12879,"Ġê²½íĿ¬":12880,"ĠëŁ¬ìī¬":12881,"ĠìĹĶì§ĢëĭĪìĸ´":12882,"Ġìłķì§Ħ":12883,"Ġë¸Įëŀĺ":12884,"Ġë³Ģëªħ":12885,"Ġê°ľê´Ģ":12886,"ĠëĤ¨ë¯¸":12887,"Ġimage":12888,"ìķĪêµ°":12889,"ĠëĤ¨ìĦľ":12890,"ĠìĶ¨ìķĹ":12891,"ë¹ĦìĹĲ":12892,"Ġíķ¸ë":12893,"ê²¸":12894,"Ġíıīíĸī":12895,"Ġcb":12896,"Ġíį½":12897,"Ġì¶ĶíĽĦ":12898,"Ġìıłë¦¬":12899,"ĠìĿ¸ìĪĺìľĦ":12900,"Ġê°ĢìłĦ":12901,"Ġê³µê²©ìĪĺ":12902,"Ġì¹Ńíķĺ":12903,"Ġë¡ľë³´":12904,"Ġë°°ëŁ´":12905,"Ġê±°ê¾":12906,"Ġë¶ĢíĴĢ":12907,"rist":12908,"Ġìĥģìĭľ":12909,"Ġë¬¼ìŀĲ":12910,"ĠìĹĲì½Ķ":12911,"ĠìĽĲê°Ģ":12912,"ĠíĶĦë¡ľê·¸ëŀĺ":12913,"Ġìĺ®ê²¼":12914,"Ġê³µìĤ°ì£¼ìĿĺ":12915,"Ġmi":12916,"ìĿ´ëıĻ":12917,"Ġê±¸ê¹ĮìļĶ":12918,"Ġìŀ¥íĮĲ":12919,"Ńĩ":12920,"Ġê³¼ìĭ¤":12921,"ĠíĥľìĽĮ":12922,"Ġì¼Ģë¹Ī":12923,"Ġì§Ģë¬¸":12924,"Ġë¯¸ëª¨":12925,"ĠìĿ¸ìĩĦ":12926,"ë¥´ëĵľ":12927,"ĠíĶ¼ê³ł":12928,"ĠìŀĶíĺ¹":12929,"Ġëĭ¹ìłķ":12930,"ĠìĿ´ê±´íĿ¬":12931,"Ġê³łìĬ¤ëŀĢíŀĪ":12932,"íķı":12933,"Ġë²¼":12934,"ny":12935,"íĺĦìĪĺ":12936,"ĦĪìĬ¤":12937,"Ġë°ĭ":12938,"ë²Ħë¦¬":12939,"Ġìĺ¬ë°Ķë¥¸":12940,"Ġíĺ¼ìĿ¸":12941,"eld":12942,"ë°´":12943,"ĠìĽľ":12944,"ĠìĿ¸ìĦ±":12945,"ĠìĤ°ì§Ģ":12946,"Ġìķłê¸°":12947,"ë¿į":12948,"Ġì½ľë¡¬":12949,"ĠìĿ´ëĿ¼ëĵłê°Ģ":12950,"Ġì¼ĢìĿ´ëĵľ":12951,"ĠìĨĮë°©ê´Ģ":12952,"Ġë§¡ê²¨":12953,"Ġë²ĦëĿ½":12954,"Ġê²½ìĦ±":12955,"ĠìĹĦë°Ģ":12956,"Ġld":12957,"ĠëĶĶìĺ¤":12958,"ĠìłľìŀĲë¦¬":12959,"ĠêµŃì±Ħ":12960,"ĠéĽ":12961,"Ġâĸ³":12962,"eng":12963,"ĠìĥģìĬµ":12964,"Ġì½§":12965,"Ħìķ¼":12966,"Ġíıīìĥģìĭľ":12967,"ĠìĤ¬ìļ°ìĬ¤":12968,"ĠìĨĮìĥĿ":12969,"Ġë°°ìĽł":12970,"ĠíĥĢíĺĳ":12971,"Ġê°ĲíĥĦ":12972,"Ġê³¨ëłĺ":12973,"ĠíĬ¸ëłĪìĿ´ëĦĪ":12974,"ĠìĭłíĿ¥":12975,"ĠëŁ¬ëĭĿ":12976,"ķëĭĪëĭ¤":12977,"Ġsam":12978,"ĠìĻķë¹Ħ":12979,"Ġë¹ĦìĹ":12980,"Ġë°ĶëĿ¼ë":12981,"Ġë¹łì§Ī":12982,"ĠëĤ´ëĭ¤":12983,"ĠìĿĮëł¥":12984,"Ġë¯¸ì³Ĳ":12985,"ĠìĦ¸ìŀĲ":12986,"Ġì¡±ë°ľ":12987,"Ġê±°ê¾¸ë¡ľ":12988,"ĠìĭľìĦ¤ë¬¼":12989,"Ġì¶Ķê¸°ê²½":12990,"Ġì¶Ķê²½":12991,"ĵĿ":12992,"ĠìĿ´ìķ¼":12993,"Ġëĵ¤ìľ¼ë©´":12994,"Ġëĥłëĥł":12995,"ìĭŃìŀĲ":12996,"ĠíĬ¸ë¡ľíĶ¼":12997,"ĠìĭľëıĻ":12998,"Ġmix":12999,"Ġê¸¸ê±°ë¦¬":13000,"ìĬ¤íĬ¸ëĿ¼":13001,"ĠìķĦì°Ķ":13002,"ĠìĦĿíĥĦ":13003,"ìĿĺìĸ´":13004,"ëĪĦë":13005,"ĠìĬ¹ê³Ħ":13006,"Ġë²ħ":13007,"ĠìĹĲëĵľìĽĮëĵľ":13008,"ĠëıĻìłķ":13009,"ĠíĻ©ìļ°":13010,"ĠíĮ½íĮ½":13011,"Ġì§Ģë¡ľ":13012,"Ġway":13013,"ĠèĪ":13014,"ĠìĿ¼ìĿ¼ìĿ´":13015,"Ġê·¸ëŁ¬ë¯Ģë¡ľ":13016,"Ġê¹ĢìĿ¸":13017,"ĠìĦ±íıŃëł¥":13018,"Ġìĺ¤ëįĶ":13019,"ĠëĶ¥":13020,"ĠìĹ¬ê°Ŀì²łëıĦ":13021,"Ġìĸµë¥ĺ":13022,"ĠìķĦëĭ´":13023,"led":13024,"Ġseason":13025,"ĠìĥĿê¹Ģ":13026,"ê½ģ":13027,"Ġcap":13028,"ĠìĹĺë¦¬ìŀĲë²łìĬ¤":13029,"Ġê¹ĮìĿ´":13030,"Ġë¯¼ë³ĳ":13031,"Ġì¹´ëĦ¤":13032,"Ġì¹´ë¦¬":13033,"ĠíŀĪë¡ľìĭľ":13034,"ĠìĮĵìĿ¸":13035,"ĠìĪĺìĺģìŀ¥":13036,"ĠìłĳìłĦ":13037,"ĠìĤ¬íĥķ":13038,"Ġdp":13039,"Ġìĥģìĸ´":13040,"ë©ĶìĿ´":13041,"Ġìĸ´ê¸ĭ":13042,"Ġking":13043,"ĠëģĿëĤľëĭ¤":13044,"ĠìĹ´ë¦½ëĭĪëĭ¤":13045,"Ġë£¨íĶ¼":13046,"ator":13047,"ĠìĥģìĿĺ":13048,"ĠìĹĳìĭľ":13049,"ĠìľĪëĵľ":13050,"Ġì°¨ì°¨":13051,"ê³¼ìĿ´":13052,"Ġëįĺì¡Į":13053,"ëĵ¤ìĸ´":13054,"ĠìŀĲìĭłê°Ĳ":13055,"ĠíĶĦë¦°ìĦ¸ìĬ¤":13056,"Ġë¶ģìłģ":13057,"Ġshow":13058,"Ġì¤ĳìĭ¬ì§Ģ":13059,"ĠìĦ¹ìĭľ":13060,"olog":13061,"ëŀĺìĭľ":13062,"ĠìķĦëŀ«":13063,"Ġë©Ķëī´íĮĲ":13064,"gr":13065,"Ġìłľì¹ĺ":13066,"Ġê¹Ģíķľê¸¸":13067,"ĠìĿ´ë¥¼":13068,"ĠëıĻìĿĮìĿ´":13069,"£¨ìĬ¤":13070,"ĠëıĻìķĦìĭľìķĦ":13071,"Ġë©¸ì¢ħ":13072,"Ġê°Ģíĺ¹":13073,"ĠìĽ¨ëĶ©":13074,"Ġ~!":13075,"ĠìĿĮìķħê°Ģ":13076,"Ġë§ĿìĽĲ":13077,"ĠìĦ¸ê·ł":13078,"Ġì¿łíı°":13079,"Ħë²Ħ":13080,"Ġë¬´ê²ģ":13081,"ĠëĲľìŀ¥":13082,"Ġìĸ´ë²¤":13083,"uck":13084,"Ġë²łíħĮëŀĳ":13085,"Łİ":13086,"Ġìĭłë³ĳ":13087,"ĠìĦ±íĥĦ":13088,"ë¹¨ë¦¬":13089,"Ġpt":13090,"ê°ĦëĮĢ":13091,"Ġbmw":13092,"ĠíİĮíĶĦ":13093,"ìŃ":13094,"ov":13095,"Ġìĺ¬ëĿ¼ìĦľ":13096,"Ġëª©ëıĻ":13097,"Ġë²Ĺê²¨":13098,"ĠìĦ±ì£¼":13099,"Ġì²ĺìŀ¥":13100,"Ġëľ¬ëĭ¤":13101,"Ġgold":13102,"ĠëĮĢìĭľ":13103,"Ġëĸłìĺ¤":13104,"ĠëĤĺëĪĪ":13105,"íľ´ìĿ¼":13106,"ĠíĽĦë¯¸":13107,"Ġìĺħ":13108,"Ġë¸ĮëĿ¼ìļ°":13109,"ìĬ¤ëłĪ":13110,"Ġë¸ĶëĿ¼ëĶĶ":13111,"Ġì¿łëĿ¼":13112,"Ġì¹´ëĭ¤íĶ¼":13113,"Ġste":13114,"ĠëĲłê¹ĮìļĶ":13115,"ĠìĦ°":13116,"Ġë§īíĺĢ":13117,"Ġpark":13118,"ĠëıĦíĶ¼":13119,"íĹ¬":13120,"Ġì±Ħë³´":13121,"ìĬ¬ë¦¬":13122,"ë°ĶëĤĺ":13123,"ĠìĦŀìĹ¬":13124,"ĠëłĪìĿ´ë¸Ķ":13125,"ìłĢê²ĥ":13126,"Ġë¡¤ëŁ¬":13127,"Ġæ°ı":13128,"ĠíĬķê²¨":13129,"íĮį":13130,"ĠìĿ´ê²ĥìłĢê²ĥ":13131,"Ġwas":13132,"ĠìĦľìŀ¥":13133,"ľëĭ¤":13134,"Ġë§Ľë³´":13135,"ëĨĢìĿ´":13136,"ìĤ¬ëŀĳ":13137,"ĠìŀĲë¶Ģ":13138,"Ġìĺ¤ëĭĪ":13139,"ĠìķĦìĿ´ìĸ¸":13140,"Ġê°Ģì¤ĳ":13141,"ìĥ·":13142,"Ġê¸°ìķķ":13143,"ĠìĬ¤íĬ¸ë":13144,"my":13145,"Ġê·¸ì¹ľ":13146,"Ġë°¥ìĥģ":13147,"ìŀĦìľĦ":13148,"Ġë©įì²Ń":13149,"Ġë¯Ģ":13150,"Ġ--":13151,"ĠíĬ¸ëĿ¼ìļ°ë§Ī":13152,"ĠíĻķë¦½":13153,"Ġê³µìĭł":13154,"Ġê´´ë¡ŃíŀĪ":13155,"ìĭ¹":13156,"ĠíĿĶíķĺ":13157,"Ġëħ¸ëŀĺë°©":13158,"ĠìķĪê²¨":13159,"Ġë¶Ħì£¼":13160,"Ġìĥ·ê±´":13161,"Ġë°ķìĨĮ":13162,"Ġì§Ħì²":13163,"Ġìłģìłķ":13164,"ire":13165,"Ġëĭ¹ìĤ¬":13166,"ëĿ¼ëĶĺ":13167,"Ġíį¼ìĭľ":13168,"ĠíĢµ":13169,"ĠìľłëĭĪë²ĦìĬ¤":13170,"ĠìĿ¸íħĶ":13171,"ĠìĬ¤íĢĺìĸ´":13172,"ĠíĻĺê²½ë¶Ģ":13173,"Ġ22":13174,"Ġê±°ì§Ģ":13175,"Ġê°ķìĦ±":13176,"ĠíĨłíģ°":13177,"ĠìĥģìŀĦìľĦ":13178,"Ġë§ĪëĿ¼íĨ¤":13179,"Ġë¬´ëĬ¥":13180,"Ġìĭľê²Į":13181,"Ġíı¬ë³ĳ":13182,"ĠëĿ¼ëĸ¼":13183,"Ġë¦¬ìķĪ":13184,"ĠìĿ´ìĪľìĭł":13185,"ĠìķĦì²":13186,"ium":13187,"²Į":13188,"Ġíķ´ìĦł":13189,"Ġë¯¸ìĸĢ":13190,"Ġìķŀìŀ¥":13191,"Ġìį¨ëıĦ":13192,"ĠìĬ¤ëĤĺìĿ´":13193,"ĠíİŃ":13194,"Ġì²ĺíķĺ":13195,"----":13196,"Ġì½Ķë°Ķ":13197,"Ġjap":13198,"ĠìĹ¬ì§Ħ":13199,"Ġgradi":13200,"oot":13201,"ner":13202,"Ġadv":13203,"Ġì¹´ë¦¬ìĬ¤":13204,"ĠíĮĲêµĲ":13205,"ĠíĶĮë¡ľë¦¬":13206,"Ġter":13207,"ĠëĮķ":13208,"íĶĦë¡ľ":13209,"Ġëī´ìĬ¤ìĩ¼":13210,"ĠëĶĶìķĦ":13211,"ê²½ìĽĲ":13212,"Ġìłķìłķ":13213,"ìĤ¬ë¬´":13214,"ĠæĻ":13215,"íį¼ëĭĪ":13216,"Ġmath":13217,"ĠëĳĲëł¤ìĽĢ":13218,"íĸīìľĦ":13219,"Ġhell":13220,"Ġnll":13221,"ĠíħĮìĿ´íĶĦ":13222,"Ġë¶ĪíĻ©":13223,"ê¹¨ë¹Ħ":13224,"Ġíĭ°ìĬ¤":13225,"ĠìŀĶë¥ĺ":13226,"Ġê·łìĹ´":13227,"Ġë°±ìĹħ":13228,"Ġë§¤ì§Ħ":13229,"ze":13230,"Ġì§ĢëĤĺì¹ľ":13231,"ĠìŀĲë°ľ":13232,"ë©§":13233,"Ġë¦¬ë²ĦíĴĢ":13234,"Ġê³µíľ´ìĿ¼":13235,"Ġkbsnews":13236,"ĠíĻĶë¬¼ì°¨":13237,"Ġêµ¬ì¹ĺ":13238,"ĠëķĮë¡ľ":13239,"Ġê¾Ģ":13240,"ĠíĺĪìķķ":13241,"ĠëıĻìĿĮìĿ´ìĿĺìĸ´":13242,"ĠìĤ¬ëĤ´":13243,"Ġë¦¬ëįĶìĭŃ":13244,"ĠìĹŃìĬµ":13245,"Ġìĺ¨ëª¸":13246,"ĠìĿ´ìĿĢ":13247,"ĠìĤ¬ì£Ħ":13248,"Ġì°¨ìĦ¸ëĮĢ":13249,"ĠëıĮìķĦìĺ¬":13250,"ĠìŀħìĪł":13251,"Ġë§īìķĦëĤ´":13252,"Ġtvn":13253,"Ġê±¸ê¹Į":13254,"ĠìĨĮìĦľ":13255,"ĠìĻ¼ìĨĲ":13256,"ëĺĳ":13257,"Ġê°¤ëŁ¬":13258,"ëĦĪë¬´":13259,"Ġì§ĲìĬ¹":13260,"ĠëĿ¼ê°Ģ":13261,"Ġìŀ¬ìĦł":13262,"ĠíķľìŀĶ":13263,"ism":13264,"Ġdark":13265,"Ġì£¼ìŀħ":13266,"ĠìĿ´ìĨ¡":13267,"tc":13268,"¸ë§ģ":13269,"Ġlight":13270,"ĠìĿ¸íĮĮ":13271,"Ġê¸°ìĪłëł¥":13272,"Ġíĺ¸íģ¬":13273,"Ġova":13274,"Ġë¡ľëĿ¼":13275,"Ġëĭ¹ê¶Į":13276,"Ġê°Ĳíĸī":13277,"ĠíĮĮíĸī":13278,"Ġë¶Ģì¹ľ":13279,"Ġê¹Ķëł¤":13280,"ĠìķĦë§Īì¶Ķ":13281,"ĠíĶĦëŀľì°¨":13282,"ĠìĹĲëĶĶìħĺ":13283,"Ġíĩ´ì¹ĺ":13284,"ĠìĤ´ìĿ¸ë":13285,"Ġê°ľëªħ":13286,"Ħì½Ķ":13287,"Ġwc":13288,"ĠëªħìĤ¬":13289,"ĠíĸĦë²Ħ":13290,"Ġíĺ¸ëŁ¬":13291,"ëĺĲ":13292,"Ġë§ĪìĦ¸ìļĶ":13293,"ĠìĿ´íĺĦì":13294,"Ġì§ĦíĸīìŀĲ":13295,"íĶĦëŀĢìĭľìĬ¤ì½Ķ":13296,"ĠìĿ´ëħ¸":13297,"ĠìĥĮíĶĦëŀĢìĭľìĬ¤ì½Ķ":13298,"Ġìķħìļ©":13299,"Ġë¬´ê¶ģíĻĶ":13300,"ĠíĶĦëŀľì°¨ìĿ´ì¦Ī":13301,"ĠìĦ±ëĤ¨ìĭľ":13302,"ĠìĬ¬íĶĪ":13303,"ëĬĶëį°":13304,"Ġê±´ìĪĺ":13305,"Ġgradient":13306,"ĠíĻķìŀ¥íĮ©":13307,"Ġë§ĪìĤ¬ì§Ģ":13308,"Ġíķľë°ľ":13309,"Ġë¬´ëĦĪìł¸":13310,"Ġìŀ¬ì§Ī":13311,"à¸":13312,"ëĭµëĭĪëĭ¤":13313,"ĠëĤłìķĦìĺ¤":13314,"Ġnat":13315,"ĠíŀĲëŁ¬":13316,"ìķĶëıĻ":13317,"Ġë§ĪìĹĲ":13318,"Ġìľłì§Ħ":13319,"ĠìĤ¬ìĥģìŀĲ":13320,"ìĿĦë²ĦìĬ¤":13321,"Ġìĭłìŀ¬":13322,"ĠíĥĪì·¨":13323,"ĠëĮĢìĹ¬":13324,"ĠíĻĺë¶Ī":13325,"ĠìĿµíŀĪ":13326,"Ġìĵ°ëŁ¬ì§Ħ":13327,"Ġíģ¬ë£¨ì¦Ī":13328,"ìı":13329,"Ġë©ĶëĶĶ":13330,"Ġdef":13331,"ĠìĦ¤ë§Ī":13332,"Ġrun":13333,"Ġë¹ĪëıĦ":13334,"Ġë¹Ħë°ķ":13335,"Ġê¸°ìķĦì°¨":13336,"ton":13337,"ĠëĤĺê¸°":13338,"Ġë°©ìļ¸":13339,"Ġìł¼":13340,"Ġê´Ģë¬¸":13341,"ĠëĦĪë¬´ëĦĪë¬´":13342,"ĠìĨįì´Ī":13343,"Ġë¹Įë³´ëĵľ":13344,"Ġìłķìĺ¤":13345,"Ġë¯¸ëıĦ":13346,"ĠìķĦíĶĦê°Ģ":13347,"Ġâĸ¶\"":13348,"Ġve":13349,"Ġë¬´ìĬ¬":13350,"Ġê°ķìłĦ":13351,"Ġë¬´ìĭ¤":13352,"Ġë§ĮëĬ¥":13353,"ìĤ¬ê¸°":13354,"ĠìķĦë§Īì¶Ķìĸ´":13355,"ĠìĥģìĪĺ":13356,"Ġë¯¸ê¶ģ":13357,"ëĵ¤ë¦¬":13358,"Ġíĸīíĥľ":13359,"ĠëĦĺê¸´":13360,"Ġë§Ĳëł¤":13361,"Ġë§ĪìĿĦë²ĦìĬ¤":13362,"Ġìĺ¥ìĪĺìĪĺ":13363,"Ġìĭłê³¡":13364,"Ġíĺ¼íķ©":13365,"ĠÏ":13366,"Ġìĭ¤ë¦°":13367,"ĠëºĢ":13368,"Ġ2018":13369,"Ġìĸĳíĺ¸":13370,"Ġëĵľëŀĺê³¤ë³¼":13371,"ĠìķĦìĿ´ëŁ¬ëĭĪ":13372,"Ġë°ķì§Ħ":13373,"ĠìĹīëļ±":13374,"Ġì±ĶíĶĦ":13375,"Ġíķłë¡ľ":13376,"Ġê¹Ģì²ľ":13377,"íħĮìĿ´ìħĺ":13378,"Ġë²ķíķĻ":13379,"Ġì¹ĺì¹´":13380,"Ġìĭľë¦½":13381,"Ġê°Ģìł¸ìĺ¨":13382,"ë²Ħëĵľ":13383,"ĠìĿ¼ëłī":13384,"ëłĪìĿ´íģ¬":13385,"Ġì¡°ìĤ¬ëĭ¨":13386,"ĠìĥģíĻĺ":13387,"¤Į":13388,"Ġë§Īë¬¼":13389,"Ġì¤ĳê³Ħì°¨":13390,"ĠíİĺëĦĲíĭ°":13391,"ĠíķŃëª¨":13392,"Ġìĭľíģ¬ë¦¿":13393,"íĺĦëıĻ":13394,"ĠìĬ¤ê°Ģ":13395,"Ġìŀ¡ìķĦëĤ´":13396,"ĠíĦ¸ìĸ´":13397,"ë¬´ì§Ģ":13398,"ĠíķľìĭĿ":13399,"ĠìĽĶìĦ¸":13400,"ĠíĻĢëĶ©":13401,"ĠìŀĲìĺģ":13402,"Ġì²ľì§Ģ":13403,"Ġëĭ¤ì¹ľ":13404,"ë²¤ì²ĺ":13405,"ĠíķľìĪ¨":13406,"Ġëª¨ëĤĺ":13407,"Ġëª¨ìĪľ":13408,"Ġìĭłìŀĳ":13409,"Ġë°ĶìĤŃ":13410,"ìķħìĤ°":13411,"ho":13412,"ĠíļĮë¡ľ":13413,"Ġë©Ķë¦¬íĬ¸":13414,"Ľ´":13415,"Ġì¹ľíķĺ":13416,"ĠëĤ´ê¸°":13417,"Ġëĭ¨íĸīë³¸":13418,"Ġëĭ¤ê±°ëĤĺ":13419,"ìĽĶëĵľ":13420,"Ġíķ©ì¹ĺ":13421,"Ġdown":13422,"Ġì§ĢëħĶ":13423,"ĠëĤ©ë¶Ģ":13424,"Ġìŀ¬ë³´":13425,"Ġíķ¨ëĿ½":13426,"Ġìĸ´ëĵľë²¤ì²ĺ":13427,"Ġset":13428,"Ġëĭ¤ìĿ´ìĬ¤":13429,"Ġì£¼ê³łë°Ľ":13430,"Ġìµľê²½íĻĺ":13431,"Ġë¨¸ìĬ¤":13432,"ĠëĤ©ëĭĪëĭ¤":13433,"Ġëłĺ":13434,"Ġìĭ¤íļ¨":13435,"Ġì²¨ê°Ģ":13436,"ĠìĥĿìĤ°ëŁī":13437,"Ġìŀ¬ìľĦ":13438,"ĠíĶ¼ëĵľ":13439,"ĠìķĦì¿łìķĦ":13440,"Ġìľłíķľ":13441,"Ġíĺ¸ìłĦ":13442,"Ġê´´ë¡ľ":13443,"Ġë¬´ìĬ¬ë¦¼":13444,"Ġìĭľê°ĦëĮĢ":13445,"Ġë²łê¸°":13446,"ê¸ĢëĿ¼ìĬ¤":13447,"Ġìĸ»ìĸ´ë§ŀ":13448,"Ġê°ľíĳľ":13449,"ĠëįĶëŁ½":13450,"Ġë°Ķì¹ĺ":13451,"Ġê¹Ģêµ¬":13452,"ĠëĿ¼íģ¬":13453,"Ġê¼¼ìĪĺ":13454,"Ġì¡°ìĹħ":13455,"Ġì§ģê²©":13456,"ĠìķĦíĶĦê°ĢëĭĪìĬ¤íĥĦ":13457,"ìĿĺìĤ¬":13458,"Ġíķłë¦¬ìļ°ëĵľ":13459,"Ġê¹Ģì°½":13460,"ëĭ¤ëĵľ":13461,"íħĮìĬ¤":13462,"ĠìĹ´ëŀĮ":13463,"Ġë¹ĦíĤ¤":13464,"Ġê°Ĳê¸Ī":13465,"Ġëľ¬ê¸ĪìĹĨìĿ´":13466,"Ġ=\"-":13467,"ange":13468,"Ġì§ĢíĤ¬":13469,"ĠìĬ¤íĥĢìĽĮì¦Ī":13470,"Ġì¹¼ë¡ľë¦¬":13471,"ëĳĲë¦¬":13472,"Ġê²Ģì°°ì²Ń":13473,"Ġê¸°ë¯¸":13474,"ĠìľĦíĥģ":13475,"Ġë§Īìľł":13476,"Ġook":13477,"ĠíıŃë°ľë¬¼":13478,"alk":13479,"Ġì¹ľëĭ¤":13480,"ìłĵ":13481,"Ġì»´ë°±":13482,"ĠìĤ¬ëĭ¹":13483,"ë¬´ìĭ¤":13484,"Ġëª¨ìķĦìĦľ":13485,"ĠíĦ°ì§Ħ":13486,"³¤":13487,"ĠìĤ¬ì²´":13488,"ĠëĶĶìĭľ":13489,"Ġíļ¡ëĭ¨":13490,"ĠìłľìĤ¬":13491,"ĠìĿ´ë¤Ħì§Ģì§Ģ":13492,"©ľ":13493,"Ġìĸ´ë¥´":13494,"Ġëĭ¹ê·¼":13495,"ĠëĤ´ë©´":13496,"Ġëĵ¬ë¿į":13497,"ĠëłĪìĺ¨":13498,"ĠíĻĶê¸°":13499,"Ġmaster":13500,"Ġíİĺë¯¸ëĭĪ":13501,"Ġë½Ĳ":13502,"Ġë°°ìļ°ìŀĲ":13503,"Ġë¶ĢíĨµëł¹":13504,"cho":13505,"ĠìłĢëĦĲ":13506,"Ġê°ķê°Ħ":13507,"ĠìĬĪíį¼ë§¨":13508,"ê»ĺëģ¼":13509,"ĠìĪĺìĪĺê»ĺëģ¼":13510,"¶ĵ":13511,"Ġ~~":13512,"Ġê°Ħê°ĦíŀĪ":13513,"ĠíĥĢëĭ¹":13514,"Ġíĥľê·¹ê¸°":13515,"ĠëĤ´ë³´ëĤ´":13516,"ĠìķĪë¬´":13517,"ĠëĳĲêº¼":13518,"ĠìĪĺê°ķ":13519,"Ġì¦ĿíĽĦ":13520,"ĠìĤ¬ì¹ĺ":13521,"ĠìķĦê¹Ŀ":13522,"Ġëħ¸ìĽĲ":13523,"ĠìĬ¤íĥľíĶĦ":13524,"Ġê°ķë³Ģ":13525,"Ġì§ģìľĦ":13526,"ĠíİĺìĬ¤":13527,"Ġë°ĶìĿ´ìĹĲ":13528,"Ġíģ´ë¡ł":13529,"Ġë§¤ì¶ľìķ¡":13530,"Ġê¸´ë°Ģ":13531,"ĠëĨĢëŀĢ":13532,"ĠìĦľë¨¸":13533,"Ġìĺ¬ëĿ¼ê°Ħëĭ¤":13534,"ĠìĿĮì£¼ìļ´ìłĦ":13535,"íĳ¸ë¥´":13536,"Ġgod":13537,"Ġì»´íį¼ëĭĪ":13538,"Ġê·¸ë¶Ħ":13539,"Ġì¤ĳê±°ë¦¬":13540,"Ġìĭľìĸ´":13541,"íĮĮë¦¬":13542,"ĠìĪĻì²Ń":13543,"ĠìĹ¬íĥľ":13544,"ĠìĬ¤ìºĶëĵ¤":13545,"ìľ¤ìłķ":13546,"ĠíķľëĿ¼":13547,"Ġë°°ìļ¸":13548,"Ġë¨¹íŀĪ":13549,"Ġëĭ¬ëł¤ê°Ģ":13550,"ĠìĨĲìĺ¤":13551,"ĠìĪĻë°ķ":13552,"ĠìĽĶê°Ħ":13553,"ĠìĬ¤íħĶìĬ¤":13554,"ĠìłķìĹ°":13555,"ush":13556,"ĠìķĦìĬ¬":13557,"Ġë°ľë¶Ģ":13558,"Ġë¡ľìĿ´ëĵľ":13559,"Ġê³µë¡ľ":13560,"Ġìļ°íİ¸":13561,"ĠìĹ¬íĥĢ":13562,"Ġë¡ľëłĮ":13563,"íĥĢë¦¬":13564,"les":13565,"Ġì¹ľìłķ":13566,"Ġìĸ´ìĦ¤":13567,"Ġë°©ìĨ¡ìĿ¸":13568,"Ġì¡°íļĮ":13569,"ĠëłĪìĿ´ìĭ±":13570,"Ġì´Īë¡Ŀìĥī":13571,"Ġíķĺìĸ":13572,"Ġìľłë°©":13573,"íĥĲìłķ":13574,"Ġê°Ģê¸ī":13575,"Ġì¤ĳëħĦ":13576,"Ġë¶Ģìłľ":13577,"Ġë§ĲëĿ¼":13578,"ĠìłĦë¡Ģ":13579,"Ġë³´ë¥´":13580,"ĠìłĲíı¬":13581,"ĠìķĦë©Ķë¦¬ì¹¸":13582,"Ġìľłìĺģ":13583,"ĠìĽĲì£¼ë¯¼":13584,"Ġìĵ°ë¦¬":13585,"Ġë°ľë³ĳ":13586,"ĠëĤ¨ëıĻìĥĿ":13587,"ĠëĤĺíı´ëłĪ":13588,"ĠíĮĶëłĪìĬ¤íĥĢìĿ¸":13589,"Ġë¹Ħëĭ¨":13590,"Ġëĭ¬ëĿ¼ì¡Į":13591,"Ġpol":13592,"ĠìĹ°ë¹Ħ":13593,"Ġtva":13594,"ìĹ¬íĸī":13595,"thing":13596,"Ġocg":13597,"ĠíĺĪíĨµ":13598,"Ġë§ĪìĪłìĤ¬":13599,"Ġë¯¸ìĺ¤":13600,"ĠìĽĮëĦĪ":13601,"Ġìķŀëĭ¹":13602,"ĠìĿ¸ì²ľê´ĳìĹŃìĭľ":13603,"Ġëĭ¨ìłķ":13604,"Ġìłľë¬¼":13605,"ê±¸ë¦¬":13606,"Ġë°ĶìĿ´ìĹĲë¥¸":13607,"Ġìķħìĸ´":13608,"Ġë¶Ħë°°":13609,"Ġìłľì¡°ìĤ¬":13610,"Ġëª¨ìĸĳìĥĪ":13611,"Ġìĭ¤ìĦ¸":13612,"ĠíĽĶì¹ľ":13613,"ĻĢ":13614,"Ġìĸ´ëĬĲìĥĪ":13615,"Ġåī":13616,"ĠëĶĶíİľ":13617,"Ġë¬ĺíķĺ":13618,"Ġë¦¬ìĤ¬":13619,"ĠìĬ¤íĬ¸ëĿ¼ìĿ´ì»¤":13620,"ĠëĤĺíı´ëłĪìĺ¹":13621,"ëĶĶìĬ¤":13622,"Ġê°Ģìł¸ìĻĶ":13623,"ê·¸ëĿ¼ë":13624,"ĠìĬ¤íĬ¸ë¡ľ":13625,"íĮĮíģ¬":13626,"ëıĻìĽĲ":13627,"ìĪĺìĤ°":13628,"ons":13629,"Ġchar":13630,"Ġì°½ìĿĺ":13631,"ĠíĻĶìĦĿ":13632,"Ġë¬´ìŀĲ":13633,"¤Įë§Ī":13634,"Ġë¬¼ë¦¬íķĻ":13635,"ĠìŀĲê²©ì¦Ŀ":13636,"íĬ¸ëŁ´":13637,"Ġë°ķìĹ°":13638,"Ġìłķë°ĺëĮĢ":13639,"Ġ*********":13640,"ution":13641,"Ġê°ĲëıħìĽĲ":13642,"Ġë³ĳìŀ¥":13643,"ĠìĪĺìĽĲìĭľ":13644,"ĠáĦĥ":13645,"ĠìĨĮê·¹":13646,"Ġíĺ¸ìĬ¤":13647,"Ġwindows":13648,"he":13649,"íĶĮëŁ¬ìĬ¤":13650,"Ġë§¤ëª°":13651,"Ġê¾¸ë¯¸":13652,"Ġë§ĿìĦ¤":13653,"Ġ21":13654,"Ġê¸ĪìĹ°":13655,"Ġæµ":13656,"łĪë¸Ĳ":13657,"Ġì¦ĿíĽĦêµ°":13658,"Ġìºłíķĳ":13659,"ĠëĳĲëĵ¤ê²¨":13660,"Ġê°ķìłķ":13661,"ĠëıĻë¬¼ìĽĲ":13662,"ë¸Įë¦¬ëĵľ":13663,"Ġë»ĺ":13664,"Ġì§Ħë¦¬":13665,"ĠëĮĢëªħ":13666,"ĠìĻ¸ê´Ģ":13667,"Ġì½ĺìĨĶ":13668,"ĠìĿ¸ìłľ":13669,"ĠëĤľëıĻ":13670,"Ġpv":13671,"ĠìĻķíĽĦ":13672,"ĠíķĺìĿ´ë¸Įë¦¬ëĵľ":13673,"Ġë³¸íļĮ":13674,"ĠìĪĺìĿ¸":13675,"Ġlinear":13676,"Ġëªħëªħ":13677,"Ġleg":13678,"ĠëĤĺìķĦì":13679,"Ġíİ¼ì³Ĳì§Ģ":13680,"ĠìķĦì¤Įë§Ī":13681,"Ġì¢ħìĺģ":13682,"Ġë°ĽìķĦëĵ¤ìĿ¼":13683,"ĠíĸĦë²Ħê±°":13684,"Ġê¸°ë°Ģ":13685,"Ġíķ´ì§Ģ":13686,"Ġíı¬íĥĪ":13687,"Ġëĭ¨ì²´ìŀ¥":13688,"Ġìŀ¬ìŀĦ":13689,"ĠíĶĦë¡Ŀ":13690,"ĠìķĦìķ¼ë":13691,"Ġëĭ´ëĭ¹ìŀĲ":13692,"Ġunivers":13693,"ĠìĦ¸ëĩĮ":13694,"ĠìĤ´íı¬":13695,"ĠìĪłìĤ¬":13696,"Ġë°©ê³µ":13697,"Ġíİ¸ê²¬":13698,"ĠìľĦìĹĦ":13699,"ĠìĤ¬íķĻ":13700,"Ġê³łìĺ¨":13701,"ĠìłĦíķ©ëĭĪëĭ¤":13702,"Ġìĺ¤ì¼ĢìĬ¤íĬ¸ëĿ¼":13703,"ĠëĮĢë©´":13704,"Ġdong":13705,"ĠêµĲíĸ¥":13706,"Ġë¯¸ìĬ¤íĦ°ë¦¬":13707,"ìĦ±ìĿ´":13708,"Ġë§ĪíĶ¼ìķĦ":13709,"Ġíķĺì¹ĺ":13710,"Ġì§Ħíķľ":13711,"Ġpk":13712,"Ġì»¤ìĬ¤íħĢ":13713,"íİĺìĿ´ìĬ¤":13714,"Ġì§ĦìĹĲ":13715,"Ġë³ĢìĿ´":13716,"ĠìľĦìª½":13717,"Ġë²łìĬ¤":13718,"ĠìłģìłĪíŀĪ":13719,"Ġê¹ĢìĿĢ":13720,"Ġë¶ĪìĶ¨":13721,"ecd":13722,"Ġìłĵ":13723,"ĠíĹ¬ë¦¬":13724,"Ġjohn":13725,"ĠíĪŃ":13726,"ĠìķĦìĦ¸":13727,"Ġë²ķìĤ¬":13728,"Ġê²¬ìĿ¸":13729,"ĠíĹ¬ë©§":13730,"ĠíĶĮë¡ľë¦¬ëĭ¤":13731,"ĠìĻĢìĿ´ë²Ī":13732,"Ġì§ĪëŁī":13733,"ëĿ¼ë¶Ļ":13734,"dy":13735,"Ġë³Ģì¡°":13736,"ãĥ³":13737,"ĠìłľëıĻ":13738,"Ġê´ĳë²Ķ":13739,"ĠìłĳëĮĢ":13740,"Ġì²ľíĻ©":13741,"Ġìľłìĭł":13742,"Ġìĭľìĺ¤":13743,"ĠíĦ°ë³´":13744,"Ġì°¬ìĸĳ":13745,"Ġì¤Ħë¦¬":13746,"Ġìłķìĺģ":13747,"Ġìĺ¤ëĭ¤":13748,"Ġë²Ļì»¤":13749,"ĠìĤ¬ìķħ":13750,"Ġì¢ħìĹħ":13751,"ĠìŀĲì±ħìłĲ":13752,"ĠìĿ´ë¥¸ëĭ¤":13753,"ĠìĪĺê±°":13754,"ĠëĨįë¦¼":13755,"ëĭĪìĭľ":13756,"ĠëĭĪíĬ¸":13757,"Ġob":13758,"Ġë¦¬ëĤĺ":13759,"Ġíķĺê¸ī":13760,"Ġìĺ¤ëħ¸":13761,"Ġíľ´ìłĦ":13762,"íģ¬ë¦¬íĬ¸":13763,"Ġëª¨ê¸Ī":13764,"Ġê¸īê¸°":13765,"ĠìĽĲíķľ":13766,"Ġçİĭ":13767,"ê¾¼":13768,"Ġëħ¹ì°¨":13769,"ĠìĿ´íĺľ":13770,"ĠìĭľìķĪ":13771,"Ġë³´ìłĦ":13772,"Ġê³µìķĪ":13773,"ĠìĦ±ëıĻ":13774,"Ġë°Ģì§ĳ":13775,"Ġì£¼ì¶ķ":13776,"Ġë§¤ë¬¼":13777,"Ġë°°ìĽĮ":13778,"Ġìĸ´ìķ¼ì§Ģ":13779,"Ġë¬¼ëĨĢ":13780,"Ġë¡ľê·¸ìĿ¸":13781,"¹Ń":13782,"ĠíĻľê¸°":13783,"ĠìĿ´ìĸ´ë°Ľ":13784,"Ġíĳ¸ë¥´":13785,"ĠìĬ¤íĮĮìĿ´ëįĶë§¨":13786,"Ġê°ĢìĦ±":13787,"Ġëħ¸ê³¨":13788,"Ġë¯¸ìĬ¤íĬ¸":13789,"ĠìĦłëıĦ":13790,"Ġë¤¼":13791,"Ġë§Īê³Ħ":13792,"ê°±":13793,"ìķĦìĺ¬":13794,"ĠìĹ¬ì£¼ìĿ¸":13795,"Ġìĭłì£¼":13796,"ĠìĿ´íļĮì°½":13797,"Ġëĭ¬ìĿ¸":13798,"Ġìĺ¤ë¸ĮìłĿíĬ¸":13799,"ĠìĦŀìĿ¸":13800,"Ġë°ķíĥĪ":13801,"ë²Ħëł¤":13802,"ane":13803,"ĠìľłìĦľ":13804,"ĠìĤ¬ë°©":13805,"Ġìµľìļ°ìĦł":13806,"ĠìĨĲìĺ¤ê³µ":13807,"íĤ¤ìĬ¤":13808,"Ġìº¬":13809,"Ġì»¨ëĶĶìħĺ":13810,"ĠíĨłë¯¸":13811,"Ġê³Ħìķ½ìĦľ":13812,"ĠëĤ¨íķĻìĥĿ":13813,"ìłķìĭĿ":13814,"ĠìĹŃíķĻ":13815,"Ġì¡´ìĬ¨":13816,"Ġë°Ķë¡ł":13817,"ĠìłķìĤ¬":13818,"Ġìĭ¤ë¬¼":13819,"ĠíĮĮë³ĳ":13820,"park":13821,"Ġë²Ħë¦¼":13822,"ĠìĻ¸êµĲê´Ģ":13823,"Ġë¬´ìĦľìĽĮ":13824,
[...]
