{"version":"1.0","truncation":null,"padding":null,"added_tokens":[{"id":0,"special":true,"content":"[PAD]","single_word":false,"lstrip":false,"rstrip":false,"normalized":false},{"id":1,"special":true,"content":"[UNK]","single_word":false,"lstrip":false,"rstrip":false,"normalized":false},{"id":2,"special":true,"content":"[CLS]","single_word":false,"lstrip":false,"rstrip":false,"normalized":false},{"id":3,"special":true,"content":"[SEP]","single_word":false,"lstrip":false,"rstrip":false,"normalized":false},{"id":4,"special":true,"content":"[MASK]","single_word":false,"lstrip":false,"rstrip":false,"normalized":false}],"normalizer":{"type":"Sequence","normalizers":[{"type":"NFD"},{"type":"Lowercase"},{"type":"StripAccents"}]},"pre_tokenizer":{"type":"Whitespace"},"post_processor":{"type":"TemplateProcessing","single":[{"SpecialToken":{"id":"[CLS]","type_id":0}},{"Sequence":{"id":"A","type_id":0}},{"SpecialToken":{"id":"[SEP]","type_id":0}}],"pair":[{"SpecialToken":{"id":"[CLS]","type_id":0}},{"Sequence":{"id":"A","type_id":0}},{"SpecialToken":{"id":"[SEP]","type_id":0}},{"Sequence":{"id":"B","type_id":1}},{"SpecialToken":{"id":"[SEP]","type_id":1}}],"special_tokens":{"[CLS]":{"id":"[CLS]","ids":[2],"tokens":["[CLS]"]},"[MASK]":{"id":"[MASK]","ids":[4],"tokens":["[MASK]"]},"[PAD]":{"id":"[PAD]","ids":[0],"tokens":["[PAD]"]},"[SEP]":{"id":"[SEP]","ids":[3],"tokens":["[SEP]"]},"[UNK]":{"id":"[UNK]","ids":[1],"tokens":["[UNK]"]}}},"decoder":null,"model":{"unk_token":"[UNK]","continuing_subword_prefix":"##","max_input_chars_per_word":100,"vocab":{"[PAD]":0,"[UNK]":1,"[CLS]":2,"[SEP]":3,"[MASK]":4,"!":5,"\"":6,"#":7,"$":8,"%":9,"&":10,"'":11,"(":12,")":13,"*":14,"+":15,",":16,"-":17,".":18,"/":19,"0":20,"1":21,"2":22,"3":23,"4":24,"5":25,"6":26,"7":27,"8":28,"9":29,":":30,";":31,"<":32,"=":33,">":34,"?":35,"@":36,"[":37,"\\":38,"]":39,"^":40,"_":41,"`":42,"a":43,"b":44,"c":45,"d":46,"e":47,"f":48,"g":49,"h":50,"i":51,"j":52,"k":53,"l":54,"m":55,"n":56,"o":57,"p":58,"q":59,"r":60,"s":61,"t":62,"u":63,"v":64,"w":65,"x":66,"y":67,"z":68,"{":69,"|":70,"}":71,"~":72,"":73,"":74,"":75,"":76,"":77,"":78,"¡":79,"£":80,"¤":81,"¥":82,"¦":83,"§":84,"¨":85,"©":86,"«":87,"¬":88,"­":89,"®":90,"¯":91,"°":92,"±":93,"²":94,"³":95,"´":96,"µ":97,"¶":98,"·":99,"¸":100,"¹":101,"º":102,"»":103,"¼":104,"½":105,"¿":106,"×":107,"ß":108,"æ":109,"ð":110,"÷":111,"ø":112,"đ":113,"ı":114,"ł":115,"œ":116,"ƒ":117,"ƪ":118,"ȡ":119,"ȥ":120,"ɂ":121,"ə":122,"ɛ":123,"ɞ":124,"ɢ":125,"ɪ":126,"ɴ":127,"ɷ":128,"ʀ":129,"ʃ":130,"ʌ":131,"ʏ":132,"ʔ":133,"ʕ":134,"ʖ":135,"ʘ":136,"ʙ":137,"ʚ":138,"ʜ":139,"ʟ":140,"ʺ":141,"ʾ":142,"ʿ":143,"ˀ":144,"˂":145,"˃":146,"˄":147,"ˆ":148,"ˇ":149,"ˊ":150,"ˋ":151,"ˌ":152,"ˎ":153,"ˏ":154,"ː":155,"˒":156,"˓":157,"˔":158,"˖":159,"˘":160,"˙":161,"˚":162,"˜":163,"˝":164,"˟":165,"ˢ":166,"ˣ":167,"ˬ":168,"˭":169,"˳":170,"˵":171,"˶":172,"΄":173,"α":174,"β":175,"γ":176,"δ":177,"ε":178,"η":179,"θ":180,"ι":181,"κ":182,"λ":183,"μ":184,"ν":185,"ο":186,"π":187,"ρ":188,"ς":189,"σ":190,"τ":191,"υ":192,"φ":193,"χ":194,"ψ":195,"ω":196,"а":197,"б":198,"в":199,"г":200,"д":201,"е":202,"з":203,"и":204,"к":205,"л":206,"м":207,"н":208,"о":209,"п":210,"р":211,"с":212,"т":213,"у":214,"ф":215,"х":216,"ц":217,"ч":218,"ш":219,"ъ":220,"ь":221,"ю":222,"я":223,"є":224,"ѕ":225,"ѧ":226,"ғ":227,"ө":228,"ԅ":229,"՞":230,"֊":231,"־":232,"׃":233,"א":234,"ב":235,"ג":236,"ד":237,"ה":238,"ו":239,"ח":240,"י":241,"ל":242,"ם":243,"מ":244,"ן":245,"נ":246,"ס":247,"ע":248,"פ":249,"צ":250,"ק":251,"ר":252,"ש":253,"ת":254,"؂":255,"ه":256,"و":257,"٩":258,"ټ":259,"ڡ":260,"۝":261,"۶":262,"ۿ":263,"ܫ":264,"ࡇ":265,"ॱ":266,"ॽ":267,"ਊ":268,"੭":269,"દ":270,"૨":271,"૭":272,"૮":273,"ଓ":274,"ଘ":275,"ପ":276,"ଳ":277,"୧":278,"୨":279,"୯":280,"இ":281,"ற":282,"௦":283,"௰":284,"ఇ":285,"ఠ":286,"౪":287,"ಠ":288,"ಡ":289,"ಢ":290,"ತ":291,"ಥ":292,"೦":293,"യ":294,"ര":295,"൧":296,"ෆ":297,"ฅ":298,"ง":299,"ต":300,"ย":301,"ร":302,"ว":303,"อ":304,"๑":305,"༄":306,"་":307,"༎":308,"༝":309,"༡":310,"༬":311,"༶":312,"༼":313,"༽":314,"ཀ":315,"ཅ":316,"࿉":317,"ა":318,"ლ":319,"ო":320,"ფ":321,"ღ":322,"ᄀ":323,"ᄁ":324,"ᄂ":325,"ᄃ":326,"ᄄ":327,"ᄅ":328,"ᄆ":329,"ᄇ":330,"ᄈ":331,"ᄉ":332,"ᄊ":333,"ᄋ":334,"ᄌ":335,"ᄍ":336,"ᄎ":337,"ᄏ":338,"ᄐ":339,"ᄑ":340,"ᄒ":341,"ᅡ":342,"ᅢ":343,"ᅣ":344,"ᅤ":345,"ᅥ":346,"ᅦ":347,"ᅧ":348,"ᅨ":349,"ᅩ":350,"ᅪ":351,"ᅫ":352,"ᅬ":353,"ᅭ":354,"ᅮ":355,"ᅯ":356,"ᅰ":357,"ᅱ":358,"ᅲ":359,"ᅳ":360,"ᅴ":361,"ᅵ":362,"ᆔ":363,"ᆞ":364,"ᆢ":365,"ᆨ":366,"ᆩ":367,"ᆪ":368,"ᆫ":369,"ᆬ":370,"ᆭ":371,"ᆮ":372,"ᆯ":373,"ᆰ":374,"ᆱ":375,"ᆲ":376,"ᆳ":377,"ᆴ":378,"ᆵ":379,"ᆶ":380,"ᆷ":381,"ᆸ":382,"ᆹ":383,"ᆺ":384,"ᆻ":385,"ᆼ":386,"ᆽ":387,"ᆾ":388,"ᆿ":389,"ᇀ":390,"ᇁ":391,"ᇂ":392,"ቼ":393,"ኈ":394,"ዽ":395,"ጿ":396,"᎑":397,"ᐕ":398,"ᐖ":399,"ᐛ":400,"ᐢ":401,"ᑎ":402,"ᑕ":403,"ᓀ":404,"ᓂ":405,"ᔕ":406,"ᕕ":407,"ᕗ":408,"ᕙ":409,"ᕤ":410,"ᕦ":411,"ᖇ":412,"ᗒ":413,"ᗕ":414,"ᗜ":415,"ᗣ":416,"ᗨ":417,"ᗰ":418,"ᘰ":419,"ᘳ":420,"ᙏ":421,"ᴀ":422,"ᴄ":423,"ᴅ":424,"ᴇ":425,"ᴈ":426,"ᴊ":427,"ᴋ":428,"ᴍ":429,"ᴏ":430,"ᴖ":431,"ᴗ":432,"ᴘ":433,"ᴛ":434,"ᴜ":435,"ᴠ":436,"ᴡ":437,"ᴢ":438,"ᴥ":439,"ᴬ":440,"ᴮ":441,"ᴰ":442,"ᴱ":443,"ᴳ":444,"ᴴ":445,"ᴵ":446,"ᴶ":447,"ᴷ":448,"ᴸ":449,"ᴹ":450,"ᴺ":451,"ᴼ":452,"ᴾ":453,"ᴿ":454,"ᵀ":455,"ᵁ":456,"ᵂ":457,"ᵋ":458,"ᵍ":459,"ᵎ":460,"ᵏ":461,"ᵐ":462,"ᵒ":463,"ᵔ":464,"ᵕ":465,"ᵛ":466,"ᵞ":467,"ᶜ":468,"ᶠ":469,"ᶻ":470,"ᶿ":471,"‍":472,"‎":473,"‐":474,"–":475,"—":476,"―":477,"‘":478,"’":479,"‚":480,"“":481,"”":482,"„":483,"†":484,"‡":485,"•":486,"‣":487,"․":488,"‥":489,"…":490,"‧":491,"‪":492,"‬":493,"‭":494,"‰":495,"′":496,"‵":497,"‶":498,"‸":499,"‹":500,"›":501,"※":502,"‼":503,"‾":504,"‿":505,"⁄":506,"⁉":507,"⁍":508,"⁎":509,"⁑":510,"⁔":511,"⁠":512,"⁰":513,"⁸":514,"⁹":515,"⁺":516,"⁻":517,"⁼":518,"⁽":519,"⁾":520,"₀":521,"₃":522,"₊":523,"₋":524,"₍":525,"₎":526,"₩":527,"€":528,"℃":529,"ℓ":530,"™":531,"⅓":532,"⅔":533,"ⅰ":534,"ⅱ":535,"ⅲ":536,"ⅳ":537,"ⅴ":538,"←":539,"↑":540,"→":541,"↓":542,"↔":543,"↕":544,"↖":545,"↗":546,"↘":547,"↙":548,"↩":549,"↪":550,"↬":551,"⇒":552,"⇔":553,"⇝":554,"⇢":555,"⇨":556,"⇩":557,"∀":558,"∂":559,"∇":560,"∈":561,"−":562,"∗":563,"∙":564,"√":565,"∝":566,"∞":567,"∠":568,"∥":569,"∧":570,"∩":571,"∴":572,"∼":573,"≈":574,"≒":575,"≤":576,"≥":577,"≦":578,"≧":579,"≪":580,"≫":581,"⊃":582,"⊙":583,"⋅":584,"⋆":585,"⌄":586,"⌑":587,"⌒":588,"⌓":589,"⌚":590,"⌛":591,"⌣":592,"⌨":593,"⌯":594,"⍢":595,"⎯":596,"⏩":597,"⏭":598,"⏰":599,"⏱":600,"⏳":601,"⏺":602,"⑅":603,"⑉":604,"①":605,"②":606,"③":607,"④":608,"⑤":609,"⑥":610,"⑦":611,"⑧":612,"⑨":613,"⑩":614,"⑴":615,"⑶":616,"⑸":617,"ⓐ":618,"ⓑ":619,"ⓒ":620,"ⓓ":621,"ⓔ":622,"ⓗ":623,"ⓙ":624,"ⓚ":625,"ⓛ":626,"ⓜ":627,"ⓝ":628,"ⓞ":629,"ⓣ":630,"ⓤ":631,"ⓥ":632,"ⓨ":633,"⓿":634,"─":635,"━":636,"│":637,"┃":638,"┌":639,"┏":640,"┐":641,"┓":642,"└":643,"┘":644,"┳":645,"┻":646,"╥":647,"╭":648,"╮":649,"╯":650,"╰":651,"╹":652,"█":653,"▌":654,"■":655,"□":656,"▣":657,"▧":658,"▩":659,"▪":660,"▫":661,"▰":662,"▱":663,"▲":664,"△":665,"▶":666,"▷":667,"▸":668,"►":669,"▼":670,"▽":671,"▾":672,"▿":673,"◀":674,"◁":675,"◆":676,"◇":677,"◈":678,"◉":679,"○":680,"◌":681,"◍":682,"◎":683,"●":684,"◐":685,"◑":686,"◔":687,"◕":688,"◜":689,"◝":690,"◞":691,"◟":692,"◠":693,"◡":694,"◤":695,"◥":696,"◦":697,"◯":698,"◻":699,"◼":700,"◽":701,"◾":702,"☀":703,"☁":704,"☂":705,"☃":706,"☄":707,"★":708,"☆":709,"☇":710,"☉":711,"☌":712,"☎":713,"☐":714,"☑":715,"☔":716,"☕":717,"☘":718,"☚":719,"☛":720,"☜":721,"☝":722,"☞":723,"☠":724,"☪":725,"☹":726,"☺":727,"☻":728,"☽":729,"☾":730,"♀":731,"♂":732,"♜":733,"♠":734,"♡":735,"♢":736,"♣":737,"♤":738,"♥":739,"♦":740,"♧":741,"♨":742,"♩":743,"♪":744,"♫":745,"♬":746,"♻":747,"♾":748,"⚀":749,"⚁":750,"⚃":751,"⚆":752,"⚈":753,"⚓":754,"⚔":755,"⚕":756,"⚖":757,"⚘":758,"⚙":759,"⚜":760,"⚠":761,"⚡":762,"⚪":763,"⚫":764,"⚬":765,"⚰":766,"⚱":767,"⚽":768,"⚾":769,"⛄":770,"⛅":771,"⛆":772,"⛈":773,"⛏":774,"⛑":775,"⛔":776,"⛤":777,"⛥":778,"⛦":779,"⛧":780,"⛩":781,"⛪":782,"⛰":783,"⛱":784,"⛲":785,"⛳":786,"⛵":787,"⛷":788,"⛸":789,"⛹":790,"⛺":791,"✂":792,"✅":793,"✈":794,"✉":795,"✊":796,"✋":797,"✌":798,"✍":799,"✏":800,"✐":801,"✒":802,"✓":803,"✔":804,"✖":805,"✡":806,"✦":807,"✧":808,"✨":809,"✩":810,"✪":811,"✫":812,"✲":813,"✳":814,"✴":815,"✺":816,"✿":817,"❀":818,"❁":819,"❂":820,"❄":821,"❇":822,"❉":823,"❌":824,"❍":825,"❎":826,"❑":827,"❓":828,"❔":829,"❕":830,"❗":831,"❛":832,"❝":833,"❢":834,"❣":835,"❤":836,"❥":837,"❮":838,"❯":839,"❶":840,"❷":841,"❸":842,"❹":843,"❽":844,"❾":845,"➍":846,"➕":847,"➖":848,"➜":849,"➡":850,"➰":851,"➴":852,"➼":853,"➿":854,"⟪":855,"⟫":856,"⠀":857,"⠉":858,"⤴":859,"⤵":860,"⤷":861,"⦁":862,"⫬":863,"⬅":864,"⬆":865,"⬇":866,"⬛":867,"⬜":868,"⭐":869,"⭕":870,"⸜":871,"⸝":872,"、":873,"。":874,"〃":875,"々":876,"〈":877,"〉":878,"《":879,"》":880,"「":881,"」":882,"『":883,"』":884,"【":885,"】":886,"〒":887,"〓":888,"〔":889,"〕":890,"〜":891,"〰":892,"〽":893,"ぁ":894,"あ":895,"い":896,"う":897,"ぇ":898,"え":899,"ぉ":900,"お":901,"か":902,"き":903,"く":904,"け":905,"こ":906,"さ":907,"し":908,"す":909,"せ":910,"そ":911,"た":912,"ち":913,"っ":914,"つ":915,"て":916,"と":917,"な":918,"に":919,"ぬ":920,"ね":921,"の":922,"は":923,"ひ":924,"ふ":925,"へ":926,"ほ":927,"ま":928,"み":929,"む":930,"め":931,"も":932,"ゃ":933,"や":934,"ゅ":935,"ゆ":936,"ょ":937,"よ":938,"ら":939,"り":940,"る":941,"れ":942,"ろ":943,"わ":944,"を":945,"ん":946,"゛":947,"゜":948,"ゝ":949,"ァ":950,"ア":951,"ィ":952,"イ":953,"ゥ":954,"ウ":955,"ェ":956,"エ":957,"ォ":958,"オ":959,"カ":960,"キ":961,"ク":962,"ケ":963,"コ":964,"サ":965,"シ":966,"ス":967,"セ":968,"ソ":969,"タ":970,"チ":971,"ッ":972,"ツ":973,"テ":974,"ト":975,"ナ":976,"ニ":977,"ヌ":978,"ネ":979,"ノ":980,"ハ":981,"ヒ":982,"フ":983,"ヘ":984,"ホ":985,"マ":986,"ミ":987,"ム":988,"メ":989,"モ":990,"ャ":991,"ヤ":992,"ュ":993,"ユ":994,"ョ":995,"ヨ":996,"ラ":997,"リ":998,"ル":999,"レ":1000,"ロ":1001,"ワ":1002,"ヱ":1003,"ヲ":1004,"ン":1005,"ヶ":1006,"・":1007,"ー":1008,"ヽ":1009,"ㄱ":1010,"ㄲ":1011,"ㄳ":1012,"ㄴ":1013,"ㄵ":1014,"ㄶ":1015,"ㄷ":1016,"ㄸ":1017,"ㄹ":1018,"ㄺ":1019,"ㄻ":1020,"ㅀ":1021,"ㅁ":1022,"ㅂ":1023,"ㅃ":1024,"ㅄ":1025,"ㅅ":1026,"ㅆ":1027,"ㅇ":1028,"ㅈ":1029,"ㅉ":1030,"ㅊ":1031,"ㅋ":1032,"ㅌ":1033,"ㅍ":1034,"ㅎ":1035,"ㅏ":1036,"ㅐ":1037,"ㅑ":1038,"ㅒ":1039,"ㅓ":1040,"ㅔ":1041,"ㅕ":1042,"ㅖ":1043,"ㅗ":1044,"ㅘ":1045,"ㅙ":1046,"ㅚ":1047,"ㅛ":1048,"ㅜ":1049,"ㅝ":1050,"ㅞ":1051,"ㅟ":1052,"ㅠ":1053,"ㅡ":1054,"ㅢ":1055,"ㅣ":1056,"ㅤ":1057,"ㅿ":1058,"ㆀ":1059,"ㆍ":1060,"㈔":1061,"㈜":1062,"㉦":1063,"㉭":1064,"㊗":1065,"㎏":1066,"㎐":1067,"㎒":1068,"㎓":1069,"㎖":1070,"㎗":1071,"㎛":1072,"㎜":1073,"㎝":1074,"㎞":1075,"㎡":1076,"㎢":1077,"㎥":1078,"㎽":1079,"一":1080,"丁":1081,"七":1082,"万":1083,"丈":1084,"三":1085,"上":1086,"下":1087,"不":1088,"且":1089,"世":1090,"丘":1091,"丙":1092,"东":1093,"个":1094,"中":1095,"丸":1096,"丹":1097,"为":1098,"主":1099,"丼":1100,"丿":1101,"乃":1102,"久":1103,"之":1104,"乎":1105,"乐":1106,"乔":1107,"乙":1108,"九":1109,"乞":1110,"也":1111,"乱":1112,"乳":1113,"乾":1114,"亀":1115,"亂":1116,"了":1117,"予":1118,"争":1119,"事":1120,"二":1121,"于":1122,"云":1123,"五":1124,"井":1125,"亜":1126,"亞":1127,"亡":1128,"交":1129,"亥":1130,"亦":1131,"享":1132,"京":1133,"亭":1134,"亮":1135,"人":1136,"仁":1137,"今":1138,"从":1139,"他":1140,"仙":1141,"代":1142,"令":1143,"以":1144,"们":1145,"件":1146,"任":1147,"企":1148,"伊":1149,"休":1150,"会":1151,"伝":1152,"伴":1153,"伸":1154,"似":1155,"住":1156,"佐":1157,"体":1158,"何":1159,"佛":1160,"作":1161,"佟":1162,"你":1163,"佳":1164,"使":1165,"來":1166,"供":1167,"侠":1168,"価":1169,"侯":1170,"保":1171,"信":1172,"修":1173,"俱":1174,"倉":1175,"個":1176,"倒":1177,"倖":1178,"停":1179,"健":1180,"側":1181,"偷":1182,"傑":1183,"傘":1184,"備":1185,"傳":1186,"像":1187,"僕":1188,"僞":1189,"僧":1190,"僭":1191,"僻":1192,"儀":1193,"儒":1194,"優":1195,"儿":1196,"元":1197,"兄":1198,"先":1199,"光":1200,"克":1201,"免":1202,"兎":1203,"內":1204,"全":1205,"兩":1206,"八":1207,"公":1208,"六":1209,"共":1210,"兵":1211,"其":1212,"具":1213,"典":1214,"内":1215,"円":1216,"再":1217,"冒":1218,"写":1219,"冠":1220,"冨":1221,"冬":1222,"冰":1223,"冷":1224,"减":1225,"凡":1226,"凧":1227,"凪":1228,"凰":1229,"凶":1230,"凹":1231,"出":1232,"函":1233,"刀":1234,"分":1235,"刑":1236,"刖":1237,"列":1238,"初":1239,"判":1240,"別":1241,"利":1242,"别":1243,"到":1244,"制":1245,"刹":1246,"刻":1247,"則":1248,"前":1249,"剛":1250,"剝":1251,"剧":1252,"副":1253,"劃":1254,"劉":1255,"劍":1256,"力":1257,"功":1258,"加":1259,"动":1260,"助":1261,"劾":1262,"勇":1263,"動":1264,"務":1265,"勝":1266,"勞":1267,"勢":1268,"勿":1269,"包":1270,"化":1271,"北":1272,"匹":1273,"区":1274,"十":1275,"千":1276,"半":1277,"华":1278,"卑":1279,"卒":1280,"卓":1281,"協":1282,"单":1283,"南":1284,"博":1285,"印":1286,"危":1287,"卵":1288,"卸":1289,"卿":1290,"厅":1291,"厚":1292,"原":1293,"厦":1294,"厳":1295,"去":1296,"参":1297,"及":1298,"友":1299,"双":1300,"反":1301,"叔":1302,"受":1303,"口":1304,"古":1305,"句":1306,"召":1307,"可":1308,"台":1309,"史":1310,"右":1311,"号":1312,"司":1313,"吃":1314,"各":1315,"合":1316,"吉":1317,"同":1318,"名":1319,"吏":1320,"向":1321,"吗":1322,"君":1323,"吞":1324,"否":1325,"吳":1326,"吸":1327,"吾":1328,"呂":1329,"告":1330,"呑":1331,"周":1332,"呪":1333,"味":1334,"呼":1335,"和":1336,"咖":1337,"咲":1338,"哀":1339,"品":1340,"哉":1341,"員":1342,"哨":1343,"哩":1344,"哭":1345,"哲":1346,"唐":1347,"商":1348,"啓":1349,"啡":1350,"善":1351,"喚":1352,"喜":1353,"喝":1354,"喪":1355,"單":1356,"嘉":1357,"嘴":1358,"器":1359,"嚕":1360,"囍":1361,"四":1362,"回":1363,"因":1364,"団":1365,"囧":1366,"园":1367,"固":1368,"国":1369,"國":1370,"圏":1371,"園":1372,"圖":1373,"團":1374,"土":1375,"在":1376,"圭":1377,"地":1378,"场":1379,"坂":1380,"均":1381,"坊":1382,"坐":1383,"坡":1384,"垈":1385,"型":1386,"垣":1387,"城":1388,"埓":1389,"域":1390,"基":1391,"堂":1392,"報":1393,"場":1394,"塔":1395,"塗":1396,"塞":1397,"塩":1398,"塾":1399,"境":1400,"墮":1401,"士":1402,"声":1403,"壽":1404,"変":1405,"夏":1406,"夕":1407,"外":1408,"多":1409,"夜":1410,"夢":1411,"大":1412,"天":1413,"太":1414,"夫":1415,"央":1416,"失":1417,"奇":1418,"奈":1419,"奏":1420,"契":1421,"奔":1422,"奚":1423,"奥":1424,"奪":1425,"女":1426,"奴":1427,"奶":1428,"好":1429,"如":1430,"妆":1431,"妈":1432,"妖":1433,"妹":1434,"姉":1435,"始":1436,"姓":1437,"姚":1438,"姜":1439,"娑":1440,"婆":1441,"婚":1442,"媤":1443,"孃":1444,"子":1445,"孔":1446,"字":1447,"存":1448,"孝":1449,"季":1450,"学":1451,"孫":1452,"學":1453,"宅":1454,"宇":1455,"守":1456,"安":1457,"宋":1458,"完":1459,"宗":1460,"官":1461,"宙":1462,"定":1463,"宜":1464,"宝":1465,"実":1466,"客":1467,"宣":1468,"室":1469,"宦":1470,"宫":1471,"宮":1472,"害":1473,"家":1474,"容":1475,"宿":1476,"密":1477,"富":1478,"寒":1479,"寓":1480,"察":1481,"實":1482,"寧":1483,"寨":1484,"審":1485,"寶":1486,"寺":1487,"射":1488,"将":1489,"將":1490,"專":1491,"尉":1492,"尊":1493,"對":1494,"導":1495,"小":1496,"少":1497,"尔":1498,"尺":1499,"尼":1500,"尾":1501,"局":1502,"层":1503,"居":1504,"屋":1505,"屍":1506,"展":1507,"層":1508,"山":1509,"岐":1510,"岚":1511,"岛":1512,"岡":1513,"岩":1514,"岬":1515,"峨":1516,"峰":1517,"島":1518,"峽":1519,"崇":1520,"崋":1521,"崎":1522,"崔":1523,"川":1524,"州":1525,"巡":1526,"工":1527,"左":1528,"巧":1529,"巨":1530,"差":1531,"己":1532,"已":1533,"巴":1534,"巻":1535,"市":1536,"布":1537,"帝":1538,"師":1539,"帰":1540,"帳":1541,"常":1542,"幌":1543,"幡":1544,"干":1545,"平":1546,"年":1547,"幸":1548,"幻":1549,"幽":1550,"广":1551,"広":1552,"庄":1553,"床":1554,"序":1555,"庐":1556,"底":1557,"店":1558,"庚":1559,"府":1560,"度":1561,"座":1562,"庫":1563,"庭":1564,"康":1565,"廉":1566,"廚":1567,"廣":1568,"廬":1569,"廷":1570,"建":1571,"廿":1572,"弄":1573,"引":1574,"弘":1575,"弟":1576,"张":1577,"弥":1578,"弱":1579,"張":1580,"強":1581,"弹":1582,"强":1583,"彈":1584,"当":1585,"彡":1586,"形":1587,"彦":1588,"彩":1589,"影":1590,"役":1591,"彼":1592,"待":1593,"律":1594,"後":1595,"徐":1596,"得":1597,"從":1598,"御":1599,"復":1600,"徳":1601,"德":1602,"心":1603,"必":1604,"忌":1605,"忍":1606,"志":1607,"忠":1608,"快":1609,"念":1610,"怒":1611,"思":1612,"急":1613,"性":1614,"怪":1615,"恋":1616,"恐":1617,"恤":1618,"恥":1619,"恨":1620,"恩":1621,"悌":1622,"悟":1623,"患":1624,"悪":1625,"悲":1626,"情":1627,"惠":1628,"惡":1629,"想":1630,"惻":1631,"愁":1632,"愉":1633,"意":1634,"愚":1635,"愛":1636,"感":1637,"愿":1638,"態":1639,"慘":1640,"慢":1641,"慮":1642,"慶":1643,"慾":1644,"憂":1645,"憲":1646,"憶":1647,"憾":1648,"應":1649,"懐":1650,"懸":1651,"戀":1652,"戈":1653,"成":1654,"我":1655,"戦":1656,"戰":1657,"戱":1658,"戸":1659,"戻":1660,"房":1661,"所":1662,"扈":1663,"扉":1664,"手":1665,"才":1666,"扎":1667,"打":1668,"承":1669,"折":1670,"抛":1671,"抹":1672,"抽":1673,"拍":1674,"拘":1675,"招":1676,"拳":1677,"持":1678,"指":1679,"捞":1680,"换":1681,"捨":1682,"掌":1683,"排":1684,"探":1685,"接":1686,"推":1687,"描":1688,"換":1689,"握":1690,"損":1691,"搾":1692,"撃":1693,"操":1694,"支":1695,"收":1696,"改":1697,"攻":1698,"放":1699,"政":1700,"故":1701,"效":1702,"敎":1703,"救":1704,"敗":1705,"敦":1706,"敬":1707,"敵":1708,"敷":1709,"文":1710,"斗":1711,"料":1712,"斤":1713,"斬":1714,"新":1715,"斷":1716,"方":1717,"於":1718,"施":1719,"旅":1720,"旋":1721,"族":1722,"旗":1723,"日":1724,"旦":1725,"旧":1726,"旨":1727,"早":1728,"旭":1729,"时":1730,"旻":1731,"昇":1732,"昌":1733,"明":1734,"星":1735,"春":1736,"是":1737,"時":1738,"普":1739,"景":1740,"晴":1741,"智":1742,"暑":1743,"暗":1744,"曉":1745,"曰":1746,"曲":1747,"曷":1748,"書":1749,"曹":1750,"最":1751,"會":1752,"月":1753,"有":1754,"朋":1755,"朗":1756,"望":1757,"朝":1758,"期":1759,"木":1760,"未":1761,"末":1762,"本":1763,"札":1764,"术":1765,"朴":1766,"机":1767,"朽":1768,"杉":1769,"李":1770,"材":1771,"村":1772,"杞":1773,"条":1774,"来":1775,"杭":1776,"東":1777,"杵":1778,"松":1779,"林":1780,"果":1781,"枸":1782,"柊":1783,"柏":1784,"柑":1785,"染":1786,"柔":1787,"柳":1788,"柴":1789,"柿":1790,"栄":1791,"栈":1792,"校":1793,"株":1794,"核":1795,"根":1796,"格":1797,"桂":1798,"桃":1799,"桑":1800,"桓":1801,"桜":1802,"桥":1803,"梁":1804,"梅":1805,"條":1806,"梧":1807,"梵":1808,"棄":1809,"棉":1810,"棟":1811,"森":1812,"棲":1813,"植":1814,"椎":1815,"楊":1816,"業":1817,"極":1818,"楼":1819,"楽":1820,"概":1821,"榛":1822,"榨":1823,"榮":1824,"槪":1825,"樂":1826,"樑":1827,"標":1828,"樣":1829,"樹":1830,"橋":1831,"機":1832,"檀":1833,"檢":1834,"權":1835,"次":1836,"欢":1837,"欺":1838,"歌":1839,"止":1840,"正":1841,"步":1842,"武":1843,"歩":1844,"歳":1845,"歷":1846,"歸":1847,"死":1848,"残":1849,"殺":1850,"殿":1851,"毅":1852,"母":1853,"毒":1854,"比":1855,"民":1856,"気":1857,"氣":1858,"水":1859,"氷":1860,"永":1861,"求":1862,"汉":1863,"汐":1864,"汜":1865,"江":1866,"池":1867,"汪":1868,"沈":1869,"沒":1870,"沖":1871,"沙":1872,"沢":1873,"河":1874,"油":1875,"治":1876,"況":1877,"泉":1878,"泊":1879,"泌":1880,"法":1881,"泥":1882,"注":1883,"泮":1884,"泰":1885,"泷":1886,"洒":1887,"洞":1888,"津":1889,"洪":1890,"活":1891,"流":1892,"浅":1893,"济":1894,"浙":1895,"浜":1896,"浦":1897,"浩":1898,"浪":1899,"浮":1900,"海":1901,"消":1902,"涌":1903,"涙":1904,"涯":1905,"淑":1906,"淚":1907,"淫":1908,"深":1909,"淳":1910,"混":1911,"淸":1912,"淺":1913,"添":1914,"清":1915,"済":1916,"渋":1917,"渡":1918,"渤":1919,"温":1920,"測":1921,"渭":1922,"港":1923,"游":1924,"湖":1925,"湘":1926,"湯":1927,"湾":1928,"源":1929,"溥":1930,"溪":1931,"溫":1932,"滑":1933,"滝":1934,"滿":1935,"漁":1936,"漢":1937,"漫":1938,"潔":1939,"潛":1940,"潭":1941,"澁":1942,"澄":1943,"激":1944,"濟":1945,"濠":1946,"濤":1947,"瀑":1948,"瀬":1949,"灘":1950,"灣":1951,"火":1952,"灰":1953,"灼":1954,"災":1955,"炎":1956,"点":1957,"為":1958,"烈":1959,"烏":1960,"烟":1961,"烫":1962,"热":1963,"烹":1964,"無":1965,"焦":1966,"焼":1967,"煎":1968,"照":1969,"煩":1970,"熊":1971,"熙":1972,"熱":1973,"燃":1974,"燈":1975,"燒":1976,"燕":1977,"燥":1978,"爪":1979,"爭":1980,"爱":1981,"爲":1982,"父":1983,"爾":1984,"片":1985,"版":1986,"牌":1987,"牙":1988,"牛":1989,"牧":1990,"物":1991,"牲":1992,"特":1993,"牽":1994,"犧":1995,"犬":1996,"犯":1997,"狀":1998,"狂":1999,"狐":2000,"狗":2001,"狡":2002,"狸":2003,"狼":2004,"猛":2005,"猫":2006,"猶":2007,"獄":2008,"獣":2009,"獨":2010,"獲":2011,"獻":2012,"玄":2013,"玉":2014,"王":2015,"玛":2016,"玹":2017,"珍":2018,"珠":2019,"班":2020,"現":2021,"球":2022,"理":2023,"琉":2024,"琴":2025,"瑗":2026,"瑛":2027,"璐":2028,"甘":2029,"生":2030,"産":2031,"甦":2032,"用":2033,"甫":2034,"田":2035,"由":2036,"甲":2037,"申":2038,"电":2039,"男":2040,"町":2041,"画":2042,"界":2043,"畑":2044,"留":2045,"略":2046,"番":2047,"異":2048,"畵":2049,"當":2050,"畸":2051,"疏":2052,"病":2053,"痛":2054,"瘡":2055,"癒":2056,"登":2057,"發":2058,"白":2059,"百":2060,"的":2061,"皆":2062,"皮":2063,"益":2064,"盛":2065,"監":2066,"目":2067,"盲":2068,"直":2069,"相":2070,"省":2071,"看":2072,"県":2073,"眞":2074,"真":2075,"眼":2076,"着":2077,"瞰":2078,"瞳":2079,"矣":2080,"知":2081,"石":2082,"码":2083,"砦":2084,"破":2085,"硏":2086,"硯":2087,"碑":2088,"確":2089,"碻":2090,"社":2091,"祐":2092,"祖":2093,"祝":2094,"神":2095,"禁":2096,"禍":2097,"禎":2098,"福":2099,"禧":2100,"禪":2101,"禮":2102,"秀":2103,"私":2104,"秋":2105,"秒":2106,"秘":2107,"秦":2108,"移":2109,"稀":2110,"稅":2111,"程":2112,"種":2113,"稱":2114,"稲":2115,"稿":2116,"穴":2117,"空":2118,"窓":2119,"窟":2120,"窪":2121,"窮":2122,"立":2123,"站":2124,"竜":2125,"竟":2126,"章":2127,"端":2128,"竹":2129,"笑":2130,"第":2131,"笼":2132,"等":2133,"筋":2134,"答":2135,"策":2136,"算":2137,"箱":2138,"節":2139,"簾":2140,"簿":2141,"籠":2142,"籤":2143,"米":2144,"精":2145,"糖":2146,"系":2147,"紀":2148,"紅":2149,"納":2150,"純":2151,"紙":2152,"級":2153,"素":2154,"細":2155,"終":2156,"組":2157,"経":2158,"結":2159,"給":2160,"統":2161,"絵":2162,"經":2163,"綜":2164,"綠":2165,"綺":2166,"綾":2167,"線":2168,"緣":2169,"編":2170,"練":2171,"縄":2172,"縏":2173,"總":2174,"繋":2175,"續":2176,"织":2177,"绵":2178,"综":2179,"编":2180,"罒":2181,"罔":2182,"罕":2183,"罗":2184,"罪":2185,"署":2186,"羅":2187,"羊":2188,"美":2189,"羞":2190,"群":2191,"羨":2192,"義":2193,"羹":2194,"翁":2195,"翅":2196,"習":2197,"翔":2198,"老":2199,"考":2200,"者":2201,"而":2202,"耳":2203,"耶":2204,"聊":2205,"联":2206,"聖":2207,"聚":2208,"聞":2209,"聲":2210,"職":2211,"聽":2212,"肅":2213,"肉":2214,"肝":2215,"肠":2216,"肥":2217,"肯":2218,"育":2219,"胆":2220,"胡":2221,"胸":2222,"能":2223,"脆":2224,"脚":2225,"脫":2226,"腕":2227,"腸":2228,"腿":2229,"膜":2230,"臣":2231,"臨":2232,"自":2233,"至":2234,"臺":2235,"與":2236,"興":2237,"舊":2238,"舟":2239,"般":2240,"船":2241,"良":2242,"色":2243,"艶":2244,"艺":2245,"艾":2246,"节":2247,"芒":2248,"芙":2249,"花":2250,"苏":2251,"苑":2252,"苣":2253,"若":2254,"苦":2255,"英":2256,"范":2257,"茅":2258,"茉":2259,"茫":2260,"茴":2261,"茶":2262,"荀":2263,"草":2264,"荐":2265,"莅":2266,"莧":2267,"菅":2268,"菇":2269,"菊":2270,"菓":2271,"菜":2272,"菠":2273,"華":2274,"萌":2275,"萝":2276,"萬":2277,"落":2278,"葉":2279,"葛":2280,"葢":2281,"董":2282,"葫":2283,"葬":2284,"蒙":2285,"蒲":2286,"蒸":2287,"蓋":2288,"蓮":2289,"蔑":2290,"蔘":2291,"蔣":2292,"蔵":2293,"蔽":2294,"蕒":2295,"薩":2296,"藏":2297,"藕":2298,"藤":2299,"藥":2300,"蘆":2301,"蘇":2302,"蘑":2303,"蘓":2304,"蘭":2305,"虎":2306,"處":2307,"虛":2308,"號":2309,"虹":2310,"虾":2311,"蛇":2312,"蛋":2313,"蜂":2314,"蜜":2315,"蟄":2316,"蟲":2317,"蠶":2318,"血":2319,"衆":2320,"行":2321,"術":2322,"街":2323,"衡":2324,"衣":2325,"表":2326,"被":2327,"裂":2328,"装":2329,"裏":2330,"裔":2331,"裕":2332,"補":2333,"裝":2334,"裵":2335,"製":2336,"褓":2337,"西":2338,"要":2339,"覇":2340,"見":2341,"規":2342,"視":2343,"親":2344,"覺":2345,"觀":2346,"视":2347,"角":2348,"觸":2349,"言":2350,"訓":2351,"記":2352,"訶":2353,"註":2354,"詁":2355,"詞":2356,"詠":2357,"詩":2358,"話":2359,"認":2360,"誕":2361,"語":2362,"誤":2363,"說":2364,"説":2365,"誼":2366,"談":2367,"論":2368,"諜":2369,"諫":2370,"諭":2371,"諱":2372,"諸":2373,"謨":2374,"謹":2375,"謾":2376,"識":2377,"警":2378,"議":2379,"護":2380,"讀":2381,"變":2382,"讒":2383,"讓":2384,"让":2385,"证":2386,"读":2387,"谢":2388,"谷":2389,"豆":2390,"豈":2391,"豊":2392,"豚":2393,"象":2394,"豪":2395,"貌":2396,"負":2397,"財":2398,"貨":2399,"販":2400,"貳":2401,"貴":2402,"買":2403,"貸":2404,"費":2405,"賀":2406,"資":2407,"賊":2408,"賑":2409,"賢":2410,"賣":2411,"質":2412,"贝":2413,"贤":2414,"货":2415,"费":2416,"赤":2417,"走":2418,"越":2419,"趙":2420,"趣":2421,"足":2422,"跋":2423,"跡":2424,"路":2425,"踏":2426,"踐":2427,"踢":2428,"身":2429,"車":2430,"軋":2431,"軍":2432,"軒":2433,"転":2434,"輔":2435,"輪":2436,"輸":2437,"车":2438,"轩":2439,"辛":2440,"辣":2441,"辭":2442,"辯":2443,"辰":2444,"辺":2445,"达":2446,"迅":2447,"近":2448,"这":2449,"连":2450,"述":2451,"迷":2452,"追":2453,"退":2454,"送":2455,"逆":2456,"逐":2457,"通":2458,"速":2459,"連":2460,"週":2461,"進":2462,"遂":2463,"遊":2464,"運":2465,"遍":2466,"過":2467,"遐":2468,"道":2469,"達":2470,"遷":2471,"選":2472,"遺":2473,"遼":2474,"避":2475,"還":2476,"那":2477,"邪":2478,"邮":2479,"邱":2480,"郎":2481,"郡":2482,"部":2483,"郭":2484,"都":2485,"鄕":2486,"鄭":2487,"酉":2488,"酒":2489,"酥":2490,"酷":2491,"醉":2492,"醋":2493,"醒":2494,"醜":2495,"醬":2496,"釋":2497,"里":2498,"重":2499,"野":2500,"量":2501,"金":2502,"釜":2503,"針":2504,"釣":2505,"鈴":2506,"鉄":2507,"鉉":2508,"銀":2509,"銅":2510,"銘":2511,"鋭":2512,"錄":2513,"錢":2514,"錦":2515,"錮":2516,"錯":2517,"鎌":2518,"鎖":2519,"鎭":2520,"鏃":2521,"鏞":2522,"鑑":2523,"钟":2524,"铁":2525,"锅":2526,"镇":2527,"長":2528,"門":2529,"閉":2530,"開":2531,"閑":2532,"間":2533,"関":2534,"閣":2535,"闘":2536,"關":2537,"门":2538,"阅":2539,"阪":2540,"防":2541,"阿":2542,"陆":2543,"限":2544,"院":2545,"陣":2546,"陰":2547,"陵":2548,"陶":2549,"陸":2550,"険":2551,"陽":2552,"隊":2553,"階":2554,"隐":2555,"隠":2556,"隣":2557,"險":2558,"隱":2559,"隸":2560,"隼":2561,"雁":2562,"雄":2563,"雅":2564,"集":2565,"雖":2566,"雙":2567,"雜":2568,"雞":2569,"離":2570,"難":2571,"雨":2572,"雪":2573,"雲":2574,"零":2575,"雷":2576,"電":2577,"霊":2578,"露":2579,"靑":2580,"青":2581,"靖":2582,"静":2583,"靜":2584,"非":2585,"面":2586,"韋":2587,"韓":2588,"韩":2589,"音":2590,"頂":2591,"順":2592,"須":2593,"頑":2594,"領":2595,"頭":2596,"題":2597,"額":2598,"顏":2599,"顔":2600,"類":2601,"顧":2602,"颂":2603,"频":2604,"風":2605,"风":2606,"飛":2607,"飞":2608,"食":2609,"飯":2610,"餃":2611,"餅":2612,"養":2613,"餐":2614,"餘":2615,"餞":2616,"館":2617,"饭":2618,"饼":2619,"馆":2620,"首":2621,"香":2622,"馬":2623,"駄":2624,"駅":2625,"駐":2626,"験":2627,"驅":2628,"驚":2629,"骨":2630,"髓":2631,"體":2632,"高":2633,"鬪":2634,"鬼":2635,"魁":2636,"魂":2637,"魏":2638,"魔":2639,"魚":2640,"魯":2641,"鮨":2642,"鮮":2643,"鯉":2644,"鰍":2645,"鲜":2646,"鳥":2647,"鳳":2648,"鳴":2649,"鴻":2650,"鶴":2651,"鷹":2652,"鸡":2653,"鹿":2654,"麗":2655,"麺":2656,"麻":2657,"黃":2658,"黎":2659,"黑":2660,"黒":2661,"黙":2662,"黨":2663,"鼎":2664,"鼓":2665,"鼠":2666,"鼻":2667,"齊":2668,"齋":2669,"龍":2670,"龙":2671,"ꀾ":2672,"ꇴ":2673,"ꈊ":2674,"ꈍ":2675,"ꉂ":2676,"ꎤ":2677,"꒦":2678,"꒪":2679,"꒫":2680,"꒰":2681,"꒱":2682,"꒳":2683,"꒶":2684,"ꙫ":2685,"":2686,"":2687,"":2688,"":2689,"":2690,"":2691,"ﬁ":2692,"︶":2693,"︷":2694,"︿":2695,"﹃":2696,"﹏":2697,"ﻌ":2698,"ﻭ":2699,"﻿":2700,"！":2701,"＂":2702,"＃":2703,"％":2704,"＆":2705,"＇":2706,"（":2707,"）":2708,"＊":2709,"，":2710,"－":2711,"．":2712,"／":2713,"０":2714,"１":2715,"２":2716,"３":2717,"４":2718,"５":2719,"６":2720,"７":2721,"８":2722,"９":2723,"：":2724,"；":2725,"＜":2726,"＞":2727,"？":2728,"［":2729,"＼":2730,"］":2731,"＾":2732,"＿":2733,"｀":2734,"ｃ":2735,"ｄ":2736,"ｇ":2737,"ｈ":2738,"ｉ":2739,"ｊ":2740,"ｋ":2741,"ｍ":2742,"ｏ":2743,"ｐ":2744,"ｔ":2745,"ｖ":2746,"ｚ":2747,"｜":2748,"～":2749,"｡":2750,"｢":2751,"｣":2752,"･":2753,"ｦ":2754,"ｧ":2755,"ｰ":2756,"ｼ":2757,"ﾂ":2758,"ﾉ":2759,"ﾞ":2760,"ﾟ":2761,"￠":2762,"￡":2763,"￣":2764,"￥":2765,"￦":2766,"�":2767,"𐨛":2768,"𓂭":2769,"𓂻":2770,"𖤐":2771,"𝑨":2772,"𝑩":2773,"𝑰":2774,"𝑳":2775,"𝑺":2776,"𝘼":2777,"𝘽":2778,"𝙄":2779,"𝙅":2780,"𝙇":2781,"𝙉":2782,"𝙊":2783,"𝙎":2784,"🃏":2785,"🅰":2786,"🅱":2787,"🅵":2788,"🅶":2789,"🅸":2790,"🅾":2791,"🅿":2792,"🆁":2793,"🆃":2794,"🆓":2795,"🆕":2796,"🆗":2797,"🆘":2798,"🆙":2799,"🇦":2800,"🇧":2801,"🇨":2802,"🇩":2803,"🇪":2804,"🇫":2805,"🇬":2806,"🇭":2807,"🇮":2808,"🇯":2809,"🇰":2810,"🇱":2811,"🇲":2812,"🇳":2813,"🇴":2814,"🇵":2815,"🇷":2816,"🇸":2817,"🇹":2818,"🇺":2819,"🇻":2820,"🇼":2821,"🇾":2822,"🇿":2823,"🈚":2824,"🈶":2825,"🌀":2826,"🌁":2827,"🌂":2828,"🌃":2829,"🌄":2830,"🌅":2831,"🌆":2832,"🌇":2833,"🌈":2834,"🌉":2835,"🌊":2836,"🌋":2837,"🌌":2838,"🌍":2839,"🌎":2840,"🌏":2841,"🌐":2842,"🌑":2843,"🌒":2844,"🌓":2845,"🌕":2846,"🌘":2847,"🌙":2848,"🌚":2849,"🌛":2850,"🌜":2851,"🌝":2852,"🌞":2853,"🌟":2854,"🌠":2855,"🌡":2856,"🌤":2857,"🌥":2858,"🌦":2859,"🌧":2860,"🌨":2861,"🌪":2862,"🌫":2863,"🌬":2864,"🌭":2865,"🌮":2866,"🌯":2867,"🌰":2868,"🌱":2869,"🌲":2870,"🌳":2871,"🌴":2872,"🌵":2873,"🌶":2874,"🌷":2875,"🌸":2876,"🌹":2877,"🌺":2878,"🌻":2879,"🌼":2880,"🌽":2881,"🌾":2882,"🌿":2883,"🍀":2884,"🍁":2885,"🍂":2886,"🍃":2887,"🍄":2888,"🍅":2889,"🍆":2890,"🍇":2891,"🍈":2892,"🍉":2893,"🍊":2894,"🍋":2895,"🍌":2896,"🍍":2897,"🍎":2898,"🍏":2899,"🍐":2900,"🍑":2901,"🍒":2902,"🍓":2903,"🍔":2904,"🍕":2905,"🍖":2906,"🍗":2907,"🍘":2908,"🍙":2909,"🍚":2910,"🍛":2911,"🍜":2912,"🍝":2913,"🍞":2914,"🍟":2915,"🍠":2916,"🍡":2917,"🍢":2918,"🍣":2919,"🍤":2920,"🍥":2921,"🍦":2922,"🍧":2923,"🍨":2924,"🍩":2925,"🍪":2926,"🍫":2927,"🍬":2928,"🍭":2929,"🍮":2930,"🍯":2931,"🍰":2932,"🍱":2933,"🍲":2934,"🍳":2935,"🍴":2936,"🍵":2937,"🍶":2938,"🍷":2939,"🍸":2940,"🍹":2941,"🍺":2942,"🍻":2943,"🍼":2944,"🍽":2945,"🍾":2946,"🍿":2947,"🎀":2948,"🎁":2949,"🎂":2950,"🎃":2951,"🎄":2952,"🎅":2953,"🎆":2954,"🎇":2955,"🎈":2956,"🎉":2957,"🎊":2958,"🎋":2959,"🎎":2960,"🎏":2961,"🎐":2962,"🎑":2963,"🎒":2964,"🎓":2965,"🎖":2966,"🎗":2967,"🎙":2968,"🎞":2969,"🎟":2970,"🎠":2971,"🎡":2972,"🎢":2973,"🎣":2974,"🎤":2975,"🎥":2976,"🎦":2977,"🎧":2978,"🎨":2979,"🎩":2980,"🎪":2981,"🎫":2982,"🎬":2983,"🎭":2984,"🎮":2985,"🎯":2986,"🎰":2987,"🎲":2988,"🎳":2989,"🎵":2990,"🎶":2991,"🎷":2992,"🎸":2993,"🎹":2994,"🎺":2995,"🎻":2996,"🎼":2997,"🎽":2998,"🎾":2999,"🎿":3000,"🏀":3001,"🏁":3002,"🏂":3003,"🏃":3004,"🏄":3005,"🏅":3006,"🏆":3007,"🏈":3008,"🏉":3009,"🏊":3010,"🏋":3011,"🏌":3012,"🏍":3013,"🏏":3014,"🏐":3015,"🏓":3016,"🏔":3017,"🏕":3018,"🏖":3019,"🏘":3020,"🏙":3021,"🏚":3022,"🏛":3023,"🏜":3024,"🏝":3025,"🏞":3026,"🏟":3027,"🏠":3028,"🏡":3029,"🏢":3030,"🏤":3031,"🏥":3032,"🏨":3033,"🏪":3034,"🏫":3035,"🏮":3036,"🏯":3037,"🏰":3038,"🏳":3039,"🏴":3040,"🏵":3041,"🏷":3042,"🏸":3043,"🏺":3044,"🏻":3045,"🏼":3046,"🏽":3047,"🏾":3048,"🏿":3049,"🐀":3050,"🐁":3051,"🐂":3052,"🐄":3053,"🐅":3054,"🐆":3055,"🐇":3056,"🐈":3057,"🐉":3058,"🐊":3059,"🐋":3060,"🐌":3061,"🐍":3062,"🐎":3063,"🐏":3064,"🐐":3065,"🐑":3066,"🐒":3067,"🐓":3068,"🐔":3069,"🐕":3070,"🐖":3071,"🐗":3072,"🐘":3073,"🐙":3074,"🐚":3075,"🐛":3076,"🐜":3077,"🐝":3078,"🐞":3079,"🐟":3080,"🐠":3081,"🐡":3082,"🐢":3083,"🐣":3084,"🐤":3085,"🐥":3086,"🐦":3087,"🐧":3088,"🐨":3089,"🐩":3090,"🐬":3091,"🐭":3092,"🐮":3093,"🐯":3094,"🐰":3095,"🐱":3096,"🐳":3097,"🐴":3098,"🐵":3099,"🐶":3100,"🐷":3101,"🐸":3102,"🐹":3103,"🐺":3104,"🐻":3105,"🐼":3106,"🐽":3107,"🐾":3108,"🐿":3109,"👀":3110,"👁":3111,"👂":3112,"👃":3113,"👄":3114,"👅":3115,"👆":3116,"👇":3117,"👈":3118,"👉":3119,"👊":3120,"👋":3121,"👌":3122,"👍":3123,"👎":3124,"👏":3125,"👐":3126,"👑":3127,"👒":3128,"👓":3129,"👔":3130,"👕":3131,"👖":3132,"👗":3133,"👘":3134,"👙":3135,"👚":3136,"👛":3137,"👜":3138,"👝":3139,"👞":3140,"👟":3141,"👠":3142,"👡":3143,"👢":3144,"👣":3145,"👤":3146,"👥":3147,"👦":3148,"👧":3149,"👨":3150,"👩":3151,"👪":3152,"👫":3153,"👬":3154,"👭":3155,"👮":3156,"👯":3157,"👰":3158,"👱":3159,"👳":3160,"👴":3161,"👵":3162,"👶":3163,"👷":3164,"👸":3165,"👹":3166,"👺":3167,"👻":3168,"👼":3169,"👽":3170,"👾":3171,"👿":3172,"💀":3173,"💁":3174,"💂":3175,"💃":3176,"💄":3177,"💅":3178,"💆":3179,"💇":3180,"💈":3181,"💉":3182,"💊":3183,"💋":3184,"💌":3185,"💍":3186,"💎":3187,"💏":3188,"💐":3189,"💑":3190,"💒":3191,"💓":3192,"💔":3193,"💕":3194,"💖":3195,"💗":3196,"💘":3197,"💙":3198,"💚":3199,"💛":3200,"💜":3201,"💝":3202,"💞":3203,"💟":3204,"💠":3205,"💡":3206,"💢":3207,"💣":3208,"💤":3209,"💥":3210,"💦":3211,"💧":3212,"💨":3213,"💩":3214,"💪":3215,"💫":3216,"💬":3217,"💭":3218,"💮":3219,"💯":3220,"💰":3221,"💱":3222,"💲":3223,"💳":3224,"💴":3225,"💵":3226,"💶":3227,"💷":3228,"💸":3229,"💺":3230,"💻":3231,"💼":3232,"💿":3233,"📀":3234,"📂":3235,"📃":3236,"📄":3237,"📅":3238,"📆":3239,"📈":3240,"📋":3241,"📌":3242,"📍":3243,"📎":3244,"📐":3245,"📑":3246,"📒":3247,"📓":3248,"📔":3249,"📕":3250,"📖":3251,"📗":3252,"📘":3253,"📙":3254,"📚":3255,"📛":3256,"📜":3257,"📝":3258,"📞":3259,"📡":3260,"📢":3261,"📣":3262,"📥":3263,"📦":3264,"📨":3265,"📩":3266,"📬":3267,"📮":3268,"📯":3269,"📰":3270,"📱":3271,"📲":3272,"📵":3273,"📷":3274,"📸":3275,"📹":3276,"📺":3277,"📻":3278,"📼":3279,"📽":3280,"📿":3281,"🔃":3282,"🔄":3283,"🔅":3284,"🔆":3285,"🔈":3286,"🔉":3287,"🔊":3288,"🔋":3289,"🔌":3290,"🔍":3291,"🔎":3292,"🔒":3293,"🔔":3294,"🔖":3295,"🔗":3296,"🔜":3297,"🔝":3298,"🔞":3299,"🔠":3300,"🔥":3301,"🔦":3302,"🔧":3303,"🔨":3304,"🔩":3305,"🔪":3306,"🔫":3307,"🔭":3308,"🔮":3309,"🔯":3310,"🔰":3311,"🔱":3312,"🔲":3313,"🔴":3314,"🔵":3315,"🔶":3316,"🔷":3317,"🔸":3318,"🔹":3319,"🔺":3320,"🔻":3321,"🔼":3322,"🔽":3323,"🕇":3324,"🕉":3325,"🕊":3326,"🕌":3327,"🕍":3328,"🕐":3329,"🕑":3330,"🕒":3331,"🕔":3332,"🕕":3333,"🕖":3334,"🕗":3335,"🕘":3336,"🕙":3337,"🕛":3338,"🕟":3339,"🕠":3340,"🕣":3341,"🕧":3342,"🕯":3343,"🕰":3344,"🕴":3345,"🕵":3346,"🕶":3347,"🕷":3348,"🕸":3349,"🕹":3350,"🕺":3351,"🖇":3352,"🖊":3353,"🖋":3354,"🖌":3355,"🖍":3356,"🖐":3357,"🖑":3358,"🖒":3359,"🖕":3360,"🖖":3361,"🖤":3362,"🖥":3363,"🖱":3364,"🖼":3365,"🗂":3366,"🗒":3367,"🗓":3368,"🗞":3369,"🗡":3370,"🗣":3371,"🗨":3372,"🗯":3373,"🗳":3374,"🗺":3375,"🗻":3376,"🗼":3377,"🗽":3378,"🗿":3379,"😀":3380,"😁":3381,"😂":3382,"😃":3383,"😄":3384,"😅":3385,"😆":3386,"😇":3387,"😈":3388,"😉":3389,"😊":3390,"😋":3391,"😌":3392,"😍":3393,"😎":3394,"😏":3395,"😐":3396,"😑":3397,"😒":3398,"😓":3399,"😔":3400,"😕":3401,"😖":3402,"😗":3403,"😘":3404,"😙":3405,"😚":3406,"😛":3407,"😜":3408,"😝":3409,"😞":3410,"😟":3411,"😠":3412,"😡":3413,"😢":3414,"😣":3415,"😤":3416,"😥":3417,"😦":3418,"😧":3419,"😨":3420,"😩":3421,"😪":3422,"😫":3423,"😬":3424,"😭":3425,"😮":3426,"😯":3427,"😰":3428,"😱":3429,"😲":3430,"😳":3431,"😴":3432,"😵":3433,"😶":3434,"😷":3435,"😸":3436,"😹":3437,"😺":3438,"😻":3439,"😼":3440,"😽":3441,"😾":3442,"😿":3443,"🙀":3444,"🙁":3445,"🙂":3446,"🙃":3447,"🙄":3448,"🙅":3449,"🙆":3450,"🙇":3451,"🙈":3452,"🙉":3453,"🙊":3454,"🙋":3455,"🙌":3456,"🙍":3457,"🙎":3458,"🙏":3459,"🚀":3460,"🚂":3461,"🚃":3462,"🚄":3463,"🚅":3464,"🚇":3465,"🚈":3466,"🚉":3467,"🚊":3468,"🚋":3469,"🚌":3470,"🚐":3471,"🚑":3472,"🚒":3473,"🚔":3474,"🚕":3475,"🚖":3476,"🚗":3477,"🚘":3478,"🚙":3479,"🚚":3480,"🚛":3481,"🚜":3482,"🚝":3483,"🚞":3484,"🚠":3485,"🚢":3486,"🚣":3487,"🚤":3488,"🚥":3489,"🚧":3490,"🚨":3491,"🚩":3492,"🚪":3493,"🚫":3494,"🚰":3495,"🚲":3496,"🚴":3497,"🚵":3498,"🚶":3499,"🚽":3500,"🚿":3501,"🛀":3502,"🛁":3503,"🛋":3504,"🛌":3505,"🛍":3506,"🛎":3507,"🛏":3508,"🛒":3509,"🛠":3510,"🛣":3511,"🛤":3512,"🛥":3513,"🛩":3514,"🛫":3515,"🛬":3516,"🛳":3517,"🛴":3518,"🛵":3519,"🛶":3520,"🛸":3521,"🤎":3522,"🤐":3523,"🤑":3524,"🤒":3525,"🤓":3526,"🤔":3527,"🤕":3528,"🤖":3529,"🤗":3530,"🤘":3531,"🤙":3532,"🤚":3533,"🤛":3534,"🤜":3535,"🤝":3536,"🤞":3537,"🤟":3538,"🤠":3539,"🤡":3540,"🤢":3541,"🤣":3542,"🤤":3543,"🤥":3544,"🤦":3545,"🤧":3546,"🤨":3547,"🤩":3548,"🤪":3549,"🤫":3550,"🤬":3551,"🤭":3552,"🤮":3553,"🤯":3554,"🤰":3555,"🤱":3556,"🤲":3557,"🤳":3558,"🤴":3559,"🤵":3560,"🤶":3561,"🤷":3562,"🤸":3563,"🤹":3564,"🤼":3565,"🤽":3566,"🤾":3567,"🥀":3568,"🥁":3569,"🥂":3570,"🥃":3571,"🥄":3572,"🥇":3573,"🥉":3574,"🥊":3575,"🥋":3576,"🥐":3577,"🥑":3578,"🥒":3579,"🥓":3580,"🥔":3581,"🥕":3582,"🥖":3583,"🥗":3584,"🥘":3585,"🥙":3586,"🥚":3587,"🥛":3588,"🥜":3589,"🥝":3590,"🥞":3591,"🥟":3592,"🥠":3593,"🥡":3594,"🥢":3595,"🥣":3596,"🥤":3597,"🥥":3598,"🥦":3599,"🥧":3600,"🥨":3601,"🥩":3602,"🥪":3603,"🥫":3604,"🥬":3605,"🥭":3606,"🥮":3607,"🥯":3608,"🥰":3609,"🥳":3610,"🥴":3611,"🥵":3612,"🥶":3613,"🥺":3614,"🦀":3615,"🦁":3616,"🦂":3617,"🦄":3618,"🦅":3619,"🦆":3620,"🦇":3621,"🦈":3622,"🦉":3623,"🦊":3624,"🦋":3625,"🦌":3626,"🦍":3627,"🦎":3628,"🦏":3629,"🦐":3630,"🦑":3631,"🦒":3632,"🦓":3633,"🦔":3634,"🦕":3635,"🦖":3636,"🦘":3637,"🦙":3638,"🦛":3639,"🦜":3640,"🦞":3641,"🦢":3642,"🦱":3643,"🦲":3644,"🦴":3645,"🦶":3646,"🦷":3647,"🦸":3648,"🧀":3649,"🧁":3650,"🧐":3651,"🧑":3652,"🧒":3653,"🧔":3654,"🧖":3655,"🧗":3656,"🧘":3657,"🧚":3658,"🧜":3659,"🧞":3660,"🧟":3661,"🧠":3662,"🧡":3663,"🧢":3664,"🧣":3665,"🧤":3666,"🧥":3667,"🧦":3668,"🧨":3669,"🧬":3670,"🧮":3671,"🧲":3672,"🧳":3673,"🧵":3674,"🧶":3675,"🧷":3676,"🧸":3677,"🧹":3678,"🧺":3679,"🧻":3680,"🧼":3681,"󰡔":3682,"󰡕":3683,"##ᅡ":3684,"##ᄌ":3685,"##ᅵ":3686,"##ᄂ":3687,"##ᅣ":3688,"##ᆼ":3689,"##b":3690,"##o":3691,"##ᄒ":3692,"##ᅮ":3693,"##ᆫ":3694,"##ᆯ":3695,"##ᄆ":3696,"##ᅥ":3697,"##ᅢ":3698,"##ᄇ":3699,"##ᅩ":3700,"##ᆨ":3701,"##ᄉ":3702,"##ᄃ":3703,"##ᅪ":3704,"##ᄋ":3705,"##ᅲ":3706,"##ᄎ":3707,"##ᆺ":3708,"##ᅦ":3709,"##ㅡ":3710,"##ᄅ":3711,"##ᄐ":3712,"##ᆷ":3713,"##ᅳ":3714,"##ᄀ":3715,"##ᆹ":3716,"##ᇀ":3717,"##ᄄ":3718,"##ᅧ":3719,"##ᆸ":3720,"##ᅴ":3721,"##ᆻ":3722,"##ㅎ":3723,"##ᄑ":3724,"##ㅠ":3725,"##ᅭ":3726,"##ᅬ":3727,"##a":3728,"##n":3729,"##e":3730,"##ㅋ":3731,"##ㅂ":3732,"##ᄍ":3733,"##ᅨ":3734,"##ᄏ":3735,"##ᅰ":3736,"##ᆿ":3737,"##ᇂ":3738,"##ᄊ":3739,"##受":3740,"##性":3741,"##ᅫ":3742,"##ᅱ":3743,"##ᄁ":3744,"##ᆾ":3745,"##ᆭ":3746,"##ᅯ":3747,"##1":3748,"##ᆽ":3749,"##s":3750,"##m":3751,"##ᇁ":3752,"##t":3753,"##k":3754,"##r":3755,"##i":3756,"##🐓":3757,"##🐣":3758,"##ᆮ":3759,"##y":3760,"##j":3761,"##ᆲ":3762,"##ᅤ":3763,"##✌":3764,"##ㅇ":3765,"##l":3766,"##ᄈ":3767,"##v":3768,"##w":3769,"##u":3770,"##ᆞ":3771,"##ㅜ":3772,"##2":3773,"##4":3774,"##9":3775,"##6":3776,"##8":3777,"##0":3778,"##7":3779,"##h":3780,"##c":3781,"##3":3782,"##p":3783,"##g":3784,"##ㅣ":3785,"##ㄷ":3786,"##ᆰ":3787,"##🍔":3788,"##🍟":3789,"##🍝":3790,"##🎂":3791,"##本":3792,"##人":3793,"##ん":3794,"##ほ":3795,"##う":3796,"##✔":3797,"##ㅓ":3798,"##💛":3799,"##є":3800,"##ʟ":3801,"##ı":3802,"##5":3803,"##ㄱ":3804,"##d":3805,"##😘":3806,"##ㅏ":3807,"##ㅌ":3808,"##f":3809,"##ᆩ":3810,"##x":3811,"##q":3812,"##🔥":3813,"##🙈":3814,"##🙊":3815,"##🌿":3816,"##ᆶ":3817,"##🤒":3818,"##ㄴ":3819,"##な":3820,"##🌼":3821,"##😴":3822,"##ㅑ":3823,"##💇":3824,"##z":3825,"##ㅈ":3826,"##🌬":3827,"##💧":3828,"##ン":3829,"##😌":3830,"##ㅅ":3831,"##📷":3832,"##📸":3833,"##😛":3834,"##😁":3835,"##😀":3836,"##😃":3837,"##😄":3838,"##◞":3839,"##🥗":3840,"##🍓":3841,"##🍎":3842,"##🍊":3843,"##~":3844,"##龍":3845,"##卸":3846,"##甲":3847,"##🍽":3848,"##🍿":3849,"##ᆱ":3850,"##💁":3851,"##🏻":3852,"##💕":3853,"##😭":3854,"##っ":3855,"##つ":3856,"##ぁ":3857,"##て":3858,"##ᆴ":3859,"##❄":3860,"##🐐":3861,"##🐆":3862,"##🐎":3863,"##🐯":3864,"##🐒":3865,"##🐏":3866,"##😱":3867,"##ㅃ":3868,"##💙":3869,"##👍":3870,"##ᴏ":3871,"##🤣":3872,"##稱":3873,"##❣":3874,"##🌃":3875,"##🌠":3876,"##🏙":3877,"##🌉":3878,"##🌆":3879,"##🎇":3880,"##🎡":3881,"##座":3882,"##ㄹ":3883,"##💞":3884,"##ᆬ":3885,"##😸":3886,"##😽":3887,"##ㅛ":3888,"##🏾":3889,"##ㅁ":3890,"##ᴹ":3891,"##ᴵ":3892,"##‍":3893,"##ㅗ":3894,"##ㄲ":3895,"##像":3896,"##🤸":3897,"##ㅆ":3898,"##💘":3899,"##ㅊ":3900,"##🍜":3901,"##🍫":3902,"##?":3903,"##✨":3904,"##畵":3905,"##広":3906,"##町":3907,"##駅":3908,"##🎄":3909,"##理":3910,"##👏":3911,"##😂":3912,"##😍":3913,"##軍":3914,"##🐶":3915,"##🎶":3916,"##路":3917,"##🐅":3918,"##🙋":3919,"##👌":3920,"##😉":3921,"##瀬":3922,"##千":3923,"##秋":3924,"##ま":3925,"##わ":3926,"##り":3927,"##\"":3928,"##🎃":3929,"##♥":3930,"##😋":3931,"##🥐":3932,"##🏍":3933,"##🛵":3934,"##🚨":3935,"##❤":3936,"##☺":3937,"##🌱":3938,"##🏽":3939,"##ㅐ":3940,"##美":3941,"##❓":3942,"##🐷":3943,"##ෆ":3944,"##👉":3945,"##👈":3946,"##👨":3947,"##🥢":3948,"##💦":3949,"##ㅍ":3950,"##👦":3951,"##💐":3952,"##楽":3953,"##坂":3954,"##👶":3955,"##👀":3956,"##🍰":3957,"##🤚":3958,"##🧘":3959,"##ㅔ":3960,"##😻":3961,"##ᆪ":3962,"##苏":3963,"##泷":3964,"##🥑":3965,"##し":3966,"##い":3967,"##と":3968,"##🤨":3969,"##鉉":3970,"##碻":3971,"##竟":3972,"##渡":3973,"##河":3974,"##♪":3975,"##♬":3976,"##た":3977,"##み":3978,"##😊":3979,"##⌒":3980,"##.":3981,"##'":3982,"##🐥":3983,"##😎":3984,"##☕":3985,"##ᴄ":3986,"##ー":3987,"##死":3988,"##葬":3989,"##六":3990,"##病":3991,"##꒰":3992,"##👎":3993,"##💗":3994,"##言":3995,"##🎉":3996,"##▼":3997,"##😢":3998,"##🤤":3999,"##乳":4000,"##草":4001,"##💚":4002,"##ム":4003,"##ラ":4004,"##イ":4005,"##ス":4006,"##ハ":4007,"##タ":4008,"##😅":4009,"##_":4010,"##🥳":4011,"##🍑":4012,"##文":4013,"##根":4014,"##🤗":4015,"##愿":4016,"##目":4017,"##１":4018,"##７":4019,"##🍷":4020,"##🐽":4021,"##💖":4022,"##☔":4023,"##ㅄ":4024,"##陰":4025,"##藥":4026,"##🐖":4027,"##🥦":4028,"##🍪":4029,"##🏈":4030,"##🍀":4031,"##孝":4032,"##新":4033,"##生":4034,"##站":4035,"##☃":4036,"##☌":4037,"##🏼":4038,"##😯":4039,"##/":4040,"##о":4041,"##с":4042,"##и":4043,"##я":4044,"##さ":4045,"##ひ":4046,"##か":4047,"##★":4048,"##ㅕ":4049,"##內":4050,"##密":4051,"##探":4052,"##零":4053,"##發":4054,"##ღ":4055,"##🍃":4056,"##玉":4057,"##堂":4058,"##^":4059,"##🇯":4060,"##🇵":4061,"##😫":4062,"##🌸":4063,"##く":4064,"##ㄸ":4065,"##蔑":4066,"##💯":4067,"##🏃":4068,"##🙉":4069,"##🙇":4070,"##👐":4071,"##📙":4072,"##🍺":4073,"##🙆":4074,"##😙":4075,"##ㅤ":4076,"##🙌":4077,"##😆":4078,"##き":4079,"##れ":4080,"##に":4081,"##ち":4082,"##ᆢ":4083,"##ㅉ":4084,"##🌲":4085,"##🍾":4086,"##ふ":4087,"##的":4088,"##少":4089,"##女":4090,"##时":4091,"##代":4092,"##け":4093,"##ㅝ":4094,"##道":4095,"##🧚":4096,"##塾":4097,"##ル":4098,"##チ":4099,"##ャ":4100,"##田":4101,"##來":4102,"##未":4103,"##石":4104,"##沒":4105,"##鏃":4106,"##👭":4107,"##💨":4108,"##🍂":4109,"##ア":4110,"##ニ":4111,"##メ":4112,"##ᆵ":4113,"##幌":4114,"##湾":4115,"##💮":4116,"##🏵":4117,"##犬":4118,"##🍣":4119,"##😵":4120,"##転":4121,"##車":4122,"##🌙":4123,"##👜":4124,"##マ":4125,"##ト":4126,"##末":4127,"##婆":4128,"##家":4129,"##酒":4130,"##⚽":4131,"##➡":4132,"##布":4133,"##ɴ":4134,"##和":4135,"##真":4136,"##中":4137,"##✈":4138,"##🏄":4139,"##🌮":4140,"##🧀":4141,"##｡":4142,"##國":4143,"##🍚":4144,"##ฅ":4145,"##🥰":4146,"##🎵":4147,"##✊":4148,"##惡":4149,"##之":4150,"##心":4151,"##🏯":4152,"##ᴇ":4153,"##🥄":4154,"##屋":4155,"##🥙":4156,"##来":4157,"##棄":4158,"##🐺":4159,"##🦕":4160,"##萬":4161,"##事":4162,"##成":4163,"##🐰":4164,"##ㅟ":4165,"##せ":4166,"##も":4167,"##ら":4168,"##ソ":4169,"##ロ":4170,"##シ":4171,"##個":4172,"##💓":4173,"##黒":4174,"##🌷":4175,"##˜":4176,"##州":4177,"##岛":4178,"##食":4179,"##店":4180,"##‰":4181,"##”":4182,"##リ":4183,"##ヘ":4184,"##🌶":4185,"##星":4186,"##🍤":4187,"##ㄳ":4188,"##💫":4189,"##の":4190,"##😚":4191,"##村":4192,"##🙄":4193,"##從":4194,"##ᴥ":4195,"##ᵔ":4196,"##ㅖ":4197,"##😳":4198,"##💜":4199,"##首":4200,"##金":4201,"##山":4202,"##諫":4203,"##制":4204,"##度":4205,"##🛁":4206,"##💏":4207,"##ᴸ":4208,"##ᴼ":4209,"##ᵂ":4210,"##ᴱ":4211,"##ᴿ":4212,"##日":4213,"##也":4214,"##放":4215,"##聲":4216,"##大":4217,"##哭":4218,"##水":4219,"##ッ":4220,"##ク":4221,"##🥟":4222,"##🌋":4223,"##あ":4224,"##☆":4225,"##💅":4226,"##♣":4227,"##♦":4228,"##♠":4229,"##🐳":4230,"##🐬":4231,"##❗":4232,"##🤷":4233,"##🍌":4234,"##部":4235,"##🙏":4236,"##🌵":4237,"##🧡":4238,"##🐔":4239,"##🥓":4240,"##考":4241,"##☘":4242,"##🌴":4243,"##🌊":4244,"##快":4245,"##乐":4246,"##😒":4247,"##🥖":4248,"##○":4249,"##🌽":4250,"##ð":4251,"##ᵕ":4252,"##ˇ":4253,"##👆":4254,"##😝":4255,"##😜":4256,"##蟲":4257,"##🇪":4258,"##👼":4259,"##н":4260,"##г":4261,"##л":4262,"##🆙":4263,"##ィ":4264,"##🥛":4265,"##ᆳ":4266,"##🖤":4267,"##🥺":4268,"##🍻":4269,"##🥁":4270,"##🎺":4271,"##🙃":4272,"##🏿":4273,"##个":4274,"##在":4275,"##那":4276,"##儿":4277,"##🇧":4278,"##💋":4279,"##😠":4280,"##锅":4281,"##🛫":4282,"##🎊":4283,"##🎁":4284,"##🎈":4285,"##👩":4286,"##·":4287,"##🍠":4288,"##記":4289,"##⚓":4290,"##濤":4291,"##編":4292,"##ᴍ":4293,"##💤":4294,"##🍋":4295,"##☁":4296,"##🥀":4297,"##🥕":4298,"##🍳":4299,"##肉":4300,"##明":4301,"##梅":4302,"##廷":4303,"##裕":4304,"##💸":4305,"##🛒":4306,"##💎":4307,"##🍏":4308,"##😣":4309,"##😧":4310,"##😨":4311,"##😲":4312,"##ㆀ":4313,"##🔜":4314,"##川":4315,"##愛":4316,"##🍙":4317,"##🍘":4318,"##:":4319,"##🍦":4320,"##🌕":4321,"##🤮":4322,"##🤦":4323,"##ホ":4324,"##フ":4325,"##コ":4326,"##🌘":4327,"##ケ":4328,"##サ":4329,"##權":4330,"##果":4331,"##🌳":4332,"##🍞":4333,"##🇿":4334,"##🎓":4335,"##多":4336,"##魔":4337,"##🚙":4338,"##🦀":4339,"##国":4340,"##а":4341,"##ю":4342,"##т":4343,"##レ":4344,"##世":4345,"##杵":4346,"##五":4347,"##三":4348,"##郎":4349,"##輪":4350,"##◯":4351,"##福":4352,"##🍮":4353,"##テ":4354,"##ㅢ":4355,"##💃":4356,"##⭐":4357,"##😶":4358,"##☪":4359,"##漁":4360,"##寺":4361,"##灣":4362,"##伴":4363,"##手":4364,"##禮":4365,"##🐇":4366,"##📖":4367,"##源":4368,"##方":4369,"##呂":4370,"##🏊":4371,"##😡":4372,"##💪":4373,"##我":4374,"##行":4375,"##跡":4376,"##子":4377,"##🍸":4378,"##直":4379,"##渤":4380,"##海":4381,"##同":4382,"##一":4383,"##名":4384,"##下":4385,"##鮨":4386,"##🦶":4387,"##康":4388,"##😗":4389,"##▽":4390,"##🥪":4391,"##▷":4392,"##🕵":4393,"##猶":4394,"##不":4395,"##及":4396,"##👊":4397,"##乞":4398,"##慮":4399,"##🗽":4400,"##😷":4401,"##城":4402,"##是":4403,"##🍯":4404,"##守":4405,"##孔":4406,"##キ":4407,"##😦":4408,"##🍧":4409,"##ࡇ":4410,"##ఠ":4411,"##⛈":4412,"##💊":4413,"##ᵒ":4414,"##ᗨ":4415,"##🍅":4416,"##©":4417,"##底":4418,"##捞":4419,"##ᴀ":4420,"##🇺":4421,"##📚":4422,"##壽":4423,"##府":4424,"##🤞":4425,"##❾":4426,"##想":4427,"##戈":4428,"##穴":4429,"##货":4430,"##🍒":4431,"##😮":4432,"##👤":4433,"##林":4434,"##泉":4435,"##🌻":4436,"##🌝":4437,"##˓":4438,"##˂":4439,"##🐾":4440,"##〰":4441,"##🍬":4442,"##🤟":4443,"##浦":4444,"##-":4445,"##’":4446,"##🚽":4447,"##ｦ":4448,"##ヲ":4449,"##😥":4450,"##🥚":4451,"##♫":4452,"##🎅":4453,"##士":4454,"##🏁":4455,"##…":4456,"##饭":4457,"##ョ":4458,"##🤲":4459,"##🚗":4460,"##👯":4461,"##市":4462,"##😖":4463,"##仁":4464,"##＼":4465,"##め":4466,"##は":4467,"##ɪ":4468,"##ɢ":4469,"##寶":4470,"##🌞":4471,"##🤢":4472,"##桥":4473,"##🤩":4474,"##🎧":4475,"##🎸":4476,"##🎤":4477,"##英":4478,"##👵":4479,"##團":4480,"##+":4481,"##➕":4482,"##🧒":4483,"##洞":4484,"##推":4485,"##荐":4486,"##⚘":4487,"##🌹":4488,"##]":4489,"##🕸":4490,"##💑":4491,"##)":4492,"##;":4493,"##,":4494,"##え":4495,"##🏐":4496,"##與":4497,"##弟":4498,"##博":4499,"##哩":4500,"##俱":4501,"##統":4502,"##領":4503,"##💴":4504,"##説":4505,"##🤪":4506,"##ᴬ":4507,"##🖕":4508,"##癒":4509,"##静":4510,"##民":4511,"##卒":4512,"##者":4513,"##🥬":4514,"##肥":4515,"##機":4516,"##😟":4517,"##側":4518,"##近":4519,"##😔":4520,"##米":4521,"##歩":4522,"##合":4523,"##音":4524,"##💳":4525,"##🐠":4526,"##🍩":4527,"##🥩":4528,"##す":4529,"##こ":4530,"##☝":4531,"##動":4532,"##０":4533,"##ᕕ":4534,"##ォ":4535,"##■":4536,"##�":4537,"##🍕":4538,"##暑":4539,"##💝":4540,"##好":4541,"##味":4542,"##ァ":4543,"##ミ":4544,"##蔵":4545,"##小":4546,"##僧":4547,"##🆁":4548,"##🅾":4549,"##🅵":4550,"##🅸":4551,"##🆃":4552,"##二":4553,"##🐛":4554,"##選":4555,"##当":4556,"##光":4557,"##佳":4558,"##亭":4559,"##🤶":4560,"##💍":4561,"##軒":4562,"##狀":4563,"##🕊":4564,"##💥":4565,"##⠀":4566,"##◐":4567,"##🙁":4568,"##上":4569,"##如":4570,"##相":4571,"##ß":4572,"##朗":4573,"##🤹":4574,"##●":4575,"##🐿":4576,"##声":4577,"##╯":4578,"##👻":4579,"##🚴":4580,"##カ":4581,"##🍈":4582,"##🍐":4583,"##🥝":4584,"##冰":4585,"##沙":4586,"##禎":4587,"##吏":4588,"##藤":4589,"##伸":4590,"##治":4591,"##🍛":4592,"##ʔ":4593,"##🦆":4594,"##鎖":4595,"##清":4596,"##加":4597,"##奈":4598,"##🐢":4599,"##飛":4600,"##♨":4601,"##👣":4602,"##ᗜ":4603,"##ˋ":4604,"##物":4605,"##༽":4606,"##🍨":4607,"##🇭":4608,"##📣":4609,"##錢":4610,"##出":4611,"##納":4612,"##簿":4613,"##ᴅ":4614,"##(":4615,"##定":4616,"##情":4617,"##客":4618,"##🥯":4619,"##υ":4620,"##💟":4621,"##姓":4622,"##資":4623,"##材":4624,"##雲":4625,"##次":4626,"##去":4627,"##朋":4628,"##友":4629,"##⏩":4630,"##🤧":4631,"##潭":4632,"##滑":4633,"##主":4634,"##題":4635,"##樂":4636,"##啡":4637,"##業":4638,"##化":4639,"##🐵":4640,"##🚘":4641,"##„":4642,"##💄":4643,"##ʀ":4644,"##🎨":4645,"##縏":4646,"##天":4647,"##王":4648,"##ㄻ":4649,"##溪":4650,"##硯":4651,"##🤔":4652,"###":4653,"##閣":4654,"##話":4655,"##蛋":4656,"##面":4657,"##ょ":4658,"##焼":4659,"##玹":4660,"##醋":4661,"##逆":4662,"##胆":4663,"##🗣":4664,"##😩":4665,"##戱":4666,"##鳳":4667,"##政":4668,"##署":4669,"##破":4670,"##已":4671,"##十":4672,"##餘":4673,"##矣":4674,"##🍼":4675,"##ゅ":4676,"##д":4677,"##в":4678,"##к":4679,"##📓":4680,"##🤭":4681,"##☄":4682,"##😪":4683,"##😤":4684,"##戸":4685,"##丸":4686,"##🇼":4687,"##冬":4688,"##💬":4689,"##酷":4690,"##悪":4691,"##🤵":4692,"##👰":4693,"##云":4694,"##ѧ":4695,"##🇸":4696,"##エ":4697,"##🥃":4698,"##µ":4699,"##🥧":4700,"##🧁":4701,"##憶":4702,"##⚾":4703,"##鼎":4704,"##轩":4705,"##🚫":4706,"##員":4707,"##力":4708,"##由":4709,"##⛏":4710,"##野":4711,"##る":4712,"##🌈":4713,"##е":4714,"##у":4715,"##꒱":4716,"##🇰":4717,"##🇷":4718,"##ב":4719,"##ל":4720,"##念":4721,"##🤬":4722,"##🎋":4723,"##௰":4724,"##⌯":4725,"##語":4726,"##愁":4727,"##👠":4728,"##👟":4729,"##戰":4730,"##效":4731,"##濠":4732,"##公":4733,"##園":4734,"##６":4735,"##🥵":4736,"##¤":4737,"##🎬":4738,"##ㅒ":4739,"##ד":4740,"##ו":4741,"##ת":4742,"##裝":4743,"##㈜":4744,"##✂":4745,"##🎀":4746,"##よ":4747,"##💶":4748,"##💷":4749,"##💱":4750,"##🤘":4751,"##🕺":4752,"##鬪":4753,"##狗":4754,"##居":4755,"##扎":4756,"##蘭":4757,"##節":4758,"##א":4759,"##י":4760,"##ן":4761,"##南":4762,"##集":4763,"##植":4764,"##园":4765,"##韓":4766,"##ᴛ":4767,"##ʜ":4768,"##ᴜ":4769,"##酥":4770,"##皮":4771,"##虾":4772,"##鲜":4773,"##ㅀ":4774,"##🎾":4775,"##灘":4776,"##産":4777,"##品":4778,"##油":4779,"##🍁":4780,"##🌀":4781,"##北":4782,"##虛":4783,"##✧":4784,"##敬":4785,"##德":4786,"##🎆":4787,"##😏":4788,"##😈":4789,"##🌟":4790,"##🤕":4791,"##⁽":4792,"##█":4793,"##◤":4794,"##࿉":4795,"##奥":4796,"##🌯":4797,"##🤯":4798,"##義":4799,"##智":4800,"##君":4801,"##🏖":4802,"##🚀":4803,"##🚕":4804,"##🚌":4805,"##步":4806,"##๑":4807,"##🇹":4808,"##ѕ":4809,"##へ":4810,"##や":4811,"##🏞":4812,"##⁺":4813,"##♡":4814,"##⚡":4815,"##🏝":4816,"##👕":4817,"##🦐":4818,"##🦈":4819,"##🐋":4820,"##🐙":4821,"##🦑":4822,"##🍲":4823,"##🥔":4824,"##向":4825,"##花":4826,"##セ":4827,"##◆":4828,"##序":4829,"##井":4830,"##猛":4831,"##進":4832,"##🐟":4833,"##安":4834,"##☂":4835,"##华":4836,"##艺":4837,"##术":4838,"##宫":4839,"##🍭":4840,"##✋":4841,"##!":4842,"##ㄶ":4843,"##ㅘ":4844,"##哲":4845,"##万":4846,"##象":4847,"##谷":4848,"##遺":4849,"##稿":4850,"##🖍":4851,"##體":4852,"##育":4853,"##場":4854,"##涌":4855,"##原":4856,"##電":4857,"##🐌":4858,"##学":4859,"##活":4860,"##🚶":4861,"##線":4862,"##５":4863,"##🐝":4864,"##般":4865,"##ᴋ":4866,"##年":4867,"##📕":4868,"##巻":4869,"##旋":4870,"##風":4871,"##脚":4872,"##所":4873,"##🍗":4874,"##🎪":4875,"##❛":4876,"##鬼":4877,"##ろ":4878,"##沈":4879,"##🥣":4880,"##そ":4881,"##門":4882,"##滝":4883,"##🤝":4884,"##🇬":4885,"##🔊":4886,"##ᴡ":4887,"##☜":4888,"##🐡":4889,"##🐚":4890,"##辣":4891,"##烫":4892,"##古":4893,"##見":4894,"##🏠":4895,"##ﾟ":4896,"##🚵":4897,"##˙":4898,"##🐘":4899,"##🍍":4900,"##を":4901,"##🥞":4902,"##ł":4903,"##车":4904,"##坐":4905,"##₎":4906,"##血":4907,"##ᶠ":4908,"##達":4909,"##臣":4910,"##空":4911,"##🍴":4912,"##作":4913,"##百":4914,"##😬":4915,"##⛹":4916,"##🧖":4917,"##ツ":4918,"##👁":4919,"##台":4920,"##🇨":4921,"##🍹":4922,"##💀":4923,"##🍡":4924,"##🛤":4925,"##◡":4926,"##廿":4927,"##🌾":4928,"##🦋":4929,"##⛷":4930,"##虹":4931,"##火":4932,"##ね":4933,"##掌":4934,"##🌰":4935,"##🍉":4936,"##٩":4937,"##険":4938,"##视":4939,"##剧":4940,"##🐻":4941,"##典":4942,"##🤳":4943,"##🥶":4944,"##🥘":4945,"##¡":4946,"##宿":4947,"##召":4948,"##喚":4949,"##筋":4950,"##健":4951,"##骨":4952,"##存":4953,"##👫":4954,"##ˣ":4955,"##👅":4956,"##幸":4957,"##太":4958,"##😹":4959,"##宝":4960,"##贝":4961,"##з":4962,"##р":4963,"##🕌":4964,"##妆":4965,"##´":4966,"##拳":4967,"##🌌":4968,"##🌺":4969,"##工":4970,"##钟":4971,"##楼":4972,"##◝":4973,"##₍":4974,"##🐤":4975,"##談":4976,"##ネ":4977,"##🍇":4978,"##ナ":4979,"##陽":4980,"##🍶":4981,"##景":4982,"##区":4983,"##差":4984,"##ˢ":4985,"##ᴺ":4986,"##ᵀ":4987,"##吃":4988,"##⁾":4989,"##🔰":4990,"##🐄":4991,"##🙂":4992,"##🏡":4993,"##🏘":4994,"##🏚":4995,"##◕":4996,"##🥤":4997,"##望":4998,"##茫":4999,"##🦓":5000,"##“":5001,"##🌭":5002,"##👑":5003,"##牛":5004,"##界":5005,"##♩":5006,"##χ":5007,"##η":5008,"##阪":5009,"##◉":5010,"##｀":5011,"##旨":5012,"##辺":5013,"##✒":5014,"##ュ":5015,"##◍":5016,"##ν":5017,"##λ":5018,"##α":5019,"##¨":5020,"##😓":5021,"##🖐":5022,"##了":5023,"##𖤐":5024,"##🔱":5025,"##🚢":5026,"##🎢":5027,"##🎠":5028,"##お":5029,"##🤜":5030,"##床":5031,"##異":5032,"##夢":5033,"##🔫":5034,"##ლ":5035,"##溥":5036,"##⇢":5037,"##運":5038,"##籠":5039,"##雞":5040,"##腿":5041,"##排":5042,"##說":5043,"##ウ":5044,"##🔋":5045,"##ф":5046,"##θ":5047,"##п":5048,"##察":5049,"##罔":5050,"##旅":5051,"##游":5052,"##⬇":5053,"##🇳":5054,"##格":5055,"##要":5056,"##件":5057,"##🧸":5058,"##⸜":5059,"##꒫":5060,"##꒪":5061,"##▶":5062,"##🐼":5063,"##ԅ":5064,"##˃":5065,"##弱":5066,"##强":5067,"##༶":5068,"##🥂":5069,"##🥒":5070,"##💩":5071,"##認":5072,"##🐱":5073,"##算":5074,"##西":5075,"##📵":5076,"##玄":5077,"##ପ":5078,"##前":5079,"##燈":5080,"##ಠ":5081,"##ι":5082,"##🛍":5083,"##💉":5084,"##ᴠ":5085,"##🎥":5086,"##續":5087,"##嚕":5088,"##ч":5089,"##场":5090,"##懸":5091,"##鈴":5092,"##🐩":5093,"##🛌":5094,"##•":5095,"##通":5096,"##販":5097,"##⛄":5098,"##🌧":5099,"##🌪":5100,"##🌫":5101,"##☀":5102,"##🌨":5103,"##郡":5104,"##瑛":5105,"##字":5106,"##🚤":5107,"##茶":5108,"##給":5109,"##瞰":5110,"##圖":5111,"##¼":5112,"##🏀":5113,"##🎣":5114,"##🎳":5115,"##⛳":5116,"##島":5117,"##˚":5118,"##侯":5119,"##🚣":5120,"##ヌ":5121,"##謾":5122,"##識":5123,"##🤫":5124,"##±":5125,"##辛":5126,"##ヽ":5127,"##🧣":5128,"##蕒":5129,"##菜":5130,"##奏":5131,"##誼":5132,"##👬":5133,"##應":5134,"##🚩":5135,"##😞":5136,"##🏌":5137,"##報":5138,"##精":5139,"##訓":5140,"##９":5141,"##🤛":5142,"##🏕":5143,"##‚":5144,"##咲":5145,"##爱":5146,"##彦":5147,"##均":5148,"##宮":5149,"##組":5150,"##曲":5151,"##🎯":5152,"##🐮":5153,"##ヒ":5154,"##ぬ":5155,"##х":5156,"##🐂":5157,"##ᴾ":5158,"##👋":5159,"##陣":5160,"##💆":5161,"##‘":5162,"##达":5163,"##喝":5164,"##😰":5165,"##🦁":5166,"##得":5167,"##🌛":5168,"##盛":5169,"##🥨":5170,"##使":5171,"##梁":5172,"##於":5173,"##輸":5174,"##🐭":5175,"##極":5176,"##冒":5177,"##險":5178,"##ᴰ":5179,"##祖":5180,"##敗":5181,"##遼":5182,"##兵":5183,"##于":5184,"##境":5185,"##稅":5186,"##爭":5187,"##時":5188,"##🍄":5189,"##將":5190,"##弘":5191,"##最":5192,"##浪":5193,"##漫":5194,"##副":5195,"##歌":5196,"##甫":5197,"##牙":5198,"##⛤":5199,"##🖌":5200,"##ェ":5201,"##垣":5202,"##🖱":5203,"##鑑":5204,"##論":5205,"##□":5206,"##🍱":5207,"##足":5208,"##👇":5209,"##┻":5210,"##🖒":5211,"##¬":5212,"##🍆":5213,"##🐕":5214,"##🐀":5215,"##😐":5216,"##😕":5217,"##💡":5218,"##族":5219,"##胸":5220,"##後":5221,"##呼":5222,"##實":5223,"##黙":5224,"##以":5225,"##曷":5226,"##蘓":5227,"##館":5228,"##歸":5229,"##吸":5230,"##紀":5231,"##🇱":5232,"##🐊":5233,"##🦂":5234,"##晴":5235,"##地":5236,"##🌡":5237,"##江":5238,"##🤥":5239,"##ゃ":5240,"##🧐":5241,"##鋭":5242,"##崇":5243,"##憾":5244,"##💣":5245,"##🏔":5246,"##🌄":5247,"##◟":5248,"##類":5249,"##番":5250,"##街":5251,"##迅":5252,"##🦢":5253,"##完":5254,"##顏":5255,"##爾":5256,"##罕":5257,"##涯":5258,"##亂":5259,"##🗿":5260,"##求":5261,"##👙":5262,"##ᵐ":5263,"##ᵍ":5264,"##身":5265,"##経":5266,"##岚":5267,"##双":5268,"##片":5269,"##装":5270,"##半":5271,"##膜":5272,"##鎭":5273,"##❥":5274,"##🇩":5275,"##常":5276,"##换":5277,"##老":5278,"##吉":5279,"##津":5280,"##💌":5281,"##宗":5282,"##黨":5283,"##🕙":5284,"##露":5285,"##🙀":5286,"##👒":5287,"##松":5288,"##柳":5289,"##夕":5290,"##張":5291,"##オ":5292,"##⛰":5293,"##隱":5294,"##霊":5295,"##気":5296,"##*":5297,"##奇":5298,"##書":5299,"##┓":5300,"##📽":5301,"##怪":5302,"##獣":5303,"##詁":5304,"##學":5305,"##七":5306,"##倉":5307,"##笼":5308,"##包":5309,"##別":5310,"##龙":5311,"##蘑":5312,"##菇":5313,"##🛩":5314,"##３":5315,"##顔":5316,"##醒":5317,"##┳":5318,"##ㄺ":5319,"##馬":5320,"##🖖":5321,"##モ":5322,"##[":5323,"##湖":5324,"##📨":5325,"##其":5326,"##兄":5327,"##别":5328,"##而":5329,"##🚠":5330,"##房":5331,"##🦔":5332,"##🔈":5333,"##比":5334,"##歳":5335,"##專":5336,"##禁":5337,"##齋":5338,"##志":5339,"##斗":5340,"##神":5341,"##秘":5342,"##八":5343,"##叔":5344,"##舟":5345,"##👿":5346,"##ㅞ":5347,"##紙":5348,"##🛏":5349,"##寨":5350,"##濟":5351,"##勢":5352,"##😺":5353,"##遐":5354,"##🕷":5355,"##央":5356,"##銀":5357,"##🤓":5358,"##聽":5359,"##夜":5360,"##眼":5361,"##社":5362,"##⁼":5363,"##益":5364,"##ノ":5365,"##σ":5366,"##ш":5367,"##🏺":5368,"##陆":5369,"##𝙄":5370,"##𝘽":5371,"##𝘼":5372,"##𝙇":5373,"##🧨":5374,"##🙅":5375,"##捨":5376,"##指":5377,"##標":5378,"##⛱":5379,"##⁰":5380,"##九":5381,"##😿":5382,"##🍥":5383,"##鳴":5384,"##岡":5385,"##男":5386,"##㉦":5387,"##照":5388,"##🐦":5389,"##局":5390,"##ь":5391,"##鸡":5392,"##高":5393,"##校":5394,"##史":5395,"##宙":5396,"##♤":5397,"##乃":5398,"##🥫":5399,"##經":5400,"##👽":5401,"##⇝":5402,"##🇦":5403,"##態":5404,"##玛":5405,"##┃":5406,"##广":5407,"##隊":5408,"##🐸":5409,"##麻":5410,"##香":5411,"##保":5412,"##📮":5413,"##謨":5414,"##珠":5415,"##奶":5416,"##⌑":5417,"##༎":5418,"##期":5419,"##咖":5420,"##厅":5421,"##禧":5422,"##苑":5423,"##🔍":5424,"##ᵁ":5425,"##ᴴ":5426,"##ｚ":5427,"##🥜":5428,"##🔩":5429,"##⚙":5430,"##":5431,"##鷹":5432,"##蓮":5433,"##👧":5434,"##🌇":5435,"##版":5436,"##🌚":5437,"##🐍":5438,"##務":5439,"##院":5440,"##麗":5441,"##🥠":5442,"##漢":5443,"##建":5444,"##告":5445,"##里":5446,"##衆":5447,"##平":5448,"##敦":5449,"##角":5450,"##峰":5451,"##宜":5452,"##彩":5453,"##詠":5454,"##证":5455,"##👞":5456,"##己":5457,"##過":5458,"##信":5459,"##口":5460,"##ʌ":5461,"##ə":5462,"##🏅":5463,"##ｄ":5464,"##🐈":5465,"##池":5466,"##正":5467,"##習":5468,"##亦":5469,"##乎":5470,"##=":5471,"##⭕":5472,"##任":5473,"##樹":5474,"##泰":5475,"##体":5476,"##傳":5477,"##ς":5478,"##諭":5479,"##曰":5480,"##撃":5481,"##喜":5482,"##久":5483,"##獻":5484,"##接":5485,"##б":5486,"##遂":5487,"##榮":5488,"##蜜":5489,"##⬆":5490,"##寒":5491,"##賣":5492,"##┌":5493,"##坊":5494,"##落":5495,"##🐨":5496,"##🐑":5497,"##立":5498,"##💢":5499,"##嘴":5500,"##🧥":5501,"##🥴":5502,"##留":5503,"##尉":5504,"##˄":5505,"##⌓":5506,"##︶":5507,"##端":5508,"##💰":5509,"##🤎":5510,"##ｼ":5511,"##🏋":5512,"##翅":5513,"##刀":5514,"##葉":5515,"##❌":5516,"##鮮":5517,"##ᴗ":5518,"##ˆ":5519,"##🅶":5520,"##ø":5521,"##ᴷ":5522,"##👄":5523,"##萌":5524,"##虎":5525,"##🍵":5526,"##æ":5527,"##连":5528,"##﹏":5529,"##ಥ":5530,"##澄":5531,"##˘":5532,"##✿":5533,"##憲":5534,"##✫":5535,"##料":5536,"##💵":5537,"##➰":5538,"##﻿":5539,"##貴":5540,"##讓":5541,"##◑":5542,"##😼":5543,"##ᵋ":5544,"##૨":5545,"##供":5546,"##凰":5547,"##搾":5548,"##ʚ":5549,"##ʘ":5550,"##長":5551,"##😑":5552,"##м":5553,"##ワ":5554,"##ᴳ":5555,"##𝑺":5556,"##𝑰":5557,"##𝑩":5558,"##𝑨":5559,"##𝑳":5560,"##分":5561,"##用":5562,"##ƪ":5563,"##庐":5564,"##印":5565,"##器":5566,"##賀":5567,"##🛴":5568,"##鹿":5569,"##爲":5570,"##淫":5571,"##亜":5572,"##弥":5573,"##卿":5574,"##瑗":5575,"##艶":5576,"##⁹":5577,"##塔":5578,"##耶":5579,"##律":5580,"##色":5581,"##宅":5582,"##辯":5583,"##詩":5584,"##🕯":5585,"##月":5586,"##白":5587,"##😾":5588,"##量":5589,"##種":5590,"##有":5591,"##淳":5592,"##柏":5593,"##烹":5594,"##覇":5595,"##企":5596,"##画":5597,"##🌍":5598,"##🌏":5599,"##🚖":5600,"##꒳":5601,"##€":5602,"##📜":5603,"##💭":5604,"##術":5605,"##意":5606,"##蔘":5607,"##`":5608,"##曹":5609,"##丁":5610,"##聞":5611,"##貨":5612,"##璐":5613,"##✏":5614,"##📒":5615,"##⛅":5616,"##🌂":5617,"##👴":5618,"##止":5619,"##ᖇ":5620,"##ᑎ":5621,"##雪":5622,"##👗":5623,"##°":5624,"##共":5625,"##📢":5626,"##ᕦ":5627,"##◀":5628,"##亀":5629,"##忍":5630,"##伝":5631,"##🎞":5632,"##第":5633,"##四":5634,"##季":5635,"##ᴘ":5636,"##🍢":5637,"##覺":5638,"##師":5639,"##遍":5640,"##碑":5641,"##登":5642,"##📱":5643,"##且":5644,"##恤":5645,"##窮":5646,"##域":5647,"##🍖":5648,"##価":5649,"##交":5650,"##換":5651,"##🇲":5652,"##🖑":5653,"##才":5654,"##職":5655,"##刑":5656,"##宇":5657,"##室":5658,"##商":5659,"##🇫":5660,"##ﾞ":5661,"##橋":5662,"##悲":5663,"##哀":5664,"##費":5665,"##⛧":5666,"##▿":5667,"##々":5668,"##΄":5669,"##─":5670,"##崎":5671,"##條":5672,"##ᶜ":5673,"##⏱":5674,"##🥥":5675,"##私":5676,"##淑":5677,"##錄":5678,"##ゥ":5679,"##詞":5680,"##頭":5681,"##˖":5682,"##📺":5683,"##ꈊ":5684,"##汜":5685,"##関":5686,"##駄":5687,"##氣":5688,"##😇":5689,"##⛵":5690,"##⫬":5691,"##杞":5692,"##ο":5693,"##τ":5694,"##κ":5695,"##酉":5696,"##再":5697,"##昌":5698,"##餅":5699,"##☎":5700,"##雄":5701,"##列":5702,"##✡":5703,"##📌":5704,"##💂":5705,"##型":5706,"##苦":5707,"##<":5708,"##拍":5709,"##銅":5710,"##形":5711,"##羅":5712,"##🚑":5713,"##ק":5714,"##ר":5715,"##球":5716,"##肯":5717,"##慶":5718,"##🐉":5719,"##%":5720,"##司":5721,"##门":5722,"##県":5723,"##熱":5724,"##㉭":5725,"##腸":5726,"##遊":5727,"##終":5728,"##⤴":5729,"##ц":5730,"##庫":5731,"##◔":5732,"##素":5733,"##遷":5734,"##棲":5735,"##✅":5736,"##釣":5737,"##ʏ":5738,"##嘉":5739,"##茉":5740,"##概":5741,"##⏰":5742,"##🌎":5743,"##攻":5744,"##略":5745,"##ㅚ":5746,"##垈":5747,"##僞":5748,"##耳":5749,"##獄":5750,"##握":5751,"##爪":5752,"##始":5753,"##諱":5754,"##函":5755,"##普":5756,"##則":5757,"##刻":5758,"##🐴":5759,"##🦞":5760,"##🏆":5761,"##京":5762,"##奴":5763,"##𝙊":5764,"##𝙉":5765,"##腕":5766,"##系":5767,"##ヨ":5768,"##🤙":5769,"##🔵":5770,"##☠":5771,"##🏳":5772,"##🇴":5773,"##導":5774,"##琴":5775,"##歷":5776,"##丼":5777,"##卑":5778,"##・":5779,"##ש":5780,"##ה":5781,"##🐹":5782,"##窟":5783,"##船":5784,"##佐":5785,"##敎":5786,"##🧗":5787,"##🌒":5788,"##全":5789,"##🤑":5790,"##竜":5791,"##圭":5792,"##夏":5793,"##🧞":5794,"##🇮":5795,"##丹":5796,"##尼":5797,"##況":5798,"##👝":5799,"##📿":5800,"##ﬁ":5801,"##蟄":5802,"##会":5803,"##夫":5804,"##回":5805,"##❔":5806,"##旗":5807,"##燃":5808,"##會":5809,"##験":5810,"##都":5811,"##誤":5812,"##🌤":5813,"##🌥":5814,"##僻":5815,"##孫":5816,"##必":5817,"##能":5818,"##聚":5819,"##帳":5820,"##👘":5821,"##ʙ":5822,"##珍":5823,"##煎":5824,"##茴":5825,"##ｰ":5826,"##👾":5827,"##卵":5828,"##述":5829,"##昇":5830,"##ᵏ":5831,"##ᵎ":5832,"##将":5833,"##奔":5834,"##烈":5835,"##聖":5836,"##殿":5837,"##🦌":5838,"##☹":5839,"##👖":5840,"##👚":5841,"##流":5842,"##你":5843,"##们":5844,"##坡":5845,"##ॱ":5846,"##ଳ":5847,"##寧":5848,"##ｉ":5849,"##ｍ":5850,"##ｐ":5851,"##稲":5852,"##🚇":5853,"##✉":5854,"##🎹":5855,"##📯":5856,"##樣":5857,"##華":5858,"##敵":5859,"##ᐖ":5860,"##靖":5861,"##故":5862,"##還":5863,"##復":5864,"##ര":5865,"##>":5866,"##פ":5867,"##꒦":5868,"##肠":5869,"##判":5870,"##獨":5871,"##👪":5872,"##危":5873,"##勞":5874,"##焦":5875,"##思":5876,"##銘":5877,"##雅":5878,"##点":5879,"##谢":5880,"##™":5881,"##ᗰ":5882,"##🏴":5883,"##菊":5884,"##蔽":5885,"##答":5886,"##限":5887,"##惠":5888,"##翔":5889,"##🏰":5890,"##浩":5891,"##章":5892,"##簾":5893,"##ƒ":5894,"##₀":5895,"##🛬":5896,"##🦊":5897,"##慢":5898,"##速":5899,"##戦":5900,"##争":5901,"##🕶":5902,"##œ":5903,"##巴":5904,"##克":5905,"##諜":5906,"##翁":5907,"##元":5908,"##东":5909,"##失":5910,"##順":5911,"##🧤":5912,"##蘆":5913,"##︿":5914,"##🕴":5915,"##🔄":5916,"##變":5917,"##参":5918,"##魚":5919,"##妈":5920,"##無":5921,"##恥":5922,"##到":5923,"##逐":5924,"##🎖":5925,"##烏":5926,"##🧑":5927,"##🧮":5928,"##📐":5929,"##📝":5930,"##֊":5931,"##豆":5932,"##🙎":5933,"##🔪":5934,"##卓":5935,"##热":5936,"##绵":5937,"##影":5938,"##雨":5939,"##額":5940,"##曉":5941,"##吞":5942,"##麺":5943,"##编":5944,"##码":5945,"##視":5946,"##祐":5947,"##踢":5948,"##操":5949,"##尾":5950,"##狐":5951,"##🧹":5952,"##啓":5953,"##傑":5954,"##句":5955,"##இ":5956,"##▫":5957,"##裂":5958,"##读":5959,"##╹":5960,"##ꉂ":5961,"##ᴮ":5962,"##親":5963,"##🥭":5964,"##🚃":5965,"##港":5966,"##ぉ":5967,"##ぇ":5968,"##官":5969,"##🚞":5970,"##亥":5971,"##哉":5972,"##˒":5973,"##羊":5974,"##୧":5975,"##程":5976,"##勝":5977,"##僕":5978,"##桃":5979,"##ఇ":5980,"##齊":5981,"##帰":5982,"##旻":5983,"##隸":5984,"##ˬ":5985,"##馆":5986,"##施":5987,"##圏":5988,"##外":5989,"##郭":5990,"##栄":5991,"##ร":5992,"##อ":5993,"##ย":5994,"##幽":5995,"##む":5996,"##敷":5997,"##愚":5998,"##似":5999,"##衡":6000,"##助":6001,"##🚿":6002,"##疏":6003,"##規":6004,"##彈":6005,"##劾":6006,"##法":6007,"##訶":6008,"##若":6009,"##鏞":6010,"##⛑":6011,"##⸝":6012,"##特":6013,"##埓":6014,"##ᶻ":6015,"##ᵞ":6016,"##補":6017,"##髓":6018,"##阿":6019,"##佛":6020,"##忌":6021,"##煩":6022,"##餃":6023,"##至":6024,"##非":6025,"##ъ":6026,"##熙":6027,"##眞":6028,"##看":6029,"##💻":6030,"##⌨":6031,"##⌄":6032,"##難":6033,"##و":6034,"##湯":6035,"##凪":6036,"##为":6037,"##゜":6038,"##🥊":6039,"##⚰":6040,"##備":6041,"##患":6042,"##射":6043,"##停":6044,"##利":6045,"##铁":6046,"##弹":6047,"##飞":6048,"##侠":6049,"##何":6050,"##ε":6051,"##μ":6052,"##春":6053,"##饼":6054,"##綺":6055,"##ｈ":6056,"##➴":6057,"##萝":6058,"##🃏":6059,"##邱":6060,"##🧢":6061,"##引":6062,"##淺":6063,"##织":6064,"##害":6065,"##ヤ":6066,"##♾":6067,"##☚":6068,"##修":6069,"##ᐛ":6070,"##📦":6071,"##◼":6072,"##◾":6073,"##▪":6074,"##◽":6075,"##◻":6076,"##⬜":6077,"##⏳":6078,"##⌛":6079,"##間":6080,"##尔":6081,"##餐":6082,"##忠":6083,"##🚲":6084,"##樑":6085,"##亮":6086,"##表":6087,"##▾":6088,"##☻":6089,"##ᴖ":6090,"##初":6091,"##皆":6092,"##勿":6093,"##裔":6094,"##━":6095,"##╮":6096,"##💿":6097,"##辰":6098,"##雖":6099,"##善":6100,"##奪":6101,"##廉":6102,"##潔":6103,"##厚":6104,"##🔴":6105,"##実":6106,"##護":6107,"##猫":6108,"##尊":6109,"##朝":6110,"##臨":6111,"##對":6112,"##廬":6113,"##⌣":6114,"##闘":6115,"##♧":6116,"##温":6117,"##ס":6118,"##∙":6119,"##招":6120,"##劍":6121,"##✺":6122,"##層":6123,"##貌":6124,"##@":6125,"##着":6126,"##予":6127,"##🚛":6128,"##⛔":6129,"##🚒":6130,"##被":6131,"##鶴":6132,"##毅":6133,"##悌":6134,"##持":6135,"##賑":6136,"##貸":6137,"##扈":6138,"##牲":6139,"##⑉":6140,"##閑":6141,"##先":6142,"##固":6143,"##顧":6144,"##צ":6145,"##省":6146,"##賊":6147,"##岩":6148,"##💠":6149,"##费":6150,"##吗":6151,"##☑":6152,"##製":6153,"##峽":6154,"##處":6155,"##▰":6156,"##🦄":6157,"##恩":6158,"##ｇ":6159,"##颂":6160,"##窪":6161,"##良":6162,"##👸":6163,"##👹":6164,"##稀":6165,"##可":6166,"##硏":6167,"##岬":6168,"##軋":6169,"##木":6170,"##ｖ":6171,"##重":6172,"##靜":6173,"##讀":6174,"##窓":6175,"##裏":6176,"##須":6177,"##胡":6178,"##縄":6179,"##武":6180,"##帝":6181,"##諸":6182,"##鉄":6183,"##˳":6184,"##柑":6185,"##⑅":6186,"##陵":6187,"##錮":6188,"##申":6189,"##廚":6190,"##ː":6191,"##籤":6192,"##東":6193,"##豪":6194,"##連":6195,"##🕉":6196,"##休":6197,"##⛺":6198,"##🌜":6199,"##毒":6200,"##🤠":6201,"##岐":6202,"##ゆ":6203,"##💺":6204,"##ᆔ":6205,"##孃":6206,"##塩":6207,"##２":6208,"##ᗣ":6209,"##ᗕ":6210,"##靑":6211,"##🦴":6212,"이":6213,"##ᅳᆫ":6214,"어":6215,"##ᅳᆯ":6216,"하":6217,"아":6218,"는":6219,"가":6220,"에":6221,"그":6222,"고":6223,"다":6224,"##ᅥᆫ":6225,"##ᅡᆫ":6226,"##이":6227,"##서":6228,"##ᅡᆼ":6229,"##ᅧᆫ":6230,"지":6231,"을":6232,"##니":6233,"##리":6234,"##다":6235,"거":6236,"##요":6237,"시":6238,"##지":6239,"##ᅡᆯ":6240,"도":6241,"은":6242,"저":6243,"##ᅮᆫ":6244,"있":6245,"##하":6246,"##시":6247,"##러":6248,"##ᅳᆷ":6249,"게":6250,"었":6251,"나":6252,"보":6253,"##로":6254,"것":6255,"##ᅧᆼ":6256,"를":6257,"들":6258,"##가":6259,"사":6260,"의":6261,"##데":6262,"마":6263,"기":6264,"##기":6265,"##고":6266,"##니다":6267,"네":6268,"##ᅮᆯ":6269,"##라":6270,"조":6271,"##어":6272,"되":6273,"으":6274,"자":6275,"주":6276,"스":6277,"요":6278,"##ᅢᆼ":6279,"##스":6280,"오":6281,"##ㅋㅋ":6282,"##도":6283,"##거":6284,"##나":6285,"##ᅩᆨ":6286,"##제":6287,"##저":6288,"면":6289,"##ᅮᆨ":6290,"여":6291,"그러":6292,"대":6293,"예":6294,"바":6295,"##까":6296,"수":6297,"어서":6298,"라":6299,"##자":6300,"##래":6301,"에서":6302,"##야":6303,"한":6304,"습":6305,"과":6306,"##ᅯᆫ":6307,"으로":6308,"로":6309,"##ᅩᆼ":6310,"만":6311,"는데":6312,"##런":6313,"서":6314,"모":6315,"습니다":6316,"##ᅥᆨ":6317,"##ᅢᆨ":6318,"일":6319,"정":6320,"##아":6321,"부":6322,"았":6323,"니":6324,"##장":6325,"ㅂ니다":6326,"어요":6327,"##마":6328,"안":6329,"##치":6330,"##오":6331,"##사":6332,"##면":6333,"뭐":6334,"인":6335,"소":6336,"##구":6337,"##르":6338,"우":6339,"더":6340,"않":6341,"야":6342,"##주":6343,"ㄴ다":6344,"##금":6345,"같":6346,"##히":6347,"아니":6348,"##것":6349,"전":6350,"##는":6351,"##미":6352,"제":6353,"죠":6354,"##트":6355,"##화":6356,"##드":6357,"구":6358,"세":6359,"적":6360,"##우":6361,"너":6362,"##ᅧᆨ":6363,"때":6364,"내":6365,"그렇":6366,"음":6367,"##그":6368,"좋":6369,"##보":6370,"생":6371,"##정":6372,"미":6373,"##무":6374,"겠":6375,"##대":6376,"차":6377,"드":6378,"말":6379,"없":6380,"##만":6381,"##타":6382,"노":6383,"먹":6384,"##상":6385,"##인":6386,"##ᅧᆯ":6387,"와":6388,"##일":6389,"##수":6390,"유":6391,"처":6392,"##ㅋㅋㅋㅋ":6393,"##람":6394,"화":6395,"많":6396,"비":6397,"무":6398,"그런":6399,"##문":6400,"그리":6401,"##원":6402,"우리":6403,"이제":6404,"##부":6405,"사람":6406,"이러":6407,"##각":6408,"좀":6409,"##간":6410,"상":6411,"##분":6412,"치":6413,"##터":6414,"지금":6415,"또":6416,"위":6417,"##음":6418,"공":6419,"##ᅳᆼ":6420,"남":6421,"##비":6422,"##니까":6423,"분":6424,"중":6425,"##ᅣᆼ":6426,"버":6427,"어ᄄ":6428,"까":6429,"던":6430,"아요":6431,"##들":6432,"알":6433,"이렇":6434,"##국":6435,"개":6436,"##용":6437,"진":6438,"이런":6439,"##전":6440,"맛":6441,"피":6442,"아서":6443,"##ᅩᆫ":6444,"##ᆯ리":6445,"두":6446,"생각":6447,"##려":6448,"경":6449,"##유":6450,"##실":6451,"선":6452,"##게":6453,"잘":6454,"##ᅡᆨ":6455,"##성":6456,"어야":6457,"장":6458,"원":6459,"##동":6460,"동":6461,"##램":6462,"니까":6463,"근":6464,"##ᅦ이":6465,"라고":6466,"문":6467,"##그램":6468,"##과":6469,"##식":6470,"##버":6471,"##든":6472,"이것":6473,"영":6474,"지만":6475,"가지":6476,"나오":6477,"번":6478,"ㄴ데":6479,"해":6480,"관":6481,"국":6482,"까지":6483,"##해":6484,"##디":6485,"당":6486,"##당":6487,"그래":6488,"##스타":6489,"연":6490,"신":6491,"##신":6492,"##내":6493,"입":6494,"##키":6495,"그것":6496,"살":6497,"에요":6498,"##소":6499,"감":6500,"##단":6501,"계":6502,"추":6503,"##말":6504,"성":6505,"##피":6506,"##생":6507,"##랑":6508,"##ᅳᆨ":6509,"다고":6510,"##늘":6511,"대하":6512,"씨":6513,"##한":6514,"방":6515,"##티":6516,"##의":6517,"##안":6518,"##테":6519,"집":6520,"얘":6521,"너무":6522,"면서":6523,"물":6524,"##통":6525,"##ᅮᆷ":6526,"받":6527,"##스타그램":6528,"##행":6529,"##물":6530,"느":6531,"근데":6532,"##처":6533,"배":6534,"그리고":6535,"많이":6536,"##크":6537,"맞":6538,"##ᅵᆷ":6539,"님":6540,"##민":6541,"얘기":6542,"##심":6543,"때문":6544,"못":6545,"왜":6546,"싶":6547,"아이":6548,"매":6549,"오늘":6550,"##진":6551,"크":6552,"반":6553,"##차":6554,"실":6555,"##십":6556,"##ᅯᆯ":6557,"##루":6558,"##세":6559,"회":6560,"그래서":6561,"쓰":6562,"##명":6563,"재":6564,"애":6565,"##었":6566,"##짜":6567,"##모":6568,"으면":6569,"##레":6570,"##회":6571,"김":6572,"##체":6573,"결":6574,"ㄴ가":6575,"사실":6576,"단":6577,"불":6578,"년":6579,"##바":6580,"식":6581,"##프":6582,"그ᄂ":6583,"학":6584,"라는":6585,"##른":6586,"##산":6587,"남자":6588,"데":6589,"##계":6590,"##연":6591,"타":6592,"##ᅥᇂ":6593,"냐":6594,"##위":6595,"##있":6596,"다는":6597,"##여":6598,"명":6599,"##속":6600,"파":6601,"발":6602,"##재":6603,"어떻":6604,"어떤":6605,"후":6606,"점":6607,"새":6608,"인제":6609,"강":6610,"어도":6611,"더라":6612,"진짜":6613,"정말":6614,"거든":6615,"##방":6616,"##집":6617,"##두":6618,"##선":6619,"삼":6620,"##ᅥᆯ":6621,"시간":6622,"최":6623,"교":6624,"포":6625,"에게":6626,"며":6627,"세요":6628,"건":6629,"만들":6630,"작":6631,"##름":6632,"호":6633,"##ᅥᆷ":6634,"리":6635,"##ㅠㅠ":6636,"보이":6637,"통":6638,"##양":6639,"##직":6640,"##력":6641,"##조":6642,"##호":6643,"참":6644,"##에":6645,"들어":6646,"엄":6647,"달":6648,"따":6649,"##천":6650,"하나":6651,"##업":6652,"그냥":6653,"문제":6654,"##영":6655,"정도":6656,"##중":6657,"거든요":6658,"카":6659,"##작":6660,"##때":6661,"##번":6662,"##즈":6663,"여기":6664,"##임":6665,"누":6666,"간":6667,"##능":6668,"##울":6669,"친":6670,"##경":6671,"##녀":6672,"##년":6673,"위하":6674,"##ᆼ장":6675,"##건":6676,"얼":6677,"부분":6678,"모르":6679,"막":6680,"특":6681,"역":6682,"현":6683,"부터":6684,"##희":6685,"느ᄁ":6686,"##교":6687,"##추":6688,"시었":6689,"##발":6690,"##품":6691,"다가":6692,"양":6693,"맛있":6694,"끄":6695,"보다":6696,"##표":6697,"머":6698,"메":6699,"날":6700,"##록":6701,"다른":6702,"##적":6703,"##ㅋㅋㅋㅋㅋㅋㅋㅋ":6704,"##파":6705,"##근":6706,"청":6707,"이거":6708,"##ᆷᄁ":6709,"백":6710,"##럼":6711,"##격":6712,"##카":6713,"언":6714,"다음":6715,"##개":6716,"직":6717,"괴":6718,"박":6719,"초":6720,"##와":6721,"##론":6722,"운":6723,"##관":6724,"약":6725,"##코":6726,"##어지":6727,"프":6728,"천":6729,"##럽":6730,"##령":6731,"##청":6732,"코":6733,"앞":6734,"##네":6735,"육":6736,"열":6737,"이야":6738,"##태":6739,"영화":6740,"손":6741,"드리":6742,"심":6743,"##ᆯ라":6744,"##머":6745,"그런데":6746,"넘":6747,"ㄹ까":6748,"##반":6749,"##색":6750,"##석":6751,"는데요":6752,"군":6753,"등":6754,"행":6755,"##씀":6756,"##점":6757,"##매":6758,"##료":6759,"##ᅵᆨ":6760,"굉장":6761,"말씀":6762,"##님":6763,"경우":6764,"평":6765,"편":6766,"##포":6767,"##본":6768,"##노":6769,"굉장히":6770,"##운":6771,"려":6772,"책":6773,"필":6774,"여자":6775,"한테":6776,"##토":6777,"##맛":6778,"외":6779,"확":6780,"북":6781,"검":6782,"##은":6783,"##페":6784,"##역":6785,"설":6786,"눈":6787,"이나":6788,"길":6789,"팔":6790,"##족":6791,"##공":6792,"##학":6793,"##림":6794,"##황":6795,"아야":6796,"속":6797,"##약":6798,"##예":6799,"이야기":6800,"여러":6801,"돌":6802,"법":6803,"##법":6804,"다시":6805,"출":6806,"커":6807,"##복":6808,"십":6809,"좋아":6810,"처럼":6811,"사용":6812,"찾":6813,"##ᆷ께":6814,"##류":6815,"##란":6816,"함께":6817,"ㅂ니까":6818,"금":6819,"완":6820,"들어가":6821,"습니까":6822,"##째":6823,"이번":6824,"바로":6825,"그러니까":6826,"##ᆺ하":6827,"같이":6828,"ㄴ다고":6829,"##냐":6830,"##쁘":6831,"힘":6832,"##먹":6833,"뒤":6834,"##후":6835,"ㄴ지":6836,"##감":6837,"##절":6838,"##박":6839,"계속":6840,"##습":6841,"##슨":6842,"##월":6843,"본":6844,"사진":6845,"시키":6846,"판":6847,"저희":6848,"거기":6849,"##험":6850,"은데":6851,"구요":6852,"대통":6853,"듣":6854,"대통령":6855,"조금":6856,"목":6857,"용":6858,"##입":6859,"좋아하":6860,"민":6861,"아무":6862,"끝":6863,"그거":6864,"산":6865,"든":6866,"##00":6867,"는지":6868,"##더":6869,"##강":6870,"##너":6871,"형":6872,"##케":6873,"친구":6874,"ㅋㅋㅋ":6875,"체":6876,"누구":6877,"꼬":6878,"종":6879,"##씨":6880,"줄":6881,"##브":6882,"돈":6883,"##편":6884,"그럼":6885,"답":6886,"월":6887,"시작":6888,"놓":6889,"변":6890,"디":6891,"##련":6892,"##워":6893,"밖":6894,"엄마":6895,"응":6896,"상황":6897,"##급":6898,"##송":6899,"가능":6900,"키":6901,"##준":6902,"##술":6903,"자기":6904,"잡":6905,"##현":6906,"권":6907,"##꾸":6908,"아주":6909,"##ᅧᆸ":6910,"##질":6911,"곳":6912,"##메":6913,"##락":6914,"##날":6915,"가장":6916,"표":6917,"밥":6918,"##담":6919,"만나":6920,"마음":6921,"##쪽":6922,"그러면":6923,"##션":6924,"터":6925,"##베":6926,"을까":6927,"동안":6928,"할":6929,"필요":6930,"##결":6931,"##팔":6932,"##향":6933,"쉬":6934,"##육":6935,"순":6936,"##이어":6937,"패":6938,"넣":6939,"별":6940,"##ᅳᆯ리":6941,"##침":6942,"한국":6943,"토":6944,"찍":6945,"나가":6946,"무슨":6947,"몇":6948,"여행":6949,"어디":6950,"빨":6951,"ㅎㅎ":6952,"##즘":6953,"귀":6954,"##판":6955,"딱":6956,"푸":6957,"##남":6958,"##종":6959,"트":6960,"##찰":6961,"처음":6962,"이상":6963,"##난":6964,"준":6965,"못하":6966,"##출":6967,"##am":6968,"일단":6969,"허":6970,"담":6971,"대표":6972,"싸":6973,"##츠":6974,"ㄴ다는":6975,"지나":6976,"##빠":6977,"##엇":6978,"갈":6979,"##ᆫ트":6980,"갖":6981,"는다":6982,"##형":6983,"ㅋㅋ":6984,"##라고":6985,"짜":6986,"의원":6987,"감사":6988,"요즘":6989,"##합":6990,"캐":6991,"질":6992,"투":6993,"충":6994,"##어나":6995,"##애":6996,"증":6997,"스타":6998,"먼":6999,"복":7000,"##대로":7001,"취":7002,"ㅋㅋㅋㅋㅋ":7003,"느낌":7004,"빠":7005,"어리":7006,"죽":7007,"그때":7008,"##달":7009,"존":7010,"프로":7011,"얼마":7012,"##막":7013,"께":7014,"##망":7015,"중요":7016,"##스트":7017,"으니까":7018,"##없":7019,"##플":7020,"##느":7021,"놀":7022,"사랑":7023,"느끼":7024,"쪼":7025,"북한":7026,"##st":7027,"앉":7028,"##배":7029,"더라구":7030,"으시":7031,"##혼":7032,"##언":7033,"##oo":7034,"듯":7035,"벌":7036,"##등":7037,"준비":7038,"운동":7039,"보내":7040,"절":7041,"##글":7042,"##움":7043,"국민":7044,"버리":7045,"레":7046,"괘":7047,"무엇":7048,"활":7049,"랑":7050,"글":7051,"정치":7052,"##블":7053,"학교":7054,"##견":7055,"서울":7056,"사이":7057,"뜨":7058,"거나":7059,"##새":7060,"괜":7061,"##ᆫ드":7062,"##택":7063,"##설":7064,"##접":7065,"##억":7066,"태":7067,"##찮":7068,"아직":7069,"올리":7070,"##목":7071,"임":7072,"오래":7073,"색":7074,"고기":7075,"러":7076,"채":7077,"티":7078,"##독":7079,"더라고":7080,"미국":7081,"총":7082,"항":7083,"##득":7084,"베":7085,"다이어":7086,"재미":7087,"병":7088,"##을":7089,"##며":7090,"머리":7091,"독":7092,"##권":7093,"헤":7094,"모든":7095,"다면":7096,"꼭":7097,"여성":7098,"##변":7099,"약간":7100,"##뉴":7101,"어려":7102,"려고":7103,"혼":7104,"##악":7105,"일상":7106,"##누":7107,"다니":7108,"생기":7109,"##외":7110,"이유":7111,"환":7112,"##되":7113,"둘":7114,"##찬":7115,"##레이":7116,"겨":7117,"##큼":7118,"퍼":7119,"추천":7120,"아마":7121,"높":7122,"##커":7123,"결국":7124,"음식":7125,"엄청":7126,"힘들":7127,"##책":7128,"##져":7129,"도록":7130,"따르":7131,"자리":7132,"자신":7133,"쪽":7134,"##밥":7135,"##할":7136,"##백":7137,"통하":7138,"걸":7139,"브":7140,"올":7141,"돌아":7142,"휴":7143,"##푸":7144,"학생":7145,"역시":7146,"##초":7147,"광":7148,"##롭":7149,"테":7150,"##팅":7151,"첫":7152,"번째":7153,"폭":7154,"잠":7155,"괜찮":7156,"향":7157,"완전":7158,"##별":7159,"아까":7160,"홍":7161,"##녕":7162,"즐":7163,"규":7164,"먼저":7165,"##살":7166,"##으":7167,"##끔":7168,"선생":7169,"어ᄍ":7170,"노래":7171,"일본":7172,"정부":7173,"합":7174,"어렵":7175,"칠":7176,"울":7177,"모습":7178,"몸":7179,"##량":7180,"각":7181,"읽":7182,"이미":7183,"##sta":7184,"건강":7185,"거의":7186,"이십":7187,"맛집":7188,"풀":7189,"내용":7190,"더니":7191,"스럽":7192,"논":7193,"관련":7194,"가족":7195,"다르":7196,"떠":7197,"제품":7198,"아침":7199,"피부":7200,"블":7201,"희":7202,"##군":7203,"옆":7204,"입장":7205,"ㅋㅋㅋㅋㅋㅋㅋㅋㅋ":7206,"##굴":7207,"##쉬":7208,"20":7209,"##ood":7210,"업":7211,"안녕":7212,"##짝":7213,"##지만":7214,"다이어트":7215,"##머니":7216,"##념":7217,"##환":7218,"궁":7219,"빵":7220,"사회":7221,"예예":7222,"올라":7223,"사건":7224,"흐":7225,"모두":7226,"메뉴":7227,"하루":7228,"어느":7229,"##ㅠㅠㅠㅠ":7230,"쉽":7231,"소리":7232,"떨":7233,"##창":7234,"##북":7235,"깨":7236,"##튼":7237,"으니":7238,"##순":7239,"돼":7240,"축":7241,"딸":7242,"옷":7243,"##투":7244,"##er":7245,"##써":7246,"기억":7247,"없이":7248,"요일":7249,"혹":7250,"상당":7251,"플":7252,"술":7253,"ㄴ다면":7254,"직접":7255,"라면":7256,"어제":7257,"##지막":7258,"웃":7259,"##녁":7260,"이름":7261,"##증":7262,"언제":7263,"씩":7264,"게임":7265,"카페":7266,"자체":7267,"실제":7268,"아도":7269,"10":7270,"효":7271,"배우":7272,"##싸":7273,"거리":7274,"방법":7275,"특히":7276,"위원":7277,"중국":7278,"마지막":7279,"철":7280,"셔":7281,"##끼":7282,"##an":7283,"저녁":7284,"##쟁":7285,"물론":7286,"께서":7287,"##봐":7288,"이랑":7289,"당신":7290,"##혜":7291,"본인":7292,"갑":7293,"##규":7294,"##퍼":7295,"소년":7296,"##섯":7297,"관계":7298,"제일":7299,"온":7300,"##ᆯ러":7301,"뿐":7302,"##혀":7303,"계시":7304,"##렇":7305,"##불":7306,"##승":7307,"##다리":7308,"냐면":7309,"부르":7310,"##같":7311,"대로":7312,"##아지":7313,"황":7314,"관리":7315,"##착":7316,"아들":7317,"ㅠㅠ":7318,"육아":7319,"##in":7320,"여러분":7321,"##활":7322,"교육":7323,"히":7324,"느냐":7325,"지역":7326,"접":7327,"들어오":7328,"선수":7329,"마시":7330,"워":7331,"빼":7332,"주문":7333,"상태":7334,"##못":7335,"##극":7336,"마다":7337,"##례":7338,"끼":7339,"범":7340,"뉴":7341,"창":7342,"##슈":7343,"##채":7344,"구나":7345,"##ㅋㅋㅋ":7346,"다라고":7347,"밤":7348,"밖에":7349,"늘":7350,"붙":7351,"원래":7352,"##나라":7353,"찾아":7354,"##겁":7355,"확인":7356,"품":7357,"##핑":7358,"전화":7359,"##덕":7360,"##맛집":7361,"##끄":7362,"예쁘":7363,"개인":7364,"##ᅦ이크":7365,"소녀":7366,"얼굴":7367,"가격":7368,"##ᆨ정":7369,"##병":7370,"바라":7371,"핵":7372,"폰":7373,"하지만":7374,"커피":7375,"끝나":7376,"력":7377,"급":7378,"##함":7379,"억":7380,"기다리":7381,"세계":7382,"걱정":7383,"##쿠":7384,"현재":7385,"##립":7386,"##걸":7387,"##징":7388,"##ᆷ하":7389,"##ame":7390,"다양":7391,"당시":7392,"뛰":7393,"행복":7394,"##존":7395,"ㄹ게":7396,"녹":7397,"##응":7398,"싫":7399,"##이트":7400,"조사":7401,"먹스타그램":7402,"바다":7403,"제주":7404,"기대":7405,"##뜨":7406,"잔":7407,"##귀":7408,"혼자":7409,"얼마나":7410,"##항":7411,"협":7412,"##패":7413,"아버":7414,"꺼":7415,"##ᆨ스":7416,"상당히":7417,"##돌":7418,"이해":7419,"페":7420,"빨리":7421,"걷":7422,"##탁":7423,"##일리":7424,"기분":7425,"##셔":7426,"##친":7427,"name":7428,"최고":7429,"찌":7430,"결혼":7431,"대학":7432,"아기":7433,"떨어지":7434,"골":7435,"샤":7436,"선물":7437,"진행":7438,"셀":7439,"##꺼":7440,"만큼":7441,"란":7442,"회사":7443,"##겨":7444,"고민":7445,"세상":7446,"##곳":7447,"##킨":7448,"망":7449,"후보":7450,"밀":7451,"소통":7452,"경제":7453,"쿠":7454,"래":7455,"요리":7456,"홈":7457,"이후":7458,"난":7459,"방송":7460,"언니":7461,"고마":7462,"크림":7463,"믿":7464,"경찰":7465,"##밀":7466,"설명":7467,"었었":7468,"##템":7469,"##ᆸ니다":7470,"##렌":7471,"ㅋㅋㅋㅋ":7472,"잇":7473,"이용":7474,"웨":7475,"선택":7476,"승":7477,"쇼":7478,"새롭":7479,"##갈":7480,"나라":7481,"밝":7482,"##자기":7483,"젊":7484,"극":7485,"국회":7486,"과정":7487,"기본":7488,"층":7489,"탄":7490,"시장":7491,"ㄹ지":7492,"활동":7493,"답니다":7494,"농":7495,"교수":7496,"결과":7497,"저기":7498,"##라이":7499,"팀":7500,"깔":7501,"나이":7502,"궁금":7503,"##철":7504,"맥":7505,"##길":7506,"측":7507,"달리":7508,"##삼":7509,"생활":7510,"##or":7511,"##다가":7512,"##줄":7513,"##심히":7514,"남편":7515,"민주":7516,"국가":7517,"##봉":7518,"귀여":7519,"잘못":7520,"##어가":7521,"일어나":7522,"닭":7523,"내일":7524,"항상":7525,"##il":7526,"##ㅎㅎ":7527,"죄":7528,"아프":7529,"##샤":7530,"아빠":7531,"맨":7532,"##벽":7533,"우리나라":7534,"##딩":7535,"정보":7536,"##라는":7537,"만약":7538,"##gr":7539,"##죠":7540,"똑":7541,"빠지":7542,"##답":7543,"자유":7544,"함":7545,"꽃":7546,"클":7547,"##벌":7548,"서로":7549,"짓":7550,"의미":7551,"제대로":7552,"##취":7553,"슬":7554,"보통":7555,"##센트":7556,"왕":7557,"##ᅢᆼ기":7558,"일반":7559,"##광":7560,"악":7561,"고맙":7562,"갑자기":7563,"##열":7564,"열심히":7565,"##at":7566,"냉":7567,"전문":7568,"##ᆫ스":7569,"걸리":7570,"어야지":7571,"분위":7572,"떡":7573,"공부":7574,"##on":7575,"풍":7576,"솔":7577,"##탄":7578,"여름":7579,"##얼":7580,"##갑":7581,"경기":7582,"셔츠":7583,"분위기":7584,"in":7585,"볶":7586,"암":7587,"그만":7588,"바꾸":7589,"칼":7590,"##꼬":7591,"혹시":7592,"도시":7593,"기자":7594,"나누":7595,"화장":7596,"##찌":7597,"##ᆼ이":7598,"##ᅧ보":7599,"착":7600,"##확":7601,"삼십":7602,"당연":7603,"퍼센트":7604,"사고":7605,"꾸":7606,"든지":7607,"지원":7608,"수사":7609,"아버지":7610,"즐기":7611,"내려":7612,"##뷰":7613,"##ᅦ이블":7614,"침":7615,"##온":7616,"오히":7617,"##칠":7618,"관심":7619,"##랗":7620,"오히려":7621,"데일리":7622,"나중":7623,"궁금하":7624,"루":7625,"ㄹ게요":7626,"최근":7627,"##필":7628,"낮":7629,"결정":7630,"탈":7631,"비스":7632,"음악":7633,"올라가":7634,"소개":7635,"실제로":7636,"##gram":7637,"재미있":7638,"##탕":7639,"뽀":7640,"표현":7641,"그녀":7642,"부모":7643,"food":7644,"어쩌":7645,"효과":7646,"나무":7647,"##et":7648,"##씬":7649,"##획":7650,"어째":7651,"지요":7652,"전혀":7653,"선거":7654,"감독":7655,"주말":7656,"유명":7657,"맘":7658,"##라지":7659,"점심":7660,"가까":7661,"바ᄁ":7662,"곡":7663,"자꾸":7664,"##숙":7665,"볼":7666,"도움":7667,"삶":7668,"라서":7669,"송":7670,"윤":7671,"봉":7672,"자연":7673,"욕":7674,"내리":7675,"201":7676,"덕":7677,"주장":7678,"알아":7679,"##ㅜㅜ":7680,"라도":7681,"어머니":7682,"##레스":7683,"변호":7684,"##부터":7685,"##el":7686,"오빠":7687,"인간":7688,"##욱":7689,"##맘":7690,"충분":7691,"##린":7692,"김치":7693,"##ᆻ든":7694,"영상":7695,"질문":7696,"익":7697,"##랴":7698,"사장":7699,"연구":7700,"했":7701,"별로":7702,"인터":7703,"전체":7704,"정신":7705,"아쉬":7706,"옛":7707,"검찰":7708,"##곡":7709,"주인":7710,"##가지":7711,"어쨌든":7712,"##범":7713,"##ᅦ이스":7714,"비슷하":7715,"무리":7716,"편하":7717,"흔":7718,"##앙":7719,"##죄":7720,"봐":7721,"##축":7722,"이루":7723,"보고":7724,"뷰":7725,"피해":7726,"식사":7727,"뿌":7728,"작품":7729,"##익":7730,"그림":7731,"##재인":7732,"기업":7733,"개월":7734,"시대":7735,"특별":7736,"분명":7737,"일부":7738,"인사":7739,"확실":7740,"방문":7741,"##없이":7742,"문재인":7743,"원하":7744,"오십":7745,"얻":7746,"퇴":7747,"##섭":7748,"더라도":7749,"튀":7750,"데이":7751,"##stagram":7752,"쯤":7753,"미치":7754,"##탈":7755,"위치":7756,"훨":7757,"##어보":7758,"##롱":7759,"##ᆨ터":7760,"묻":7761,"숙":7762,"병원":7763,"##던":7764,"##웃":7765,"해결":7766,"예전":7767,"보도":7768,"멋":7769,"귀엽":7770,"매일":7771,"##놓":7772,"바람":7773,"맛스타그램":7774,"##비스":7775,"건물":7776,"소스":7777,"그대로":7778,"문화":7779,"책임":7780,"몰":7781,"오랜":7782,"알리":7783,"부산":7784,"##잡":7785,"정리":7786,"##쓰":7787,"30":7788,"##줘":7789,"이천":7790,"지지":7791,"추가":7792,"늦":7793,"숨":7794,"인생":7795,"살짝":7796,"쏘":7797,"치즈":7798,"##냐하":7799,"뉴스":7800,"##따":7801,"다라는":7802,"##잖":7803,"똑같":7804,"평가":7805,"잠ᄁ":7806,"다리":7807,"반대":7808,"##평":7809,"##⠀⠀":7810,"##크림":7811,"##ail":7812,"자주":7813,"움":7814,"##풍":7815,"##시아":7816,"으면서":7817,"훨씬":7818,"정책":7819,"정상":7820,"잠깐":7821,"기록":7822,"##허":7823,"동생":7824,"바르":7825,"##슴":7826,"밑":7827,"맞추":7828,"차이":7829,"##알":7830,"##리스":7831,"왜냐하":7832,"##략":7833,"당하":7834,"흑":7835,"슈":7836,"##슬":7837,"팬":7838,"##골":7839,"##디어":7840,"유지":7841,"##닝":7842,"엔":7843,"인정":7844,"insta":7845,"##틀":7846,"왜냐하면":7847,"챙기":7848,"니다":7849,"순간":7850,"굽":7851,"마리":7852,"안전":7853,"꽤":7854,"전하":7855,"##ar":7856,"박근":7857,"##거리":7858,"역할":7859,"##턴":7860,"그러나":7861,"##라도":7862,"대한":7863,"##al":7864,"바뀌":7865,"꿈":7866,"가져":7867,"노력":7868,"맞팔":7869,"##찍":7870,"참여":7871,"쫌":7872,"##염":7873,"박근혜":7874,"롭":7875,"다녀":7876,"근처":7877,"옛날":7878,"##왕":7879,"##클":7880,"역사":7881,"애요":7882,"따로":7883,"김정":7884,"##빵":7885,"12":7886,"##벤트":7887,"능":7888,"아래":7889,"됐":7890,"공개":7891,"먹방":7892,"석":7893,"및":7894,"지방":7895,"##욕":7896,"##텔":7897,"구매":7898,"부드":7899,"##킹":7900,"##ᆼ크":7901,"공간":7902,"든가":7903,"##래도":7904,"주변":7905,"과거":7906,"끌":7907,"##드리":7908,"놀라":7909,"가득":7910,"##메라":7911,"##aily":7912,"는가":7913,"##고기":7914,"##몬":7915,"탕":7916,"##ic":7917,"중간":7918,"##충":7919,"주의":7920,"##스크":7921,"돌아가":7922,"##했":7923,"센":7924,"스ᄐ":7925,"스트":7926,"##쳐":7927,"는거":7928,"염":7929,"운전":7930,"겨울":7931,"아하":7932,"##디오":7933,"과연":7934,"나쁘":7935,"현실":7936,"##김":7937,"네네":7938,"##캐":7939,"부드럽":7940,"요거":7941,"제공":7942,"시원":7943,"작가":7944,"강하":7945,"상대":7946,"견":7947,"정확":7948,"갈비":7949,"마치":7950,"##잔":7951,"폐":7952,"이벤트":7953,"날씨":7954,"프로그램":7955,"##들이":7956,"어라":7957,"떠나":7958,"냄":7959,"자전":7960,"##랙":7961,"서비스":7962,"##객":7963,"연결":7964,"발견":7965,"11":7966,"기준":7967,"##에스":7968,"자세":7969,"던데":7970,"##랜드":7971,"계획":7972,"촉":7973,"##봤":7974,"벌써":7975,"##촉":7976,"##om":7977,"에스":7978,"청와":7979,"매우":7980,"성공":7981,"장면":7982,"또는":7983,"그르":7984,"하고":7985,"깊":7986,"절대":7987,"바지":7988,"청와대":7989,"기사":7990,"액":7991,"뚜":7992,"지난":7993,"의하":7994,"드라":7995,"공연":7996,"노동":7997,"아무래도":7998,"뜻":7999,"##긴":8000,"오르":8001,"##갛":8002,"모자":8003,"##ᆼ하":8004,"##혹":8005,"##볼":8006,"영향":8007,"언론":8008,"솔직":8009,"멀":8010,"100":8011,"깔끔":8012,"국수":8013,"당연히":8014,"캐리":8015,"어머":8016,"압":8017,"나타":8018,"##ᆯ로":8019,"봄":8020,"##균":8021,"##려지":8022,"덜":8023,"스타일":8024,"자전거":8025,"장관":8026,"발표":8027,"돼지":8028,"에이":8029,"카드":8030,"돌아오":8031,"빨갛":8032,"빠르":8033,"움직":8034,"맡":8035,"긴":8036,"영어":8037,"##스터":8038,"##아가":8039,"##삭":8040,"##켓":8041,"##액":8042,"##다니":8043,"저렇":8044,"기간":8045,"지키":8046,"과학":8047,"##엔":8048,"땅":8049,"으며":8050,"##맞":8051,"케":8052,"##ᆯ러드":8053,"경험":8054,"직원":8055,"혈":8056,"류":8057,"식당":8058,"##운데":8059,"티비":8060,"맥주":8061,"##곤":8062,"회장":8063,"판단":8064,"테이블":8065,"대화":8066,"포함":8067,"##케이":8068,"##널":8069,"기술":8070,"사업":8071,"##웨":8072,"등장":8073,"간단":8074,"우선":8075,"다섯":8076,"미리":8077,"ㅋㅋㅋㅋㅋㅋ":8078,"올해":8079,"기능":8080,"흥":8081,"강아지":8082,"##es":8083,"꿀":8084,"##칙":8085,"마이":8086,"좌":8087,"방식":8088,"##손":8089,"베이":8090,"대신":8091,"물어보":8092,"아쉽":8093,"라이":8094,"##훈":8095,"신경":8096,"##검":8097,"따라":8098,"다녀오":8099,"##촌":8100,"기회":8101,"어린":8102,"존재":8103,"##ol":8104,"택":8105,"수영":8106,"듯이":8107,"선팔":8108,"부족":8109,"부탁":8110,"##민국":8111,"##틱":8112,"##짓":8113,"던지":8114,"##톡":8115,"사십":8116,"의사":8117,"고양":8118,"컨":8119,"오랜만":8120,"콩":8121,"가슴":8122,"열리":8123,"양념":8124,"대한민국":8125,"##en":8126,"콘":8127,"푸드":8128,"충분히":8129,"행사":8130,"만하":8131,"냐고":8132,"클리":8133,"이라도":8134,"대단":8135,"구성":8136,"환경":8137,"가게":8138,"국내":8139,"##ow":8140,"혀":8141,"내부":8142,"##리아":8143,"탐":8144,"이쁘":8145,"행동":8146,"뛰어":8147,"##헤":8148,"기름":8149,"발생":8150,"잖":8151,"##율":8152,"끊":8153,"부담":8154,"자동":8155,"##스로":8156,"가깝":8157,"##옥":8158,"컴":8159,"##흐":8160,"##듯":8161,"밝히":8162,"##잇":8163,"뷰티":8164,"버스":8165,"간식":8166,"연기":8167,"뽑":8168,"재판":8169,"굳":8170,"치킨":8171,"벽":8172,"##뜻하":8173,"공원":8174,"##무리":8175,"##는데":8176,"##큐":8177,"##콘":8178,"짱":8179,"된":8180,"끓":8181,"으려":8182,"##낙":8183,"##척":8184,"##겹":8185,"이분":8186,"위험":8187,"아내":8188,"소식":8189,"##싱":8190,"훈":8191,"디자":8192,"변화":8193,"##참":8194,"##깐":8195,"##휴":8196,"다행":8197,"주차":8198,"로서":8199,"요구":8200,"보호":8201,"카메라":8202,"남성":8203,"회담":8204,"daily":8205,"넘어가":8206,"종류":8207,"작업":8208,"비교":8209,"대체":8210,"##ㅋㅋㅋㅋㅋㅋㅋㅋㅋㅋㅋㅋㅋㅋㅋㅋ":8211,"연주":8212,"뿌리":8213,"19":8214,"##ᅪᆯ":8215,"##혁":8216,"운영":8217,"또한":8218,"벗":8219,"헌":8220,"연락":8221,"시민":8222,"15":8223,"낙":8224,"구조":8225,"요렇":8226,"수준":8227,"##ᅥᆨ하":8228,"검사":8229,"##인트":8230,"반찬":8231,"ㅎㅎㅎ":8232,"##ᅢᆼ이":8233,"엄청나":8234,"##맨":8235,"식단":8236,"국정":8237,"범죄":8238,"취하":8239,"모양":8240,"스스로":8241,"비싸":8242,"##마자":8243,"목소":8244,"전부":8245,"넓":8246,"현장":8247,"##it":8248,"불구":8249,"도착":8250,"캐릭터":8251,"고는":8252,"정당":8253,"##ᆯ링":8254,"모이":8255,"나타나":8256,"##ou":8257,"##델":8258,"야당":8259,"인기":8260,"돌리":8261,"새우":8262,"어찌":8263,"단계":8264,"짧":8265,"곧":8266,"직장":8267,"의견":8268,"기관":8269,"시험":8270,"천십":8271,"냄새":8272,"지나가":8273,"아라":8274,"##달하":8275,"##픽":8276,"##울리":8277,"엉":8278,"키우":8279,"만족":8280,"즐겁":8281,"문자":8282,"완전히":8283,"틀":8284,"휘":8285,"능력":8286,"집중":8287,"큰":8288,"남기":8289,"사과":8290,"##넷":8291,"##팩":8292,"아름":8293,"단체":8294,"##쵸":8295,"축구":8296,"이루어지":8297,"##토리":8298,"##ᅦ이지":8299,"##러지":8300,"상담":8301,"뒷":8302,"신청":8303,"분석":8304,"##너지":8305,"장난":8306,"이기":8307,"##ot":8308,"##측":8309,"곤":8310,"##로우":8311,"전쟁":8312,"은데요":8313,"무섭":8314,"쇼핑":8315,"부부":8316,"인하":8317,"더욱":8318,"초코":8319,"지ᄏ":8320,"미안":8321,"즉":8322,"올라오":8323,"붙이":8324,"샐러드":8325,"##엄":8326,"##오르":8327,"##픈":8328,"워낙":8329,"신기":8330,"##시오":8331,"##og":8332,"움직이":8333,"낫":8334,"찬":8335,"공격":8336,"햇":8337,"##냥":8338,"##전히":8339,"흡":8340,"법원":8341,"##ing":8342,"잊":8343,"성분":8344,"에다가":8345,"피자":8346,"감정":8347,"대박":8348,"판매":8349,"바닥":8350,"려면":8351,"활용":8352,"##떡":8353,"동물":8354,"빛":8355,"후기":8356,"##완":8357,"가정":8358,"작년":8359,"아파":8360,"##깨":8361,"고르":8362,"자마자":8363,"알려지":8364,"민주당":8365,"국물":8366,"핫":8367,"지하":8368,"료":8369,"심하":8370,"섬":8371,"졸":8372,"고등":8373,"하야":8374,"따뜻하":8375,"대구":8376,"아야지":8377,"저런":8378,"##le":8379,"외국":8380,"객":8381,"싸우":8382,"##저트":8383,"율":8384,"장소":8385,"드러":8386,"##다보":8387,"마무리":8388,"대상":8389,"지도":8390,"##룩":8391,"모으":8392,"육십":8393,"촬":8394,"향하":8395,"쭉":8396,"알아보":8397,"솔직히":8398,"##죽":8399,"##돼":8400,"방향":8401,"등급":8402,"가ᄇ":8403,"투자":8404,"모시":8405,"##효":8406,"오후":8407,"가끔":8408,"##깔":8409,"매력":8410,"점점":8411,"##카페":8412,"잃":8413,"중심":8414,"깜":8415,"시스":8416,"바쁘":8417,"디자인":8418,"가운데":8419,"촬영":8420,"영양":8421,"##홍":8422,"개발":8423,"일정":8424,"##ke":8425,"어울리":8426,"손님":8427,"하늘":8428,"드라마":8429,"혁":8430,"##라스":8431,"##께":8432,"살ᄑ":8433,"보수":8434,"논란":8435,"자고":8436,"##ᅪᆨ":8437,"곱":8438,"##볶":8439,"고소":8440,"포장":8441,"##퓨":8442,"비하":8443,"나름":8444,"이사":8445,"잖아":8446,"검색":8447,"시절":8448,"잠시":8449,"동네":8450,"써":8451,"그쵸":8452,"##먼":8453,"놀이":8454,"ㅠㅠㅠ":8455,"확실히":8456,"조선":8457,"가치":8458,"##수록":8459,"먼지":8460,"엠":8461,"흰":8462,"##food":8463,"##률":8464,"000":8465,"헬":8466,"지켜보":8467,"재료":8468,"##ᆫ지":8469,"도로":8470,"징":8471,"칠십":8472,"비비":8473,"인물":8474,"주제":8475,"마을":8476,"재밌":8477,"제도":8478,"##마트":8479,"고도":8480,"세트":8481,"미래":8482,"삼성":8483,"촉촉":8484,"그분":8485,"##빈":8486,"xx":8487,"아무리":8488,"분명히":8489,"을지":8490,"사무":8491,"자면":8492,"예술":8493,"##ᆺ글":8494,"수업":8495,"죄송":8496,"받아":8497,"ㅋㅋㅋㅋㅋㅋㅋ":8498,"제주도":8499,"##리어":8500,"저것":8501,"합의":8502,"##폰":8503,"##리카":8504,"나서":8505,"케이":8506,"디저트":8507,"시스템":8508,"##놔":8509,"예상":8510,"아이스":8511,"비용":8512,"청소":8513,"한번":8514,"최대":8515,"할머니":8516,"가볍":8517,"아예":8518,"센터":8519,"첨":8520,"호텔":8521,"짐":8522,"마찬":8523,"너무나":8524,"정권":8525,"고추":8526,"덥":8527,"살펴보":8528,"걔":8529,"세대":8530,"헐":8531,"##콤":8532,"과일":8533,"성장":8534,"으러":8535,"해당":8536,"##링":8537,"고양이":8538,"볶음":8539,"화면":8540,"비판":8541,"발언":8542,"처리":8543,"이르":8544,"##엘":8545,"대회":8546,"쌀":8547,"##지어":8548,"격":8549,"구십":8550,"블랙":8551,"##텐":8552,"웃기":8553,"강남":8554,"저거":8555,"##돈":8556,"적당":8557,"음료":8558,"뮤":8559,"##벅":8560,"전형":8561,"평화":8562,"지구":8563,"전략":8564,"코스":8565,"불편":8566,"마찬가지":8567,"고하":8568,"##뢰":8569,"뭔":8570,"##스팅":8571,"경쟁":8572,"십시오":8573,"측면":8574,"맨날":8575,"다만":8576,"굿":8577,"인터넷":8578,"시청":8579,"게요":8580,"##좋":8581,"자르":8582,"##만하":8583,"진정":8584,"팔십":8585,"무조":8586,"수분":8587,"설치":8588,"구입":8589,"가방":8590,"계란":8591,"트럼":8592,"##밍":8593,"##젤":8594,"가을":8595,"##ᆨ트":8596,"여전히":8597,"혜":8598,"균":8599,"캠":8600,"##콩":8601,"이동":8602,"성적":8603,"싱":8604,"배경":8605,"주민":8606,"아파트":8607,"예정":8608,"약속":8609,"춤":8610,"참고":8611,"심지어":8612,"ㅜㅜ":8613,"소설":8614,"완성":8615,"들리":8616,"##칭":8617,"놈":8618,"##컨":8619,"##퇴":8620,"##우스":8621,"##re":8622,"사라지":8623,"춥":8624,"데리":8625,"팩":8626,"혐":8627,"##컬":8628,"학년":8629,"##쥬":8630,"피하":8631,"런":8632,"섞":8633,"정하":8634,"생일":8635,"파랗":8636,"##ie":8637,"았었":8638,"터지":8639,"이전":8640,"요새":8641,"##룹":8642,"멋지":8643,"회의":8644,"반응":8645,"##닭":8646,"제작":8647,"##어하":8648,"무조건":8649,"듯하":8650,"플레이":8651,"생각나":8652,"눈물":8653,"예약":8654,"으로서":8655,"고생":8656,"옥":8657,"##벨":8658,"이곳":8659,"크리스":8660,"##니당":8661,"##아이":8662,"##맥":8663,"평소":8664,"구하":8665,"쌓":8666,"##ㅋㅋㅋㅋㅋ":8667,"포기":8668,"조심":8669,"국제":8670,"기존":8671,"세우":8672,"덕분":8673,"덮":8674,"에어":8675,"포인트":8676,"뇌":8677,"묵":8678,"체험":8679,"어른":8680,"셋":8681,"드디어":8682,"새벽":8683,"빈":8684,"ㅠㅠㅠㅠㅠ":8685,"벌어지":8686,"긍":8687,"조절":8688,"시기":8689,"인상":8690,"##이드":8691,"새로":8692,"트럼프":8693,"##곱":8694,"##쎄":8695,"##ch":8696,"무대":8697,"주일":8698,"출근":8699,"바라보":8700,"광고":8701,"저려":8702,"##또":8703,"스포":8704,"무료":8705,"댓글":8706,"굴":8707,"해외":8708,"할인":8709,"프리":8710,"지내":8711,"상관":8712,"##둥":8713,"라구":8714,"로부터":8715,"깨끄":8716,"허리":8717,"di":8718,"째":8719,"##웅":8720,"높이":8721,"모델":8722,"자료":8723,"18":8724,"물건":8725,"##콤하":8726,"퇴근":8727,"부인":8728,"조직":8729,"짜리":8730,"##딱":8731,"##추천":8732,"오른":8733,"내려가":8734,"남북":8735,"멍":8736,"도와":8737,"##러스":8738,"##라인":8739,"다며":8740,"공기":8741,"수학":8742,"길래":8743,"구경":8744,"어우":8745,"기념":8746,"여론":8747,"이어지":8748,"##바이":8749,"##압":8750,"줄이":8751,"죄송하":8752,"일찍":8753,"발전":8754,"전시":8755,"##몰":8756,"자식":8757,"보험":8758,"눕":8759,"감자":8760,"교통":8761,"##튜":8762,"휴대":8763,"가루":8764,"혹은":8765,"현대":8766,"공감":8767,"주로":8768,"##니스":8769,"##특":8770,"찜":8771,"상상":8772,"맛나":8773,"굳이":8774,"지적":8775,"의식":8776,"이러하":8777,"유리":8778,"치료":8779,"제거":8780,"걍":8781,"오픈":8782,"##빙":8783,"##틴":8784,"##아아":8785,"비행":8786,"차량":8787,"##엠":8788,"##헌":8789,"존맛":8790,"끼리":8791,"당장":8792,"중앙":8793,"묘":8794,"다루":8795,"불안":8796,"왼":8797,"썰":8798,"##low":8799,"하얗":8800,"떼":8801,"신고":8802,"제목":8803,"꺼내":8804,"##ᆯ레":8805,"죽이":8806,"증거":8807,"##많":8808,"단순":8809,"가르":8810,"변하":8811,"계약":8812,"##즌":8813,"##닥":8814,"우유":8815,"##켜":8816,"반갑":8817,"커플":8818,"동시":8819,"누르":8820,"미세":8821,"관하":8822,"##협":8823,"으시었":8824,"마늘":8825,"##놀":8826,"다이어터":8827,"핵심":8828,"##몽":8829,"개봉":8830,"끓이":8831,"더군":8832,"그만큼":8833,"족":8834,"##메이":8835,"##려가":8836,"개선":8837,"끝내":8838,"스트레스":8839,"##럭":8840,"##베이":8841,"컬":8842,"파티":8843,"이미지":8844,"예요":8845,"##윤":8846,"앞서":8847,"채우":8848,"촉촉하":8849,"##폐":8850,"처벌":8851,"충격":8852,"려는":8853,"출연":8854,"완벽":8855,"블루":8856,"##풀":8857,"크기":8858,"살아":8859,"##은이":8860,"##ᅯᆻ":8861,"공유":8862,"목표":8863,"없어지":8864,"희망":8865,"핸드":8866,"관광":8867,"신문":8868,"##앤":8869,"##떼":8870,"##철수":8871,"##해서":8872,"상품":8873,"의혹":8874,"##뇨":8875,"##누리":8876,"##이랑":8877,"##ᆷ버":8878,"이케":8879,"안타":8880,"##끈":8881,"팔로우":8882,"흔들":8883,"##빛":8884,"매장":8885,"타이":8886,"##너무":8887,"##듬":8888,"가리":8889,"대전":8890,"모임":8891,"이슈":8892,"고급":8893,"설정":8894,"섭":8895,"##짱":8896,"초등":8897,"다구":8898,"해변":8899,"흰색":8900,"여섯":8901,"##띠":8902,"씹":8903,"금방":8904,"야채":8905,"환자":8906,"기타":8907,"내년":8908,"##구나":8909,"개혁":8910,"달라지":8911,"프랑":8912,"총리":8913,"훌":8914,"마디":8915,"##대체":8916,"불리":8917,"아가":8918,"라인":8919,"거짓":8920,"##머지":8921,"글쎄":8922,"속도":8923,"마련":8924,"간장":8925,"업체":8926,"살리":8927,"##춘":8928,"의심":8929,"목적":8930,"데이트":8931,"받아들이":8932,"##궁":8933,"어떡하":8934,"##푸드":8935,"인터뷰":8936,"도대체":8937,"자극":8938,"예ᄈ":8939,"##킷":8940,"찾아보":8941,"트위":8942,"##보이":8943,"방금":8944,"옮":8945,"씻":8946,"도전":8947,"안철수":8948,"제기":8949,"##왔":8950,"갈색":8951,"겪":8952,"li":8953,"찾아가":8954,"아무튼":8955,"그릇":8956,"을때":8957,"##겟":8958,"나머지":8959,"ㅋㅋㅋㅋㅋㅋㅋㅋ":8960,"다이":8961,"##러가":8962,"바이":8963,"산책":8964,"천구":8965,"##un":8966,"니깐":8967,"벤":8968,"불가":8969,"무기":8970,"홀":8971,"브라":8972,"휴가":8973,"도와주":8974,"##마스":8975,"공식":8976,"대선":8977,"아유":8978,"취향":8979,"주택":8980,"##드시":8981,"실패":8982,"야구":8983,"형태":8984,"실험":8985,"빌":8986,"년대":8987,"대단하":8988,"버섯":8989,"00":8990,"심각":8991,"하이":8992,"수석":8993,"우주":8994,"추억":8995,"시리":8996,"축하":8997,"##솔":8998,"홍대":8999,"컴퓨":9000,"안보":9001,"##암":9002,"타임":9003,"광주":9004,"연습":9005,"건조":9006,"조용":9007,"##ᆷ푸":9008,"그룹":9009,"##시지":9010,"만두":9011,"##버리":9012,"##랄":9013,"##ᆷ마":9014,"쓸":9015,"사이즈":9016,"맵":9017,"##파이":9018,"필수":9019,"영국":9020,"녀":9021,"가수":9022,"사례":9023,"전국":9024,"##ra":9025,"셀카":9026,"파란":9027,"##휘":9028,"삼겹":9029,"오전":9030,"출신":9031,"보드":9032,"산업":9033,"##ea":9034,"전자":9035,"깨끗하":9036,"고려":9037,"##샷":9038,"이때":9039,"만화":9040,"구체":9041,"어차":9042,"##000":9043,"딸기":9044,"ㄹ수록":9045,"강화":9046,"양파":9047,"페이지":9048,"##흠":9049,"인식":9050,"백만":9051,"오리":9052,"##타민":9053,"새누리":9054,"털":9055,"주부":9056,"가져오":9057,"는요":9058,"통일":9059,"어차피":9060,"라니":9061,"차원":9062,"스페":9063,"오른쪽":9064,"컴퓨터":9065,"훈련":9066,"diet":9067,"##첨":9068,"수능":9069,"그나":9070,"포스팅":9071,"오일":9072,"반드시":9073,"감동":9074,"고서":9075,"적용":9076,"배달":9077,"##층":9078,"어두":9079,"교과":9080,"웅":9081,"##테리어":9082,"투표":9083,"어야죠":9084,"쳐":9085,"강력":9086,"##구마":9087,"신혼":9088,"행위":9089,"전기":9090,"랄":9091,"조합":9092,"그날":9093,"##탱":9094,"외교":9095,"유아":9096,"해석":9097,"화이트":9098,"데요":9099,"##꽃":9100,"집밥":9101,"##흥":9102,"공동":9103,"싫어하":9104,"두부":9105,"##괴":9106,"소금":9107,"피곤":9108,"##멘":9109,"동의":9110,"는걸":9111,"따지":9112,"쫄":9113,"부정":9114,"권력":9115,"스마트":9116,"##ff":9117,"으나":9118,"예산":9119,"소고기":9120,"칭":9121,"뻔":9122,"매운":9123,"##ed":9124,"##퀴":9125,"정의":9126,"야외":9127,"하여":9128,"아우":9129,"여유":9130,"공항":9131,"##소통":9132,"##⠀⠀⠀⠀":9133,"들이":9134,"단어":9135,"##든지":9136,"프랑스":9137,"표정":9138,"쥐":9139,"##운드":9140,"다하":9141,"라디오":9142,"소비":9143,"젤":9144,"조각":9145,"척":9146,"비밀":9147,"레이":9148,"지사":9149,"탁":9150,"##이팅":9151,"##ollow":9152,"안정":9153,"##as":9154,"##끌":9155,"스타그램":9156,"작성":9157,"유럽":9158,"배고":9159,"늘어나":9160,"##ᆨ시":9161,"조치":9162,"##묵":9163,"##몇":9164,"##로그":9165,"반려":9166,"진심":9167,"##넘":9168,"##쇼":9169,"띄":9170,"와이":9171,"언급":9172,"##ᅢᆷ":9173,"제발":9174,"청년":9175,"푸드스타그램":9176,"신랑":9177,"녹색":9178,"##뚜":9179,"##흑":9180,"겉":9181,"자랑":9182,"낳":9183,"원내":9184,"논의":9185,"연합":9186,"튀김":9187,"50":9188,"구속":9189,"##받":9190,"안타까":9191,"뜨겁":9192,"쪼끔":9193,"왼쪽":9194,"가져가":9195,"세력":9196,"달러":9197,"##지르":9198,"##밤":9199,"대사":9200,"##끄럽":9201,"##어들":9202,"박사":9203,"편의":9204,"현상":9205,"찰":9206,"옮기":9207,"화장실":9208,"음음":9209,"혐의":9210,"스티":9211,"##해요":9212,"식감":9213,"브랜드":9214,"인도":9215,"스키":9216,"수술":9217,"시도":9218,"태어나":9219,"이혼":9220,"출발":9221,"##에이":9222,"가만":9223,"사망":9224,"쫓":9225,"은행":9226,"th":9227,"겁":9228,"겟":9229,"##저씨":9230,"성격":9231,"독일":9232,"아시아":9233,"스토리":9234,"장애":9235,"비타민":9236,"##좌":9237,"인친":9238,"최소":9239,"사항":9240,"아이고":9241,"파스타":9242,"ㅎㅎㅎㅎ":9243,"접근":9244,"곰":9245,"##앗":9246,"단지":9247,"##톤":9248,"엘":9249,"노인":9250,"적극":9251,"퀴":9252,"에너지":9253,"##엉":9254,"##눈":9255,"교회":9256,"선배":9257,"16":9258,"조건":9259,"##렌지":9260,"원인":9261,"##올":9262,"##롤":9263,"나물":9264,"아나":9265,"종합":9266,"올림":9267,"파란색":9268,"13":9269,"##절하":9270,"dog":9271,"이든":9272,"미니":9273,"컵":9274,"가락":9275,"17":9276,"직업":9277,"띠":9278,"선언":9279,"둘러":9280,"안주":9281,"토론":9282,"인테리어":9283,"멀리":9284,"새누리당":9285,"결론":9286,"건너":9287,"규모":9288,"아저씨":9289,"##닉":9290,"납":9291,"면요":9292,"통과":9293,"폭력":9294,"##를":9295,"의도":9296,"세기":9297,"충전":9298,"펼":9299,"개념":9300,"##워하":9301,"응원":9302,"안타깝":9303,"##ec":9304,"랍니다":9305,"된장":9306,"##야하":9307,"소위":9308,"sel":9309,"##된":9310,"리뷰":9311,"몇몇":9312,"##렬":9313,"##말로":9314,"웬":9315,"천연":9316,"행정":9317,"##치즈":9318,"호박":9319,"##씩":9320,"비서":9321,"의자":9322,"군대":9323,"느라":9324,"앙":9325,"스테이크":9326,"입맛":9327,"확실하":9328,"영업":9329,"편안":9330,"누나":9331,"대중":9332,"특정":9333,"친절":9334,"색깔":9335,"24":9336,"원장":9337,"14":9338,"의지":9339,"안심":9340,"갓":9341,"25":9342,"폭행":9343,"앨":9344,"제한":9345,"차리":9346,"우려":9347,"노트":9348,"뻐":9349,"연예":9350,"입구":9351,"전통":9352,"몽":9353,"세월":9354,"##냠":9355,"놔":9356,"싸움":9357,"임금":9358,"시설":9359,"경주":9360,"탱":9361,"##시다":9362,"앱":9363,"갈등":9364,"대비":9365,"체제":9366,"케이크":9367,"저번":9368,"기계":9369,"답변":9370,"번호":9371,"##올리":9372,"##붙":9373,"거래":9374,"##트리":9375,"##싶":9376,"신선":9377,"##잉":9378,"고구마":9379,"##뽕":9380,"주요":9381,"instafood":9382,"##스토":9383,"그치":9384,"내놓":9385,"스포츠":9386,"##햇":9387,"ㅇㅇ":9388,"일곱":9389,"애기":9390,"##짐":9391,"비행기":9392,"##어먹":9393,"##폼":9394,"##ᆺ데":9395,"##렁":9396,"찾아오":9397,"박스":9398,"##잘":9399,"사연":9400,"탑":9401,"약하":9402,"##잠":9403,"도시락":9404,"심리":9405,"때리":9406,"차례":9407,"##털":9408,"수제":9409,"우와":9410,"요청":9411,"##븐":9412,"으로써":9413,"붓":9414,"잡히":9415,"분야":9416,"무려":9417,"판결":9418,"시즌":9419,"계산":9420,"축제":9421,"지속":9422,"follow":9423,"그쪽":9424,"시점":9425,"사전":9426,"으려고":9427,"보면":9428,"##마토":9429,"가까이":9430,"여당":9431,"미술":9432,"올림픽":9433,"생산":9434,"##카오":9435,"무르":9436,"며칠":9437,"멈":9438,"천만":9439,"감성":9440,"닦":9441,"뼈":9442,"돕":9443,"공사":9444,"아마도":9445,"패션":9446,"거부":9447,"률":9448,"오렌지":9449,"안경":9450,"##에도":9451,"올려":9452,"이래":9453,"고통":9454,"##거같":9455,"는다고":9456,"##않":9457,"제안":9458,"위기":9459,"마스크":9460,"조정":9461,"쓰이":9462,"으흠":9463,"##니아":9464,"게다가":9465,"네이":9466,"ㅁ에도":9467,"##묘":9468,"평생":9469,"##is":9470,"얼른":9471,"택시":9472,"물리":9473,"##ㅋㅋㅋㅋㅋㅋ":9474,"##ᆷ플":9475,"상처":9476,"생명":9477,"냠":9478,"젊은이":9479,"드러나":9480,"유니":9481,"프로제":9482,"업무":9483,"량":9484,"메시지":9485,"훌류":9486,"르":9487,"틀리":9488,"론":9489,"##숨":9490,"빌리":9491,"침대":9492,"##줬":9493,"##아리":9494,"연어":9495,"##빨":9496,"##중하":9497,"##ab":9498,"##ᆺ이":9499,"##으키":9500,"like":9501,"시켜":9502,"쌈":9503,"##ap":9504,"담기":9505,"싹":9506,"##ᆫ가":9507,"##어도":9508,"##어내":9509,"대응":9510,"전주":9511,"그러하":9512,"신발":9513,"빙":9514,"스위":9515,"반복":9516,"과자":9517,"긴장":9518,"서울시":9519,"크리스마스":9520,"요것":9521,"##려하":9522,"##맹":9523,"거치":9524,"등록":9525,"내내":9526,"식품":9527,"요런":9528,"##레기":9529,"에다":9530,"먹이":9531,"꾸준":9532,"##릇":9533,"관객":9534,"내려오":9535,"##놨":9536,"소득":9537,"진실":9538,"톤":9539,"##숙하":9540,"불법":9541,"이재":9542,"라든지":9543,"##ay":9544,"체크":9545,"##일기":9546,"##im":9547,"감기":9548,"강조":9549,"난리":9550,"너무너무":9551,"교사":9552,"저렴하":9553,"소송":9554,"최저":9555,"헌법":9556,"##ᆺ자":9557,"사기":9558,"통화":9559,"통합":9560,"조차":9561,"막히":9562,"시리즈":9563,"신뢰":9564,"건설":9565,"독립":9566,"얇":9567,"형님":9568,"젓":9569,"깜짝":9570,"귀찮":9571,"이하":9572,"나ᄂ":9573,"유치":9574,"떠오르":9575,"##라리":9576,"훌륭하":9577,"실수":9578,"##워드":9579,"계정":9580,"##ut":9581,"그중":9582,"공장":9583,"이태":9584,"고자":9585,"##맞팔":9586,"총장":9587,"##낭":9588,"닮":9589,"집안":9590,"더하":9591,"작용":9592,"착하":9593,"보관":9594,"조금씩":9595,"보장":9596,"연출":9597,"뵈":9598,"값":9599,"롯데":9600,"##터리":9601,"놓치":9602,"살인":9603,"자는":9604,"인천":9605,"이명":9606,"이쪽":9607,"##피스":9608,"##프트":9609,"##옷":9610,"무시":9611,"소재":9612,"습관":9613,"##놈":9614,"친하":9615,"뜯":9616,"담배":9617,"##ㅠㅠㅠㅠㅠㅠㅠㅠ":9618,"했었":9619,"쥬":9620,"##사지":9621,"##을때":9622,"200":9623,"tv":9624,"슈퍼":9625,"##뮤":9626,"흐르":9627,"대기":9628,"한국당":9629,"아아":9630,"##하나":9631,"채소":9632,"플래":9633,"평균":9634,"근무":9635,"##홉":9636,"##뜨리":9637,"프로젝트":9638,"복지":9639,"독서":9640,"연애":9641,"법률":9642,"st":9643,"##어서":9644,"커지":9645,"는다는":9646,"이리":9647,"대답":9648,"밴드":9649,"냉장":9650,"말리":9651,"본격":9652,"지마":9653,"진하":9654,"러시아":9655,"어어":9656,"특징":9657,"##영상":9658,"어머님":9659,"흥미":9660,"메인":9661,"베이비":9662,"##칼":9663,"어깨":9664,"슬프":9665,"으로부터":9666,"공무":9667,"실장":9668,"##베리":9669,"재산":9670,"도서":9671,"##쾌":9672,"곱창":9673,"##웠":9674,"대요":9675,"넘기":9676,"뒤집":9677,"켜":9678,"유일":9679,"##려오":9680,"컬러":9681,"먹스타":9682,"##총":9683,"주방":9684,"볶이":9685,"##덟":9686,"사태":9687,"소문":9688,"##르르":9689,"노랗":9690,"##ᅩᆷ":9691,"대책":9692,"괜히":9693,"어다":9694,"폼":9695,"요소":9696,"자라":9697,"빅":9698,"유튜":9699,"협상":9700,"청취":9701,"빨간":9702,"시각":9703,"##사일":9704,"땀":9705,"달달하":9706,"##샵":9707,"정답":9708,"센스":9709,"##컷":9710,"##ᆸ스":9711,"냉면":9712,"군사":9713,"토마토":9714,"일상스타그램":9715,"앨범":9716,"가입":9717,"흡수":9718,"육아스타그램":9719,"##블리":9720,"케이스":9721,"스케이":9722,"복잡":9723,"##랭":9724,"보습":9725,"수도":9726,"##해야":9727,"일종":9728,"울산":9729,"##ᆫ데":9730,"이서":9731,"는구나":9732,"##아버":9733,"끈":9734,"적어도":9735,"등등":9736,"##th":9737,"짚":9738,"최초":9739,"졸업":9740,"가르치":9741,"계단":9742,"##셨":9743,"초반":9744,"##핵":9745,"스타푸드":9746,"안내":9747,"두려":9748,"겸":9749,"엇":9750,"점수":9751,"부대":9752,"##쌀":9753,"장비":9754,"증가":9755,"이익":9756,"답답":9757,"안나":9758,"##동안":9759,"마이크":9760,"ㅂ시다":9761,"쭈":9762,"아홉":9763,"##룡":9764,"닫":9765,"마르":9766,"재킷":9767,"##ᆯ때":9768,"유산":9769,"핑크":9770,"실내":9771,"##밭":9772,"쏟":9773,"다가오":9774,"여덟":9775,"##주얼":9776,"자금":9777,"학원":9778,"낭":9779,"조국":9780,"##넛":9781,"홍보":9782,"멈추":9783,"##릉":9784,"법적":9785,"숨기":9786,"잖아요":9787,"긍정":9788,"##멍":9789,"21":9790,"강력하":9791,"어마":9792,"시발":9793,"한잔":9794,"가사":9795,"마라":9796,"혁신":9797,"부동":9798,"식물":9799,"벗어나":9800,"한참":9801,"무한":9802,"년도":9803,"콜":9804,"##늬":9805,"한데":9806,"죽음":9807,"록":9808,"걸어가":9809,"세금":9810,"분홍":9811,"##운서":9812,"가로":9813,"무릎":9814,"푸지":9815,"바삭":9816,"##주의":9817,"ㅋㅋㅋㅋㅋㅋㅋㅋㅋㅋ":9818,"왠지":9819,"렌":9820,"##어오":9821,"주목":9822,"냥":9823,"정말로":9824,"교체":9825,"듬":9826,"##um":9827,"수상":9828,"라며":9829,"멋있":9830,"콜라":9831,"##ᆷ뽕":9832,"골목":9833,"최종":9834,"소장":9835,"놀랍":9836,"장점":9837,"반영":9838,"짝":9839,"쌍":9840,"펴":9841,"였":9842,"숲":9843,"무게":9844,"##찌개":9845,"대충":9846,"미소":9847,"뚝":9848,"##아버지":9849,"##뿍":9850,"##옹":9851,"##로리":9852,"돌아다니":9853,"샴푸":9854,"ㄴ다라고":9855,"##쩍":9856,"화려하":9857,"회복":9858,"##폭":9859,"##ook":9860,"풀리":9861,"유기":9862,"당연하":9863,"흠":9864,"숫자":9865,"##직하":9866,"담당":9867,"푸짐하":9868,"공공":9869,"아나운서":9870,"진보":9871,"도망":9872,"차라리":9873,"실질":9874,"파이":9875,"카카오":9876,"고객":9877,"소주":9878,"근까":9879,"간편":9880,"껍":9881,"한쪽":9882,"공천":9883,"물질":9884,"판사":9885,"여보":9886,"동영상":9887,"와인":9888,"초밥":9889,"co":9890,"##징어":9891,"녀석":9892,"냠냠":9893,"좋은":9894,"드레스":9895,"ㄴ답니다":9896,"##는거":9897,"지우":9898,"40":9899,"##다르":9900,"스피":9901,"안먹":9902,"다면서":9903,"밝혀":9904,"하여튼":9905,"##팡":9906,"제시":9907,"무겁":9908,"쓰레기":9909,"급하":9910,"외부":9911,"##감하":9912,"절차":9913,"기획":9914,"일으키":9915,"지식":9916,"##껏":9917,"스케이트":9918,"답답하":9919,"그렇지만":9920,"종이":9921,"##쇄":9922,"이끌":9923,"어떠":9924,"헤어":9925,"이명박":9926,"근육":9927,"ㅅㅂ":9928,"눈치":9929,"지점":9930,"셀스타그램":9931,"##부르":9932,"##쌈":9933,"요거트":9934,"##ㄱㅋ":9935,"cat":9936,"자격":9937,"전반":9938,"동기":9939,"승리":9940,"풍경":9941,"랄까":9942,"##ac":9943,"비빔":9944,"펜":9945,"시사":9946,"ㄴ데요":9947,"빡":9948,"특이":9949,"딴":9950,"예방":9951,"될":9952,"노무":9953,"블로그":9954,"취재":9955,"##둑":9956,"바위":9957,"캡":9958,"총선":9959,"##쿡":9960,"베트":9961,"##ri":9962,"그저":9963,"##거지":9964,"##졌":9965,"규정":9966,"데이터":9967,"기차":9968,"버터":9969,"##벤":9970,"오랫":9971,"벌이":9972,"##ᆺ가":9973,"##사랑":9974,"종일":9975,"소화":9976,"##ㅋㅋㅋㅋㅋㅋㅋ":9977,"##아내":9978,"후회":9979,"##듀":9980,"인증":9981,"##식단":9982,"푹":9983,"국정원":9984,"메이":9985,"바디":9986,"##좀":9987,"삐":9988,"문학":9989,"성인":9990,"레드":9991,"비로":9992,"원칙":9993,"웹":9994,"22":9995,"국방":9996,"학습":9997,"##다이어":9998,"##납":9999,"심장":10000,"불가능":10001,"없애":10002,"아메":10003,"##부림":10004,"육아소통":10005,"한편":10006,"쏙":10007,"참석":10008,"수수":10009,"##릿":10010,"클럽":10011,"쫄기":10012,"의료":10013,"이모":10014,"베트남":10015,"액션":10016,"영역":10017,"금액":10018,"##케이크":10019,"스크":10020,"줄어들":10021,"##뻐":10022,"ㅋㅋㅋㅋㅋㅋㅋㅋㅋㅋㅋㅋㅋㅋㅋㅋㅋ":10023,"맑":10024,"요건":10025,"둘째":10026,"알바":10027,"배추":10028,"쌓이":10029,"셀프":10030,"차단":10031,"공중":10032,"근로":10033,"매콤하":10034,"##흡":10035,"##까스":10036,"소중하":10037,"##반도":10038,"##쪼":10039,"할아버지":10040,"앤":10041,"평양":10042,"고용":10043,"익숙하":10044,"장기":10045,"언제나":10046,"자세히":10047,"거대":10048,"세탁":10049,"배송":10050,"##ee":10051,"고치":10052,"만지":10053,"멘":10054,"공포":10055,"가구":10056,"비율":10057,"노란":10058,"묶":10059,"##뽀":10060,"뮤지":10061,"##나가":10062,"미사일":10063,"##센":10064,"클래":10065,"김영":10066,"꽉":10067,"용기":10068,"똑같이":10069,"먹부림":10070,"맛보":10071,"맡기":10072,"돌려":10073,"웃음":10074,"꾸준히":10075,"고사":10076,"각각":10077,"뉴욕":10078,"쑥":10079,"기초":10080,"득":10081,"짜증":10082,"유튜브":10083,"##려고":10084,"통신":10085,"연예인":10086,"오토":10087,"그나마":10088,"흘":10089,"##융":10090,"갖추":10091,"마저":10092,"남녀":10093,"복수":10094,"폴":10095,"시계":10096,"##서트":10097,"차지":10098,"ㄹ래":10099,"한반도":10100,"##ad":10101,"칭찬":10102,"각종":10103,"벨":10104,"무늬":10105,"버거":10106,"옳":10107,"청문":10108,"버튼":10109,"봉사":10110,"정확히":10111,"##ㅠㅠㅠ":10112,"##쭈":10113,"티비에스":10114,"반려견":10115,"##ov":10116,"저자":10117,"보리":10118,"흘리":10119,"이정":10120,"부위":10121,"한정":10122,"쿠키":10123,"##os":10124,"표시":10125,"##ᅦ이크업":10126,"##fe":10127,"##다랗":10128,"좁":10129,"비주얼":10130,"주소":10131,"정식":10132,"완료":10133,"##데이":10134,"십일":10135,"제외":10136,"##렌징":10137,"대변":10138,"아버님":10139,"항공":10140,"foodstagram":10141,"가성":10142,"추진":10143,"혁명":10144,"어서요":10145,"공주":10146,"언어":10147,"탄핵":10148,"모래":10149,"##컵":10150,"##백하":10151,"앵":10152,"요기":10153,"보라":10154,"연대":10155,"추석":10156,"배고프":10157,"곁":10158,"부장":10159,"전투":10160,"##즙":10161,"불러":10162,"헉":10163,"네이버":10164,"확대":10165,"태도":10166,"오징어":10167,"중독":10168,"소속":10169,"고요":10170,"뭉":10171,"진술":10172,"꼴":10173,"소유":10174,"초록":10175,"아가씨":10176,"야식":10177,"박물":10178,"##지않":10179,"제가":10180,"분리":10181,"분홍색":10182,"똥":10183,"전환":10184,"self":10185,"부리":10186,"코코":10187,"적당히":10188,"##ion":10189,"신상":10190,"쫀":10191,"수고":10192,"부럽":10193,"은지":10194,"이틀":10195,"##듯하":10196,"초기":10197,"뚫":10198,"##덜":10199,"편지":10200,"대출":10201,"얹":10202,"##셜":10203,"날리":10204,"우울":10205,"호수":10206,"청구":10207,"꽂":10208,"##덤":10209,"##나나":10210,"혜택":10211,"의무":10212,"오해":10213,"차별":10214,"참치":10215,"낚":10216,"사정":10217,"건축":10218,"살아가":10219,"복잡하":10220,"새끼":10221,"##데요":10222,"참가":10223,"가면":10224,"공급":10225,"##렛":10226,"강제":10227,"##쿨":10228,"붉":10229,"파악":10230,"##뭐":10231,"여야":10232,"당첨":10233,"##넣":10234,"주위":10235,"분노":10236,"버티":10237,"연금":10238,"계기":10239,"아웃":10240,"은근":10241,"##마하":10242,"무지":10243,"##심하":10244,"코트":10245,"들여":10246,"수입":10247,"바보":10248,"즈":10249,"빠져":10250,"레몬":10251,"노무현":10252,"특검":10253,"각자":10254,"젖":10255,"아이템":10256,"애니":10257,"이탈":10258,"그야":10259,"요금":10260,"리더":10261,"##픔":10262,"##르트":10263,"오이":10264,"금지":10265,"보상":10266,"근거":10267,"pom":10268,"앗":10269,"암튼":10270,"듬뿍":10271,"이란":10272,"##닫":10273,"착용":10274,"일부러":10275,"##ᆺ집":10276,"2018":10277,"##us":10278,"이웃":10279,"크로":10280,"설탕":10281,"스물":10282,"인권":10283,"장르":10284,"스태":10285,"전망":10286,"영장":10287,"커버":10288,"콘서트":10289,"##혈":10290,"갤러":10291,"억울":10292,"대리":10293,"던가":10294,"종교":10295,"논리":10296,"ch":10297,"지시":10298,"다시피":10299,"망하":10300,"조명":10301,"바까":10302,"특수":10303,"foodp":10304,"독특":10305,"가성비":10306,"##어버리":10307,"생선":10308,"전공":10309,"오오":10310,"##게되":10311,"단백":10312,"자치":10313,"고정":10314,"##나오":10315,"동일":10316,"추정":10317,"셀피":10318,"##빡":10319,"기구":10320,"얼음":10321,"자녀":10322,"##나리":10323,"##ᆯ린":10324,"실력":10325,"멤버":10326,"땡":10327,"미용":10328,"비난":10329,"의문":10330,"박수":10331,"쿨":10332,"발사":10333,"##텐츠":10334,"톡":10335,"최순":10336,"일기":10337,"접시":10338,"##셔츠":10339,"삭":10340,"조리":10341,"주도":10342,"많아지":10343,"순서":10344,"##짤":10345,"쉐":10346,"그야말로":10347,"당선":10348,"집단":10349,"육아맘":10350,"상자":10351,"##ᆼ어":10352,"커다랗":10353,"존나":10354,"##저히":10355,"엘리":10356,"바깥":10357,"꼼ᄁ":10358,"ㅋㅋㅋㅋㅋㅋㅋㅋㅋㅋㅋ":10359,"my":10360,"해산":10361,"검토":10362,"규칙":10363,"힐링":10364,"회색":10365,"돈까스":10366,"##댁":10367,"##클리":10368,"그곳":10369,"적히":10370,"##세요":10371,"##값":10372,"##바로":10373,"##긋":10374,"한미":10375,"제재":10376,"괴롭":10377,"사이트":10378,"아깝":10379,"온도":10380,"주식":10381,"해물":10382,"꼼꼼":10383,"가요":10384,"정체":10385,"##테이블":10386,"출마":10387,"출산":10388,"닿":10389,"##랩":10390,"확보":10391,"다치":10392,"익히":10393,"땡기":10394,"전복":10395,"드라이":10396,"룸":10397,"##ㅌㅌ":10398,"개입":10399,"방학":10400,"##머리":10401,"는군":10402,"##톱":10403,"빚":10404,"##소리":10405,"보조":10406,"월드":10407,"택배":10408,"배치":10409,"스테":10410,"포즈":10411,"종종":10412,"미터":10413,"클린":10414,"취소":10415,"##레이드":10416,"가만히":10417,"최순실":10418,"##대기":10419,"##콜":10420,"오랫동안":10421,"헤어지":10422,"어둡":10423,"500":10424,"기에":10425,"##아하":10426,"무너지":10427,"##칸":10428,"천천":10429,"창문":10430,"칼로리":10431,"지치":10432,"##가락":10433,"우연":10434,"국어":10435,"적절하":10436,"##박스":10437,"밀리":10438,"##땅":10439,"사법":10440,"방지":10441,"##첩":10442,"링":10443,"북미":10444,"##ian":10445,"이따":10446,"캔":10447,"카톡":10448,"자네":10449,"과제":10450,"##플레이":10451,"파리":10452,"본부":10453,"늘리":10454,"의외":10455,"샌드":10456,"섭취":10457,"여부":10458,"계절":10459,"예예예":10460,"시골":10461,"강원":10462,"당황":10463,"회식":10464,"흉":10465,"##랜":10466,"구석":10467,"세젤":10468,"스프":10469,"구멍":10470,"##세지":10471,"검은":10472,"상하":10473,"앞두":10474,"넷":10475,"천천히":10476,"##뜩":10477,"평일":10478,"##쿠리":10479,"흔히":10480,"김정은":10481,"해야":10482,"합격":10483,"극장":10484,"##농":10485,"##멸":10486,"한입":10487,"수원":10488,"한두":10489,"트리":10490,"시선":10491,"##구리":10492,"키즈":10493,"마주":10494,"##ᆯ릿":10495,"용량":10496,"든든":10497,"멸":10498,"먹고":10499,"##달리":10500,"친박":10501,"2017":10502,"수시":10503,"애정":10504,"변경":10505,"럽":10506,"상징":10507,"욕심":10508,"장치":10509,"##껍":10510,"민간":10511,"##봄":10512,"형사":10513,"녹차":10514,"요번":10515,"코너":10516,"수행":10517,"넘치":10518,"트위터":10519,"벤치":10520,"마사지":10521,"트레":10522,"스카":10523,"반면":10524,"육수":10525,"##고양":10526,"경영":10527,"큰일":10528,"마약":10529,"##저귀":10530,"높아지":10531,"##갖":10532,"부자":10533,"추출":10534,"청주":10535,"##ㅜㅜㅜㅜ":10536,"##od":10537,"##쿄":10538,"##아보":10539,"결혼식":10540,"##그래":10541,"돋":10542,"금융":10543,"브리":10544,"규제":10545,"튀기":10546,"##플리":10547,"발라":10548,"23":10549,"큐":10550,"사안":10551,"##어어":10552,"위협":10553,"외출":10554,"흐름":10555,"##ᆺ속":10556,"포메":10557,"selfie":10558,"ad":10559,"##둥이":10560,"pet":10561,"##갸":10562,"수정":10563,"다행히":10564,"강의":10565,"태양":10566,"환영":10567,"갈리":10568,"##끝":10569,"이날":10570,"수많":10571,"아이디어":10572,"the":10573,"지르":10574,"##봇":10575,"원작":10576,"편집":10577,"압박":10578,"면접":10579,"밝혀지":10580,"##뚝":10581,"거품":10582,"올리브":10583,"##둘":10584,"##이스":10585,"배부르":10586,"맞ᄎ":10587,"##륙":10588,"시행":10589,"instad":10590,"이어":10591,"마침":10592,"진단":10593,"리얼":10594,"키워드":10595,"상승":10596,"명절":10597,"체육":10598,"실망":10599,"##사람":10600,"##테일":10601,"철학":10602,"검증":10603,"##케인":10604,"이천십":10605,"구분":10606,"페이스":10607,"인구":10608,"유행":10609,"취업":10610,"##생기":10611,"인공":10612,"이른":10613,"수리":10614,"##엽":10615,"경기도":10616,"스킨":10617,"지인":10618,"예측":10619,"애플":10620,"##ur":10621,"##내리":10622,"맺":10623,"조작":10624,"에프":10625,"파일":10626,"증상":10627,"임신":10628,"바른":10629,"맛스타":10630,"설득":10631,"다소":10632,"선정":10633,"취미":10634,"온라인":10635,"세제":10636,"빨간색":10637,"부디":10638,"플러스":10639,"춘":10640,"##셉":10641,"컷":10642,"##핀":10643,"##볶음":10644,"옹":10645,"비리":10646,"##봐야":10647,"홈쿡":10648,"어용":10649,"##스티":10650,"##덩이":10651,"순위":10652,"멍스타그램":10653,"한우":10654,"언젠가":10655,"져":10656,"##흔":10657,"##ᆺ불":10658,"수치":10659,"##팬":10660,"깐":10661,"##부하":10662,"##티슈":10663,"##새끼":10664,"##탑":10665,"##티비":10666,"카레":10667,"권리":10668,"색상":10669,"##썹":10670,"##쩌":10671,"다운":10672,"호남":10673,"빵스타그램":10674,"족발":10675,"오프":10676,"박지":10677,"고고":10678,"스파":10679,"마마":10680,"##케어":10681,"시내":10682,"한계":10683,"서류":10684,"꼽":10685,"넉":10686,"##찜":10687,"타입":10688,"후반":10689,"군중":10690,"형성":10691,"##됐":10692,"펼치":10693,"개정":10694,"늙":10695,"여의":10696,"대형":10697,"연장":10698,"ㅠㅠㅠㅠ":10699,"와중":10700,"##orn":10701,"##쓸":10702,"예비":10703,"최선":10704,"ㅋㅋㅋㅋㅋㅋㅋㅋㅋㅋㅋㅋㅋㅋㅋㅋㅋㅋㅋㅋㅋㅋㅋㅋㅋ":10705,"어린이":10706,"동료":10707,"sn":10708,"##최":10709,"##id":10710,"##이하":10711,"마트":10712,"너희":10713,"십이":10714,"##갈리":10715,"낚시":10716,"##렸":10717,"반기":10718,"턱":10719,"명확":10720,"특별히":10721,"인분":10722,"바퀴":10723,"제출":10724,"점프":10725,"샤워":10726,"##껑":10727,"##라미":10728,"그랬":10729,"현지":10730,"##벼":10731,"마당":10732,"##똑":10733,"##데이트":10734,"##뷔":10735,"##뒤":10736,"인형":10737,"이태원":10738,"스웨":10739,"대장":10740,"따라가":10741,"##룸":10742,"##하하":10743,"밟":10744,"2019":10745,"지급":10746,"쪼금":10747,"보스":10748,"테스트":10749,"##피부":10750,"결제":10751,"김무":10752,"팝":10753,"아줌마":10754,"함유":10755,"예쁜":10756,"##ᅮᆷ치":10757,"##and":10758,"기도":10759,"주름":10760,"##세트":10761,"위반":10762,"뷰티스타그램":10763,"시위":10764,"##라면":10765,"부여":10766,"불만":10767,"통제":10768,"군인":10769,"목숨":10770,"##ess":10771,"튼":10772,"당근":10773,"트랙":10774,"허리케인":10775,"드시":10776,"만남":10777,"아끼":10778,"##이즈":10779,"바나나":10780,"학기":10781,"의회":10782,"전달":10783,"낼":10784,"##카롱":10785,"캠핑":10786,"메이크업":10787,"##보드":10788,"##두르":10789,"합리":10790,"##툼":10791,"김밥":10792,"시인":10793,"수익":10794,"파우":10795,"겹":10796,"기반":10797,"아메리카":10798,"##츄":10799,"파워":10800,"뛰어나":10801,"유승":10802,"동맛집":10803,"달려가":10804,"ㄴ단":10805,"##시피":10806,"성과":10807,"애매":10808,"흙":10809,"찐":10810,"잉":10811,"스케":10812,"어마어":10813,"군데":10814,"글쎄요":10815,"낯":10816,"내가":10817,"ㄴ대":10818,"##쁜":10819,"반성":10820,"##바일":10821,"포토":10822,"출시":10823,"투명":10824,"##걸리":10825,"##펜":10826,"백화":10827,"틈":10828,"가시":10829,"고개":10830,"셈":10831,"제이":10832,"땜":10833,"들어서":10834,"거라":10835,"안쪽":10836,"미친":10837,"현금":10838,"##빼":10839,"전원":10840,"넘나":10841,"##li":10842,"이자":10843,"딱히":10844,"##피자":10845,"손해":10846,"의상":10847,"티셔츠":10848,"ㅋㅋㅋㅋㅋㅋㅋㅋㅋㅋㅋㅋ":10849,"껍질":10850,"가스":10851,"으라고":10852,"숙소":10853,"스튜":10854,"엠비":10855,"과목":10856,"회원":10857,"에스엔":10858,"혈관":10859,"김무성":10860,"후배":10861,"리스트":10862,"##큰":10863,"작동":10864,"찌개":10865,"모니":10866,"##선물":10867,"지나치":10868,"떡볶":10869,"오토바이":10870,"듀":10871,"##므":10872,"냐는":10873,"질환":10874,"협력":10875,"##벅스":10876,"이만":10877,"엑스":10878,"아이돌":10879,"뵙":10880,"##ir":10881,"형제":10882,"##ag":10883,"저지르":10884,"보안":10885,"버전":10886,"민족":10887,"이른바":10888,"관점":10889,"대만":10890,"##한다":10891,"##닐":10892,"##화장":10893,"트러":10894,"폭발":10895,"합치":10896,"이론":10897,"화제":10898,"입시":10899,"##몸":10900,"ml":10901,"다지":10902,"평론":10903,"뚜껑":10904,"엽":10905,"매트":10906,"##센스":10907,"짬뽕":10908,"홍콩":10909,"어마어마하":10910,"공정":10911,"선고":10912,"연남":10913,"형식":10914,"어쩌면":10915,"쌤":10916,"는건":10917,"가짜":10918,"주먹":10919,"##겐":10920,"뮤지컬":10921,"xxx":10922,"한가":10923,"소방":10924,"코미":10925,"##ㄱㄱ":10926,"##로드":10927,"광장":10928,"프레":10929,"여행스타그램":10930,"의장":10931,"기소":10932,"솜":10933,"설계":10934,"에어컨":10935,"든든하":10936,"다수":10937,"##보내":10938,"##일러":10939,"핑":10940,"픽":10941,"코드":10942,"##위치":10943,"정원":10944,"하나하나":10945,"금발":10946,"퍼지":10947,"쟁":10948,"기르":10949,"서른":10950,"김종":10951,"##튀":10952,"균형":10953,"전용":10954,"냉동":10955,"##럴":10956,"쿼":10957,"아르":10958,"밭":10959,"롤":10960,"관람":10961,"집행":10962,"ne":10963,"불과":10964,"##잼":10965,"흔들리":10966,"##오일":10967,"제조":10968,"##ᆺ잎":10969,"실리":10970,"눈썹":10971,"##런치":10972,"신분":10973,"풀밭":10974,"드러내":10975,"모바일":10976,"ㄴ다라는":10977,"로써":10978,"민정":10979,"##글라스":10980,"어려움":10981,"골프":10982,"억울하":10983,"라던":10984,"그린":10985,"횡":10986,"##브리":10987,"##em":10988,"##꿀":10989,"아동":10990,"파괴":10991,"간판":10992,"할때":10993,"휴식":10994,"깊이":10995,"방어":10996,"장사":10997,"양쪽":10998,"깨닫":10999,"김성":11000,"통계":11001,"흑흑":11002,"##핏":11003,"대단히":11004,"둘러싸":11005,"조림":11006,"##앞":11007,"권한":11008,"##쏘":11009,"스타벅스":11010,"맹":11011,"##싹":11012,"매번":11013,"심사":11014,"책상":11015,"연말":11016,"방해":11017,"봐야":11018,"지정":11019,"거울":11020,"선호":11021,"##쉐":11022,"고속":11023,"연휴":11024,"하우스":11025,"주년":11026,"접하":11027,"ca":11028,"연속":11029,"##홀":11030,"희생":11031,"##소스":11032,"##더니":11033,"봤":11034,"##instagram":11035,"샌드위치":11036,"##hot":11037,"옵":11038,"황금":11039,"쿠션":11040,"화학":11041,"느끼하":11042,"##논":11043,"스노":11044,"##저것":11045,"구이":11046,"풍부하":11047,"##그리":11048,"성향":11049,"끌어":11050,"자원":11051,"순수":11052,"활성":11053,"임대":11054,"탓":11055,"절반":11056,"##oc":11057,"법안":11058,"샵":11059,"게시":11060,"우산":11061,"용품":11062,"히히":11063,"##of":11064,"조카":11065,"##쌤":11066,"도입":11067,"두피":11068,"##될":11069,"유월":11070,"반하":11071,"즐거":11072,"지난해":11073,"##쾌하":11074,"한강":11075,"윈":11076,"해명":11077,"##륨":11078,"아무런":11079,"증명":11080,"단순히":11081,"##어터":11082,"단일":11083,"헛":11084,"##범하":11085,"김경":11086,"첫째":11087,"탄력":11088,"악기":11089,"넉ᄂ":11090,"면역":11091,"피아":11092,"초대":11093,"베스트":11094,"비롯하":11095,"##테이":11096,"마크":11097,"범위":11098,"##걀":11099,"꾼":11100,"정성":11101,"상큼":11102,"이것저것":11103,"걸치":11104,"치르":11105,"어르":11106,"네일":11107,"피우":11108,"해치":11109,"결코":11110,"스페인":11111,"##시간":11112,"다니까":11113,"기기":11114,"##꾸미":11115,"식구":11116,"새해":11117,"립":11118,"##otd":11119,"과장":11120,"##세우":11121,"측정":11122,"줘":11123,"지난주":11124,"기부":11125,"취지":11126,"태우":11127,"👍🏻":11128,"##쥐":11129,"노출":11130,"중단":11131,"단위":11132,"교환":11133,"##스토랑":11134,"벼":11135,"쿡":11136,"월급":11137,"범행":11138,"벚":11139,"##먼트":11140,"어케":11141,"##지하":11142,"팥":11143,"고위":11144,"조개":11145,"유엔":11146,"##렉":11147,"용서":11148,"짜장":11149,"치마":11150,"향기":11151,"모니터":11152,"##아주":11153,"감소":11154,"##레이크":11155,"초콜릿":11156,"##디션":11157,"##티브":11158,"출판":11159,"레스토랑":11160,"##eran":11161,"소환":11162,"확정":11163,"꼬치":11164,"순대":11165,"연극":11166,"패키":11167,"책임지":11168,"기울":11169,"치우":11170,"편리":11171,"프리미":11172,"달걀":11173,"헬스":11174,"상식":11175,"##프라":11176,"며느":11177,"##뿌":11178,"기운":11179,"뺏":11180,"##슬리":11181,"당사":11182,"뻔하":11183,"촌":11184,"##up":11185,"열정":11186,"ㅡㅡ":11187,"##ᆯ리티":11188,"회전":11189,"들려":11190,"깎":11191,"##폴":11192,"임명":11193,"상대방":11194,"##쟈":11195,"인원":11196,"##포터":11197,"놀러":11198,"농구":11199,"##놀이":11200,"pomeran":11201,"pomeranian":11202,"사상":11203,"우수":11204,"##너스":11205,"지불":11206,"개성":11207,"피디":11208,"두껍":11209,"특성":11210,"##tt":11211,"빗":11212,"호흡":11213,"플라":11214,"어르신":11215,"갱":11216,"쫙":11217,"##쭉":11218,"##스럽":11219,"달콤하":11220,"겨우":11221,"빵순":11222,"황교":11223,"팩트":11224,"##딸":11225,"사월":11226,"설마":11227,"목욕":11228,"폭탄":11229,"##ig":11230,"해운":11231,"샘":11232,"막상":11233,"놓이":11234,"곳곳":11235,"유승민":11236,"##타이":11237,"연방":11238,"연관":11239,"##기전":11240,"날짜":11241,"사귀":11242,"자본":11243,"##은하":11244,"티켓":11245,"문의":11246,"찢":11247,"똑똑":11248,"법정":11249,"##화장품":11250,"도구":11251,"특유":11252,"확신":11253,"체력":11254,"퀴즈":11255,"음주":11256,"##찍하":11257,"##py":11258,"안가":11259,"꿀맛":11260,"예민":11261,"##ᆯ립":11262,"장식":11263,"촛불":11264,"오월":11265,"칸":11266,"쳐다보":11267,"믄":11268,"꺄":11269,"가야":11270,"##앉":11271,"향수":11272,"##사리":11273,"위로":11274,"신부":11275,"도쿄":11276,"위주":11277,"집회":11278,"몰래":11279,"겁나":11280,"주스":11281,"평범하":11282,"베이스":11283,"화이팅":11284,"관찰":11285,"##쇠":11286,"불어":11287,"조언":11288,"수용":11289,"팀장":11290,"끔":11291,"##뻔":11292,"##니안":11293,"랍":11294,"원수":11295,"쓰러지":11296,"지마는":11297,"짤":11298,"건지":11299,"깨지":11300,"##라떼":11301,"누리":11302,"술집":11303,"랩":11304,"햄":11305,"##갈비":11306,"줬":11307,"우동":11308,"꾸미":11309,"빙수":11310,"ㄴ다구":11311,"려구":11312,"확률":11313,"조용히":11314,"##op":11315,"##ak":11316,"습니":11317,"남한":11318,"방울":11319,"쟤":11320,"##mt":11321,"긁":11322,"##엌":11323,"세포":11324,"후식":11325,"빨래":11326,"논문":11327,"저렴":11328,"내장":11329,"언덕":11330,"##프레":11331,"명예":11332,"꼬리":11333,"선팔하":11334,"단점":11335,"법무":11336,"어떠하":11337,"스무":11338,"전달하":11339,"쎄":11340,"모집":11341,"신호":11342,"##쌍":11343,"기여":11344,"미루":11345,"퓨":11346,"고향":11347,"강추":11348,"직전":11349,"엑":11350,"수면":11351,"패스":11352,"라이브":11353,"펌":11354,"이불":11355,"##스틱":11356,"재단":11357,"박정":11358,"체계":11359,"응응":11360,"딱딱":11361,"염색":11362,"뛰어들":11363,"찬성":11364,"인거":11365,"당일":11366,"##sc":11367,"민주주의":11368,"캬":11369,"갚":11370,"근본":11371,"링크":11372,"##ᆷ비":11373,"가하":11374,"정규":11375,"##아기":11376,"야권":11377,"산소":11378,"킹":11379,"헤헤":11380,"##네이":11381,"독자":11382,"래요":11383,"간편하":11384,"으음":11385,"로봇":11386,"무선":11387,"용어":11388,"녹음":11389,"##웨이":11390,"둥":11391,"가난":11392,"선글라스":11393,"##파스타":11394,"팍":11395,"##셀":11396,"허락":11397,"섬유":11398,"구만":11399,"설레":11400,"힘내":11401,"황교안":11402,"데뷔":11403,"삼월":11404,"담백하":11405,"망원":11406,"클렌징":11407,"저러":11408,"마감":11409,"에서부터":11410,"해장":11411,"##프리":11412,"비치":11413,"이탈리아":11414,"의외로":11415,"##도우":11416,"냐구":11417,"상관없":11418,"사퇴":11419,"경향":11420,"범인":11421,"효율":11422,"들여다보":11423,"사유":11424,"스시":11425,"내주":11426,"맘스타그램":11427,"수요":11428,"##아먹":11429,"입술":11430,"검은색":11431,"ootd":11432,"탈출":11433,"따라서":11434,"dogstagram":11435,"닥터":11436,"대안":11437,"인연":11438,"적응":11439,"미역":11440,"리그":11441,"투쟁":11442,"기쁘":11443,"유료":11444,"천안":11445,"이승":11446,"##식당":11447,"펀":11448,"##붕":11449,"물러":11450,"최애":11451,"쿠폰":11452,"폐하":11453,"나아가":11454,"##치킨":11455,"인지":11456,"필라":11457,"##몬드":11458,"##긴하":11459,"##하게":11460,"의정":11461,"대북":11462,"수단":11463,"전세":11464,"노리":11465,"떨어":11466,"foodporn":11467,"여지":11468,"걸음":11469,"냥스타그램":11470,"lg":11471,"호두":11472,"트럭":11473,"며느리":11474,"하드":11475,"고발":11476,"유해":11477,"대표님":11478,"오지":11479,"개헌":11480,"##ong":11481,"묻히":11482,"us":11483,"게끔":11484,"내지":11485,"감상":11486,"마카롱":11487,"김태":11488,"스테이지":11489,"대가":11490,"##ang":11491,"믿음":11492,"은은하":11493,"구월":11494,"해소":11495,"물속":11496,"폭풍":11497,"협의":11498,"jmt":11499,"엿":11500,"재생":11501,"한글":11502,"##민주":11503,"챙":11504,"어허":11505,"찹":11506,"배터리":11507,"순환":11508,"알려":11509,"두개":11510,"경력":11511,"반짝":11512,"애초":11513,"토끼":11514,"쏟아지":11515,"자살":11516,"더블":11517,"유지어터":11518,"##쳐지":11519,"60":11520,"가라":11521,"싣":11522,"집권":11523,"부딪":11524,"인자":11525,"입히":11526,"혼란":11527,"아프리카":11528,"##캔":11529,"을거":11530,"김대":11531,"표지":11532,"새콤":11533,"패턴":11534,"헤드":11535,"워터":11536,"쫀득":11537,"마구":11538,"안좋":11539,"##탐":11540,"회견":11541,"등산":11542,"기억나":11543,"##슐":11544,"그만두":11545,"썩":11546,"지루":11547,"수색":11548,"##우드":11549,"##인드":11550,"연설":11551,"쾌":11552,"세종":11553,"종로":11554,"비디오":11555,"##멜":11556,"쇠":11557,"미디어":11558,"##셋":11559,"포메라":11560,"튜":11561,"대목":11562,"살해":11563,"확장":11564,"밀크":11565,"섞이":11566,"포메라니안":11567,"부끄럽":11568,"간만":11569,"넹":11570,"더불":11571,"명령":11572,"빛나":11573,"##메이션":11574,"##ᆿㅋㅋㅋ":11575,"미끄":11576,"간호":11577,"##ᆼ아":11578,"##미니":11579,"잔뜩":11580,"##궈":11581,"그까":11582,"##스테":11583,"여쭈":11584,"소파":11585,"공화":11586,"장어":11587,"극복":11588,"하트":11589,"##미터":11590,"애스타그램":11591,"그전":11592,"외치":11593,"흔적":11594,"조화":11595,"몬":11596,"부추":11597,"##간식":11598,"크리":11599,"킨":11600,"봐주":11601,"kg":11602,"이년":11603,"##일보":11604,"살림":11605,"댕":11606,"차갑":11607,"잘생기":11608,"국무":11609,"재정":11610,"강원도":11611,"##팍":11612,"##리트":11613,"자존":11614,"평창":11615,"뛰어오르":11616,"com":11617,"얌":11618,"김현":11619,"점검":11620,"징역":11621,"더위":11622,"잘먹":11623,"문장":11624,"테러":11625,"##ici":11626,"나눠":11627,"##ᆯ하":11628,"##ᆿㅋㅋㅋㅋㅋㅋㅋㅋ":11629,"핏":11630,"임산":11631,"흑인":11632,"pc":11633,"훼":11634,"디지":11635,"고대":11636,"기저귀":11637,"주사":11638,"덧":11639,"밥상":11640,"##ul":11641,"그럴":11642,"신사":11643,"푸르":11644,"도둑":11645,"들판":11646,"영웅":11647,"프라이":11648,"온더":11649,"##이크":11650,"##무시":11651,"##엑스":11652,"바탕":11653,"번역":11654,"입학":11655,"##홈":11656,"솔직하":11657,"예뻐":11658,"보트":11659,"사오":11660,"민감하":11661,"##섬":11662,"##해주":11663,"학자":11664,"글자":11665,"패키지":11666,"라떼":11667,"존경":11668,"모공":11669,"영원":11670,"휴일":11671,"잠들":11672,"클릭":11673,"지수":11674,"작전":11675,"투어":11676,"27":11677,"ㄹㅇ":11678,"##낌":11679,"서방":11680,"유통":11681,"환상":11682,"36":11683,"짠":11684,"이중":11685,"아닌":11686,"흔하":11687,"비상":11688,"경계":11689,"##스코":11690,"##맣":11691,"충돌":11692,"##스카":11693,"까먹":11694,"##쿠션":11695,"##끈하":11696,"탱크":11697,"벚꽃":11698,"프리미엄":11699,"케이블":11700,"보단":11701,"천재":11702,"십만":11703,"청정":11704,"허용":11705,"떠올리":11706,"28":11707,"##떨":11708,"매년":11709,"끊임":11710,"스튜디오":11711,"눌":11712,"쟈":11713,"ㄹ려고":11714,"필름":11715,"##콕":11716,"##다나":11717,"##스러":11718,"할수":11719,"쫄깃하":11720,"주자":11721,"카운":11722,"##붙이":11723,"##ᆿㅋㅋㅋㅋ":11724,"엥":11725,"예고":11726,"에센스":11727,"##롬":11728,"운명":11729,"지배":11730,"파트":11731,"탄생":11732,"##vel":11733,"더럽":11734,"성능":11735,"이이":11736,"삼일":11737,"포도":11738,"숯":11739,"단독":11740,"짭":11741,"잔디":11742,"컨셉":11743,"매운맛":11744,"명확하":11745,"##믄":11746,"마법":11747,"소프트":11748,"램":11749,"직원분":11750,"락":11751,"##마스크":11752,"제보":11753,"피로":11754,"배려":11755,"##데기":11756,"유사":11757,"증언":11758,"테니스":11759,"##툰":11760,"잼":11761,"탐라":11762,"뭉치":11763,"페이":11764,"두르":11765,"문서":11766,"##언니":11767,"요정":11768,"신나":11769,"방안":11770,"심심하":11771,"팔리":11772,"붙잡":11773,"럽스타그램":11774,"일일":11775,"##아오":11776,"더더":11777,"협박":11778,"외식":11779,"캣":11780,"##ttp":11781,"대결":11782,"##굿":11783,"##으로":11784,"렌즈":11785,"선발":11786,"http":11787,"개그":11788,"##ᆯ리스":11789,"후라이":11790,"심판":11791,"체포":11792,"##멧":11793,"사이드":11794,"아트":11795,"사드":11796,"화재":11797,"동작":11798,"채널":11799,"헷":11800,"작가님":11801,"고장":11802,"조기":11803,"실화":11804,"진지하":11805,"햄버":11806,"리필":11807,"출구":11808,"태국":11809,"긍까":11810,"##eal":11811,"연인":11812,"완화":11813,"##타리":11814,"동원":11815,"탈당":11816,"혈압":11817,"우승":11818,"샌":11819,"강릉":11820,"낙지":11821,"롱":11822,"후원":11823,"뻗":11824,"이민":11825,"저장":11826,"##근하":11827,"##학교":11828,"속상":11829,"표준":11830,"잔치":11831,"##렌즈":11832,"케익":11833,"이성":11834,"메모":11835,"브런치":11836,"힙":11837,"존맛탱":11838,"는중":11839,"한식":11840,"생리":11841,"유전":11842,"신생":11843,"##레인":11844,"강사":11845,"묘사":11846,"##스키":11847,"##바르":11848,"터치":11849,"좌석":11850,"35":11851,"sk":11852,"거실":11853,"안들":11854,"들르":11855,"광화":11856,"ㅋㅋㅋㅋㅋㅋㅋㅋㅋㅋㅋㅋㅋ":11857,"지휘":11858,"구역":11859,"강도":11860,"아메리카노":11861,"어플":11862,"애견":11863,"##베이비":11864,"갤럭시":11865,"천사":11866,"##umm":11867,"##테이크":11868,"도저히":11869,"인류":11870,"##만한":11871,"치매":11872,"##성이":11873,"홍준":11874,"##ore":11875,"상큼하":11876,"an":11877,"모드":11878,"내신":11879,"돌보":11880,"비추":11881,"감각":11882,"불금":11883,"하는":11884,"정시":11885,"패드":11886,"망고":11887,"26":11888,"셰":11889,"고전":11890,"##젠":11891,"여수":11892,"##듣":11893,"공통":11894,"맛없":11895,"##투스":11896,"애니메이션":11897,"온더테이블":11898,"구름":11899,"비우":11900,"맛잇":11901,"뒤지":11902,"견디":11903,"훔치":11904,"##푼":11905,"재벌":11906,"찍히":11907,"햄버거":11908,"은가":11909,"보유":11910,"임시":11911,"##즐":11912,"으루":11913,"##부분":11914,"해안":11915,"단단":11916,"갈아":11917,"넉넉하":11918,"넥":11919,"되게":11920,"린":11921,"농담":11922,"##ent":11923,"그나저":11924,"##깃":11925,"비록":11926,"상추":11927,"친정":11928,"레벨":11929,"떨리":11930,"테이":11931,"동화":11932,"매주":11933,"그니":11934,"그램":11935,"서민":11936,"공학":11937,"달라":11938,"##꾸로":11939,"31":11940,"진영":11941,"손상":11942,"는다면":11943,"##⠀⠀⠀⠀⠀⠀⠀⠀":11944,"you":11945,"이월":11946,"지능":11947,"같은":11948,"실행":11949,"양보":11950,"랜":11951,"##밀하":11952,"엔딩":11953,"남매":11954,"##피아":11955,"물고기":11956,"글로":11957,"각질":11958,"클래식":11959,"조만":11960,"여사":11961,"감옥":11962,"##메이드":11963,"전면":11964,"그립":11965,"파도":11966,"국민의":11967,"80":11968,"므":11969,"으셔":11970,"치약":11971,"공구":11972,"우연히":11973,"오사":11974,"울리":11975,"당당":11976,"추적":11977,"##레드":11978,"뾰":11979,"깃":11980,"전개":11981,"획":11982,"리조":11983,"역대":11984,"초점":11985,"출석":11986,"절대로":11987,"텍":11988,"유니폼":11989,"조만간":11990,"당국":11991,"객관":11992,"졸리":11993,"붕":11994,"##버스":11995,"결심":11996,"날아가":11997,"타이밍":11998,"는디":11999,"라니까":12000,"계열":12001,"어쩜":12002,"싱싱":12003,"##둔":12004,"수염":12005,"무난":12006,"빵집":12007,"##ers":12008,"탄산":12009,"아쉬움":12010,"움직임":12011,"흡입":12012,"헬멧":12013,"##렴":12014,"느리":12015,"에피":12016,"지니":12017,"윗":12018,"반발":12019,"##yc":12020,"문구":12021,"##댕이":12022,"보증":12023,"부서":12024,"적합":12025,"국립":12026,"##테스":12027,"협회":12028,"낮추":12029,"덕후":12030,"김정일":12031,"시끄럽":12032,"야하":12033,"##란드":12034,"별도":12035,"##늦":12036,"##커리":12037,"다던":12038,"수다":12039,"전제":12040,"문건":12041,"##메뉴":12042,"##플루":12043,"근로자":12044,"me":12045,"골라":12046,"시집":12047,"##제이":12048,"그리구":12049,"키스":12050,"잃어버리":12051,"그나저나":12052,"##ia":12053,"하도":12054,"아보":12055,"폐지":12056,"##다이어터":12057,"##ip":12058,"시월":12059,"대처":12060,"양심":12061,"지루하":12062,"아베":12063,"자나":12064,"정서":12065,"##옴":12066,"생겨":12067,"유연":12068,"킬로":12069,"##샐러드":12070,"다이어트그램":12071,"홍준표":12072,"##ᆯ런":12073,"라온":12074,"위장":12075,"국장":12076,"본질":12077,"일월":12078,"쿠리":12079,"두렵":12080,"잭":12081,"된장찌개":12082,"고백":12083,"여태":12084,"일산":12085,"instadaily":12086,"보쌈":12087,"스코":12088,"##였":12089,"압수":12090,"sh":12091,"잎":12092,"지갑":12093,"수박":12094,"몰라":12095,"부지":12096,"외롭":12097,"황제":12098,"큼":12099,"##게요":12100,"##커스":12101,"펫":12102,"스티커":12103,"##뎅":12104,"전력":12105,"공약":12106,"데일리룩":12107,"중고":12108,"##윈":12109,"밥먹":12110,"플라스":12111,"착각":12112,"콘텐츠":12113,"미군":12114,"반지":12115,"##카도":12116,"자외":12117,"비닐":12118,"남쪽":12119,"##빌":12120,"글씨":12121,"러브":12122,"엉덩이":12123,"수록":12124,"데려가":12125,"##허허":12126,"댄스":12127,"배출":12128,"튼튼":12129,"29":12130,"뷔":12131,"##페이":12132,"##컴":12133,"가해":12134,"질리":12135,"당기":12136,"신용":12137,"목사":12138,"##환영":12139,"요인":12140,"몰리":12141,"냐며":12142,"서울대":12143,"둔":12144,"이내":12145,"상의":12146,"동맹":12147,"해설":12148,"청춘":12149,"뇌물":12150,"놨":12151,"거절":12152,"도치":12153,"아야죠":12154,"뛰어내리":12155,"피아노":12156,"조지":12157,"매니":12158,"##ravel":12159,"##시티":12160,"##성하":12161,"철저":12162,"노조":12163,"통증":12164,"웰":12165,"해운대":12166,"90":12167,"스파이":12168,"전당":12169,"왓":12170,"연계":12171,"고리":12172,"지대":12173,"오염":12174,"융":12175,"신체":12176,"카카오톡":12177,"끔찍하":12178,"가이드":12179,"정지":12180,"젠":12181,"청양":12182,"귀하":12183,"##hoto":12184,"비법":12185,"진짜로":12186,"작곡":12187,"샤브":12188,"##뷰티":12189,"괴롭히":12190,"##떠":12191,"이주":12192,"##라이트":12193,"##구니":12194,"진화":12195,"건데":12196,"라면서":12197,"foodie":12198,"트윗":12199,"sp":12200,"조끼":12201,"개웃":12202,"쓰리":12203,"메리":12204,"##팟":12205,"열차":12206,"##돌이":12207,"멸치":12208,"실천":12209,"맞춤":12210,"끊임없이":12211,"어색":12212,"부상":12213,"얼스타그램":12214,"깻잎":12215,"여권":12216,"공단":12217,"분당":12218,"##워크":12219,"부채":12220,"장미":12221,"##ze":12222,"시트":12223,"정작":12224,"소수":12225,"소품":12226,"젤리":12227,"위안":12228,"개별":12229,"달성":12230,"트친":12231,"팁":12232,"끼우":12233,"처하":12234,"냄비":12235,"쿡스타그램":12236,"##욜":12237,"내세우":12238,"장군":12239,"장갑":12240,"신촌":12241,"달달":12242,"##민주당":12243,"##보기":12244,"맞이하":12245,"##란히":12246,"브이":12247,"kr":12248,"ㄹ께":12249,"저쪽":12250,"일구":12251,"구글":12252,"##일상":12253,"핀":12254,"먹방스타그램":12255,"디지털":12256,"수십":12257,"원피스":12258,"덮이":12259,"웬만하":12260,"삽":12261,"오가":12262,"복장":12263,"귤":12264,"ㅋㅋㅋㅋㅋㅋㅋㅋㅋㅋㅋㅋㅋㅋ":12265,"##쁨":12266,"도덕":12267,"사자":12268,"식초":12269,"달래":12270,"접촉":12271,"비례":12272,"경고":12273,"멜":12274,"접수":12275,"이영":12276,"마자":12277,"마케":12278,"마냥":12279,"##나무":12280,"비누":12281,"장성":12282,"욕망":12283,"보시":12284,"##와이":12285,"마스크팩":12286,"sns":12287,"게이":12288,"백인":12289,"민심":12290,"##샤브":12291,"퐁":12292,"ㄴ다며":12293,"구청":12294,"넘어서":12295,"변신":12296,"캠프":12297,"오버":12298,"로마":12299,"무상":12300,"필리":12301,"##해도":12302,"##스타일":12303,"양반":12304,"##ᆻ다":12305,"가죽":12306,"모의":12307,"들어보":12308,"골드":12309,"플라스틱":12310,"on":12311,"##왜":12312,"알차":12313,"숟":12314,"생존":12315,"텔레":12316,"복숭아":12317,"불어민주당":12318,"##덴":12319,"수출":12320,"소원":12321,"남친":12322,"입력":12323,"불쌍":12324,"##륜":12325,"꺼지":12326,"의학":12327,"주어지":12328,"##무지":12329,"집사":12330,"펼쳐지":12331,"예민하":12332,"사년":12333,"라멘":12334,"한복":12335,"유모":12336,"매콤":12337,"교실":12338,"현미":12339,"##아서":12340,"영감":12341,"타격":12342,"카락":12343,"막내":12344,"망치":12345,"훼손":12346,"##ld":12347,"##ㅏㅏ":12348,"##로스":12349,"반전":12350,"##왓":12351,"십팔":12352,"##ᆼ어리":12353,"십이월":12354,"응급":12355,"##쥬얼":12356,"##ㄱㅋㄱㅋ":12357,"미용실":12358,"##흘":12359,"생물":12360,"유병":12361,"텐트":12362,"둘러보":12363,"유용":12364,"당분":12365,"필터":12366,"헷갈리":12367,"슬리":12368,"그레이":12369,"선진":12370,"##방송":12371,"##워지":12372,"관절":12373,"손질":12374,"귀요":12375,"일관":12376,"##구이":12377,"발휘":12378,"##웨어":12379,"정수":12380,"똑똑하":12381,"뷔페":12382,"어지":12383,"도발":12384,"라이트":12385,"덤":12386,"전날":12387,"영혼":12388,"감시":12389,"깔리":12390,"경기장":12391,"##지마":12392,"자몽":12393,"##딘":12394,"텐":12395,"향상":12396,"억지":12397,"혈액":12398,"##리필":12399,"보완":12400,"자산":12401,"##정도":12402,"작은":12403,"껴":12404,"습니당":12405,"인용":12406,"인재":12407,"구도":12408,"비트":12409,"당원":12410,"넘겨":12411,"보여":12412,"주연":12413,"스토":12414,"위대":12415,"씨발":12416,"길이":12417,"식단일기":12418,"아시":12419,"주거":12420,"그리스":12421,"매체":12422,"학과":12423,"플랫":12424,"##다시":12425,"##사비":12426,"##aby":12427,"세젤귀":12428,"스웨터":12429,"45":12430,"모발":12431,"##드름":12432,"배상":12433,"돌아보":12434,"활성화":12435,"어이":12436,"보건":12437,"정황":12438,"피의":12439,"당뇨":12440,"꿈꾸":12441,"아보카도":12442,"##세이":12443,"##비에스":12444,"그래픽":12445,"##바디":12446,"##매트":12447,"김대중":12448,"ㄷㄷ":12449,"고수":12450,"사인":12451,"조성":12452,"서양":12453,"부엌":12454,"레인":12455,"##ᆮ히":12456,"입원":12457,"데려오":12458,"복귀":12459,"품질":12460,"웹툰":12461,"##케이스":12462,"덩":12463,"강정":12464,"삼촌":12465,"첫줄":12466,"밤새":12467,"농장":12468,"거꾸로":12469,"사모":12470,"애국":12471,"타인":12472,"외모":12473,"##페인":12474,"엔진":12475,"트러블":12476,"광화문":12477,"면허":12478,"로션":12479,"굶":12480,"경비":12481,"영구":12482,"포스터":12483,"##레임":12484,"기울이":12485,"룰":12486,"그대":12487,"추구":12488,"##번호":12489,"##orea":12490,"해치우":12491,"저축":12492,"##괄":12493,"해내":12494,"식탁":12495,"창업":12496,"오리지":12497,"##뚱":12498,"여의도":12499,"##ᆯ레이":12500,"##ca":12501,"일치":12502,"무역":12503,"씨씨":12504,"호주":12505,"간단히":12506,"동아리":12507,"애쓰":12508,"잡지":12509,"브라운":12510,"박정희":12511,"be":12512,"##ht":12513,"##나다":12514,"정기":12515,"외우":12516,"스크린":12517,"##나리오":12518,"##ᆿㅋㅋ":12519,"예능":12520,"안드":12521,"미백":12522,"동성":12523,"배제":12524,"앰플":12525,"홀로":12526,"dieter":12527,"##ᆿㅋㅋㅋㅋㅋ":12528,"##나이":12529,"한남":12530,"민생":12531,"핫한":12532,"니깐요":12533,"##bs":12534,"##갔":12535,"피트":12536,"찍어먹":12537,"낯설":12538,"한창":12539,"과하":12540,"##힘":12541,"배신":12542,"##커피":12543,"다면서요":12544,"라기":12545,"세팅":12546,"잡이":12547,"독재":12548,"황당":12549,"##뇌":12550,"##로코":12551,"주간":12552,"##줌":12553,"유채":12554,"계좌":12555,"강요":12556,"꼼":12557,"존중":12558,"논쟁":12559,"폐기":12560,"살아남":12561,"70":12562,"그하":12563,"##곰":12564,"서귀":12565,"명품":12566,"권하":12567,"##초밥":12568,"cafe":12569,"300":12570,"이외":12571,"사탕":12572,"주머니":12573,"중반":12574,"레시피":12575,"2016":12576,"도치맘":12577,"꽁":12578,"이대로":12579,"시나리오":12580,"오바":12581,"수건":12582,"문어":12583,"회계":12584,"막걸리":12585,"콧":12586,"##ko":12587,"아휴":12588,"고프":12589,"##고루":12590,"수집":12591,"무서":12592,"새댁":12593,"자매":12594,"##국수":12595,"99":12596,"기적":12597,"대략":12598,"인문":12599,"중소":12600,"핸":12601,"해피":12602,"출동":12603,"##잖아":12604,"차림":12605,"##파티":12606,"싸이":12607,"흘러":12608,"쵸":12609,"아삭":12610,"무죄":12611,"진상":12612,"두툼":12613,"톱":12614,"##둠":12615,"##듭":12616,"파인":12617,"라이프":12618,"코코넛":12619,"썬":12620,"전골":12621,"출장":12622,"칠월":12623,"서귀포":12624,"닉":12625,"런치":12626,"브라우":12627,"travel":12628,"스리":12629,"인근":12630,"##버터":12631,"##룽":12632,"호르":12633,"창조":12634,"삭제":12635,"퀄리티":12636,"고무":12637,"피드":12638,"입증":12639,"전화번호":12640,"도망가":12641,"주류":12642,"김일":12643,"속이":12644,"올려놓":12645,"있는":12646,"생강":12647,"##진짜":12648,"##돼지":12649,"이재명":12650,"##ᅪᆼ":12651,"물티슈":12652,"불행":12653,"##합니다":12654,"엠비씨":12655,"##챠":12656,"갈라":12657,"고유":12658,"유형":12659,"##게티":12660,"순하":12661,"아들맘":12662,"##뜻":12663,"이지":12664,"다큐":12665,"대개":12666,"무사":12667,"집어":12668,"명분":12669,"속하":12670,"숙성":12671,"톡톡":12672,"마는":12673,"단맛":12674,"극단":12675,"자율":12676,"탕수":12677,"박지원":12678,"은퇴":12679,"페이스북":12680,"원숭이":12681,"자구":12682,"##오리":12683,"와우":12684,"김지":12685,"육년":12686,"심정":12687,"흥분":12688,"##ᆺ살":12689,"##이션":12690,"세이":12691,"때로":12692,"추측":12693,"아이구":12694,"##번에":12695,"마케팅":12696,"쩌":12697,"지상":12698,"자국":12699,"무척":12700,"까지ㄴ":12701,"팟":12702,"긴급":12703,"##묘하":12704,"cm":12705,"뿜":12706,"##뿜":12707,"거지":12708,"위생":12709,"갠":12710,"애인":12711,"목격":12712,"아아아":12713,"투입":12714,"08":12715,"##땡":12716,"##쫀":12717,"##te":12718,"사먹":12719,"##분하":12720,"메달":12721,"##다이어트":12722,"스노우":12723,"##good":12724,"소소":12725,"##부지":12726,"##찾":12727,"실시":12728,"잠실":12729,"급여":12730,"##길래":12731,"사면":12732,"기지":12733,"면맞팔":12734,"수비":12735,"상위":12736,"다는데요":12737,"손톱":12738,"와이프":12739,"##멀":12740,"분식":12741,"분양":12742,"금속":12743,"쫄깃":12744,"##ᆺ솔":12745,"##짠":12746,"오호":12747,"물어":12748,"##빠지":12749,"윤리":12750,"아리":12751,"다크":12752,"오케":12753,"노선":12754,"김기":12755,"엄지":12756,"##싱턴":12757,"##렬하":12758,"물러나":12759,"fr":12760,"##꾼":12761,"는듯":12762,"대접":12763,"##새우":12764,"브레이크":12765,"끈적":12766,"사원":12767,"##칩":12768,"연하":12769,"찾아내":12770,"씌":12771,"이스":12772,"교류":12773,"색감":12774,"오브":12775,"##초코":12776,"논술":12777,"온갖":12778,"##ofinstagram":12779,"호르몬":12780,"##한데":12781,"카페스타그램":12782,"어찌나":12783,"튼튼하":12784,"거두":12785,"서점":12786,"응답":12787,"짱짱":12788,"앓":12789,"우편":12790,"공직":12791,"라는데":12792,"경선":12793,"커뮤":12794,"##eaut":12795,"썸":12796,"##똥":12797,"오로":12798,"##빗":12799,"혹시나":12800,"낮잠":12801,"댁":12802,"테마":12803,"고등어":12804,"lov":12805,"일차":12806,"처분":12807,"중계":12808,"연령":12809,"딸스타그램":12810,"비쥬얼":12811,"동반":12812,"파크":12813,"강경":12814,"청산":12815,"끼치":12816,"웨이팅":12817,"instagood":12818,"댕댕이":12819,"하락":12820,"한때":12821,"미션":12822,"##대문":12823,"상가":12824,"##쉽":12825,"급식":12826,"고문":12827,"##돌리":12828,"세용":12829,"프라":12830,"십구":12831,"마음대로":12832,"##됨":12833,"##ᆺ다":12834,"##ㅅㅎ":12835,"##스킨":12836,"생후":12837,"놀리":12838,"중도":12839,"귀신":12840,"pr":12841,"먹을":12842,"살살":12843,"그라":12844,"##닐라":12845,"거칠":12846,"##사이":12847,"신중":12848,"감탄":12849,"##연하":12850,"최악":12851,"날개":12852,"##란다":12853,"묘하":12854,"불쌍하":12855,"유병언":12856,"mm":12857,"##iv":12858,"거주":12859,"색다르":12860,"앵커":12861,"랭":12862,"하하":12863,"면은":12864,"생방송":12865,"박원":12866,"태극":12867,"골고루":12868,"탈모":12869,"어유":12870,"네트":12871,"나온":12872,"호소":12873,"메르":12874,"##빨리":12875,"ㅂ니당":12876,"분류":12877,"걸이":12878,"웨딩":12879,"##냉":12880,"##ao":12881,"도하":12882,"##미래":12883,"##밀리":12884,"역량":12885,"행보":12886,"트로":12887,"허가":12888,"혐오":12889,"ㄹ래요":12890,"챙겨":12891,"##ub":12892,"한꺼":12893,"##한하":12894,"왤":12895,"매달리":12896,"철도":12897,"햇빛":12898,"즙":12899,"yumm":12900,"##로션":12901,"##어주":12902,"##도그":12903,"한방":12904,"소음":12905,"우정":12906,"##버거":12907,"##해줘":12908,"살피":12909,"뚱":12910,"##ᅣᆷ":12911,"가보":12912,"옴":12913,"수육":12914,"통보":12915,"협정":12916,"탐구":12917,"씹히":12918,"##다고":12919,"제형":12920,"내사랑":12921,"치아":12922,"##비아":12923,"개편":12924,"입법":12925,"월드컵":12926,"씨씨티비":12927,"콕":12928,"로드":12929,"인치":12930,"##한거":12931,"포항":12932,"메일":12933,"샷":12934,"찹쌀":12935,"하면":12936,"##고추":12937,"##oy":12938,"보충":12939,"서면":12940,"##벳":12941,"비대":12942,"공짜":12943,"##ᆯ릭":12944,"당면":12945,"코덕":12946,"손목":12947,"책스타그램":12948,"홍삼":12949,"승부":12950,"##캣":12951,"다네":12952,"##이너":12953,"평등":12954,"##ert":12955,"압력":12956,"케어":12957,"##ffee":12958,"usb":12959,"만일":12960,"해수":12961,"씬":12962,"직후":12963,"던데요":12964,"##썸":12965,"시신":12966,"감싸":12967,"발리":12968,"강연":12969,"증인":12970,"한꺼번에":12971,"깡":12972,"저하":12973,"사일":12974,"##그라":12975,"중년":12976,"##냅":12977,"##파이터":12978,"곁들이":12979,"##ok":12980,"##삐":12981,"들고":12982,"마인드":12983,"##아나":12984,"부천":12985,"##졸":12986,"체중":12987,"##할때":12988,"##퍼스":12989,"##art":12990,"더군다나":12991,"##ung":12992,"어묵":12993,"사시":12994,"과도":12995,"##타임":12996,"치열":12997,"장수":12998,"감당":12999,"##퐁":13000,"##칵":13001,"##자리":13002,"세안":13003,"비키":13004,"##모닝":13005,"팔월":13006,"금리":13007,"##sty":13008,"##ᆺ가루":13009,"ㄴ다니까":13010,"상영":13011,"진출":13012,"외계":13013,"봉투":13014,"벽돌":13015,"재능":13016,"용산":13017,"##oon":13018,"베이컨":13019,"숟가락":13020,"##av":13021,"을수":13022,"자제":13023,"주기":13024,"노릇":13025,"##성분":13026,"해체":13027,"휴무":13028,"##쿠아":13029,"왕자":13030,"봉지":13031,"코미디":13032,"se":13033,"##뛰":13034,"##hy":13035,"마포":13036,"여인":13037,"왔":13038,"성당":13039,"멕시":13040,"##파크":13041,"북쪽":13042,"런던":13043,"놔두":13044,"겹치":13045,"하필":13046,"좆":13047,"유학":13048,"넘어지":13049,"갈치":13050,"##앱":13051,"곤란":13052,"블루베리":13053,"##쫄":13054,"기둥":13055,"에게서":13056,"용도":13057,"으니깐":13058,"유기농":13059,"갇히":13060,"지옥":13061,"영광":13062,"임기":13063,"힐":13064,"협조":13065,"부딪히":13066,"쟁이":13067,"지진":13068,"천장":13069,"풍선":13070,"유저":13071,"공룡":13072,"카라":13073,"육회":13074,"petstagram":13075,"은거":13076,"##고나":13077,"유권":13078,"코디":13079,"염증":13080,"국내산":13081,"쇼핑몰":13082,"살아오":13083,"클린턴":13084,"굵":13085,"##게트":13086,"해봤":13087,"단골":13088,"통장":13089,"태풍":13090,"ㄹ려":13091,"보석":13092,"옵니다":13093,"분수":13094,"울타리":13095,"##org":13096,"어쩌다":13097,"##베이터":13098,"지리":13099,"조르":13100,"국면":13101,"물가":13102,"후추":13103,"아토":13104,"을듯":13105,"##야되":13106,"소지":13107,"구리":13108,"비즈":13109,"두유":13110,"##티디":13111,"재수":13112,"단속":13113,"싱가":13114,"시그":13115,"캐나다":13116,"김치찌개":13117,"뚝딱":13118,"cu":13119,"가위":13120,"일방":13121,"생생":13122,"연세":13123,"업데이트":13124,"뛰어다니":13125,"900":13126,"##뱅":13127,"##러쉬":13128,"한거":13129,"깍":13130,"입주":13131,"계곡":13132,"좌우":13133,"##클린":13134,"아카":13135,"드럼":13136,"##수있":13137,"방탄":13138,"특집":13139,"or":13140,"re":13141,"ㅎㅅㅎ":13142,"오락":13143,"##그러":13144,"드려":13145,"신당":13146,"최강":13147,"취급":13148,"##배기":13149,"견스타그램":13150,"두툼하":13151,"ㅜㅜㅜ":13152,"고모":13153,"##가리":13154,"부처":13155,"진입":13156,"왜케":13157,"##세스":13158,"발음":13159,"##팩트":13160,"징계":13161,"##ue":13162,"이념":13163,"다그램":13164,"사냥":13165,"화성":13166,"배낭":13167,"as":13168,"아몬드":13169,"닥":13170,"##이가":13171,"비중":13172,"발효":13173,"##즈니":13174,"판타":13175,"채용":13176,"험":13177,"##ᆺ지":13178,"이별":13179,"한일":13180,"차분":13181,"또다시":13182,"확산":13183,"아냐":13184,"갔":13185,"##리스트":13186,"##다하":13187,"세부":13188,"화나":13189,"##은거":13190,"첨가":13191,"만만하":13192,"김진":13193,"결합":13194,"삼각":13195,"메밀":13196,"첫날":13197,"궁합":13198,"나타내":13199,"지성":13200,"기원":13201,"주체":13202,"설립":13203,"명동":13204,"포스트":13205,"호기":13206,"양식":13207,"청원":13208,"프레임":13209,"할거":13210,"##샴푸":13211,"함부":13212,"슬슬":13213,"32":13214,"다먹":13215,"보복":13216,"여튼":13217,"##오오":13218,"ㄴ다니":13219,"와사비":13220,"해먹":13221,"뿌듯하":13222,"무한리필":13223,"오사카":13224,"##ww":13225,"교정":13226,"북스타그램":13227,"##특별":13228,"춘천":13229,"당분간":13230,"인수":13231,"치기":13232,"건대":13233,"히어":13234,"##쿵":13235,"띄우":13236,"파우더":13237,"ip":13238,"의존":13239,"기독":13240,"댄":13241,"##마을":13242,"차돌":13243,"##해봤":13244,"창의":13245,"##마리":13246,"안양":13247,"인민":13248,"백십":13249,"박히":13250,"##베큐":13251,"셨":13252,"닭발":13253,"림":13254,"##니어":13255,"수백":13256,"동상":13257,"토크":13258,"##어나오":13259,"벌금":13260,"서울특별":13261,"나뉘":13262,"십일월":13263,"오오티디":13264,"서울특별시":13265,"널":13266,"미스터":13267,"팔로":13268,"머릿속":13269,"뮤직":13270,"팽":13271,"##ct":13272,"엎":13273,"모닝":13274,"더러":13275,"말차":13276,"머물":13277,"벌레":13278,"뷰스타그램":13279,"어여":13280,"고래":13281,"##시스":13282,"일제":13283,"구축":13284,"비오":13285,"터미":13286,"펄":13287,"아픔":13288,"저항":13289,"마일":13290,"트레이":13291,"퇴직":13292,"##ᆯ거":13293,"##딴":13294,"유도":13295,"공방":13296,"평상":13297,"##덮":13298,"체인":13299,"블록":13300,"덮밥":13301,"마라톤":13302,"##eauty":13303,"사운드":13304,"예수":13305,"구워":13306,"세일":13307,"두께":13308,"집착":13309,"맥락":13310,"쭈꾸미":13311,"므로":13312,"##렉스":13313,"디제이":13314,"##같이":13315,"##ealth":13316,"이종":13317,"도리":13318,"##더스":13319,"합정":13320,"##패드":13321,"멀티":13322,"ㅠㅠㅠㅠㅠㅠ":13323,"빌딩":13324,"킥":13325,"##pg":13326,"여드름":13327,"##무르":13328,"상호":13329,"선전":13330,"발목":13331,"콤":13332,"십사":13333,"##ㅎㅎㅎㅎ":13334,"##닌":13335,"##어놓":13336,"제법":13337,"진료":13338,"관여":13339,"육즙":13340,"키로":13341,"잡아":13342,"견과":13343,"##틈":13344,"##ter":13345,"##니티":13346,"##다그램":13347,"##마켓":13348,"중대":13349,"추첨":13350,"포켓":13351,"##팝":13352,"순식":13353,"##시트":13354,"차기":13355,"검정":13356,"##슘":13357,"##겸":13358,"부스":13359,"##화물":13360,"구두":13361,"##소드":13362,"즐거움":13363,"박원순":13364,"함부로":13365,"도우":13366,"저리":13367,"야경":13368,"식이":13369,"힘드":13370,"유발":13371,"##프리카":13372,"악마":13373,"##ous":13374,"sc":13375,"서핑":13376,"ㄴ다던":13377,"법인":13378,"충실":13379,"혼밥":13380,"##랍":13381,"전신":13382,"##생각":13383,"출입":13384,"뒤쪽":13385,"디스":13386,"패널":13387,"업계":13388,"음료수":13389,"am":13390,"cg":13391,"hom":13392,"이치":13393,"수당":13394,"##수화물":13395,"알티":13396,"포트":13397,"설거지":13398,"속초":13399,"1000":13400,"뛰어넘":13401,"더더욱":13402,"처방":13403,"##밖":13404,"쓸데":13405,"여보세요":13406,"츄":13407,"장인":13408,"실종":13409,"질서":13410,"김일성":13411,"##펌":13412,"##싼":13413,"줍":13414,"인력":13415,"##무침":13416,"무장":13417,"번지":13418,"##창하":13419,"팍팍":13420,"짙":13421,"사료":13422,"서운":13423,"##트로":13424,"진주":13425,"몸매":13426,"워싱턴":13427,"예술가":13428,"상관없이":13429,"두근":13430,"응시":13431,"술스타그램":13432,"끊기":13433,"##페이스":13434,"다스":13435,"덩어리":13436,"##트라":13437,"경치":13438,"신메뉴":13439,"목살":13440,"엄마랑":13441,"패러":13442,"##플러스":13443,"승인":13444,"살아나":13445,"은하":13446,"나들":13447,"상인":13448,"경남":13449,"동카페":13450,"방치":13451,"##에프":13452,"허브":13453,"따라오":13454,"가리키":13455,"기한":13456,"전설":13457,"잘나":13458,"타워":13459,"디테일":13460,"경찰관":13461,"볼륨":13462,"브리핑":13463,"bl":13464,"쓴":13465,"서두르":13466,"밍":13467,"선명":13468,"새기":13469,"억제":13470,"지혜":13471,"나아지":13472,"라스":13473,"동아":13474,"왤케":13475,"툭":13476,"##👍🏻":13477,"##롱이":13478,"전직":13479,"전남":13480,"토너":13481,"내려놓":13482,"웅웅":13483,"흘러가":13484,"no":13485,"고집":13486,"##ᅥᆫ지":13487,"예매":13488,"정비":13489,"신화":13490,"매매":13491,"타자":13492,"얼큰":13493,"러닝":13494,"이르케":13495,"바른미래":13496,"neko":13497,"샤브샤브":13498,"오리지널":13499,"도중":13500,"##트롤":13501,"##바삭":13502,"발레":13503,"포르":13504,"메세지":13505,"코리아":13506,"마주치":13507,"##셈":13508,"초보":13509,"##이없":13510,"##ard":13511,"아미":13512,"마흔":13513,"실무":13514,"별거":13515,"질병":13516,"보내드리":13517,"컨디션":13518,"태극기":13519,"저분":13520,"여왕":13521,"부적":13522,"인디":13523,"차관":13524,"발매":13525,"cats":13526,"기독교":13527,"아재":13528,"시카":13529,"##ᆯ린지":13530,"양복":13531,"토핑":13532,"증정":13533,"꺾":13534,"동그":13535,"달려":13536,"코치":13537,"사용자":13538,"테크":13539,"컨텐츠":13540,"이재용":13541,"단단하":13542,"www":13543,"##sh":13544,"에그":13545,"사령":13546,"바닐라":13547,"모기":13548,"벌리":13549,"후후":13550,"건드리":13551,"폭로":13552,"드라구":13553,"블루투스":13554,"뻥":13555,"##ᆸ터":13556,"##닷":13557,"사주":13558,"진학":13559,"연수":13560,"드림":13561,"잠재":13562,"접속":13563,"대체로":13564,"빠져나가":13565,"kt":13566,"mar":13567,"지출":13568,"맛이":13569,"김동":13570,"천국":13571,"떨어뜨리":13572,"del":13573,"it":13574,"##얘":13575,"시크":13576,"보신":13577,"##스파":13578,"경호":13579,"감히":13580,"##월드":13581,"갈때":13582,"꼭대기":13583,"탄수화물":13584,"꾸덕":13585,"보고싶":13586,"클래스":13587,"##ᆺ는데":13588,"이놈":13589,"조그":13590,"으라":13591,"교도":13592,"양말":13593,"##브이":13594,"항의":13595,"타이틀":13596,"바이오":13597,"fff":13598,"의뢰":13599,"바구니":13600,"##랬":13601,"노후":13602,"업그":13603,"198":13604,"##썬":13605,"로즈":13606,"##힐":13607,"비건":13608,"엉엉":13609,"굿굿":13610,"핑계":13611,"yummy":13612,"##잎":13613,"개방":13614,"진리":13615,"##느낌":13616,"##ation":13617,"##ud":13618,"##욤":13619,"한자":13620,"로비":13621,"##아들":13622,"감안":13623,"키보드":13624,"패스트":13625,"복합":13626,"프로필":13627,"광안":13628,"스페셜":13629,"##eat":13630,"##for":13631,"##젤리":13632,"외관":13633,"디즈니":13634,"베리":13635,"바람직하":13636,"에스엔에스":13637,"##ᆸ하":13638,"다짐":13639,"보좌":13640,"적폐":13641,"장학":13642,"통통":13643,"##병우":13644,"농단":13645,"health":13646,"하키":13647,"사막":13648,"##저리":13649,"내밀":13650,"외과":13651,"압도":13652,"필라테스":13653,"##20":13654,"나도":13655,"롤러":13656,"반반":13657,"발달":13658,"빵빵":13659,"돌려주":13660,"##쿼":13661,"조항":13662,"##텍":13663,"다가가":13664,"##포트":13665,"휘두르":13666,"##엄마":13667,"드라이브":13668,"김종인":13669,"이비에스":13670,"지위":13671,"거론":13672,"오직":13673,"서부터":13674,"##아찌":13675,"세척":13676,"##인것":13677,"잘라":13678,"측근":13679,"내려다보":13680,"으려면":13681,"##벅지":13682,"크로스":13683,"마스터":13684,"부활":13685,"공복":13686,"##비전":13687,"분열":13688,"실현":13689,"따위":13690,"월세":13691,"트래":13692,"밀착":13693,"이집":13694,"하긴":13695,"##가스":13696,"몫":13697,"음성":13698,"후쿠":13699,"포착":13700,"##렌치":13701,"매니저":13702,"비즈니스":13703,"히어로":13704,"바른미래당":13705,"vs":13706,"서버":13707,"아이디":13708,"작정":13709,"막대기":13710,"아들스타그램":13711,"볼수":13712,"도망치":13713,"하단":13714,"뭐먹":13715,"유독":13716,"진로":13717,"호랑":13718,"충족":13719,"찌르":13720,"탄탄":13721,"즉시":13722,"찰떡":13723,"숭":13724,"모듬":13725,"공산":13726,"##키즈":13727,"잠수":13728,"향후":13729,"그만하":13730,"마이클":13731,"핫도그":13732,"주부스타그램":13733,"gs":13734,"령":13735,"지붕":13736,"##인증":13737,"선보이":13738,"##맨스":13739,"돌파":13740,"##샘":13741,"리조트":13742,"이득":13743,"부시":13744,"유죄":13745,"잊어버리":13746,"##뵈":13747,"나경":13748,"기쁨":13749,"라운드":13750,"드루":13751,"교양":13752,"느껴":13753,"##펫":13754,"##멘트":13755,"##걸이":13756,"펜션":13757,"##ᆯ런스":13758,"km":13759,"이수":13760,"##부모":13761,"분유":13762,"원조":13763,"##팁":13764,"후드":13765,"뒤늦":13766,"깨우":13767,"스벅":13768,"대게":13769,"정장":13770,"##마마":13771,"세균":13772,"##인플루":13773,"칫솔":13774,"알파":13775,"재난":13776,"##덩":13777,"ㅋㅋㅋㅋㅋㅋㅋㅋㅋㅋㅋㅋㅋㅋㅋ":13778,"워크":13779,"흑백":13780,"요가":13781,"동양":13782,"못먹":13783,"눈빛":13784,"ㅠㅜ":13785,"##ure":13786,"거듭":13787,"끌리":13788,"##ᆺ대":13789,"##쑥":13790,"도박":13791,"마우스":13792,"요원":13793,"일대":13794,"우병우":13795,"심플":13796,"려나":13797,"라하":13798,"로스":13799,"부패":13800,"안기":13801,"비극":13802,"장모":13803,"##짬뽕":13804,"플로":13805,"##ce":13806,"는게":13807,"##릭":13808,"인성":13809,"뱀":13810,"##코디":13811,"##월하":13812,"임자":13813,"육아그램":13814,"클라":13815,"옵션":13816,"퀘":13817,"주무시":13818,"##스콘":13819,"##야지":13820,"서명":13821,"내면":13822,"차장":13823,"비유":13824,"개운":13825,"원고":13826,"통상":13827,"좋아요":13828,"캘리":13829,"임무":13830,"품격":13831,"al":13832,"더욱더":13833,"햇살":13834,"##look":13835,"고시":13836,"시술":13837,"읍":13838,"오키":13839,"두드리":13840,"잘어":13841,"입양":13842,"감추":13843,"##콜라":13844,"줄기":13845,"독스타그램":13846,"집어넣":13847,"사위":13848,"기각":13849,"부품":13850,"델":13851,"빼놓":13852,"바꿔":13853,"택하":13854,"캠페인":13855,"에피소드":13856,"##ᆫ거":13857,"마블":13858,"##게하":13859,"장례":13860,"국밥":13861,"청담":13862,"육일":13863,"별명":13864,"##스트라":13865,"풍미":13866,"##꼭":13867,"곽":13868,"부문":13869,"##마크":13870,"개최":13871,"왠":13872,"결말":13873,"카트":13874,"카우":13875,"##와서":13876,"민감":13877,"##삼겹":13878,"슬픔":13879,"둘러싸이":13880,"들려주":13881,"이슬":13882,"선풍":13883,"장착":13884,"매출":13885,"##룽지":13886,"##갓":13887,"여ᄍ":13888,"일보":13889,"안산":13890,"믹스":13891,"화가":13892,"느라고":13893,"발명":13894,"베개":13895,"벨트":13896,"세젤예":13897,"연상":13898,"학대":13899,"##네일":13900,"한국어":13901,"취임":13902,"클로":13903,"멀쩌":13904,"스킬":13905,"01":13906,"조종":13907,"오타":13908,"구원":13909,"파주":13910,"##카드":13911,"##샌드":13912,"혼인":13913,"히트":13914,"짱맛":13915,"디자이너":13916,"ㅎㅎㅎㅎㅎ":13917,"카운터":13918,"##넌":13919,"지문":13920,"을수록":13921,"시티":13922,"정착":13923,"##진이":13924,"김한":13925,"식빵":13926,"드릴":13927,"판문":13928,"변수":13929,"병사":13930,"황후":13931,"##갈때":13932,"자영":13933,"서요":13934,"노예":13935,"반박":13936,"건네":13937,"홈메이드":13938,"##ork":13939,"꿇":13940,"두려움":13941,"콜라겐":13942,"##므로":13943,"la":13944,"ㄹ수":13945,"##ᆸ쓸":13946,"아드":13947,"주관":13948,"예의":13949,"감염":13950,"욕구":13951,"지자":13952,"부착":13953,"야지":13954,"해방":13955,"실업":13956,"##엿":13957,"##늄":13958,"##투어":13959,"##all":13960,"##클렌징":13961,"귀요미":13962,"럭":13963,"##퀘":13964,"딥":13965,"잔인":13966,"180":13967,"가상":13968,"보존":13969,"불판":13970,"덴":13971,"##호텔":13972,"친노":13973,"넘어오":13974,"챔":13975,"다이어트일기":13976,"폐쇄":13977,"퍽":13978,"미만":13979,"아서요":13980,"불닭":13981,"수시로":13982,"기상":13983,"개스타그램":13984,"밴":13985,"멜로":13986,"난이":13987,"쓱":13988,"이석":13989,"주고":13990,"전두":13991,"상업":13992,"상임":13993,"당내":13994,"참나":13995,"현직":13996,"떠들":13997,"어느새":13998,"##able":13999,"마라탕":14000,"02":14001,"##ᆺ수":14002,"##ju":14003,"##지말":14004,"담그":14005,"흐리":14006,"숙제":14007,"짐작":14008,"춤추":14009,"##uppy":14010,"ma":14011,"꾹":14012,"이건":14013,"마땅":14014,"천문":14015,"법관":14016,"##절미":14017,"스트레":14018,"하얀":14019,"##ᆿㅋㅋㅋㅋㅋㅋ":14020,"이왕":14021,"도장":14022,"리그램":14023,"넘넘":14024,"십육":14025,"꼬마":14026,"휴양":14027,"각도":14028,"윤기":14029,"흥행":14030,"가로지르":14031,"트렌드":14032,"여쭤":14033,"gao":14034,"##가루":14035,"##오카":14036,"원료":14037,"맞서":14038,"침묵":14039,"##eco":14040,"스피커":14041,"라던가":14042,"eat":14043,"하와이":14044,"제국":14045,"유대":14046,"ㄴ다면서":14047,"바삭바삭":14048,"##스티벌":14049,"윈도우":14050,"미끄러지":14051,"판타지":14052,"ss":14053,"일시":14054,"인다이어터":14055,"세련":14056,"유머":14057,"분해":14058,"배불":14059,"엄격":14060,"coffee":14061,"글로벌":14062,"puppy":14063,"수저":14064,"소용":14065,"미스":14066,"간부":14067,"눈길":14068,"산뜻하":14069,"웨이":14070,"수분크림":14071,"33":14072,"마켓":14073,"대우":14074,"유출":14075,"원리":14076,"투수":14077,"##one":14078,"##운데이션":14079,"ㄴ걸":14080,"아티":14081,"자취":14082,"수험":14083,"##사스":14084,"##모델":14085,"##넬":14086,"튀어나오":14087,"##볶음밥":14088,"반기문":14089,"나이트":14090,"엮":14091,"먹음":14092,"칙":14093,"김혜":14094,"허니":14095,"채택":14096,"억지로":14097,"##뜰":14098,"##스테이크":14099,"##줌마":14100,"##일구":14101,"십오":14102,"##꿍":14103,"재미없":14104,"##ㅠㅠㅠㅠㅠ":14105,"##꼴":14106,"매직":14107,"목포":14108,"##플레이스":14109,"붕괴":14110,"플랫폼":14111,"멕시코":14112,"##그룹":14113,"계신":14114,"리모":14115,"스타트":14116,"활약":14117,"##읍":14118,"랜드":14119,"깜빡":14120,"##ack":14121,"낡":14122,"네에":14123,"스콘":14124,"애교":14125,"##못하":14126,"데치":14127,"##임스":14128,"셔요":14129,"농도":14130,"싱글":14131,"일자":14132,"정면":14133,"비박":14134,"피지":14135,"김수":14136,"김용":14137,"##은편":14138,"##브라":14139,"##메일":14140,"어우러지":14141,"납득":14142,"##ling":14143,"##50":14144,"##아침":14145,"유부":14146,"##에이드":14147,"뜬":14148,"팡":14149,"는줄":14150,"고지":14151,"마요":14152,"로고":14153,"차려":14154,"트라":14155,"허벅지":14156,"착한":14157,"아뇨":14158,"사리":14159,"조아":14160,"화해":14161,"신동":14162,"통치":14163,"산타":14164,"축소":14165,"판문점":14166,"ㄹ라":14167,"##ㅇㅇ":14168,"##로이드":14169,"스승":14170,"바치":14171,"바베큐":14172,"먹짤":14173,"이제야":14174,"##비비":14175,"성남":14176,"특위":14177,"멘트":14178,"티라미":14179,"##lean":14180,"영원히":14181,"스님":14182,"##아웃":14183,"부각":14184,"부당":14185,"제자":14186,"샘플":14187,"어휴":14188,"조현":14189,"무침":14190,"공작":14191,"피크":14192,"행운":14193,"용의":14194,"어쩔":14195,"데일리그램":14196,"메르스":14197,"업그레이드":14198,"##둬":14199,"##껄":14200,"##zz":14201,"먹어":14202,"화사":14203,"상사":14204,"신데":14205,"반사":14206,"최신":14207,"누룽지":14208,"등심":14209,"굉장하":14210,"시켰":14211,"한숨":14212,"서브":14213,"##솥":14214,"체리":14215,"환불":14216,"중국어":14217,"눌러":14218,"유챌":14219,"cl":14220,"##고하":14221,"으리":14222,"대세":14223,"모험":14224,"인종":14225,"개조":14226,"장벽":14227,"왜곡":14228,"젊줌마":14229,"컨트롤":14230,"드루킹":14231,"사로":14232,"제임스":14233,"추세":14234,"앞쪽":14235,"용돈":14236,"스타베이비":14237,"##oun":14238,"서운하":14239,"그늘":14240,"지저":14241,"도심":14242,"전역":14243,"음반":14244,"패딩":14245,"싸먹":14246,"색소":14247,"혼나":14248,"블라":14249,"##볕":14250,"황당하":14251,"##리안":14252,"##저런":14253,"미네":14254,"알라":14255,"그네":14256,"삼사":14257,"열쇠":14258,"디엠":14259,"하하하":14260,"오케이":14261,"구현":14262,"섹스":14263,"청결":14264,"##머스":14265,"농사":14266,"탈북":14267,"나경원":14268,"##컥":14269,"이대":14270,"는것":14271,"스쿠":14272,"대권":14273,"##레이트":14274,"갑질":14275,"바이러스":14276,"##style":14277,"ps":14278,"거북":14279,"만점":14280,"정유":14281,"##줍":14282,"미드":14283,"관행":14284,"올바르":14285,"빼앗":14286,"##ffici":14287,"캣스타그램":14288,"lsc":14289,"지향":14290,"나비":14291,"소매":14292,"드물":14293,"유혹":14294,"첩":14295,"배구":14296,"맞아":14297,"강점":14298,"막말":14299,"십삼":14300,"글램":14301,"항목":14302,"199":14303,"탱글":14304,"알려드리":14305,"##가드":14306,"오류":14307,"유예":14308,"성실":14309,"음식스타그램":14310,"##렌저":14311,"알아듣":14312,"칵":14313,"##bc":14314,"##ᆺ줄":14315,"지연":14316,"기생":14317,"부하":14318,"상실":14319,"버블":14320,"##버트":14321,"관측":14322,"추행":14323,"불량":14324,"요리스타그램":14325,"홈카페":14326,"숨지":14327,"아오":14328,"고런":14329,"시중":14330,"요약":14331,"##마롱":14332,"남부":14333,"감수":14334,"##먹으":14335,"##ill":14336,"플라워":14337,"##fficial":14338,"##글리":14339,"하우":14340,"시진":14341,"시급":14342,"##데오":14343,"조립":14344,"조아하":14345,"##스프":14346,"세븐":14347,"##일랜드":14348,"문신":14349,"막창":14350,"풋":14351,"승객":14352,"센치":14353,"이정도":14354,"쟁점":14355,"속상하":14356,"사로잡":14357,"kore":14358,"나와":14359,"기어":14360,"붐비":14361,"##전하":14362,"장악":14363,"반죽":14364,"리라":14365,"행성":14366,"풍성하":14367,"퀸":14368,"ㄴ대요":14369,"찢어지":14370,"##캬":14371,"주석":14372,"창작":14373,"녹화":14374,"홈런":14375,"배고파":14376,"돋보이":14377,"##ᆸ싸":14378,"그닥":14379,"##부리":14380,"경로":14381,"추위":14382,"패치":14383,"바닷가":14384,"네네네":14385,"납치":14386,"은근히":14387,"##다닥":14388,"좀비":14389,"경북":14390,"선사":14391,"원주":14392,"신비":14393,"신규":14394,"매달":14395,"타이어":14396,"##호하":14397,"운행":14398,"ㄴ지라":14399,"민트":14400,"종전":14401,"권위":14402,"복원":14403,"슬라이":14404,"dailylook":14405,"쌩":14406,"가려":14407,"스틱":14408,"일각":14409,"##아다니":14410,"치명":14411,"해고":14412,"방사":14413,"불독":14414,"강렬하":14415,"립스":14416,"메가":14417,"본점":14418,"산성":14419,"톰":14420,"취직":14421,"자체가":14422,"철수":14423,"땅콩":14424,"##낮":14425,"수유":14426,"정무":14427,"소풍":14428,"내새끼":14429,"영수":14430,"폭염":14431,"창고":14432,"스케줄":14433,"외계인":14434,"저지":14435,"보러가":14436,"줌":14437,"대여":14438,"##래기":14439,"정국":14440,"내보내":14441,"##타인":14442,"##테리":14443,"등반":14444,"복구":14445,"머릿":14446,"선팔맞팔":14447,"뒷면":14448,"플레이어":14449,"밀크티":14450,"깃발":14451,"de":14452,"쇄":14453,"이쁜":14454,"보기":14455,"야간":14456,"상세":14457,"두루":14458,"현역":14459,"##등포":14460,"효능":14461,"텍사스":14462,"터미널":14463,"kat":14464,"는곳":14465,"시바":14466,"분쟁":14467,"괴물":14468,"##ick":14469,"염려":14470,"견제":14471,"탑승":14472,"브라우니":14473,"to":14474,"##캉":14475,"거르":14476,"사찰":14477,"대왕":14478,"##구정":14479,"더미":14480,"공모":14481,"문명":14482,"##넹":14483,"돌이":14484,"##케이션":14485,"꽂히":14486,"무난하":14487,"ex":14488,"인가":14489,"선임":14490,"파스":14491,"##펜스":14492,"터키":14493,"고춧가루":14494,"instadog":14495,"##ᆯ수":14496,"##댜":14497,"오메":14498,"오븐":14499,"한상":14500,"경사":14501,"##레오":14502,"학력":14503,"종북":14504,"##꼽":14505,"셋째":14506,"##me":14507,"이라":14508,"이삼":14509,"보편":14510,"부과":14511,"아니야":14512,"성수":14513,"타협":14514,"명단":14515,"파라":14516,"편견":14517,"##족발":14518,"법칙":14519,"조선일보":14520,"파우치":14521,"fit":14522,"보물":14523,"사형":14524,"##스렇":14525,"한눈":14526,"만세":14527,"야야":14528,"야무지":14529,"##모드":14530,"김장":14531,"간지":14532,"##역시":14533,"##끼리":14534,"필리핀":14535,"척하":14536,"보컬":14537,"일행":14538,"솥":14539,"##렷하":14540,"##당기":14541,"##소하":14542,"크루":14543,"불꽃":14544,"포크":14545,"다이빙":14546,"##고양이":14547,"거랑":14548,"예외":14549,"부치":14550,"남겨":14551,"코팅":14552,"길어지":14553,"형편":14554,"허위":14555,"충청":14556,"##언스":14557,"자칫":14558,"##uc":14559,"이마트":14560,"보람":14561,"일품":14562,"전선":14563,"분량":14564,"##한잔":14565,"파이팅":14566,"참사":14567,"2015":14568,"##바이오":14569,"섭섭":14570,"텀":14571,"##춤":14572,"으응":14573,"오뎅":14574,"##동물":14575,"양육":14576,"종료":14577,"가라앉":14578,"유전자":14579,"이마":14580,"실체":14581,"##워터":14582,"ㅋㅋㅋㅋㅋㅋㅋㅋㅋㅋㅋㅋㅋㅋㅋㅋ":14583,"악화":14584,"벗기":14585,"꼼꼼히":14586,"코믹":14587,"텔레비전":14588,"##쫄깃":14589,"##춰":14590,"안티":14591,"내역":14592,"이런저런":14593,"피씨":14594,"지만요":14595,"계층":14596,"출력":14597,"귀여워":14598,"화장품":14599,"##ㅋㅋㅋㅋㅋㅋㅋㅋㅋㅋㅋㅋㅋㅋㅋㅋㅋㅋㅋㅋㅋㅋㅋㅋㅋㅋㅋㅋㅋㅋㅋㅋ":14600,"##ᆯ렛":14601,"##띠맘":14602,"스위스":14603,"일일이":14604,"껄":14605,"##셰":14606,"다정":14607,"시금":14608,"비싼":14609,"무관":14610,"냐라고":14611,"##박하":14612,"##레이션":14613,"갑작":14614,"숙박":14615,"몰입":14616,"pl":14617,"시달리":14618,"기수":14619,"로하":14620,"널리":14621,"무덤":14622,"상단":14623,"영등포":14624,"김부":14625,"불호":14626,"##ㅠㅠㅠㅠㅠㅠㅠㅠㅠㅠㅠㅠㅠㅠㅠㅠ":14627,"up":14628,"##궐":14629,"에코":14630,"일식":14631,"정통":14632,"경상":14633,"물기":14634,"매실":14635,"명란":14636,"아주머니":14637,"##했는데":14638,"획득":14639,"이스라":14640,"수납":14641,"진작":14642,"##키스":14643,"날라":14644,"검진":14645,"좋아지":14646,"녹이":14647,"푸드파이터":14648,"##떡볶":14649,"웬일":14650,"전두환":14651,"neco":14652,"에드":14653,"보러":14654,"##스턴":14655,"동남":14656,"참으로":14657,"누가":14658,"##메틱":14659,"휴게":14660,"철저히":14661,"엘리베이터":14662,"오만":14663,"와플":14664,"화질":14665,"칠리":14666,"동굴":14667,"친척":14668,"디스크":14669,"##퉁":14670,"그림자":14671,"뿅":14672,"광안리":14673,"헤이":14674,"##if":14675,"도마":14676,"수산":14677,"정직":14678,"무력":14679,"타르트":14680,"교차":14681,"박영":14682,"##반사":14683,"##윽":14684,"##pa":14685,"고령":14686,"주행":14687,"인절미":14688,"더라면":14689,"별개":14690,"ㄹ려면":14691,"가계":14692,"스쿨":14693,"일리":14694,"아이패드":14695,"짜잔":14696,"슬로":14697,"퐁당":14698,"je":14699,"led":14700,"저랑":14701,"게스트":14702,"보정":14703,"기절":14704,"안대":14705,"미월":14706,"처지":14707,"건가":14708,"달하":14709,"머신":14710,"##워시":14711,"망가지":14712,"압구정":14713,"공화당":14714,"네트워크":14715,"립스틱":14716,"싱크":14717,"오년":14718,"##드라":14719,"노화":14720,"##붓":14721,"치키":14722,"##신분":14723,"감칠":14724,"성질":14725,"성취":14726,"##레싱":14727,"머무르":14728,"##적하":14729,"행진":14730,"표면":14731,"##할거":14732,"##투리":14733,"볼때":14734,"몰아":14735,"격차":14736,"##ᆼ구":14737,"오피스":14738,"##나서":14739,"칩":14740,"알코":14741,"식욕":14742,"정돈":14743,"손실":14744,"패배":14745,"김경수":14746,"meow":14747,"갸":14748,"##쏙":14749,"어벤":14750,"시댁":14751,"볼링":14752,"기금":14753,"조식":14754,"바리":14755,"한결":14756,"재질":14757,"김민":14758,"##ㅎㅎㅎ":14759,"록맨":14760,"칵테일":14761,"##ᅪᆸ":14762,"##쯤":14763,"할리":14764,"##다지":14765,"##라하":14766,"로맨스":14767,"##미하":14768,"셀러":14769,"비전":14770,"중력":14771,"섬세":14772,"시진핑":14773,"korean":14774,"good":14775,"##쓱":14776,"주주":14777,"##젓":14778,"바비":14779,"##래요":14780,"일등":14781,"##사진":14782,"개구리":14783,"해지":14784,"신세":14785,"##블러":14786,"틀림":14787,"플레이팅":14788,"ホメ":14789,"##mi":14790,"##ry":14791,"지명":14792,"내각":14793,"진동":14794,"연간":14795,"데우":14796,"특허":14797,"터널":14798,"활발":14799,"함정":14800,"알아내":14801,"엉망":14802,"멍청":14803,"낭만":14804,"쫀득하":14805,"시금치":14806,"corg":14807,"뉘":14808,"푼":14809,"##뒀":14810,"욤":14811,"오마":14812,"##는날":14813,"미스트":14814,"상점":14815,"성경":14816,"##테면":14817,"##코드":14818,"절약":14819,"페인트":14820,"풍기":14821,"침해":14822,"##닿":14823,"부들":14824,"제약":14825,"##렷":14826,"원자":14827,"##버그":14828,"김상":14829,"명시":14830,"약점":14831,"##페라":14832,"태자":14833,"숙주":14834,"쏠":14835,"##김밥":14836,"견해":14837,"좌파":14838,"katze":14839,"감칠맛":14840,"ㅈㄴ":14841,"👍👍":14842,"##뎌":14843,"이를":14844,"의류":14845,"##고싶":14846,"부러":14847,"섹시":14848,"너머":14849,"유자":14850,"비린":14851,"헝":14852,"##레스테":14853,"슴":14854,"##pl":14855,"가동":14856,"사적":14857,"미쳐":14858,"공지":14859,"동해":14860,"##노트":14861,"##앰플":14862,"취약":14863,"광대":14864,"칼칼":14865,"꾸리":14866,"덕질":14867,"dietfood":14868,"콜라보":14869,"지저분하":14870,"##ᆼ스":14871,"다요":14872,"기온":14873,"야되":14874,"제로":14875,"구간":14876,"관중":14877,"데스크":14878,"초청":14879,"잡채":14880,"충성":14881,"급격":14882,"클린식단":14883,"이스라엘":14884,"궤":14885,"에미":14886,"##다주":14887,"사라":14888,"마차":14889,"자문":14890,"수습":14891,"소름":14892,"음모":14893,"공수":14894,"신성":14895,"재우":14896,"##희정":14897,"백성":14898,"쫄깃쫄깃":14899,"이행":14900,"기재":14901,"서해":14902,"적립":14903,"영입":14904,"크레":14905,"##여자":14906,"삼계":14907,"운스타그램":14908,"산화":14909,"베란다":14910,"올리브영":14911,"맞춰":14912,"셰프":14913,"닥치":14914,"##껴":14915,"##se":14916,"##뼈":14917,"이메일":14918,"마니":14919,"##거나":14920,"수령":14921,"세럼":14922,"프렌치":14923,"별미":14924,"다이아":14925,"오프닝":14926,"##essert":14927,"무사히":14928,"이뻐":14929,"##닉스":14930,"##리뷰":14931,"습니다만":14932,"치유":14933,"중동":14934,"알레":14935,"피클":14936,"밸런스":14937,"군것":14938,"##은지":14939,"쿵":14940,"멀어지":14941,"##맹이":14942,"시시":14943,"몬스":14944,"말투":14945,"집값":14946,"민망":14947,"태요":14948,"헬스타그램":14949,"청양고추":14950,"sf":14951,"뽕":14952,"로그":14953,"서서":14954,"내기":14955,"비벼":14956,"앞뒤":14957,"목록":14958,"규명":14959,"굴리":14960,"숯불":14961,"좋아요반사":14962,"섭섭하":14963,"뱅":14964,"도달하":14965,"보름":14966,"전도":14967,"두세":14968,"##땜":14969,"룩":14970,"쑤":14971,"##뻑":14972,"조회":14973,"뱃살":14974,"김포":14975,"결승":14976,"파프리카":14977,"호호":14978,"코난":14979,"흐흐":14980,"##캠":14981,"콜레스테":14982,"멀쩡하":14983,"스캔":14984,"소신":14985,"해리":14986,"물품":14987,"불신":14988,"##팥":14989,"세월호":14990,"인증샷":14991,"뚫리":14992,"콜레스테롤":14993,"##ᆻ어":14994,"도미":14995,"##스레":14996,"##해라":14997,"연두":14998,"여성분":14999,"마이크로":15000,"갤러리":15001,"##플릭스":15002,"면은요":15003,"이를테면":15004,"쁘":15005,"##ᆺ말":15006,"수명":15007,"##태우":15008,"##현이":15009,"테라스":15010,"각오":15011,"협찬":15012,"흑돼지":15013,"부지런":15014,"##ᆻ잖":15015,"가량":15016,"보행":15017,"네요":15018,"아용":15019,"김재":15020,"교대":15021,"브영":15022,"욕실":15023,"##긴한데":15024,"마이너스":15025,"즉석":15026,"쌀쌀":15027,"낭비":15028,"스파게티":15029,"실리콘":15030,"##로케":15031,"전작":15032,"해제":15033,"해양":15034,"##모스":15035,"리듬":15036,"양성":15037,"찾아뵈":15038,"##팸":15039,"##ash":15040,"생생하":15041,"에세이":15042,"은혜":15043,"##로거":15044,"사소":15045,"대행":15046,"전지":15047,"비틀":15048,"공략":15049,"##술집":15050,"권고":15051,"냐면요":15052,"##톡스":15053,"무렵":15054,"##ight":15055,"ㄹ께요":15056,"cgv":15057,"참나원":15058,"04":15059,"지검":15060,"지랄":15061,"##저격":15062,"면도":15063,"서쪽":15064,"전후":15065,"까진":15066,"##물티슈":15067,"통째":15068,"현명":15069,"슬림":15070,"견과류":15071,"이일":15072,"어이없":15073,"아쿠아":15074,"을게요":15075,"##라기":15076,"되돌":15077,"##얌":15078,"구수":15079,"노벨":15080,"##세용":15081,"명의":15082,"교재":15083,"폴리":15084,"##름하":15085,"호로":15086,"##운지":15087,"용인":15088,"합법":15089,"온천":15090,"##광역시":15091,"맞팔해요":15092,"파트너":15093,"hd":15094,"싼":15095,"##ly":15096,"##der":15097,"다발":15098,"보글":15099,"로켓":15100,"말랑":15101,"치과":15102,"결단":15103,"단편":15104,"변명":15105,"권장":15106,"##육아":15107,"사이버":15108,"재미나":15109,"휴지":15110,"뿜뿜":15111,"of":15112,"##ain":15113,"이병":15114,"##하루":15115,"뭘":15116,"##국밥":15117,"추리":15118,"방수":15119,"##모습":15120,"호선":15121,"토스트":15122,"펑":15123,"##존맛":15124,"##oninstagram":15125,"모자라":15126,"150":15127,"껍데기":15128,"catsoninstagram":15129,"카우보이":15130,"알코올":15131,"ap":15132,"늑":15133,"마비":15134,"안성":15135,"까다":15136,"신속":15137,"성명":15138,"놀러가":15139,"꽃게":15140,"##줘야":15141,"이집트":15142,"##싫":15143,"##러기":15144,"네용":15145,"문득":15146,"##렉트":15147,"단기":15148,"최후":15149,"속옷":15150,"덧붙이":15151,"테이프":15152,"ar":15153,"그지":15154,"다툼":15155,"##핫":15156,"##가님":15157,"##고리":15158,"정세":15159,"닌":15160,"인쇄":15161,"야근":15162,"##미지":15163,"##그릇":15164,"##보스":15165,"무비":15166,"피터":15167,"##벗":15168,"해군":15169,"##의자":15170,"##바이트":15171,"토지":15172,"독도":15173,"합성":15174,"휠":15175,"넷플릭스":15176,"2000":15177,"요양":15178,"한화":15179,"모레":15180,"중화":15181,"##려나":15182,"국적":15183,"현관":15184,"코끼리":15185,"항소":15186,"논평":15187,"##our":15188,"쭉쭉":15189,"##댕":15190,"##팽":15191,"엊":15192,"에용":15193,"에여":15194,"##이이":15195,"자발":15196,"일명":15197,"일회":15198,"드라고":15199,"##해진":15200,"##두기":15201,"끌어내":15202,"즉각":15203,"묵직하":15204,"이산":15205,"##륵":15206,"세입":15207,"진전":15208,"입자":15209,"##두부":15210,"손자":15211,"본사":15212,"재밋":15213,"selca":15214,"득점":15215,"스탠":15216,"오라":15217,"해시":15218,"##디아":15219,"##티지":15220,"##윗":15221,"명백하":15222,"##펑":15223,"아기자기":15224,"케이티":15225,"##ne":15226,"얼리":15227,"하원":15228,"기호":15229,"인적":15230,"세정":15231,"때려":15232,"내시":15233,"##대하":15234,"진자":15235,"##엣":15236,"팔년":15237,"올인":15238,"농축":15239,"액수":15240,"##icious":15241,"비대위":15242,"55":15243,"사촌":15244,"눈앞":15245,"십자":15246,"캐스팅":15247,"찡":15248,"숙이":15249,"뷰티그램":15250,"스펙":15251,"##된다":15252,"생겨나":15253,"오로지":15254,"by":15255,"훠":15256,"이차":15257,"그간":15258,"자아":15259,"여신":15260,"##깜":15261,"##주스":15262,"밉":15263,"남용":15264,"맛난":15265,"배포":15266,"##레시피":15267,"강간":15268,"바로바로":15269,"본체":15270,"페미니":15271,"##빵집":15272,"정당하":15273,"씌우":15274,"스트레칭":15275,"몬스터":15276,"##갱":15277,"##썩":15278,"##io":15279,"##도록":15280,"대원":15281,"구년":15282,"윌리":15283,"공소":15284,"해상":15285,"신년":15286,"다고하":15287,"집가":15288,"토미":15289,"고깃집":15290,"템":15291,"##꿈":15292,"아스":15293,"가꾸":15294,"네티":15295,"주황":15296,"스푼":15297,"위성":15298,"물체":15299,"식민":15300,"타코":15301,"어젯":15302,"낙서":15303,"##맥주":15304,"delicious":15305,"쪄":15306,"##eb":15307,"이오":15308,"시야":15309,"나란히":15310,"마롱":15311,"여건":15312,"대용":15313,"소세지":15314,"유익":15315,"더라는":15316,"양승":15317,"초딩":15318,"축복":15319,"##혜원":15320,"루이":15321,"##흙":15322,"연락처":15323,"##떨어지":15324,"욱":15325,"##룰":15326,"하구":15327,"고가":15328,"지경":15329,"##다이":15330,"시다":15331,"줌마":15332,"면세":15333,"##비치":15334,"##두리":15335,"퍼레이드":15336,"광역":15337,"골든":15338,"솔솔":15339,"송이":15340,"캡슐":15341,"주고받":15342,"##clean":15343,"는날":15344,"다노":15345,"##났":15346,"대입":15347,"##수없":15348,"남산":15349,"##해하":15350,"애비":15351,"불거지":15352,"달려오":15353,"##포르":15354,"외면":15355,"할로":15356,"절도":15357,"##슐리":15358,"샤오":15359,"##ort":15360,"냉정":15361,"자꾸만":15362,"팬티":15363,"곤약":15364,"득템":15365,"wh":15366,"##ᇀ이":15367,"지표":15368,"지목":15369,"##유럽":15370,"동참":15371,"국산":15372,"국토":15373,"연동":15374,"##베르":15375,"창원":15376,"##atch":15377,"##ity":15378,"부적절하":15379,"ㄹ라고":15380,"##갱이":15381,"##ps":15382,"는대":15383,"도자":15384,"##래곤":15385,"##오래":15386,"내다보":15387,"나올":15388,"##세럼":15389,"##재료":15390,"리스":15391,"카이":15392,"양치":15393,"##oul":15394,"곧바로":15395,"졌":15396,"긋":15397,"안쓰":15398,"##연히":15399,"타운":15400,"참조":15401,"커리":15402,"체감":15403,"##밴드":15404,"태그":15405,"임원":15406,"foodf":15407,"미네랄":15408,"photo":15409,"블리":15410,"##ᆿㅋ":15411,"라라":15412,"상무":15413,"원두":15414,"재즈":15415,"양산":15416,"직구":15417,"##폴리":15418,"검거":15419,"##페어":15420,"출처":15421,"창출":15422,"비슷":15423,"탐방":15424,"##컬러":15425,"800":15426,"##퍽":15427,"는뎅":15428,"제철":15429,"신도":15430,"실용":15431,"친일":15432,"온몸":15433,"탈락":15434,"맘대로":15435,"어버":15436,"가자":15437,"고스":15438,"시비":15439,"일러":15440,"구독":15441,"근대":15442,"신인":15443,"양자":15444,"퇴사":15445,"##르륵":15446,"쌍둥이":15447,"네티즌":15448,"##gas":15449,"이국":15450,"아구":15451,"그루":15452,"다죠":15453,"만드":15454,"정우":15455,"부실":15456,"소련":15457,"소형":15458,"생태":15459,"노르":15460,"중립":15461,"##처럼":15462,"실물":15463,"날카":15464,"꼬막":15465,"송파":15466,"뉴스킨":15467,"ㅠㅠㅠㅠㅠㅠㅠ":15468,"이따가":15469,"한가득":15470,"dessert":15471,"##녹":15472,"이어가":15473,"기가":15474,"##라멘":15475,"대립":15476,"괌":15477,"##트먼트":15478,"##숭":15479,"화창하":15480,"동행":15481,"최일구":15482,"##점심":15483,"금강":15484,"글쓰":15485,"황태":15486,"##out":15487,"갈릭":15488,"love":15489,"34":15490,"얽":15491,"저작":15492,"사천":15493,"수호":15494,"생성":15495,"남다르":15496,"입금":15497,"심상":15498,"마음껏":15499,"감사한하":15500,"따라하":15501,"##블릿":15502,"두려워하":15503,"##깡":15504,"##80":15505,"에에":15506,"제대":15507,"미주":15508,"##카이":15509,"약자":15510,"##펙트":15511,"담요":15512,"##쟁이":15513,"##뚱하":15514,"스탠드":15515,"##ob":15516,"사우":15517,"예배":15518,"##굽":15519,"제육":15520,"그릴":15521,"상속":15522,"단짠":15523,"새삼":15524,"참모":15525,"양도":15526,"맛있다그램":15527,"직무":15528,"짜요":15529,"질기":15530,"께요":15531,"흩":15532,"##end":15533,"##아이스":15534,"아르바이트":15535,"후쿠오카":15536,"foodfic":15537,"어둠":15538,"자막":15539,"밧줄":15540,"과감하":15541,"살찌":15542,"##피츠":15543,"리포터":15544,"충남":15545,"페르":15546,"##필요":15547,"##ith":15548,"음음음":15549,"##ish":15550,"머릿결":15551,"칼칼하":15552,"ㅇㅅ":15553,"시나":15554,"##스토리":15555,"일날":15556,"안희정":15557,"우체":15558,"구별":15559,"##그레이":15560,"유성":15561,"버릇":15562,"##루션":15563,"하여간":15564,"톤업":15565,"묶이":15566,"서서히":15567,"##긔":15568,"지침":15569,"##로움":15570,"##가자":15571,"수퍼":15572,"부풀":15573,"##인줄":15574,"##랑이":15575,"단풍":15576,"간접":15577,"설사":15578,"귀국":15579,"폭주":15580,"황갈":15581,"폼페이":15582,"부들부":15583,"bre":15584,"🙏🏻":15585,"##요리":15586,"정류":15587,"##마시":15588,"안남":15589,"구미":15590,"무인":15591,"무술":15592,"피고":15593,"투기":15594,"안녕히":15595,"철거":15596,"##ate":15597,"쌈장":15598,"소프트웨어":15599,"cp":15600,"테이크":15601,"아일랜드":15602,"##지오":15603,"사내":15604,"야죠":15605,"##실하":15606,"신입":15607,"성형":15608,"리터":15609,"손등":15610,"복도":15611,"운동스타그램":15612,"##져스":15613,"어쩐지":15614,"밀어":15615,"다큐멘":15616,"찾아뵙":15617,"날카롭":15618,"##다운":15619,"##마사지":15620,"인턴":15621,"유난":15622,"선출":15623,"애슐리":15624,"발급":15625,"현안":15626,"법조":15627,"##먹방":15628,"##순이":15629,"##덕이":15630,"뽀뽀":15631,"굿즈":15632,"쫓겨":15633,"붉은":15634,"##어어어어":15635,"듀얼":15636,"bb":15637,"ms":15638,"껌":15639,"##ver":15640,"과실":15641,"로맨":15642,"##그레":15643,"##숲":15644,"얼룩":15645,"##덧":15646,"##ann":15647,"똑바로":15648,"코스메틱":15649,"스카프":15650,"스파이더":15651,"eatclean":15652,"##뤄":15653,"다우":15654,"시럽":15655,"기무":15656,"##돔":15657,"수천":15658,"전경":15659,"생략":15660,"동쪽":15661,"##해준":15662,"성우":15663,"##바스":15664,"최적":15665,"궁극":15666,"힌트":15667,"라던지":15668,"반짝반":15669,"is":15670,"min":15671,"##10":15672,"이경":15673,"이어서":15674,"으셨":15675,"한판":15676,"한옥":15677,"##아님":15678,"방콕":15679,"##프팅":15680,"최진":15681,"육성":15682,"총각":15683,"##챌린지":15684,"왕국":15685,"컴백":15686,"얼큰하":15687,"쌀쌀하":15688,".\"":15689,"챠":15690,"ㄹ걸":15691,"##턱":15692,"가마":15693,"거야":15694,"사각":15695,"기뻐":15696,"수위":15697,"전교":15698,"전파":15699,"상수":15700,"아이러":15701,"애서":15702,"작사":15703,"달콤":15704,"간절":15705,"운동녀":15706,"##뉴얼":15707,"##커버":15708,"육아템":15709,"웨이트":15710,"스테이":15711,"엉뚱하":15712,"dogs":15713,"##ime":15714,"끌어들이":15715,"##룬":15716,"##ᆿㅋㅋㅋㅋㅋㅋㅋ":15717,"가습":15718,"우물":15719,"잘리":15720,"국경":15721,"레알":15722,"홈스타일":15723,"##ㅡㅡ":15724,"##ㅜㅠ":15725,"##기저귀":15726,"야끼":15727,"그런거":15728,"공인":15729,"까페":15730,"연료":15731,"##크리":15732,"파견":15733,"삼국":15734,"심의":15735,"패밀리":15736,"허허":15737,"뜻하":15738,"합병":15739,"##ant":15740,"##겁니다":15741,"망설":15742,"찰칵":15743,"횡령":15744,"까다롭":15745,"샹":15746,"거니":15747,"나르":15748,"삿":15749,"##마일":15750,"제정":15751,"비엔":15752,"씨앗":15753,"##영이":15754,"간첩":15755,"역전":15756,"필드":15757,"판정":15758,"줄줄":15759,"복사":15760,"생긴":15761,"환절":15762,"아랫":15763,"옥상":15764,"찜닭":15765,"집밥그램":15766,"메모리":15767,"스토어":15768,"스릴러":15769,"뜬금":15770,"훅":15771,"에버":15772,"도보":15773,"잦":15774,"일체":15775,"##치약":15776,"뭣":15777,"제어":15778,"죵":15779,"치사":15780,"원망":15781,"##해보":15782,"##학규":15783,"담아내":15784,"질투":15785,"##imb":15786,"baby":15787,"쩜":15788,"보태":15789,"여대":15790,"니당":15791,"##미스":15792,"비계":15793,"개미":15794,"##해볼":15795,"연희":15796,"실감":15797,"##세훈":15798,"##코기":15799,"손학규":15800,"본능":15801,"브루":15802,"창가":15803,"격려":15804,"스피드":15805,"##로콜리":15806,"쓸데없":15807,"먹음직":15808,"티라미수":15809,"sm":15810,"##뿔":15811,"수소":15812,"부수":15813,"##치노":15814,"우아하":15815,"전술":15816,"구우":15817,"계급":15818,"##한건":15819,"##두근":15820,"##접시":15821,"철판":15822,"햇볕":15823,"꾸준하":15824,"넘겨보":15825,"동남아":15826,"05":15827,"ㅇㅈ":15828,"조이":15829,"인체":15830,"##믹":15831,"##긍":15832,"먹둥":15833,"던거":15834,"살균":15835,"실적":15836,"재현":15837,"##른자":15838,"프린":15839,"순천":15840,"순례":15841,"수제비":15842,"스타푸드그램":15843,"쏙쏙":15844,"myung":15845,"할로윈":15846,"반짝반짝":15847,"br":15848,"##눌":15849,"아로":15850,"스며":15851,"대륙":15852,"소시지":15853,"유투":15854,"비단":15855,"상해":15856,"##틱스":15857,"민원":15858,"활기":15859,"텐데":15860,"잠자":15861,"깨어나":15862,"이천칠":15863,"액체":15864,"브라질":15865,"횡단":15866,"오바마":15867,"먹둥밍":15868,"kb":15869,"닷":15870,"##델링":15871,"모범":15872,"구상":15873,"냅":15874,"방위":15875,"단다":15876,"단정":15877,"불타":15878,"천지":15879,"드립":15880,"##종원":15881,"담보":15882,"절벽":15883,"##봣":15884,"워너":15885,"##일링":15886,"극적":15887,"콘크":15888,"myungstyle":15889,"그담":15890,"지분":15891,"##가득":15892,"사립":15893,"조율":15894,"오페라":15895,"면적":15896,"서포터":15897,"##마르":15898,"인싸":15899,"전적":15900,"적시":15901,"버무리":15902,"##첼":15903,"단발":15904,"통로":15905,"표명":15906,"염두":15907,"##잔하":15908,"촉진":15909,"##웰":15910,"깍두기":15911,"엊그":15912,"##랭이":15913,"여우":15914,"공익":15915,"실검":15916,"결의":15917,"##옆":15918,"초과":15919,"종목":15920,"##난다":15921,"다이어리":15922,"환하":15923,"업자":15924,"워킹":15925,"##테이션":15926,"03":15927,"##ks":15928,"##pic":15929,"아인":15930,"지퍼":15931,"을걸":15932,"붐":15933,"안무":15934,"관념":15935,"김해":15936,"불교":15937,"##조리":15938,"##덥":15939,"빨대":15940,"놀래":15941,"총회":15942,"항구":15943,"홍합":15944,"오십만":15945,"맞팔환영":15946,"에이드":15947,"물리학":15948,"스위치":15949,"다던데":15950,"커뮤니티":15951,"사물":15952,"오우":15953,"한라":15954,"내외":15955,"유효":15956,"빌라":15957,"비결":15958,"장아찌":15959,"해요":15960,"불매":15961,"따님":15962,"##담하":15963,"##막하":15964,"찐하":15965,"챔피":15966,"칙칙":15967,"이인":15968,"이준":15969,"아비":15970,"게으":15971,"보일러":15972,"주저":15973,"##보글":15974,"선착":15975,"##크로":15976,"맞은편":15977,"단식":15978,"식기":15979,"##노이":15980,"##ᆯ러리":15981,"암벽":15982,"##블링":15983,"새콤달":15984,"37":15985,"대파":15986,"##아삭":15987,"적자":15988,"노폐":15989,"먹을때":15990,"화내":15991,"위쪽":15992,"관료":15993,"##렐":15994,"파운데이션":15995,"메디":15996,"코엑스":15997,"편히":15998,"돌돌":15999,"출범":16000,"칼슘":16001,"베이징":16002,"##먼스":16003,"힙합":16004,"알라딘":16005,"긔":16006,"이쯤":16007,"자부":16008,"대감":16009,"바게트":16010,"##사이즈":16011,"입국":16012,"반가":16013,"김연":16014,"##은게":16015,"텅":16016,"절망":16017,"렌지":16018,"뜨거":16019,"합류":16020,"##혐":16021,"##핑크":16022,"클리어":16023,"지켜":16024,"취향저격":16025,"쫓겨나":16026,"콘크리트":16027,"ㅜㅜㅜㅜㅜ":16028,"##펀":16029,"다투":16030,"분기":16031,"필링":16032,"입고":16033,"감찰":16034,"##팜":16035,"언더":16036,"초상":16037,"천하":16038,"##애플":16039,"2014":16040,"뚜렷하":16041,"갈라지":16042,"##lov":16043,"그다지":16044,"시상":16045,"자수":16046,"여하":16047,"한양":16048,"전사":16049,"##우리":16050,"미나리":16051,"선동":16052,"연봉":16053,"명칭":16054,"##더기":16055,"친구랑":16056,"승진":16057,"##라이프":16058,"120":16059,"##ics":16060,"써니":16061,"엘지":16062,"플랜":16063,"레인지":16064,"싱가포르":16065,"rt":16066,"어트":16067,"자니":16068,"일련":16069,"노른자":16070,"추락":16071,"##피하":16072,"횟집":16073,"##프로":16074,"학업":16075,"파업":16076,"팔자":16077,"귀걸이":16078,"잠기":16079,"##귤":16080,"난간":16081,"##ell":16082,"좌절":16083,"훈제":16084,"스윙":16085,"##헐":16086,"아바":16087,"나리":16088,"되찾":16089,"으세요":16090,"구르":16091,"무치":16092,"중식":16093,"##신저":16094,"성숙":16095,"씨디":16096,"##여정":16097,"백악":16098,"##청소":16099,"열매":16100,"길가":16101,"만나보":16102,"##베개":16103,"광명":16104,"흉기":16105,"튜브":16106,"두근두근":16107,"다큐멘터리":16108,"스며들":16109,"gre":16110,"꿔":16111,"⠀⠀⠀⠀⠀⠀⠀⠀⠀":16112,"시체":16113,"라라고":16114,"만성":16115,"세로":16116,"적정":16117,"동전":16118,"집스타그램":16119,"변형":16120,"##날드":16121,"죄책":16122,"체험단":16123,"캡쳐":16124,"고스란히":16125,"at":16126,"##ᆼ기":16127,"##가서":16128,"조미":16129,"스터":16130,"소모":16131,"##는길":16132,"구형":16133,"먹히":16134,"까르":16135,"해독":16136,"연탄":16137,"살이":16138,"##안하":16139,"씁쓸":16140,"발행":16141,"포스":16142,"딜":16143,"응모":16144,"올드":16145,"##ine":16146,"##봉주":16147,"슬기":16148,"##캡":16149,"스텝":16150,"아삭아삭":16151,"피크닉":16152,"가오":16153,"도민":16154,"인건":16155,"전동":16156,"미수":16157,"동부":16158,"뱉":16159,"발굴":16160,"후속":16161,"건국":16162,"청량":16163,"청탁":16164,"헤매":16165,"##캐스트":16166,"젓갈":16167,"뚝배기":16168,"메이저":16169,"##튀김":16170,"탄탄하":16171,"##gasm":16172,"이소":16173,"을래":16174,"기득":16175,"##어스":16176,"정동":16177,"구구":16178,"미워하":16179,"무용":16180,"번님":16181,"물려":16182,"재개":16183,"김병":16184,"불고기":16185,"그놈":16186,"호감":16187,"려다가":16188,"일본어":16189,"흡연":16190,"의식단":16191,"솜씨":16192,"미끄럼":16193,"큼직하":16194,"##인플루언":16195,"플리":16196,"😭😭":16197,"##뱅이":16198,"##12":16199,"##アン":16200,"자가":16201,"구제":16202,"화물":16203,"빔":16204,"##부부":16205,"아임":16206,"간격":16207,"필자":16208,"dm":16209,"##ib":16210,"마누":16211,"네임":16212,"너네":16213,"맞히":16214,"단축":16215,"##토록":16216,"답니당":16217,"표고":16218,"토대":16219,"foodgasm":16220,"킬로미터":16221,"어버이":16222,"뺨":16223,"도주":16224,"기장":16225,"##어용":16226,"여친":16227,"서초":16228,"일어서":16229,"음원":16230,"무적":16231,"##차이즈":16232,"교토":16233,"리코":16234,"꼬이":16235,"킬":16236,"브로콜리":16237,"돌아서":16238,"폭포":16239,"귀여운":16240,"슬쩍":16241,"간식스타그램":16242,"뽑히":16243,"잊히":16244,"뺏기":16245,"갈아입":16246,"##덮밥":16247,"아티스트":16248,"48":16249,"##ラニ":16250,"보양":16251,"기다":16252,"으으":16253,"읍니다":16254,"스냅":16255,"안개":16256,"##르기":16257,"##려들":16258,"##여행":16259,"##감자":16260,"절로":16261,"사이클":16262,"광어":16263,"늘어지":16264,"##셔야":16265,"찝":16266,"ホメラニ":16267,
[...]
