[PAD]
[UNK]
[CLS]
[SEP]
[MASK]
!
"
#
$
%
&
'
(
)
*
+
,
-
.
/
0
1
2
3
4
5
6
7
8
9
:
;
<
=
>
?
@
[
\
]
^
_
`
a
b
c
d
e
f
g
h
i
j
k
l
m
n
o
p
q
r
s
t
u
v
w
x
y
z
{
|
}
~






¡
£
¤
¥
¦
§
¨
©
«
¬
­
®
¯
°
±
²
³
´
µ
¶
·
¸
¹
º
»
¼
½
¿
×
ß
æ
ð
÷
ø
đ
ı
ł
œ
ƒ
ƪ
ȡ
ȥ
ɂ
ə
ɛ
ɞ
ɢ
ɪ
ɴ
ɷ
ʀ
ʃ
ʌ
ʏ
ʔ
ʕ
ʖ
ʘ
ʙ
ʚ
ʜ
ʟ
ʺ
ʾ
ʿ
ˀ
˂
˃
˄
ˆ
ˇ
ˊ
ˋ
ˌ
ˎ
ˏ
ː
˒
˓
˔
˖
˘
˙
˚
˜
˝
˟
ˢ
ˣ
ˬ
˭
˳
˵
˶
΄
α
β
γ
δ
ε
η
θ
ι
κ
λ
μ
ν
ο
π
ρ
ς
σ
τ
υ
φ
χ
ψ
ω
а
б
в
г
д
е
з
и
к
л
м
н
о
п
р
с
т
у
ф
х
ц
ч
ш
ъ
ь
ю
я
є
ѕ
ѧ
ғ
ө
ԅ
՞
֊
־
׃
א
ב
ג
ד
ה
ו
ח
י
ל
ם
מ
ן
נ
ס
ע
פ
צ
ק
ר
ש
ת
؂
ه
و
٩
ټ
ڡ
۝
۶
ۿ
ܫ
ࡇ
ॱ
ॽ
ਊ
੭
દ
૨
૭
૮
ଓ
ଘ
ପ
ଳ
୧
୨
୯
இ
ற
௦
௰
ఇ
ఠ
౪
ಠ
ಡ
ಢ
ತ
ಥ
೦
യ
ര
൧
ෆ
ฅ
ง
ต
ย
ร
ว
อ
๑
༄
་
༎
༝
༡
༬
༶
༼
༽
ཀ
ཅ
࿉
ა
ლ
ო
ფ
ღ
ᄀ
ᄁ
ᄂ
ᄃ
ᄄ
ᄅ
ᄆ
ᄇ
ᄈ
ᄉ
ᄊ
ᄋ
ᄌ
ᄍ
ᄎ
ᄏ
ᄐ
ᄑ
ᄒ
ᅡ
ᅢ
ᅣ
ᅤ
ᅥ
ᅦ
ᅧ
ᅨ
ᅩ
ᅪ
ᅫ
ᅬ
ᅭ
ᅮ
ᅯ
ᅰ
ᅱ
ᅲ
ᅳ
ᅴ
ᅵ
ᆔ
ᆞ
ᆢ
ᆨ
ᆩ
ᆪ
ᆫ
ᆬ
ᆭ
ᆮ
ᆯ
ᆰ
ᆱ
ᆲ
ᆳ
ᆴ
ᆵ
ᆶ
ᆷ
ᆸ
ᆹ
ᆺ
ᆻ
ᆼ
ᆽ
ᆾ
ᆿ
ᇀ
ᇁ
ᇂ
ቼ
ኈ
ዽ
ጿ
᎑
ᐕ
ᐖ
ᐛ
ᐢ
ᑎ
ᑕ
ᓀ
ᓂ
ᔕ
ᕕ
ᕗ
ᕙ
ᕤ
ᕦ
ᖇ
ᗒ
ᗕ
ᗜ
ᗣ
ᗨ
ᗰ
ᘰ
ᘳ
ᙏ
ᴀ
ᴄ
ᴅ
ᴇ
ᴈ
ᴊ
ᴋ
ᴍ
ᴏ
ᴖ
ᴗ
ᴘ
ᴛ
ᴜ
ᴠ
ᴡ
ᴢ
ᴥ
ᴬ
ᴮ
ᴰ
ᴱ
ᴳ
ᴴ
ᴵ
ᴶ
ᴷ
ᴸ
ᴹ
ᴺ
ᴼ
ᴾ
ᴿ
ᵀ
ᵁ
ᵂ
ᵋ
ᵍ
ᵎ
ᵏ
ᵐ
ᵒ
ᵔ
ᵕ
ᵛ
ᵞ
ᶜ
ᶠ
ᶻ
ᶿ
‍
‎
‐
–
—
―
‘
’
‚
“
”
„
†
‡
•
‣
․
‥
…
‧
‪
‬
‭
‰
′
‵
‶
‸
‹
›
※
‼
‾
‿
⁄
⁉
⁍
⁎
⁑
⁔
⁠
⁰
⁸
⁹
⁺
⁻
⁼
⁽
⁾
₀
₃
₊
₋
₍
₎
₩
€
℃
ℓ
™
⅓
⅔
ⅰ
ⅱ
ⅲ
ⅳ
ⅴ
←
↑
→
↓
↔
↕
↖
↗
↘
↙
↩
↪
↬
⇒
⇔
⇝
⇢
⇨
⇩
∀
∂
∇
∈
−
∗
∙
√
∝
∞
∠
∥
∧
∩
∴
∼
≈
≒
≤
≥
≦
≧
≪
≫
⊃
⊙
⋅
⋆
⌄
⌑
⌒
⌓
⌚
⌛
⌣
⌨
⌯
⍢
⎯
⏩
⏭
⏰
⏱
⏳
⏺
⑅
⑉
①
②
③
④
⑤
⑥
⑦
⑧
⑨
⑩
⑴
⑶
⑸
ⓐ
ⓑ
ⓒ
ⓓ
ⓔ
ⓗ
ⓙ
ⓚ
ⓛ
ⓜ
ⓝ
ⓞ
ⓣ
ⓤ
ⓥ
ⓨ
⓿
─
━
│
┃
┌
┏
┐
┓
└
┘
┳
┻
╥
╭
╮
╯
╰
╹
█
▌
■
□
▣
▧
▩
▪
▫
▰
▱
▲
△
▶
▷
▸
►
▼
▽
▾
▿
◀
◁
◆
◇
◈
◉
○
◌
◍
◎
●
◐
◑
◔
◕
◜
◝
◞
◟
◠
◡
◤
◥
◦
◯
◻
◼
◽
◾
☀
☁
☂
☃
☄
★
☆
☇
☉
☌
☎
☐
☑
☔
☕
☘
☚
☛
☜
☝
☞
☠
☪
☹
☺
☻
☽
☾
♀
♂
♜
♠
♡
♢
♣
♤
♥
♦
♧
♨
♩
♪
♫
♬
♻
♾
⚀
⚁
⚃
⚆
⚈
⚓
⚔
⚕
⚖
⚘
⚙
⚜
⚠
⚡
⚪
⚫
⚬
⚰
⚱
⚽
⚾
⛄
⛅
⛆
⛈
⛏
⛑
⛔
⛤
⛥
⛦
⛧
⛩
⛪
⛰
⛱
⛲
⛳
⛵
⛷
⛸
⛹
⛺
✂
✅
✈
✉
✊
✋
✌
✍
✏
✐
✒
✓
✔
✖
✡
✦
✧
✨
✩
✪
✫
✲
✳
✴
✺
✿
❀
❁
❂
❄
❇
❉
❌
❍
❎
❑
❓
❔
❕
❗
❛
❝
❢
❣
❤
❥
❮
❯
❶
❷
❸
❹
❽
❾
➍
➕
➖
➜
➡
➰
➴
➼
➿
⟪
⟫
⠀
⠉
⤴
⤵
⤷
⦁
⫬
⬅
⬆
⬇
⬛
⬜
⭐
⭕
⸜
⸝
、
。
〃
々
〈
〉
《
》
「
」
『
』
【
】
〒
〓
〔
〕
〜
〰
〽
ぁ
あ
い
う
ぇ
え
ぉ
お
か
き
く
け
こ
さ
し
す
せ
そ
た
ち
っ
つ
て
と
な
に
ぬ
ね
の
は
ひ
ふ
へ
ほ
ま
み
む
め
も
ゃ
や
ゅ
ゆ
ょ
よ
ら
り
る
れ
ろ
わ
を
ん
゛
゜
ゝ
ァ
ア
ィ
イ
ゥ
ウ
ェ
エ
ォ
オ
カ
キ
ク
ケ
コ
サ
シ
ス
セ
ソ
タ
チ
ッ
ツ
テ
ト
ナ
ニ
ヌ
ネ
ノ
ハ
ヒ
フ
ヘ
ホ
マ
ミ
ム
メ
モ
ャ
ヤ
ュ
ユ
ョ
ヨ
ラ
リ
ル
レ
ロ
ワ
ヱ
ヲ
ン
ヶ
・
ー
ヽ
ㄱ
ㄲ
ㄳ
ㄴ
ㄵ
ㄶ
ㄷ
ㄸ
ㄹ
ㄺ
ㄻ
ㅀ
ㅁ
ㅂ
ㅃ
ㅄ
ㅅ
ㅆ
ㅇ
ㅈ
ㅉ
ㅊ
ㅋ
ㅌ
ㅍ
ㅎ
ㅏ
ㅐ
ㅑ
ㅒ
ㅓ
ㅔ
ㅕ
ㅖ
ㅗ
ㅘ
ㅙ
ㅚ
ㅛ
ㅜ
ㅝ
ㅞ
ㅟ
ㅠ
ㅡ
ㅢ
ㅣ
ㅤ
ㅿ
ㆀ
ㆍ
㈔
㈜
㉦
㉭
㊗
㎏
㎐
㎒
㎓
㎖
㎗
㎛
㎜
㎝
㎞
㎡
㎢
㎥
㎽
一
丁
七
万
丈
三
上
下
不
且
世
丘
丙
东
个
中
丸
丹
为
主
丼
丿
乃
久
之
乎
乐
乔
乙
九
乞
也
乱
乳
乾
亀
亂
了
予
争
事
二
于
云
五
井
亜
亞
亡
交
亥
亦
享
京
亭
亮
人
仁
今
从
他
仙
代
令
以
们
件
任
企
伊
休
会
伝
伴
伸
似
住
佐
体
何
佛
作
佟
你
佳
使
來
供
侠
価
侯
保
信
修
俱
倉
個
倒
倖
停
健
側
偷
傑
傘
備
傳
像
僕
僞
僧
僭
僻
儀
儒
優
儿
元
兄
先
光
克
免
兎
內
全
兩
八
公
六
共
兵
其
具
典
内
円
再
冒
写
冠
冨
冬
冰
冷
减
凡
凧
凪
凰
凶
凹
出
函
刀
分
刑
刖
列
初
判
別
利
别
到
制
刹
刻
則
前
剛
剝
剧
副
劃
劉
劍
力
功
加
动
助
劾
勇
動
務
勝
勞
勢
勿
包
化
北
匹
区
十
千
半
华
卑
卒
卓
協
单
南
博
印
危
卵
卸
卿
厅
厚
原
厦
厳
去
参
及
友
双
反
叔
受
口
古
句
召
可
台
史
右
号
司
吃
各
合
吉
同
名
吏
向
吗
君
吞
否
吳
吸
吾
呂
告
呑
周
呪
味
呼
和
咖
咲
哀
品
哉
員
哨
哩
哭
哲
唐
商
啓
啡
善
喚
喜
喝
喪
單
嘉
嘴
器
嚕
囍
四
回
因
団
囧
园
固
国
國
圏
園
圖
團
土
在
圭
地
场
坂
均
坊
坐
坡
垈
型
垣
城
埓
域
基
堂
報
場
塔
塗
塞
塩
塾
境
墮
士
声
壽
変
夏
夕
外
多
夜
夢
大
天
太
夫
央
失
奇
奈
奏
契
奔
奚
奥
奪
女
奴
奶
好
如
妆
妈
妖
妹
姉
始
姓
姚
姜
娑
婆
婚
媤
孃
子
孔
字
存
孝
季
学
孫
學
宅
宇
守
安
宋
完
宗
官
宙
定
宜
宝
実
客
宣
室
宦
宫
宮
害
家
容
宿
密
富
寒
寓
察
實
寧
寨
審
寶
寺
射
将
將
專
尉
尊
對
導
小
少
尔
尺
尼
尾
局
层
居
屋
屍
展
層
山
岐
岚
岛
岡
岩
岬
峨
峰
島
峽
崇
崋
崎
崔
川
州
巡
工
左
巧
巨
差
己
已
巴
巻
市
布
帝
師
帰
帳
常
幌
幡
干
平
年
幸
幻
幽
广
広
庄
床
序
庐
底
店
庚
府
度
座
庫
庭
康
廉
廚
廣
廬
廷
建
廿
弄
引
弘
弟
张
弥
弱
張
強
弹
强
彈
当
彡
形
彦
彩
影
役
彼
待
律
後
徐
得
從
御
復
徳
德
心
必
忌
忍
志
忠
快
念
怒
思
急
性
怪
恋
恐
恤
恥
恨
恩
悌
悟
患
悪
悲
情
惠
惡
想
惻
愁
愉
意
愚
愛
感
愿
態
慘
慢
慮
慶
慾
憂
憲
憶
憾
應
懐
懸
戀
戈
成
我
戦
戰
戱
戸
戻
房
所
扈
扉
手
才
扎
打
承
折
抛
抹
抽
拍
拘
招
拳
持
指
捞
换
捨
掌
排
探
接
推
描
換
握
損
搾
撃
操
支
收
改
攻
放
政
故
效
敎
救
敗
敦
敬
敵
敷
文
斗
料
斤
斬
新
斷
方
於
施
旅
旋
族
旗
日
旦
旧
旨
早
旭
时
旻
昇
昌
明
星
春
是
時
普
景
晴
智
暑
暗
曉
曰
曲
曷
書
曹
最
會
月
有
朋
朗
望
朝
期
木
未
末
本
札
术
朴
机
朽
杉
李
材
村
杞
条
来
杭
東
杵
松
林
果
枸
柊
柏
柑
染
柔
柳
柴
柿
栄
栈
校
株
核
根
格
桂
桃
桑
桓
桜
桥
梁
梅
條
梧
梵
棄
棉
棟
森
棲
植
椎
楊
業
極
楼
楽
概
榛
榨
榮
槪
樂
樑
標
樣
樹
橋
機
檀
檢
權
次
欢
欺
歌
止
正
步
武
歩
歳
歷
歸
死
残
殺
殿
毅
母
毒
比
民
気
氣
水
氷
永
求
汉
汐
汜
江
池
汪
沈
沒
沖
沙
沢
河
油
治
況
泉
泊
泌
法
泥
注
泮
泰
泷
洒
洞
津
洪
活
流
浅
济
浙
浜
浦
浩
浪
浮
海
消
涌
涙
涯
淑
淚
淫
深
淳
混
淸
淺
添
清
済
渋
渡
渤
温
測
渭
港
游
湖
湘
湯
湾
源
溥
溪
溫
滑
滝
滿
漁
漢
漫
潔
潛
潭
澁
澄
激
濟
濠
濤
瀑
瀬
灘
灣
火
灰
灼
災
炎
点
為
烈
烏
烟
烫
热
烹
無
焦
焼
煎
照
煩
熊
熙
熱
燃
燈
燒
燕
燥
爪
爭
爱
爲
父
爾
片
版
牌
牙
牛
牧
物
牲
特
牽
犧
犬
犯
狀
狂
狐
狗
狡
狸
狼
猛
猫
猶
獄
獣
獨
獲
獻
玄
玉
王
玛
玹
珍
珠
班
現
球
理
琉
琴
瑗
瑛
璐
甘
生
産
甦
用
甫
田
由
甲
申
电
男
町
画
界
畑
留
略
番
異
畵
當
畸
疏
病
痛
瘡
癒
登
發
白
百
的
皆
皮
益
盛
監
目
盲
直
相
省
看
県
眞
真
眼
着
瞰
瞳
矣
知
石
码
砦
破
硏
硯
碑
確
碻
社
祐
祖
祝
神
禁
禍
禎
福
禧
禪
禮
秀
私
秋
秒
秘
秦
移
稀
稅
程
種
稱
稲
稿
穴
空
窓
窟
窪
窮
立
站
竜
竟
章
端
竹
笑
第
笼
等
筋
答
策
算
箱
節
簾
簿
籠
籤
米
精
糖
系
紀
紅
納
純
紙
級
素
細
終
組
経
結
給
統
絵
經
綜
綠
綺
綾
線
緣
編
練
縄
縏
總
繋
續
织
绵
综
编
罒
罔
罕
罗
罪
署
羅
羊
美
羞
群
羨
義
羹
翁
翅
習
翔
老
考
者
而
耳
耶
聊
联
聖
聚
聞
聲
職
聽
肅
肉
肝
肠
肥
肯
育
胆
胡
胸
能
脆
脚
脫
腕
腸
腿
膜
臣
臨
自
至
臺
與
興
舊
舟
般
船
良
色
艶
艺
艾
节
芒
芙
花
苏
苑
苣
若
苦
英
范
茅
茉
茫
茴
茶
荀
草
荐
莅
莧
菅
菇
菊
菓
菜
菠
華
萌
萝
萬
落
葉
葛
葢
董
葫
葬
蒙
蒲
蒸
蓋
蓮
蔑
蔘
蔣
蔵
蔽
蕒
薩
藏
藕
藤
藥
蘆
蘇
蘑
蘓
蘭
虎
處
虛
號
虹
虾
蛇
蛋
蜂
蜜
蟄
蟲
蠶
血
衆
行
術
街
衡
衣
表
被
裂
装
裏
裔
裕
補
裝
裵
製
褓
西
要
覇
見
規
視
親
覺
觀
视
角
觸
言
訓
記
訶
註
詁
詞
詠
詩
話
認
誕
語
誤
說
説
誼
談
論
諜
諫
諭
諱
諸
謨
謹
謾
識
警
議
護
讀
變
讒
讓
让
证
读
谢
谷
豆
豈
豊
豚
象
豪
貌
負
財
貨
販
貳
貴
買
貸
費
賀
資
賊
賑
賢
賣
質
贝
贤
货
费
赤
走
越
趙
趣
足
跋
跡
路
踏
踐
踢
身
車
軋
軍
軒
転
輔
輪
輸
车
轩
辛
辣
辭
辯
辰
辺
达
迅
近
这
连
述
迷
追
退
送
逆
逐
通
速
連
週
進
遂
遊
運
遍
過
遐
道
達
遷
選
遺
遼
避
還
那
邪
邮
邱
郎
郡
部
郭
都
鄕
鄭
酉
酒
酥
酷
醉
醋
醒
醜
醬
釋
里
重
野
量
金
釜
針
釣
鈴
鉄
鉉
銀
銅
銘
鋭
錄
錢
錦
錮
錯
鎌
鎖
鎭
鏃
鏞
鑑
钟
铁
锅
镇
長
門
閉
開
閑
間
関
閣
闘
關
门
阅
阪
防
阿
陆
限
院
陣
陰
陵
陶
陸
険
陽
隊
階
隐
隠
隣
險
隱
隸
隼
雁
雄
雅
集
雖
雙
雜
雞
離
難
雨
雪
雲
零
雷
電
霊
露
靑
青
靖
静
靜
非
面
韋
韓
韩
音
頂
順
須
頑
領
頭
題
額
顏
顔
類
顧
颂
频
風
风
飛
飞
食
飯
餃
餅
養
餐
餘
餞
館
饭
饼
馆
首
香
馬
駄
駅
駐
験
驅
驚
骨
髓
體
高
鬪
鬼
魁
魂
魏
魔
魚
魯
鮨
鮮
鯉
鰍
鲜
鳥
鳳
鳴
鴻
鶴
鷹
鸡
鹿
麗
麺
麻
黃
黎
黑
黒
黙
黨
鼎
鼓
鼠
鼻
齊
齋
龍
龙
ꀾ
ꇴ
ꈊ
ꈍ
ꉂ
ꎤ
꒦
꒪
꒫
꒰
꒱
꒳
꒶
ꙫ






ﬁ
︶
︷
︿
﹃
﹏
ﻌ
ﻭ
﻿
！
＂
＃
％
＆
＇
（
）
＊
，
－
．
／
０
１
２
３
４
５
６
７
８
９
：
；
＜
＞
？
［
＼
］
＾
＿
｀
ｃ
ｄ
ｇ
ｈ
ｉ
ｊ
ｋ
ｍ
ｏ
ｐ
ｔ
ｖ
ｚ
｜
～
｡
｢
｣
･
ｦ
ｧ
ｰ
ｼ
ﾂ
ﾉ
ﾞ
ﾟ
￠
￡
￣
￥
￦
�
𐨛
𓂭
𓂻
𖤐
𝑨
𝑩
𝑰
𝑳
𝑺
𝘼
𝘽
𝙄
𝙅
𝙇
𝙉
𝙊
𝙎
🃏
🅰
🅱
🅵
🅶
🅸
🅾
🅿
🆁
🆃
🆓
🆕
🆗
🆘
🆙
🇦
🇧
🇨
🇩
🇪
🇫
🇬
🇭
🇮
🇯
🇰
🇱
🇲
🇳
🇴
🇵
🇷
🇸
🇹
🇺
🇻
🇼
🇾
🇿
🈚
🈶
🌀
🌁
🌂
🌃
🌄
🌅
🌆
🌇
🌈
🌉
🌊
🌋
🌌
🌍
🌎
🌏
🌐
🌑
🌒
🌓
🌕
🌘
🌙
🌚
🌛
🌜
🌝
🌞
🌟
🌠
🌡
🌤
🌥
🌦
🌧
🌨
🌪
🌫
🌬
🌭
🌮
🌯
🌰
🌱
🌲
🌳
🌴
🌵
🌶
🌷
🌸
🌹
🌺
🌻
🌼
🌽
🌾
🌿
🍀
🍁
🍂
🍃
🍄
🍅
🍆
🍇
🍈
🍉
🍊
🍋
🍌
🍍
🍎
🍏
🍐
🍑
🍒
🍓
🍔
🍕
🍖
🍗
🍘
🍙
🍚
🍛
🍜
🍝
🍞
🍟
🍠
🍡
🍢
🍣
🍤
🍥
🍦
🍧
🍨
🍩
🍪
🍫
🍬
🍭
🍮
🍯
🍰
🍱
🍲
🍳
🍴
🍵
🍶
🍷
🍸
🍹
🍺
🍻
🍼
🍽
🍾
🍿
🎀
🎁
🎂
🎃
🎄
🎅
🎆
🎇
🎈
🎉
🎊
🎋
🎎
🎏
🎐
🎑
🎒
🎓
🎖
🎗
🎙
🎞
🎟
🎠
🎡
🎢
🎣
🎤
🎥
🎦
🎧
🎨
🎩
🎪
🎫
🎬
🎭
🎮
🎯
🎰
🎲
🎳
🎵
🎶
🎷
🎸
🎹
🎺
🎻
🎼
🎽
🎾
🎿
🏀
🏁
🏂
🏃
🏄
🏅
🏆
🏈
🏉
🏊
🏋
🏌
🏍
🏏
🏐
🏓
🏔
🏕
🏖
🏘
🏙
🏚
🏛
🏜
🏝
🏞
🏟
🏠
🏡
🏢
🏤
🏥
🏨
🏪
🏫
🏮
🏯
🏰
🏳
🏴
🏵
🏷
🏸
🏺
🏻
🏼
🏽
🏾
🏿
🐀
🐁
🐂
🐄
🐅
🐆
🐇
🐈
🐉
🐊
🐋
🐌
🐍
🐎
🐏
🐐
🐑
🐒
🐓
🐔
🐕
🐖
🐗
🐘
🐙
🐚
🐛
🐜
🐝
🐞
🐟
🐠
🐡
🐢
🐣
🐤
🐥
🐦
🐧
🐨
🐩
🐬
🐭
🐮
🐯
🐰
🐱
🐳
🐴
🐵
🐶
🐷
🐸
🐹
🐺
🐻
🐼
🐽
🐾
🐿
👀
👁
👂
👃
👄
👅
👆
👇
👈
👉
👊
👋
👌
👍
👎
👏
👐
👑
👒
👓
👔
👕
👖
👗
👘
👙
👚
👛
👜
👝
👞
👟
👠
👡
👢
👣
👤
👥
👦
👧
👨
👩
👪
👫
👬
👭
👮
👯
👰
👱
👳
👴
👵
👶
👷
👸
👹
👺
👻
👼
👽
👾
👿
💀
💁
💂
💃
💄
💅
💆
💇
💈
💉
💊
💋
💌
💍
💎
💏
💐
💑
💒
💓
💔
💕
💖
💗
💘
💙
💚
💛
💜
💝
💞
💟
💠
💡
💢
💣
💤
💥
💦
💧
💨
💩
💪
💫
💬
💭
💮
💯
💰
💱
💲
💳
💴
💵
💶
💷
💸
💺
💻
💼
💿
📀
📂
📃
📄
📅
📆
📈
📋
📌
📍
📎
📐
📑
📒
📓
📔
📕
📖
📗
📘
📙
📚
📛
📜
📝
📞
📡
📢
📣
📥
📦
📨
📩
📬
📮
📯
📰
📱
📲
📵
📷
📸
📹
📺
📻
📼
📽
📿
🔃
🔄
🔅
🔆
🔈
🔉
🔊
🔋
🔌
🔍
🔎
🔒
🔔
🔖
🔗
🔜
🔝
🔞
🔠
🔥
🔦
🔧
🔨
🔩
🔪
🔫
🔭
🔮
🔯
🔰
🔱
🔲
🔴
🔵
🔶
🔷
🔸
🔹
🔺
🔻
🔼
🔽
🕇
🕉
🕊
🕌
🕍
🕐
🕑
🕒
🕔
🕕
🕖
🕗
🕘
🕙
🕛
🕟
🕠
🕣
🕧
🕯
🕰
🕴
🕵
🕶
🕷
🕸
🕹
🕺
🖇
🖊
🖋
🖌
🖍
🖐
🖑
🖒
🖕
🖖
🖤
🖥
🖱
🖼
🗂
🗒
🗓
🗞
🗡
🗣
🗨
🗯
🗳
🗺
🗻
🗼
🗽
🗿
😀
😁
😂
😃
😄
😅
😆
😇
😈
😉
😊
😋
😌
😍
😎
😏
😐
😑
😒
😓
😔
😕
😖
😗
😘
😙
😚
😛
😜
😝
😞
😟
😠
😡
😢
😣
😤
😥
😦
😧
😨
😩
😪
😫
😬
😭
😮
😯
😰
😱
😲
😳
😴
😵
😶
😷
😸
😹
😺
😻
😼
😽
😾
😿
🙀
🙁
🙂
🙃
🙄
🙅
🙆
🙇
🙈
🙉
🙊
🙋
🙌
🙍
🙎
🙏
🚀
🚂
🚃
🚄
🚅
🚇
🚈
🚉
🚊
🚋
🚌
🚐
🚑
🚒
🚔
🚕
🚖
🚗
🚘
🚙
🚚
🚛
🚜
🚝
🚞
🚠
🚢
🚣
🚤
🚥
🚧
🚨
🚩
🚪
🚫
🚰
🚲
🚴
🚵
🚶
🚽
🚿
🛀
🛁
🛋
🛌
🛍
🛎
🛏
🛒
🛠
🛣
🛤
🛥
🛩
🛫
🛬
🛳
🛴
🛵
🛶
🛸
🤎
🤐
🤑
🤒
🤓
🤔
🤕
🤖
🤗
🤘
🤙
🤚
🤛
🤜
🤝
🤞
🤟
🤠
🤡
🤢
🤣
🤤
🤥
🤦
🤧
🤨
🤩
🤪
🤫
🤬
🤭
🤮
🤯
🤰
🤱
🤲
🤳
🤴
🤵
🤶
🤷
🤸
🤹
🤼
🤽
🤾
🥀
🥁
🥂
🥃
🥄
🥇
🥉
🥊
🥋
🥐
🥑
🥒
🥓
🥔
🥕
🥖
🥗
🥘
🥙
🥚
🥛
🥜
🥝
🥞
🥟
🥠
🥡
🥢
🥣
🥤
🥥
🥦
🥧
🥨
🥩
🥪
🥫
🥬
🥭
🥮
🥯
🥰
🥳
🥴
🥵
🥶
🥺
🦀
🦁
🦂
🦄
🦅
🦆
🦇
🦈
🦉
🦊
🦋
🦌
🦍
🦎
🦏
🦐
🦑
🦒
🦓
🦔
🦕
🦖
🦘
🦙
🦛
🦜
🦞
🦢
🦱
🦲
🦴
🦶
🦷
🦸
🧀
🧁
🧐
🧑
🧒
🧔
🧖
🧗
🧘
🧚
🧜
🧞
🧟
🧠
🧡
🧢
🧣
🧤
🧥
🧦
🧨
🧬
🧮
🧲
🧳
🧵
🧶
🧷
🧸
🧹
🧺
🧻
🧼
󰡔
󰡕
##ᅡ
##ᄌ
##ᅵ
##ᄂ
##ᅣ
##ᆼ
##b
##o
##ᄒ
##ᅮ
##ᆫ
##ᆯ
##ᄆ
##ᅥ
##ᅢ
##ᄇ
##ᅩ
##ᆨ
##ᄉ
##ᄃ
##ᅪ
##ᄋ
##ᅲ
##ᄎ
##ᆺ
##ᅦ
##ㅡ
##ᄅ
##ᄐ
##ᆷ
##ᅳ
##ᄀ
##ᆹ
##ᇀ
##ᄄ
##ᅧ
##ᆸ
##ᅴ
##ᆻ
##ㅎ
##ᄑ
##ㅠ
##ᅭ
##ᅬ
##a
##n
##e
##ㅋ
##ㅂ
##ᄍ
##ᅨ
##ᄏ
##ᅰ
##ᆿ
##ᇂ
##ᄊ
##受
##性
##ᅫ
##ᅱ
##ᄁ
##ᆾ
##ᆭ
##ᅯ
##1
##ᆽ
##s
##m
##ᇁ
##t
##k
##r
##i
##🐓
##🐣
##ᆮ
##y
##j
##ᆲ
##ᅤ
##✌
##ㅇ
##l
##ᄈ
##v
##w
##u
##ᆞ
##ㅜ
##2
##4
##9
##6
##8
##0
##7
##h
##c
##3
##p
##g
##ㅣ
##ㄷ
##ᆰ
##🍔
##🍟
##🍝
##🎂
##本
##人
##ん
##ほ
##う
##✔
##ㅓ
##💛
##є
##ʟ
##ı
##5
##ㄱ
##d
##😘
##ㅏ
##ㅌ
##f
##ᆩ
##x
##q
##🔥
##🙈
##🙊
##🌿
##ᆶ
##🤒
##ㄴ
##な
##🌼
##😴
##ㅑ
##💇
##z
##ㅈ
##🌬
##💧
##ン
##😌
##ㅅ
##📷
##📸
##😛
##😁
##😀
##😃
##😄
##◞
##🥗
##🍓
##🍎
##🍊
##~
##龍
##卸
##甲
##🍽
##🍿
##ᆱ
##💁
##🏻
##💕
##😭
##っ
##つ
##ぁ
##て
##ᆴ
##❄
##🐐
##🐆
##🐎
##🐯
##🐒
##🐏
##😱
##ㅃ
##💙
##👍
##ᴏ
##🤣
##稱
##❣
##🌃
##🌠
##🏙
##🌉
##🌆
##🎇
##🎡
##座
##ㄹ
##💞
##ᆬ
##😸
##😽
##ㅛ
##🏾
##ㅁ
##ᴹ
##ᴵ
##‍
##ㅗ
##ㄲ
##像
##🤸
##ㅆ
##💘
##ㅊ
##🍜
##🍫
##?
##✨
##畵
##広
##町
##駅
##🎄
##理
##👏
##😂
##😍
##軍
##🐶
##🎶
##路
##🐅
##🙋
##👌
##😉
##瀬
##千
##秋
##ま
##わ
##り
##"
##🎃
##♥
##😋
##🥐
##🏍
##🛵
##🚨
##❤
##☺
##🌱
##🏽
##ㅐ
##美
##❓
##🐷
##ෆ
##👉
##👈
##👨
##🥢
##💦
##ㅍ
##👦
##💐
##楽
##坂
##👶
##👀
##🍰
##🤚
##🧘
##ㅔ
##😻
##ᆪ
##苏
##泷
##🥑
##し
##い
##と
##🤨
##鉉
##碻
##竟
##渡
##河
##♪
##♬
##た
##み
##😊
##⌒
##.
##'
##🐥
##😎
##☕
##ᴄ
##ー
##死
##葬
##六
##病
##꒰
##👎
##💗
##言
##🎉
##▼
##😢
##🤤
##乳
##草
##💚
##ム
##ラ
##イ
##ス
##ハ
##タ
##😅
##_
##🥳
##🍑
##文
##根
##🤗
##愿
##目
##１
##７
##🍷
##🐽
##💖
##☔
##ㅄ
##陰
##藥
##🐖
##🥦
##🍪
##🏈
##🍀
##孝
##新
##生
##站
##☃
##☌
##🏼
##😯
##/
##о
##с
##и
##я
##さ
##ひ
##か
##★
##ㅕ
##內
##密
##探
##零
##發
##ღ
##🍃
##玉
##堂
##^
##🇯
##🇵
##😫
##🌸
##く
##ㄸ
##蔑
##💯
##🏃
##🙉
##🙇
##👐
##📙
##🍺
##🙆
##😙
##ㅤ
##🙌
##😆
##き
##れ
##に
##ち
##ᆢ
##ㅉ
##🌲
##🍾
##ふ
##的
##少
##女
##时
##代
##け
##ㅝ
##道
##🧚
##塾
##ル
##チ
##ャ
##田
##來
##未
##石
##沒
##鏃
##👭
##💨
##🍂
##ア
##ニ
##メ
##ᆵ
##幌
##湾
##💮
##🏵
##犬
##🍣
##😵
##転
##車
##🌙
##👜
##マ
##ト
##末
##婆
##家
##酒
##⚽
##➡
##布
##ɴ
##和
##真
##中
##✈
##🏄
##🌮
##🧀
##｡
##國
##🍚
##ฅ
##🥰
##🎵
##✊
##惡
##之
##心
##🏯
##ᴇ
##🥄
##屋
##🥙
##来
##棄
##🐺
##🦕
##萬
##事
##成
##🐰
##ㅟ
##せ
##も
##ら
##ソ
##ロ
##シ
##個
##💓
##黒
##🌷
##˜
##州
##岛
##食
##店
##‰
##”
##リ
##ヘ
##🌶
##星
##🍤
##ㄳ
##💫
##の
##😚
##村
##🙄
##從
##ᴥ
##ᵔ
##ㅖ
##😳
##💜
##首
##金
##山
##諫
##制
##度
##🛁
##💏
##ᴸ
##ᴼ
##ᵂ
##ᴱ
##ᴿ
##日
##也
##放
##聲
##大
##哭
##水
##ッ
##ク
##🥟
##🌋
##あ
##☆
##💅
##♣
##♦
##♠
##🐳
##🐬
##❗
##🤷
##🍌
##部
##🙏
##🌵
##🧡
##🐔
##🥓
##考
##☘
##🌴
##🌊
##快
##乐
##😒
##🥖
##○
##🌽
##ð
##ᵕ
##ˇ
##👆
##😝
##😜
##蟲
##🇪
##👼
##н
##г
##л
##🆙
##ィ
##🥛
##ᆳ
##🖤
##🥺
##🍻
##🥁
##🎺
##🙃
##🏿
##个
##在
##那
##儿
##🇧
##💋
##😠
##锅
##🛫
##🎊
##🎁
##🎈
##👩
##·
##🍠
##記
##⚓
##濤
##編
##ᴍ
##💤
##🍋
##☁
##🥀
##🥕
##🍳
##肉
##明
##梅
##廷
##裕
##💸
##🛒
##💎
##🍏
##😣
##😧
##😨
##😲
##ㆀ
##🔜
##川
##愛
##🍙
##🍘
##:
##🍦
##🌕
##🤮
##🤦
##ホ
##フ
##コ
##🌘
##ケ
##サ
##權
##果
##🌳
##🍞
##🇿
##🎓
##多
##魔
##🚙
##🦀
##国
##а
##ю
##т
##レ
##世
##杵
##五
##三
##郎
##輪
##◯
##福
##🍮
##テ
##ㅢ
##💃
##⭐
##😶
##☪
##漁
##寺
##灣
##伴
##手
##禮
##🐇
##📖
##源
##方
##呂
##🏊
##😡
##💪
##我
##行
##跡
##子
##🍸
##直
##渤
##海
##同
##一
##名
##下
##鮨
##🦶
##康
##😗
##▽
##🥪
##▷
##🕵
##猶
##不
##及
##👊
##乞
##慮
##🗽
##😷
##城
##是
##🍯
##守
##孔
##キ
##😦
##🍧
##ࡇ
##ఠ
##⛈
##💊
##ᵒ
##ᗨ
##🍅
##©
##底
##捞
##ᴀ
##🇺
##📚
##壽
##府
##🤞
##❾
##想
##戈
##穴
##货
##🍒
##😮
##👤
##林
##泉
##🌻
##🌝
##˓
##˂
##🐾
##〰
##🍬
##🤟
##浦
##-
##’
##🚽
##ｦ
##ヲ
##😥
##🥚
##♫
##🎅
##士
##🏁
##…
##饭
##ョ
##🤲
##🚗
##👯
##市
##😖
##仁
##＼
##め
##は
##ɪ
##ɢ
##寶
##🌞
##🤢
##桥
##🤩
##🎧
##🎸
##🎤
##英
##👵
##團
##+
##➕
##🧒
##洞
##推
##荐
##⚘
##🌹
##]
##🕸
##💑
##)
##;
##,
##え
##🏐
##與
##弟
##博
##哩
##俱
##統
##領
##💴
##説
##🤪
##ᴬ
##🖕
##癒
##静
##民
##卒
##者
##🥬
##肥
##機
##😟
##側
##近
##😔
##米
##歩
##合
##音
##💳
##🐠
##🍩
##🥩
##す
##こ
##☝
##動
##０
##ᕕ
##ォ
##■
##�
##🍕
##暑
##💝
##好
##味
##ァ
##ミ
##蔵
##小
##僧
##🆁
##🅾
##🅵
##🅸
##🆃
##二
##🐛
##選
##当
##光
##佳
##亭
##🤶
##💍
##軒
##狀
##🕊
##💥
##⠀
##◐
##🙁
##上
##如
##相
##ß
##朗
##🤹
##●
##🐿
##声
##╯
##👻
##🚴
##カ
##🍈
##🍐
##🥝
##冰
##沙
##禎
##吏
##藤
##伸
##治
##🍛
##ʔ
##🦆
##鎖
##清
##加
##奈
##🐢
##飛
##♨
##👣
##ᗜ
##ˋ
##物
##༽
##🍨
##🇭
##📣
##錢
##出
##納
##簿
##ᴅ
##(
##定
##情
##客
##🥯
##υ
##💟
##姓
##資
##材
##雲
##次
##去
##朋
##友
##⏩
##🤧
##潭
##滑
##主
##題
##樂
##啡
##業
##化
##🐵
##🚘
##„
##💄
##ʀ
##🎨
##縏
##天
##王
##ㄻ
##溪
##硯
##🤔
###
##閣
##話
##蛋
##面
##ょ
##焼
##玹
##醋
##逆
##胆
##🗣
##😩
##戱
##鳳
##政
##署
##破
##已
##十
##餘
##矣
##🍼
##ゅ
##д
##в
##к
##📓
##🤭
##☄
##😪
##😤
##戸
##丸
##🇼
##冬
##💬
##酷
##悪
##🤵
##👰
##云
##ѧ
##🇸
##エ
##🥃
##µ
##🥧
##🧁
##憶
##⚾
##鼎
##轩
##🚫
##員
##力
##由
##⛏
##野
##る
##🌈
##е
##у
##꒱
##🇰
##🇷
##ב
##ל
##念
##🤬
##🎋
##௰
##⌯
##語
##愁
##👠
##👟
##戰
##效
##濠
##公
##園
##６
##🥵
##¤
##🎬
##ㅒ
##ד
##ו
##ת
##裝
##㈜
##✂
##🎀
##よ
##💶
##💷
##💱
##🤘
##🕺
##鬪
##狗
##居
##扎
##蘭
##節
##א
##י
##ן
##南
##集
##植
##园
##韓
##ᴛ
##ʜ
##ᴜ
##酥
##皮
##虾
##鲜
##ㅀ
##🎾
##灘
##産
##品
##油
##🍁
##🌀
##北
##虛
##✧
##敬
##德
##🎆
##😏
##😈
##🌟
##🤕
##⁽
##█
##◤
##࿉
##奥
##🌯
##🤯
##義
##智
##君
##🏖
##🚀
##🚕
##🚌
##步
##๑
##🇹
##ѕ
##へ
##や
##🏞
##⁺
##♡
##⚡
##🏝
##👕
##🦐
##🦈
##🐋
##🐙
##🦑
##🍲
##🥔
##向
##花
##セ
##◆
##序
##井
##猛
##進
##🐟
##安
##☂
##华
##艺
##术
##宫
##🍭
##✋
##!
##ㄶ
##ㅘ
##哲
##万
##象
##谷
##遺
##稿
##🖍
##體
##育
##場
##涌
##原
##電
##🐌
##学
##活
##🚶
##線
##５
##🐝
##般
##ᴋ
##年
##📕
##巻
##旋
##風
##脚
##所
##🍗
##🎪
##❛
##鬼
##ろ
##沈
##🥣
##そ
##門
##滝
##🤝
##🇬
##🔊
##ᴡ
##☜
##🐡
##🐚
##辣
##烫
##古
##見
##🏠
##ﾟ
##🚵
##˙
##🐘
##🍍
##を
##🥞
##ł
##车
##坐
##₎
##血
##ᶠ
##達
##臣
##空
##🍴
##作
##百
##😬
##⛹
##🧖
##ツ
##👁
##台
##🇨
##🍹
##💀
##🍡
##🛤
##◡
##廿
##🌾
##🦋
##⛷
##虹
##火
##ね
##掌
##🌰
##🍉
##٩
##険
##视
##剧
##🐻
##典
##🤳
##🥶
##🥘
##¡
##宿
##召
##喚
##筋
##健
##骨
##存
##👫
##ˣ
##👅
##幸
##太
##😹
##宝
##贝
##з
##р
##🕌
##妆
##´
##拳
##🌌
##🌺
##工
##钟
##楼
##◝
##₍
##🐤
##談
##ネ
##🍇
##ナ
##陽
##🍶
##景
##区
##差
##ˢ
##ᴺ
##ᵀ
##吃
##⁾
##🔰
##🐄
##🙂
##🏡
##🏘
##🏚
##◕
##🥤
##望
##茫
##🦓
##“
##🌭
##👑
##牛
##界
##♩
##χ
##η
##阪
##◉
##｀
##旨
##辺
##✒
##ュ
##◍
##ν
##λ
##α
##¨
##😓
##🖐
##了
##𖤐
##🔱
##🚢
##🎢
##🎠
##お
##🤜
##床
##異
##夢
##🔫
##ლ
##溥
##⇢
##運
##籠
##雞
##腿
##排
##說
##ウ
##🔋
##ф
##θ
##п
##察
##罔
##旅
##游
##⬇
##🇳
##格
##要
##件
##🧸
##⸜
##꒫
##꒪
##▶
##🐼
##ԅ
##˃
##弱
##强
##༶
##🥂
##🥒
##💩
##認
##🐱
##算
##西
##📵
##玄
##ପ
##前
##燈
##ಠ
##ι
##🛍
##💉
##ᴠ
##🎥
##續
##嚕
##ч
##场
##懸
##鈴
##🐩
##🛌
##•
##通
##販
##⛄
##🌧
##🌪
##🌫
##☀
##🌨
##郡
##瑛
##字
##🚤
##茶
##給
##瞰
##圖
##¼
##🏀
##🎣
##🎳
##⛳
##島
##˚
##侯
##🚣
##ヌ
##謾
##識
##🤫
##±
##辛
##ヽ
##🧣
##蕒
##菜
##奏
##誼
##👬
##應
##🚩
##😞
##🏌
##報
##精
##訓
##９
##🤛
##🏕
##‚
##咲
##爱
##彦
##均
##宮
##組
##曲
##🎯
##🐮
##ヒ
##ぬ
##х
##🐂
##ᴾ
##👋
##陣
##💆
##‘
##达
##喝
##😰
##🦁
##得
##🌛
##盛
##🥨
##使
##梁
##於
##輸
##🐭
##極
##冒
##險
##ᴰ
##祖
##敗
##遼
##兵
##于
##境
##稅
##爭
##時
##🍄
##將
##弘
##最
##浪
##漫
##副
##歌
##甫
##牙
##⛤
##🖌
##ェ
##垣
##🖱
##鑑
##論
##□
##🍱
##足
##👇
##┻
##🖒
##¬
##🍆
##🐕
##🐀
##😐
##😕
##💡
##族
##胸
##後
##呼
##實
##黙
##以
##曷
##蘓
##館
##歸
##吸
##紀
##🇱
##🐊
##🦂
##晴
##地
##🌡
##江
##🤥
##ゃ
##🧐
##鋭
##崇
##憾
##💣
##🏔
##🌄
##◟
##類
##番
##街
##迅
##🦢
##完
##顏
##爾
##罕
##涯
##亂
##🗿
##求
##👙
##ᵐ
##ᵍ
##身
##経
##岚
##双
##片
##装
##半
##膜
##鎭
##❥
##🇩
##常
##换
##老
##吉
##津
##💌
##宗
##黨
##🕙
##露
##🙀
##👒
##松
##柳
##夕
##張
##オ
##⛰
##隱
##霊
##気
##*
##奇
##書
##┓
##📽
##怪
##獣
##詁
##學
##七
##倉
##笼
##包
##別
##龙
##蘑
##菇
##🛩
##３
##顔
##醒
##┳
##ㄺ
##馬
##🖖
##モ
##[
##湖
##📨
##其
##兄
##别
##而
##🚠
##房
##🦔
##🔈
##比
##歳
##專
##禁
##齋
##志
##斗
##神
##秘
##八
##叔
##舟
##👿
##ㅞ
##紙
##🛏
##寨
##濟
##勢
##😺
##遐
##🕷
##央
##銀
##🤓
##聽
##夜
##眼
##社
##⁼
##益
##ノ
##σ
##ш
##🏺
##陆
##𝙄
##𝘽
##𝘼
##𝙇
##🧨
##🙅
##捨
##指
##標
##⛱
##⁰
##九
##😿
##🍥
##鳴
##岡
##男
##㉦
##照
##🐦
##局
##ь
##鸡
##高
##校
##史
##宙
##♤
##乃
##🥫
##經
##👽
##⇝
##🇦
##態
##玛
##┃
##广
##隊
##🐸
##麻
##香
##保
##📮
##謨
##珠
##奶
##⌑
##༎
##期
##咖
##厅
##禧
##苑
##🔍
##ᵁ
##ᴴ
##ｚ
##🥜
##🔩
##⚙
##
##鷹
##蓮
##👧
##🌇
##版
##🌚
##🐍
##務
##院
##麗
##🥠
##漢
##建
##告
##里
##衆
##平
##敦
##角
##峰
##宜
##彩
##詠
##证
##👞
##己
##過
##信
##口
##ʌ
##ə
##🏅
##ｄ
##🐈
##池
##正
##習
##亦
##乎
##=
##⭕
##任
##樹
##泰
##体
##傳
##ς
##諭
##曰
##撃
##喜
##久
##獻
##接
##б
##遂
##榮
##蜜
##⬆
##寒
##賣
##┌
##坊
##落
##🐨
##🐑
##立
##💢
##嘴
##🧥
##🥴
##留
##尉
##˄
##⌓
##︶
##端
##💰
##🤎
##ｼ
##🏋
##翅
##刀
##葉
##❌
##鮮
##ᴗ
##ˆ
##🅶
##ø
##ᴷ
##👄
##萌
##虎
##🍵
##æ
##连
##﹏
##ಥ
##澄
##˘
##✿
##憲
##✫
##料
##💵
##➰
##﻿
##貴
##讓
##◑
##😼
##ᵋ
##૨
##供
##凰
##搾
##ʚ
##ʘ
##長
##😑
##м
##ワ
##ᴳ
##𝑺
##𝑰
##𝑩
##𝑨
##𝑳
##分
##用
##ƪ
##庐
##印
##器
##賀
##🛴
##鹿
##爲
##淫
##亜
##弥
##卿
##瑗
##艶
##⁹
##塔
##耶
##律
##色
##宅
##辯
##詩
##🕯
##月
##白
##😾
##量
##種
##有
##淳
##柏
##烹
##覇
##企
##画
##🌍
##🌏
##🚖
##꒳
##€
##📜
##💭
##術
##意
##蔘
##`
##曹
##丁
##聞
##貨
##璐
##✏
##📒
##⛅
##🌂
##👴
##止
##ᖇ
##ᑎ
##雪
##👗
##°
##共
##📢
##ᕦ
##◀
##亀
##忍
##伝
##🎞
##第
##四
##季
##ᴘ
##🍢
##覺
##師
##遍
##碑
##登
##📱
##且
##恤
##窮
##域
##🍖
##価
##交
##換
##🇲
##🖑
##才
##職
##刑
##宇
##室
##商
##🇫
##ﾞ
##橋
##悲
##哀
##費
##⛧
##▿
##々
##΄
##─
##崎
##條
##ᶜ
##⏱
##🥥
##私
##淑
##錄
##ゥ
##詞
##頭
##˖
##📺
##ꈊ
##汜
##関
##駄
##氣
##😇
##⛵
##⫬
##杞
##ο
##τ
##κ
##酉
##再
##昌
##餅
##☎
##雄
##列
##✡
##📌
##💂
##型
##苦
##<
##拍
##銅
##形
##羅
##🚑
##ק
##ר
##球
##肯
##慶
##🐉
##%
##司
##门
##県
##熱
##㉭
##腸
##遊
##終
##⤴
##ц
##庫
##◔
##素
##遷
##棲
##✅
##釣
##ʏ
##嘉
##茉
##概
##⏰
##🌎
##攻
##略
##ㅚ
##垈
##僞
##耳
##獄
##握
##爪
##始
##諱
##函
##普
##則
##刻
##🐴
##🦞
##🏆
##京
##奴
##𝙊
##𝙉
##腕
##系
##ヨ
##🤙
##🔵
##☠
##🏳
##🇴
##導
##琴
##歷
##丼
##卑
##・
##ש
##ה
##🐹
##窟
##船
##佐
##敎
##🧗
##🌒
##全
##🤑
##竜
##圭
##夏
##🧞
##🇮
##丹
##尼
##況
##👝
##📿
##ﬁ
##蟄
##会
##夫
##回
##❔
##旗
##燃
##會
##験
##都
##誤
##🌤
##🌥
##僻
##孫
##必
##能
##聚
##帳
##👘
##ʙ
##珍
##煎
##茴
##ｰ
##👾
##卵
##述
##昇
##ᵏ
##ᵎ
##将
##奔
##烈
##聖
##殿
##🦌
##☹
##👖
##👚
##流
##你
##们
##坡
##ॱ
##ଳ
##寧
##ｉ
##ｍ
##ｐ
##稲
##🚇
##✉
##🎹
##📯
##樣
##華
##敵
##ᐖ
##靖
##故
##還
##復
##ര
##>
##פ
##꒦
##肠
##判
##獨
##👪
##危
##勞
##焦
##思
##銘
##雅
##点
##谢
##™
##ᗰ
##🏴
##菊
##蔽
##答
##限
##惠
##翔
##🏰
##浩
##章
##簾
##ƒ
##₀
##🛬
##🦊
##慢
##速
##戦
##争
##🕶
##œ
##巴
##克
##諜
##翁
##元
##东
##失
##順
##🧤
##蘆
##︿
##🕴
##🔄
##變
##参
##魚
##妈
##無
##恥
##到
##逐
##🎖
##烏
##🧑
##🧮
##📐
##📝
##֊
##豆
##🙎
##🔪
##卓
##热
##绵
##影
##雨
##額
##曉
##吞
##麺
##编
##码
##視
##祐
##踢
##操
##尾
##狐
##🧹
##啓
##傑
##句
##இ
##▫
##裂
##读
##╹
##ꉂ
##ᴮ
##親
##🥭
##🚃
##港
##ぉ
##ぇ
##官
##🚞
##亥
##哉
##˒
##羊
##୧
##程
##勝
##僕
##桃
##ఇ
##齊
##帰
##旻
##隸
##ˬ
##馆
##施
##圏
##外
##郭
##栄
##ร
##อ
##ย
##幽
##む
##敷
##愚
##似
##衡
##助
##🚿
##疏
##規
##彈
##劾
##法
##訶
##若
##鏞
##⛑
##⸝
##特
##埓
##ᶻ
##ᵞ
##補
##髓
##阿
##佛
##忌
##煩
##餃
##至
##非
##ъ
##熙
##眞
##看
##💻
##⌨
##⌄
##難
##و
##湯
##凪
##为
##゜
##🥊
##⚰
##備
##患
##射
##停
##利
##铁
##弹
##飞
##侠
##何
##ε
##μ
##春
##饼
##綺
##ｈ
##➴
##萝
##🃏
##邱
##🧢
##引
##淺
##织
##害
##ヤ
##♾
##☚
##修
##ᐛ
##📦
##◼
##◾
##▪
##◽
##◻
##⬜
##⏳
##⌛
##間
##尔
##餐
##忠
##🚲
##樑
##亮
##表
##▾
##☻
##ᴖ
##初
##皆
##勿
##裔
##━
##╮
##💿
##辰
##雖
##善
##奪
##廉
##潔
##厚
##🔴
##実
##護
##猫
##尊
##朝
##臨
##對
##廬
##⌣
##闘
##♧
##温
##ס
##∙
##招
##劍
##✺
##層
##貌
##@
##着
##予
##🚛
##⛔
##🚒
##被
##鶴
##毅
##悌
##持
##賑
##貸
##扈
##牲
##⑉
##閑
##先
##固
##顧
##צ
##省
##賊
##岩
##💠
##费
##吗
##☑
##製
##峽
##處
##▰
##🦄
##恩
##ｇ
##颂
##窪
##良
##👸
##👹
##稀
##可
##硏
##岬
##軋
##木
##ｖ
##重
##靜
##讀
##窓
##裏
##須
##胡
##縄
##武
##帝
##諸
##鉄
##˳
##柑
##⑅
##陵
##錮
##申
##廚
##ː
##籤
##東
##豪
##連
##🕉
##休
##⛺
##🌜
##毒
##🤠
##岐
##ゆ
##💺
##ᆔ
##孃
##塩
##２
##ᗣ
##ᗕ
##靑
##🦴
이
##ᅳᆫ
어
##ᅳᆯ
하
아
는
가
에
그
고
다
##ᅥᆫ
##ᅡᆫ
##이
##서
##ᅡᆼ
##ᅧᆫ
지
을
##니
##리
##다
거
##요
시
##지
##ᅡᆯ
도
은
저
##ᅮᆫ
있
##하
##시
##러
##ᅳᆷ
게
었
나
보
##로
것
##ᅧᆼ
를
들
##가
사
의
##데
마
기
##기
##고
##니다
네
##ᅮᆯ
##라
조
##어
되
으
자
주
스
요
##ᅢᆼ
##스
오
##ㅋㅋ
##도
##거
##나
##ᅩᆨ
##제
##저
면
##ᅮᆨ
여
그러
대
예
바
##까
수
어서
라
##자
##래
에서
##야
한
습
과
##ᅯᆫ
으로
로
##ᅩᆼ
만
는데
##런
서
모
습니다
##ᅥᆨ
##ᅢᆨ
일
정
##아
부
았
니
##장
ㅂ니다
어요
##마
안
##치
##오
##사
##면
뭐
인
소
##구
##르
우
더
않
야
##주
ㄴ다
##금
같
##히
아니
##것
전
##는
##미
제
죠
##트
##화
##드
구
세
적
##우
너
##ᅧᆨ
때
내
그렇
음
##그
좋
##보
생
##정
미
##무
겠
##대
차
드
말
없
##만
##타
노
먹
##상
##인
##ᅧᆯ
와
##일
##수
유
처
##ㅋㅋㅋㅋ
##람
화
많
비
무
그런
##문
그리
##원
우리
이제
##부
사람
이러
##각
좀
##간
상
##분
치
##터
지금
또
위
##음
공
##ᅳᆼ
남
##비
##니까
분
중
##ᅣᆼ
버
어ᄄ
까
던
아요
##들
알
이렇
##국
개
##용
진
이런
##전
맛
피
아서
##ᅩᆫ
##ᆯ리
두
생각
##려
경
##유
##실
선
##게
잘
##ᅡᆨ
##성
어야
장
원
##동
동
##램
니까
근
##ᅦ이
라고
문
##그램
##과
##식
##버
##든
이것
영
지만
가지
나오
번
ㄴ데
해
관
국
까지
##해
##디
당
##당
그래
##스타
연
신
##신
##내
입
##키
그것
살
에요
##소
감
##단
계
추
##말
성
##피
##생
##랑
##ᅳᆨ
다고
##늘
대하
씨
##한
방
##티
##의
##안
##테
집
얘
너무
면서
물
##통
##ᅮᆷ
받
##스타그램
##행
##물
느
근데
##처
배
그리고
많이
##크
맞
##ᅵᆷ
님
##민
얘기
##심
때문
못
왜
싶
아이
매
오늘
##진
크
반
##차
실
##십
##ᅯᆯ
##루
##세
회
그래서
쓰
##명
재
애
##었
##짜
##모
으면
##레
##회
김
##체
결
ㄴ가
사실
단
불
년
##바
식
##프
그ᄂ
학
라는
##른
##산
남자
데
##계
##연
타
##ᅥᇂ
냐
##위
##있
다는
##여
명
##속
파
발
##재
어떻
어떤
후
점
새
인제
강
어도
더라
진짜
정말
거든
##방
##집
##두
##선
삼
##ᅥᆯ
시간
최
교
포
에게
며
세요
건
만들
작
##름
호
##ᅥᆷ
리
##ㅠㅠ
보이
통
##양
##직
##력
##조
##호
참
##에
들어
엄
달
따
##천
하나
##업
그냥
문제
##영
정도
##중
거든요
카
##작
##때
##번
##즈
여기
##임
누
간
##능
##울
친
##경
##녀
##년
위하
##ᆼ장
##건
얼
부분
모르
막
특
역
현
부터
##희
느ᄁ
##교
##추
시었
##발
##품
다가
양
맛있
끄
보다
##표
머
메
날
##록
다른
##적
##ㅋㅋㅋㅋㅋㅋㅋㅋ
##파
##근
청
이거
##ᆷᄁ
백
##럼
##격
##카
언
다음
##개
직
괴
박
초
##와
##론
운
##관
약
##코
##어지
프
천
##럽
##령
##청
코
앞
##네
육
열
이야
##태
영화
손
드리
심
##ᆯ라
##머
그런데
넘
ㄹ까
##반
##색
##석
는데요
군
등
행
##씀
##점
##매
##료
##ᅵᆨ
굉장
말씀
##님
경우
평
편
##포
##본
##노
굉장히
##운
려
책
필
여자
한테
##토
##맛
외
확
북
검
##은
##페
##역
설
눈
이나
길
팔
##족
##공
##학
##림
##황
아야
속
##약
##예
이야기
여러
돌
법
##법
다시
출
커
##복
십
좋아
처럼
사용
찾
##ᆷ께
##류
##란
함께
ㅂ니까
금
완
들어가
습니까
##째
이번
바로
그러니까
##ᆺ하
같이
ㄴ다고
##냐
##쁘
힘
##먹
뒤
##후
ㄴ지
##감
##절
##박
계속
##습
##슨
##월
본
사진
시키
판
저희
거기
##험
은데
구요
대통
듣
대통령
조금
목
용
##입
좋아하
민
아무
끝
그거
산
든
##00
는지
##더
##강
##너
형
##케
친구
ㅋㅋㅋ
체
누구
꼬
종
##씨
줄
##브
돈
##편
그럼
답
월
시작
놓
변
디
##련
##워
밖
엄마
응
상황
##급
##송
가능
키
##준
##술
자기
잡
##현
권
##꾸
아주
##ᅧᆸ
##질
곳
##메
##락
##날
가장
표
밥
##담
만나
마음
##쪽
그러면
##션
터
##베
을까
동안
할
필요
##결
##팔
##향
쉬
##육
순
##이어
패
넣
별
##ᅳᆯ리
##침
한국
토
찍
나가
무슨
몇
여행
어디
빨
ㅎㅎ
##즘
귀
##판
딱
푸
##남
##종
트
##찰
처음
이상
##난
준
못하
##출
##am
일단
허
담
대표
싸
##츠
ㄴ다는
지나
##빠
##엇
갈
##ᆫ트
갖
는다
##형
ㅋㅋ
##라고
짜
의원
감사
요즘
##합
캐
질
투
충
##어나
##애
증
스타
먼
복
##대로
취
ㅋㅋㅋㅋㅋ
느낌
빠
어리
죽
그때
##달
존
프로
얼마
##막
께
##망
중요
##스트
으니까
##없
##플
##느
놀
사랑
느끼
쪼
북한
##st
앉
##배
더라구
으시
##혼
##언
##oo
듯
벌
##등
준비
운동
보내
절
##글
##움
국민
버리
레
괘
무엇
활
랑
글
정치
##블
학교
##견
서울
사이
뜨
거나
##새
괜
##ᆫ드
##택
##설
##접
##억
태
##찮
아직
올리
##목
임
오래
색
고기
러
채
티
##독
더라고
미국
총
항
##득
베
다이어
재미
병
##을
##며
머리
독
##권
헤
모든
다면
꼭
여성
##변
약간
##뉴
어려
려고
혼
##악
일상
##누
다니
생기
##외
이유
환
##되
둘
##찬
##레이
겨
##큼
퍼
추천
아마
높
##커
결국
음식
엄청
힘들
##책
##져
도록
따르
자리
자신
쪽
##밥
##할
##백
통하
걸
브
올
돌아
휴
##푸
학생
역시
##초
광
##롭
테
##팅
첫
번째
폭
잠
괜찮
향
완전
##별
아까
홍
##녕
즐
규
먼저
##살
##으
##끔
선생
어ᄍ
노래
일본
정부
합
어렵
칠
울
모습
몸
##량
각
읽
이미
##sta
건강
거의
이십
맛집
풀
내용
더니
스럽
논
관련
가족
다르
떠
제품
아침
피부
블
희
##군
옆
입장
ㅋㅋㅋㅋㅋㅋㅋㅋㅋ
##굴
##쉬
20
##ood
업
안녕
##짝
##지만
다이어트
##머니
##념
##환
궁
빵
사회
예예
올라
사건
흐
모두
메뉴
하루
어느
##ㅠㅠㅠㅠ
쉽
소리
떨
##창
##북
깨
##튼
으니
##순
돼
축
딸
옷
##투
##er
##써
기억
없이
요일
혹
상당
플
술
ㄴ다면
직접
라면
어제
##지막
웃
##녁
이름
##증
언제
씩
게임
카페
자체
실제
아도
10
효
배우
##싸
거리
방법
특히
위원
중국
마지막
철
셔
##끼
##an
저녁
##쟁
물론
께서
##봐
이랑
당신
##혜
본인
갑
##규
##퍼
소년
##섯
관계
제일
온
##ᆯ러
뿐
##혀
계시
##렇
##불
##승
##다리
냐면
부르
##같
대로
##아지
황
관리
##착
아들
ㅠㅠ
육아
##in
여러분
##활
교육
히
느냐
지역
접
들어오
선수
마시
워
빼
주문
상태
##못
##극
마다
##례
끼
범
뉴
창
##슈
##채
구나
##ㅋㅋㅋ
다라고
밤
밖에
늘
붙
원래
##나라
찾아
##겁
확인
품
##핑
전화
##덕
##맛집
##끄
예쁘
개인
##ᅦ이크
소녀
얼굴
가격
##ᆨ정
##병
바라
핵
폰
하지만
커피
끝나
력
급
##함
억
기다리
세계
걱정
##쿠
현재
##립
##걸
##징
##ᆷ하
##ame
다양
당시
뛰
행복
##존
ㄹ게
녹
##응
싫
##이트
조사
먹스타그램
바다
제주
기대
##뜨
잔
##귀
혼자
얼마나
##항
협
##패
아버
꺼
##ᆨ스
상당히
##돌
이해
페
빨리
걷
##탁
##일리
기분
##셔
##친
name
최고
찌
결혼
대학
아기
떨어지
골
샤
선물
진행
셀
##꺼
만큼
란
회사
##겨
고민
세상
##곳
##킨
망
후보
밀
소통
경제
쿠
래
요리
홈
이후
난
방송
언니
고마
크림
믿
경찰
##밀
설명
었었
##템
##ᆸ니다
##렌
ㅋㅋㅋㅋ
잇
이용
웨
선택
승
쇼
새롭
##갈
나라
밝
##자기
젊
극
국회
과정
기본
층
탄
시장
ㄹ지
활동
답니다
농
교수
결과
저기
##라이
팀
깔
나이
궁금
##철
맥
##길
측
달리
##삼
생활
##or
##다가
##줄
##심히
남편
민주
국가
##봉
귀여
잘못
##어가
일어나
닭
내일
항상
##il
##ㅎㅎ
죄
아프
##샤
아빠
맨
##벽
우리나라
##딩
정보
##라는
만약
##gr
##죠
똑
빠지
##답
자유
함
꽃
클
##벌
서로
짓
의미
제대로
##취
슬
보통
##센트
왕
##ᅢᆼ기
일반
##광
악
고맙
갑자기
##열
열심히
##at
냉
전문
##ᆫ스
걸리
어야지
분위
떡
공부
##on
풍
솔
##탄
여름
##얼
##갑
경기
셔츠
분위기
in
볶
암
그만
바꾸
칼
##꼬
혹시
도시
기자
나누
화장
##찌
##ᆼ이
##ᅧ보
착
##확
삼십
당연
퍼센트
사고
꾸
든지
지원
수사
아버지
즐기
내려
##뷰
##ᅦ이블
침
##온
오히
##칠
관심
##랗
오히려
데일리
나중
궁금하
루
ㄹ게요
최근
##필
낮
결정
탈
비스
음악
올라가
소개
실제로
##gram
재미있
##탕
뽀
표현
그녀
부모
food
어쩌
효과
나무
##et
##씬
##획
어째
지요
전혀
선거
감독
주말
유명
맘
##라지
점심
가까
바ᄁ
곡
자꾸
##숙
볼
도움
삶
라서
송
윤
봉
자연
욕
내리
201
덕
주장
알아
##ㅜㅜ
라도
어머니
##레스
변호
##부터
##el
오빠
인간
##욱
##맘
충분
##린
김치
##ᆻ든
영상
질문
익
##랴
사장
연구
했
별로
인터
전체
정신
아쉬
옛
검찰
##곡
주인
##가지
어쨌든
##범
##ᅦ이스
비슷하
무리
편하
흔
##앙
##죄
봐
##축
이루
보고
뷰
피해
식사
뿌
작품
##익
그림
##재인
기업
개월
시대
특별
분명
일부
인사
확실
방문
##없이
문재인
원하
오십
얻
퇴
##섭
더라도
튀
데이
##stagram
쯤
미치
##탈
위치
훨
##어보
##롱
##ᆨ터
묻
숙
병원
##던
##웃
해결
예전
보도
멋
귀엽
매일
##놓
바람
맛스타그램
##비스
건물
소스
그대로
문화
책임
몰
오랜
알리
부산
##잡
정리
##쓰
30
##줘
이천
지지
추가
늦
숨
인생
살짝
쏘
치즈
##냐하
뉴스
##따
다라는
##잖
똑같
평가
잠ᄁ
다리
반대
##평
##⠀⠀
##크림
##ail
자주
움
##풍
##시아
으면서
훨씬
정책
정상
잠깐
기록
##허
동생
바르
##슴
밑
맞추
차이
##알
##리스
왜냐하
##략
당하
흑
슈
##슬
팬
##골
##디어
유지
##닝
엔
인정
insta
##틀
왜냐하면
챙기
니다
순간
굽
마리
안전
꽤
전하
##ar
박근
##거리
역할
##턴
그러나
##라도
대한
##al
바뀌
꿈
가져
노력
맞팔
##찍
참여
쫌
##염
박근혜
롭
다녀
근처
옛날
##왕
##클
역사
애요
따로
김정
##빵
12
##벤트
능
아래
됐
공개
먹방
석
및
지방
##욕
##텔
구매
부드
##킹
##ᆼ크
공간
든가
##래도
주변
과거
끌
##드리
놀라
가득
##메라
##aily
는가
##고기
##몬
탕
##ic
중간
##충
주의
##스크
돌아가
##했
센
스ᄐ
스트
##쳐
는거
염
운전
겨울
아하
##디오
과연
나쁘
현실
##김
네네
##캐
부드럽
요거
제공
시원
작가
강하
상대
견
정확
갈비
마치
##잔
폐
이벤트
날씨
프로그램
##들이
어라
떠나
냄
자전
##랙
서비스
##객
연결
발견
11
기준
##에스
자세
던데
##랜드
계획
촉
##봤
벌써
##촉
##om
에스
청와
매우
성공
장면
또는
그르
하고
깊
절대
바지
청와대
기사
액
뚜
지난
의하
드라
공연
노동
아무래도
뜻
##긴
오르
##갛
모자
##ᆼ하
##혹
##볼
영향
언론
솔직
멀
100
깔끔
국수
당연히
캐리
어머
압
나타
##ᆯ로
봄
##균
##려지
덜
스타일
자전거
장관
발표
돼지
에이
카드
돌아오
빨갛
빠르
움직
맡
긴
영어
##스터
##아가
##삭
##켓
##액
##다니
저렇
기간
지키
과학
##엔
땅
으며
##맞
케
##ᆯ러드
경험
직원
혈
류
식당
##운데
티비
맥주
##곤
회장
판단
테이블
대화
포함
##케이
##널
기술
사업
##웨
등장
간단
우선
다섯
미리
ㅋㅋㅋㅋㅋㅋ
올해
기능
흥
강아지
##es
꿀
##칙
마이
좌
방식
##손
베이
대신
물어보
아쉽
라이
##훈
신경
##검
따라
다녀오
##촌
기회
어린
존재
##ol
택
수영
듯이
선팔
부족
부탁
##민국
##틱
##짓
던지
##톡
사십
의사
고양
컨
오랜만
콩
가슴
열리
양념
대한민국
##en
콘
푸드
충분히
행사
만하
냐고
클리
이라도
대단
구성
환경
가게
국내
##ow
혀
내부
##리아
탐
이쁘
행동
뛰어
##헤
기름
발생
잖
##율
끊
부담
자동
##스로
가깝
##옥
컴
##흐
##듯
밝히
##잇
뷰티
버스
간식
연기
뽑
재판
굳
치킨
벽
##뜻하
공원
##무리
##는데
##큐
##콘
짱
된
끓
으려
##낙
##척
##겹
이분
위험
아내
소식
##싱
훈
디자
변화
##참
##깐
##휴
다행
주차
로서
요구
보호
카메라
남성
회담
daily
넘어가
종류
작업
비교
대체
##ㅋㅋㅋㅋㅋㅋㅋㅋㅋㅋㅋㅋㅋㅋㅋㅋ
연주
뿌리
19
##ᅪᆯ
##혁
운영
또한
벗
헌
연락
시민
15
낙
구조
요렇
수준
##ᅥᆨ하
검사
##인트
반찬
ㅎㅎㅎ
##ᅢᆼ이
엄청나
##맨
식단
국정
범죄
취하
모양
스스로
비싸
##마자
목소
전부
넓
현장
##it
불구
도착
캐릭터
고는
정당
##ᆯ링
모이
나타나
##ou
##델
야당
인기
돌리
새우
어찌
단계
짧
곧
직장
의견
기관
시험
천십
냄새
지나가
아라
##달하
##픽
##울리
엉
키우
만족
즐겁
문자
완전히
틀
휘
능력
집중
큰
남기
사과
##넷
##팩
아름
단체
##쵸
축구
이루어지
##토리
##ᅦ이지
##러지
상담
뒷
신청
분석
##너지
장난
이기
##ot
##측
곤
##로우
전쟁
은데요
무섭
쇼핑
부부
인하
더욱
초코
지ᄏ
미안
즉
올라오
붙이
샐러드
##엄
##오르
##픈
워낙
신기
##시오
##og
움직이
낫
찬
공격
햇
##냥
##전히
흡
법원
##ing
잊
성분
에다가
피자
감정
대박
판매
바닥
려면
활용
##떡
동물
빛
후기
##완
가정
작년
아파
##깨
고르
자마자
알려지
민주당
국물
핫
지하
료
심하
섬
졸
고등
하야
따뜻하
대구
아야지
저런
##le
외국
객
싸우
##저트
율
장소
드러
##다보
마무리
대상
지도
##룩
모으
육십
촬
향하
쭉
알아보
솔직히
##죽
##돼
방향
등급
가ᄇ
투자
모시
##효
오후
가끔
##깔
매력
점점
##카페
잃
중심
깜
시스
바쁘
디자인
가운데
촬영
영양
##홍
개발
일정
##ke
어울리
손님
하늘
드라마
혁
##라스
##께
살ᄑ
보수
논란
자고
##ᅪᆨ
곱
##볶
고소
포장
##퓨
비하
나름
이사
잖아
검색
시절
잠시
동네
써
그쵸
##먼
놀이
ㅠㅠㅠ
확실히
조선
가치
##수록
먼지
엠
흰
##food
##률
000
헬
지켜보
재료
##ᆫ지
도로
징
칠십
비비
인물
주제
마을
재밌
제도
##마트
고도
세트
미래
삼성
촉촉
그분
##빈
xx
아무리
분명히
을지
사무
자면
예술
##ᆺ글
수업
죄송
받아
ㅋㅋㅋㅋㅋㅋㅋ
제주도
##리어
저것
합의
##폰
##리카
나서
케이
디저트
시스템
##놔
예상
아이스
비용
청소
한번
최대
할머니
가볍
아예
센터
첨
호텔
짐
마찬
너무나
정권
고추
덥
살펴보
걔
세대
헐
##콤
과일
성장
으러
해당
##링
고양이
볶음
화면
비판
발언
처리
이르
##엘
대회
쌀
##지어
격
구십
블랙
##텐
웃기
강남
저거
##돈
적당
음료
뮤
##벅
전형
평화
지구
전략
코스
불편
마찬가지
고하
##뢰
뭔
##스팅
경쟁
십시오
측면
맨날
다만
굿
인터넷
시청
게요
##좋
자르
##만하
진정
팔십
무조
수분
설치
구입
가방
계란
트럼
##밍
##젤
가을
##ᆨ트
여전히
혜
균
캠
##콩
이동
성적
싱
배경
주민
아파트
예정
약속
춤
참고
심지어
ㅜㅜ
소설
완성
들리
##칭
놈
##컨
##퇴
##우스
##re
사라지
춥
데리
팩
혐
##컬
학년
##쥬
피하
런
섞
정하
생일
파랗
##ie
았었
터지
이전
요새
##룹
멋지
회의
반응
##닭
제작
##어하
무조건
듯하
플레이
생각나
눈물
예약
으로서
고생
옥
##벨
이곳
크리스
##니당
##아이
##맥
평소
구하
쌓
##ㅋㅋㅋㅋㅋ
포기
조심
국제
기존
세우
덕분
덮
에어
포인트
뇌
묵
체험
어른
셋
드디어
새벽
빈
ㅠㅠㅠㅠㅠ
벌어지
긍
조절
시기
인상
##이드
새로
트럼프
##곱
##쎄
##ch
무대
주일
출근
바라보
광고
저려
##또
스포
무료
댓글
굴
해외
할인
프리
지내
상관
##둥
라구
로부터
깨끄
허리
di
째
##웅
높이
모델
자료
18
물건
##콤하
퇴근
부인
조직
짜리
##딱
##추천
오른
내려가
남북
멍
도와
##러스
##라인
다며
공기
수학
길래
구경
어우
기념
여론
이어지
##바이
##압
줄이
죄송하
일찍
발전
전시
##몰
자식
보험
눕
감자
교통
##튜
휴대
가루
혹은
현대
공감
주로
##니스
##특
찜
상상
맛나
굳이
지적
의식
이러하
유리
치료
제거
걍
오픈
##빙
##틴
##아아
비행
차량
##엠
##헌
존맛
끼리
당장
중앙
묘
다루
불안
왼
썰
##low
하얗
떼
신고
제목
꺼내
##ᆯ레
죽이
증거
##많
단순
가르
변하
계약
##즌
##닥
우유
##켜
반갑
커플
동시
누르
미세
관하
##협
으시었
마늘
##놀
다이어터
핵심
##몽
개봉
끓이
더군
그만큼
족
##메이
##려가
개선
끝내
스트레스
##럭
##베이
컬
파티
이미지
예요
##윤
앞서
채우
촉촉하
##폐
처벌
충격
려는
출연
완벽
블루
##풀
크기
살아
##은이
##ᅯᆻ
공유
목표
없어지
희망
핸드
관광
신문
##앤
##떼
##철수
##해서
상품
의혹
##뇨
##누리
##이랑
##ᆷ버
이케
안타
##끈
팔로우
흔들
##빛
매장
타이
##너무
##듬
가리
대전
모임
이슈
고급
설정
섭
##짱
초등
다구
해변
흰색
여섯
##띠
씹
금방
야채
환자
기타
내년
##구나
개혁
달라지
프랑
총리
훌
마디
##대체
불리
아가
라인
거짓
##머지
글쎄
속도
마련
간장
업체
살리
##춘
의심
목적
데이트
받아들이
##궁
어떡하
##푸드
인터뷰
도대체
자극
예ᄈ
##킷
찾아보
트위
##보이
방금
옮
씻
도전
안철수
제기
##왔
갈색
겪
li
찾아가
아무튼
그릇
을때
##겟
나머지
ㅋㅋㅋㅋㅋㅋㅋㅋ
다이
##러가
바이
산책
천구
##un
니깐
벤
불가
무기
홀
브라
휴가
도와주
##마스
공식
대선
아유
취향
주택
##드시
실패
야구
형태
실험
빌
년대
대단하
버섯
00
심각
하이
수석
우주
추억
시리
축하
##솔
홍대
컴퓨
안보
##암
타임
광주
연습
건조
조용
##ᆷ푸
그룹
##시지
만두
##버리
##랄
##ᆷ마
쓸
사이즈
맵
##파이
필수
영국
녀
가수
사례
전국
##ra
셀카
파란
##휘
삼겹
오전
출신
보드
산업
##ea
전자
깨끗하
고려
##샷
이때
만화
구체
어차
##000
딸기
ㄹ수록
강화
양파
페이지
##흠
인식
백만
오리
##타민
새누리
털
주부
가져오
는요
통일
어차피
라니
차원
스페
오른쪽
컴퓨터
훈련
diet
##첨
수능
그나
포스팅
오일
반드시
감동
고서
적용
배달
##층
어두
교과
웅
##테리어
투표
어야죠
쳐
강력
##구마
신혼
행위
전기
랄
조합
그날
##탱
외교
유아
해석
화이트
데요
##꽃
집밥
##흥
공동
싫어하
두부
##괴
소금
피곤
##멘
동의
는걸
따지
쫄
부정
권력
스마트
##ff
으나
예산
소고기
칭
뻔
매운
##ed
##퀴
정의
야외
하여
아우
여유
공항
##소통
##⠀⠀⠀⠀
들이
단어
##든지
프랑스
표정
쥐
##운드
다하
라디오
소비
젤
조각
척
비밀
레이
지사
탁
##이팅
##ollow
안정
##as
##끌
스타그램
작성
유럽
배고
늘어나
##ᆨ시
조치
##묵
##몇
##로그
반려
진심
##넘
##쇼
띄
와이
언급
##ᅢᆷ
제발
청년
푸드스타그램
신랑
녹색
##뚜
##흑
겉
자랑
낳
원내
논의
연합
튀김
50
구속
##받
안타까
뜨겁
쪼끔
왼쪽
가져가
세력
달러
##지르
##밤
대사
##끄럽
##어들
박사
편의
현상
찰
옮기
화장실
음음
혐의
스티
##해요
식감
브랜드
인도
스키
수술
시도
태어나
이혼
출발
##에이
가만
사망
쫓
은행
th
겁
겟
##저씨
성격
독일
아시아
스토리
장애
비타민
##좌
인친
최소
사항
아이고
파스타
ㅎㅎㅎㅎ
접근
곰
##앗
단지
##톤
엘
노인
적극
퀴
에너지
##엉
##눈
교회
선배
16
조건
##렌지
원인
##올
##롤
나물
아나
종합
올림
파란색
13
##절하
dog
이든
미니
컵
가락
17
직업
띠
선언
둘러
안주
토론
인테리어
멀리
새누리당
결론
건너
규모
아저씨
##닉
납
면요
통과
폭력
##를
의도
세기
충전
펼
개념
##워하
응원
안타깝
##ec
랍니다
된장
##야하
소위
sel
##된
리뷰
몇몇
##렬
##말로
웬
천연
행정
##치즈
호박
##씩
비서
의자
군대
느라
앙
스테이크
입맛
확실하
영업
편안
누나
대중
특정
친절
색깔
24
원장
14
의지
안심
갓
25
폭행
앨
제한
차리
우려
노트
뻐
연예
입구
전통
몽
세월
##냠
놔
싸움
임금
시설
경주
탱
##시다
앱
갈등
대비
체제
케이크
저번
기계
답변
번호
##올리
##붙
거래
##트리
##싶
신선
##잉
고구마
##뽕
주요
instafood
##스토
그치
내놓
스포츠
##햇
ㅇㅇ
일곱
애기
##짐
비행기
##어먹
##폼
##ᆺ데
##렁
찾아오
박스
##잘
사연
탑
약하
##잠
도시락
심리
때리
차례
##털
수제
우와
요청
##븐
으로써
붓
잡히
분야
무려
판결
시즌
계산
축제
지속
follow
그쪽
시점
사전
으려고
보면
##마토
가까이
여당
미술
올림픽
생산
##카오
무르
며칠
멈
천만
감성
닦
뼈
돕
공사
아마도
패션
거부
률
오렌지
안경
##에도
올려
이래
고통
##거같
는다고
##않
제안
위기
마스크
조정
쓰이
으흠
##니아
게다가
네이
ㅁ에도
##묘
평생
##is
얼른
택시
물리
##ㅋㅋㅋㅋㅋㅋ
##ᆷ플
상처
생명
냠
젊은이
드러나
유니
프로제
업무
량
메시지
훌류
르
틀리
론
##숨
빌리
침대
##줬
##아리
연어
##빨
##중하
##ab
##ᆺ이
##으키
like
시켜
쌈
##ap
담기
싹
##ᆫ가
##어도
##어내
대응
전주
그러하
신발
빙
스위
반복
과자
긴장
서울시
크리스마스
요것
##려하
##맹
거치
등록
내내
식품
요런
##레기
에다
먹이
꾸준
##릇
관객
내려오
##놨
소득
진실
톤
##숙하
불법
이재
라든지
##ay
체크
##일기
##im
감기
강조
난리
너무너무
교사
저렴하
소송
최저
헌법
##ᆺ자
사기
통화
통합
조차
막히
시리즈
신뢰
건설
독립
얇
형님
젓
깜짝
귀찮
이하
나ᄂ
유치
떠오르
##라리
훌륭하
실수
##워드
계정
##ut
그중
공장
이태
고자
##맞팔
총장
##낭
닮
집안
더하
작용
착하
보관
조금씩
보장
연출
뵈
값
롯데
##터리
놓치
살인
자는
인천
이명
이쪽
##피스
##프트
##옷
무시
소재
습관
##놈
친하
뜯
담배
##ㅠㅠㅠㅠㅠㅠㅠㅠ
했었
쥬
##사지
##을때
200
tv
슈퍼
##뮤
흐르
대기
한국당
아아
##하나
채소
플래
평균
근무
##홉
##뜨리
프로젝트
복지
독서
연애
법률
st
##어서
커지
는다는
이리
대답
밴드
냉장
말리
본격
지마
진하
러시아
어어
특징
##영상
어머님
흥미
메인
베이비
##칼
어깨
슬프
으로부터
공무
실장
##베리
재산
도서
##쾌
곱창
##웠
대요
넘기
뒤집
켜
유일
##려오
컬러
먹스타
##총
주방
볶이
##덟
사태
소문
##르르
노랗
##ᅩᆷ
대책
괜히
어다
폼
요소
자라
빅
유튜
협상
청취
빨간
시각
##사일
땀
달달하
##샵
정답
센스
##컷
##ᆸ스
냉면
군사
토마토
일상스타그램
앨범
가입
흡수
육아스타그램
##블리
케이스
스케이
복잡
##랭
보습
수도
##해야
일종
울산
##ᆫ데
이서
는구나
##아버
끈
적어도
등등
##th
짚
최초
졸업
가르치
계단
##셨
초반
##핵
스타푸드
안내
두려
겸
엇
점수
부대
##쌀
장비
증가
이익
답답
안나
##동안
마이크
ㅂ시다
쭈
아홉
##룡
닫
마르
재킷
##ᆯ때
유산
핑크
실내
##밭
쏟
다가오
여덟
##주얼
자금
학원
낭
조국
##넛
홍보
멈추
##릉
법적
숨기
잖아요
긍정
##멍
21
강력하
어마
시발
한잔
가사
마라
혁신
부동
식물
벗어나
한참
무한
년도
콜
##늬
한데
죽음
록
걸어가
세금
분홍
##운서
가로
무릎
푸지
바삭
##주의
ㅋㅋㅋㅋㅋㅋㅋㅋㅋㅋ
왠지
렌
##어오
주목
냥
정말로
교체
듬
##um
수상
라며
멋있
콜라
##ᆷ뽕
골목
최종
소장
놀랍
장점
반영
짝
쌍
펴
였
숲
무게
##찌개
대충
미소
뚝
##아버지
##뿍
##옹
##로리
돌아다니
샴푸
ㄴ다라고
##쩍
화려하
회복
##폭
##ook
풀리
유기
당연하
흠
숫자
##직하
담당
푸짐하
공공
아나운서
진보
도망
차라리
실질
파이
카카오
고객
소주
근까
간편
껍
한쪽
공천
물질
판사
여보
동영상
와인
초밥
co
##징어
녀석
냠냠
좋은
드레스
ㄴ답니다
##는거
지우
40
##다르
스피
안먹
다면서
밝혀
하여튼
##팡
제시
무겁
쓰레기
급하
외부
##감하
절차
기획
일으키
지식
##껏
스케이트
답답하
그렇지만
종이
##쇄
이끌
어떠
헤어
이명박
근육
ㅅㅂ
눈치
지점
셀스타그램
##부르
##쌈
요거트
##ㄱㅋ
cat
자격
전반
동기
승리
풍경
랄까
##ac
비빔
펜
시사
ㄴ데요
빡
특이
딴
예방
될
노무
블로그
취재
##둑
바위
캡
총선
##쿡
베트
##ri
그저
##거지
##졌
규정
데이터
기차
버터
##벤
오랫
벌이
##ᆺ가
##사랑
종일
소화
##ㅋㅋㅋㅋㅋㅋㅋ
##아내
후회
##듀
인증
##식단
푹
국정원
메이
바디
##좀
삐
문학
성인
레드
비로
원칙
웹
22
국방
학습
##다이어
##납
심장
불가능
없애
아메
##부림
육아소통
한편
쏙
참석
수수
##릿
클럽
쫄기
의료
이모
베트남
액션
영역
금액
##케이크
스크
줄어들
##뻐
ㅋㅋㅋㅋㅋㅋㅋㅋㅋㅋㅋㅋㅋㅋㅋㅋㅋ
맑
요건
둘째
알바
배추
쌓이
셀프
차단
공중
근로
매콤하
##흡
##까스
소중하
##반도
##쪼
할아버지
앤
평양
고용
익숙하
장기
언제나
자세히
거대
세탁
배송
##ee
고치
만지
멘
공포
가구
비율
노란
묶
##뽀
뮤지
##나가
미사일
##센
클래
김영
꽉
용기
똑같이
먹부림
맛보
맡기
돌려
웃음
꾸준히
고사
각각
뉴욕
쑥
기초
득
짜증
유튜브
##려고
통신
연예인
오토
그나마
흘
##융
갖추
마저
남녀
복수
폴
시계
##서트
차지
ㄹ래
한반도
##ad
칭찬
각종
벨
무늬
버거
옳
청문
버튼
봉사
정확히
##ㅠㅠㅠ
##쭈
티비에스
반려견
##ov
저자
보리
흘리
이정
부위
한정
쿠키
##os
표시
##ᅦ이크업
##fe
##다랗
좁
비주얼
주소
정식
완료
##데이
십일
제외
##렌징
대변
아버님
항공
foodstagram
가성
추진
혁명
어서요
공주
언어
탄핵
모래
##컵
##백하
앵
요기
보라
연대
추석
배고프
곁
부장
전투
##즙
불러
헉
네이버
확대
태도
오징어
중독
소속
고요
뭉
진술
꼴
소유
초록
아가씨
야식
박물
##지않
제가
분리
분홍색
똥
전환
self
부리
코코
적당히
##ion
신상
쫀
수고
부럽
은지
이틀
##듯하
초기
뚫
##덜
편지
대출
얹
##셜
날리
우울
호수
청구
꽂
##덤
##나나
혜택
의무
오해
차별
참치
낚
사정
건축
살아가
복잡하
새끼
##데요
참가
가면
공급
##렛
강제
##쿨
붉
파악
##뭐
여야
당첨
##넣
주위
분노
버티
연금
계기
아웃
은근
##마하
무지
##심하
코트
들여
수입
바보
즈
빠져
레몬
노무현
특검
각자
젖
아이템
애니
이탈
그야
요금
리더
##픔
##르트
오이
금지
보상
근거
pom
앗
암튼
듬뿍
이란
##닫
착용
일부러
##ᆺ집
2018
##us
이웃
크로
설탕
스물
인권
장르
스태
전망
영장
커버
콘서트
##혈
갤러
억울
대리
던가
종교
논리
ch
지시
다시피
망하
조명
바까
특수
foodp
독특
가성비
##어버리
생선
전공
오오
##게되
단백
자치
고정
##나오
동일
추정
셀피
##빡
기구
얼음
자녀
##나리
##ᆯ린
실력
멤버
땡
미용
비난
의문
박수
쿨
발사
##텐츠
톡
최순
일기
접시
##셔츠
삭
조리
주도
많아지
순서
##짤
쉐
그야말로
당선
집단
육아맘
상자
##ᆼ어
커다랗
존나
##저히
엘리
바깥
꼼ᄁ
ㅋㅋㅋㅋㅋㅋㅋㅋㅋㅋㅋ
my
해산
검토
규칙
힐링
회색
돈까스
##댁
##클리
그곳
적히
##세요
##값
##바로
##긋
한미
제재
괴롭
사이트
아깝
온도
주식
해물
꼼꼼
가요
정체
##테이블
출마
출산
닿
##랩
확보
다치
익히
땡기
전복
드라이
룸
##ㅌㅌ
개입
방학
##머리
는군
##톱
빚
##소리
보조
월드
택배
배치
스테
포즈
종종
미터
클린
취소
##레이드
가만히
최순실
##대기
##콜
오랫동안
헤어지
어둡
500
기에
##아하
무너지
##칸
천천
창문
칼로리
지치
##가락
우연
국어
적절하
##박스
밀리
##땅
사법
방지
##첩
링
북미
##ian
이따
캔
카톡
자네
과제
##플레이
파리
본부
늘리
의외
샌드
섭취
여부
계절
예예예
시골
강원
당황
회식
흉
##랜
구석
세젤
스프
구멍
##세지
검은
상하
앞두
넷
천천히
##뜩
평일
##쿠리
흔히
김정은
해야
합격
극장
##농
##멸
한입
수원
한두
트리
시선
##구리
키즈
마주
##ᆯ릿
용량
든든
멸
먹고
##달리
친박
2017
수시
애정
변경
럽
상징
욕심
장치
##껍
민간
##봄
형사
녹차
요번
코너
수행
넘치
트위터
벤치
마사지
트레
스카
반면
육수
##고양
경영
큰일
마약
##저귀
높아지
##갖
부자
추출
청주
##ㅜㅜㅜㅜ
##od
##쿄
##아보
결혼식
##그래
돋
금융
브리
규제
튀기
##플리
발라
23
큐
사안
##어어
위협
외출
흐름
##ᆺ속
포메
selfie
ad
##둥이
pet
##갸
수정
다행히
강의
태양
환영
갈리
##끝
이날
수많
아이디어
the
지르
##봇
원작
편집
압박
면접
밝혀지
##뚝
거품
올리브
##둘
##이스
배부르
맞ᄎ
##륙
시행
instad
이어
마침
진단
리얼
키워드
상승
명절
체육
실망
##사람
##테일
철학
검증
##케인
이천십
구분
페이스
인구
유행
취업
##생기
인공
이른
수리
##엽
경기도
스킨
지인
예측
애플
##ur
##내리
맺
조작
에프
파일
증상
임신
바른
맛스타
설득
다소
선정
취미
온라인
세제
빨간색
부디
플러스
춘
##셉
컷
##핀
##볶음
옹
비리
##봐야
홈쿡
어용
##스티
##덩이
순위
멍스타그램
한우
언젠가
져
##흔
##ᆺ불
수치
##팬
깐
##부하
##티슈
##새끼
##탑
##티비
카레
권리
색상
##썹
##쩌
다운
호남
빵스타그램
족발
오프
박지
고고
스파
마마
##케어
시내
한계
서류
꼽
넉
##찜
타입
후반
군중
형성
##됐
펼치
개정
늙
여의
대형
연장
ㅠㅠㅠㅠ
와중
##orn
##쓸
예비
최선
ㅋㅋㅋㅋㅋㅋㅋㅋㅋㅋㅋㅋㅋㅋㅋㅋㅋㅋㅋㅋㅋㅋㅋㅋㅋ
어린이
동료
sn
##최
##id
##이하
마트
너희
십이
##갈리
낚시
##렸
반기
턱
명확
특별히
인분
바퀴
제출
점프
샤워
##껑
##라미
그랬
현지
##벼
마당
##똑
##데이트
##뷔
##뒤
인형
이태원
스웨
대장
따라가
##룸
##하하
밟
2019
지급
쪼금
보스
테스트
##피부
결제
김무
팝
아줌마
함유
예쁜
##ᅮᆷ치
##and
기도
주름
##세트
위반
뷰티스타그램
시위
##라면
부여
불만
통제
군인
목숨
##ess
튼
당근
트랙
허리케인
드시
만남
아끼
##이즈
바나나
학기
의회
전달
낼
##카롱
캠핑
메이크업
##보드
##두르
합리
##툼
김밥
시인
수익
파우
겹
기반
아메리카
##츄
파워
뛰어나
유승
동맛집
달려가
ㄴ단
##시피
성과
애매
흙
찐
잉
스케
어마어
군데
글쎄요
낯
내가
ㄴ대
##쁜
반성
##바일
포토
출시
투명
##걸리
##펜
백화
틈
가시
고개
셈
제이
땜
들어서
거라
안쪽
미친
현금
##빼
전원
넘나
##li
이자
딱히
##피자
손해
의상
티셔츠
ㅋㅋㅋㅋㅋㅋㅋㅋㅋㅋㅋㅋ
껍질
가스
으라고
숙소
스튜
엠비
과목
회원
에스엔
혈관
김무성
후배
리스트
##큰
작동
찌개
모니
##선물
지나치
떡볶
오토바이
듀
##므
냐는
질환
협력
##벅스
이만
엑스
아이돌
뵙
##ir
형제
##ag
저지르
보안
버전
민족
이른바
관점
대만
##한다
##닐
##화장
트러
폭발
합치
이론
화제
입시
##몸
ml
다지
평론
뚜껑
엽
매트
##센스
짬뽕
홍콩
어마어마하
공정
선고
연남
형식
어쩌면
쌤
는건
가짜
주먹
##겐
뮤지컬
xxx
한가
소방
코미
##ㄱㄱ
##로드
광장
프레
여행스타그램
의장
기소
솜
설계
에어컨
든든하
다수
##보내
##일러
핑
픽
코드
##위치
정원
하나하나
금발
퍼지
쟁
기르
서른
김종
##튀
균형
전용
냉동
##럴
쿼
아르
밭
롤
관람
집행
ne
불과
##잼
흔들리
##오일
제조
##ᆺ잎
실리
눈썹
##런치
신분
풀밭
드러내
모바일
ㄴ다라는
로써
민정
##글라스
어려움
골프
억울하
라던
그린
횡
##브리
##em
##꿀
아동
파괴
간판
할때
휴식
깊이
방어
장사
양쪽
깨닫
김성
통계
흑흑
##핏
대단히
둘러싸
조림
##앞
권한
##쏘
스타벅스
맹
##싹
매번
심사
책상
연말
방해
봐야
지정
거울
선호
##쉐
고속
연휴
하우스
주년
접하
ca
연속
##홀
희생
##소스
##더니
봤
##instagram
샌드위치
##hot
옵
황금
쿠션
화학
느끼하
##논
스노
##저것
구이
풍부하
##그리
성향
끌어
자원
순수
활성
임대
탓
절반
##oc
법안
샵
게시
우산
용품
히히
##of
조카
##쌤
도입
두피
##될
유월
반하
즐거
지난해
##쾌하
한강
윈
해명
##륨
아무런
증명
단순히
##어터
단일
헛
##범하
김경
첫째
탄력
악기
넉ᄂ
면역
피아
초대
베스트
비롯하
##테이
마크
범위
##걀
꾼
정성
상큼
이것저것
걸치
치르
어르
네일
피우
해치
결코
스페인
##시간
다니까
기기
##꾸미
식구
새해
립
##otd
과장
##세우
측정
줘
지난주
기부
취지
태우
👍🏻
##쥐
노출
중단
단위
교환
##스토랑
벼
쿡
월급
범행
벚
##먼트
어케
##지하
팥
고위
조개
유엔
##렉
용서
짜장
치마
향기
모니터
##아주
감소
##레이크
초콜릿
##디션
##티브
출판
레스토랑
##eran
소환
확정
꼬치
순대
연극
패키
책임지
기울
치우
편리
프리미
달걀
헬스
상식
##프라
며느
##뿌
기운
뺏
##슬리
당사
뻔하
촌
##up
열정
ㅡㅡ
##ᆯ리티
회전
들려
깎
##폴
임명
상대방
##쟈
인원
##포터
놀러
농구
##놀이
pomeran
pomeranian
사상
우수
##너스
지불
개성
피디
두껍
특성
##tt
빗
호흡
플라
어르신
갱
쫙
##쭉
##스럽
달콤하
겨우
빵순
황교
팩트
##딸
사월
설마
목욕
폭탄
##ig
해운
샘
막상
놓이
곳곳
유승민
##타이
연방
연관
##기전
날짜
사귀
자본
##은하
티켓
문의
찢
똑똑
법정
##화장품
도구
특유
확신
체력
퀴즈
음주
##찍하
##py
안가
꿀맛
예민
##ᆯ립
장식
촛불
오월
칸
쳐다보
믄
꺄
가야
##앉
향수
##사리
위로
신부
도쿄
위주
집회
몰래
겁나
주스
평범하
베이스
화이팅
관찰
##쇠
불어
조언
수용
팀장
끔
##뻔
##니안
랍
원수
쓰러지
지마는
짤
건지
깨지
##라떼
누리
술집
랩
햄
##갈비
줬
우동
꾸미
빙수
ㄴ다구
려구
확률
조용히
##op
##ak
습니
남한
방울
쟤
##mt
긁
##엌
세포
후식
빨래
논문
저렴
내장
언덕
##프레
명예
꼬리
선팔하
단점
법무
어떠하
스무
전달하
쎄
모집
신호
##쌍
기여
미루
퓨
고향
강추
직전
엑
수면
패스
라이브
펌
이불
##스틱
재단
박정
체계
응응
딱딱
염색
뛰어들
찬성
인거
당일
##sc
민주주의
캬
갚
근본
링크
##ᆷ비
가하
정규
##아기
야권
산소
킹
헤헤
##네이
독자
래요
간편하
으음
로봇
무선
용어
녹음
##웨이
둥
가난
선글라스
##파스타
팍
##셀
허락
섬유
구만
설레
힘내
황교안
데뷔
삼월
담백하
망원
클렌징
저러
마감
에서부터
해장
##프리
비치
이탈리아
의외로
##도우
냐구
상관없
사퇴
경향
범인
효율
들여다보
사유
스시
내주
맘스타그램
수요
##아먹
입술
검은색
ootd
탈출
따라서
dogstagram
닥터
대안
인연
적응
미역
리그
투쟁
기쁘
유료
천안
이승
##식당
펀
##붕
물러
최애
쿠폰
폐하
나아가
##치킨
인지
필라
##몬드
##긴하
##하게
의정
대북
수단
전세
노리
떨어
foodporn
여지
걸음
냥스타그램
lg
호두
트럭
며느리
하드
고발
유해
대표님
오지
개헌
##ong
묻히
us
게끔
내지
감상
마카롱
김태
스테이지
대가
##ang
믿음
은은하
구월
해소
물속
폭풍
협의
jmt
엿
재생
한글
##민주
챙
어허
찹
배터리
순환
알려
두개
경력
반짝
애초
토끼
쏟아지
자살
더블
유지어터
##쳐지
60
가라
싣
집권
부딪
인자
입히
혼란
아프리카
##캔
을거
김대
표지
새콤
패턴
헤드
워터
쫀득
마구
안좋
##탐
회견
등산
기억나
##슐
그만두
썩
지루
수색
##우드
##인드
연설
쾌
세종
종로
비디오
##멜
쇠
미디어
##셋
포메라
튜
대목
살해
확장
밀크
섞이
포메라니안
부끄럽
간만
넹
더불
명령
빛나
##메이션
##ᆿㅋㅋㅋ
미끄
간호
##ᆼ아
##미니
잔뜩
##궈
그까
##스테
여쭈
소파
공화
장어
극복
하트
##미터
애스타그램
그전
외치
흔적
조화
몬
부추
##간식
크리
킨
봐주
kg
이년
##일보
살림
댕
차갑
잘생기
국무
재정
강원도
##팍
##리트
자존
평창
뛰어오르
com
얌
김현
점검
징역
더위
잘먹
문장
테러
##ici
나눠
##ᆯ하
##ᆿㅋㅋㅋㅋㅋㅋㅋㅋ
핏
임산
흑인
pc
훼
디지
고대
기저귀
주사
덧
밥상
##ul
그럴
신사
푸르
도둑
들판
영웅
프라이
온더
##이크
##무시
##엑스
바탕
번역
입학
##홈
솔직하
예뻐
보트
사오
민감하
##섬
##해주
학자
글자
패키지
라떼
존경
모공
영원
휴일
잠들
클릭
지수
작전
투어
27
ㄹㅇ
##낌
서방
유통
환상
36
짠
이중
아닌
흔하
비상
경계
##스코
##맣
충돌
##스카
까먹
##쿠션
##끈하
탱크
벚꽃
프리미엄
케이블
보단
천재
십만
청정
허용
떠올리
28
##떨
매년
끊임
스튜디오
눌
쟈
ㄹ려고
필름
##콕
##다나
##스러
할수
쫄깃하
주자
카운
##붙이
##ᆿㅋㅋㅋㅋ
엥
예고
에센스
##롬
운명
지배
파트
탄생
##vel
더럽
성능
이이
삼일
포도
숯
단독
짭
잔디
컨셉
매운맛
명확하
##믄
마법
소프트
램
직원분
락
##마스크
제보
피로
배려
##데기
유사
증언
테니스
##툰
잼
탐라
뭉치
페이
두르
문서
##언니
요정
신나
방안
심심하
팔리
붙잡
럽스타그램
일일
##아오
더더
협박
외식
캣
##ttp
대결
##굿
##으로
렌즈
선발
http
개그
##ᆯ리스
후라이
심판
체포
##멧
사이드
아트
사드
화재
동작
채널
헷
작가님
고장
조기
실화
진지하
햄버
리필
출구
태국
긍까
##eal
연인
완화
##타리
동원
탈당
혈압
우승
샌
강릉
낙지
롱
후원
뻗
이민
저장
##근하
##학교
속상
표준
잔치
##렌즈
케익
이성
메모
브런치
힙
존맛탱
는중
한식
생리
유전
신생
##레인
강사
묘사
##스키
##바르
터치
좌석
35
sk
거실
안들
들르
광화
ㅋㅋㅋㅋㅋㅋㅋㅋㅋㅋㅋㅋㅋ
지휘
구역
강도
아메리카노
어플
애견
##베이비
갤럭시
천사
##umm
##테이크
도저히
인류
##만한
치매
##성이
홍준
##ore
상큼하
an
모드
내신
돌보
비추
감각
불금
하는
정시
패드
망고
26
셰
고전
##젠
여수
##듣
공통
맛없
##투스
애니메이션
온더테이블
구름
비우
맛잇
뒤지
견디
훔치
##푼
재벌
찍히
햄버거
은가
보유
임시
##즐
으루
##부분
해안
단단
갈아
넉넉하
넥
되게
린
농담
##ent
그나저
##깃
비록
상추
친정
레벨
떨리
테이
동화
매주
그니
그램
서민
공학
달라
##꾸로
31
진영
손상
는다면
##⠀⠀⠀⠀⠀⠀⠀⠀
you
이월
지능
같은
실행
양보
랜
##밀하
엔딩
남매
##피아
물고기
글로
각질
클래식
조만
여사
감옥
##메이드
전면
그립
파도
국민의
80
므
으셔
치약
공구
우연히
오사
울리
당당
추적
##레드
뾰
깃
전개
획
리조
역대
초점
출석
절대로
텍
유니폼
조만간
당국
객관
졸리
붕
##버스
결심
날아가
타이밍
는디
라니까
계열
어쩜
싱싱
##둔
수염
무난
빵집
##ers
탄산
아쉬움
움직임
흡입
헬멧
##렴
느리
에피
지니
윗
반발
##yc
문구
##댕이
보증
부서
적합
국립
##테스
협회
낮추
덕후
김정일
시끄럽
야하
##란드
별도
##늦
##커리
다던
수다
전제
문건
##메뉴
##플루
근로자
me
골라
시집
##제이
그리구
키스
잃어버리
그나저나
##ia
하도
아보
폐지
##다이어터
##ip
시월
대처
양심
지루하
아베
자나
정서
##옴
생겨
유연
킬로
##샐러드
다이어트그램
홍준표
##ᆯ런
라온
위장
국장
본질
일월
쿠리
두렵
잭
된장찌개
고백
여태
일산
instadaily
보쌈
스코
##였
압수
sh
잎
지갑
수박
몰라
부지
외롭
황제
큼
##게요
##커스
펫
스티커
##뎅
전력
공약
데일리룩
중고
##윈
밥먹
플라스
착각
콘텐츠
미군
반지
##카도
자외
비닐
남쪽
##빌
글씨
러브
엉덩이
수록
데려가
##허허
댄스
배출
튼튼
29
뷔
##페이
##컴
가해
질리
당기
신용
목사
##환영
요인
몰리
냐며
서울대
둔
이내
상의
동맹
해설
청춘
뇌물
놨
거절
도치
아야죠
뛰어내리
피아노
조지
매니
##ravel
##시티
##성하
철저
노조
통증
웰
해운대
90
스파이
전당
왓
연계
고리
지대
오염
융
신체
카카오톡
끔찍하
가이드
정지
젠
청양
귀하
##hoto
비법
진짜로
작곡
샤브
##뷰티
괴롭히
##떠
이주
##라이트
##구니
진화
건데
라면서
foodie
트윗
sp
조끼
개웃
쓰리
메리
##팟
열차
##돌이
멸치
실천
맞춤
끊임없이
어색
부상
얼스타그램
깻잎
여권
공단
분당
##워크
부채
장미
##ze
시트
정작
소수
소품
젤리
위안
개별
달성
트친
팁
끼우
처하
냄비
쿡스타그램
##욜
내세우
장군
장갑
신촌
달달
##민주당
##보기
맞이하
##란히
브이
kr
ㄹ께
저쪽
일구
구글
##일상
핀
먹방스타그램
디지털
수십
원피스
덮이
웬만하
삽
오가
복장
귤
ㅋㅋㅋㅋㅋㅋㅋㅋㅋㅋㅋㅋㅋㅋ
##쁨
도덕
사자
식초
달래
접촉
비례
경고
멜
접수
이영
마자
마케
마냥
##나무
비누
장성
욕망
보시
##와이
마스크팩
sns
게이
백인
민심
##샤브
퐁
ㄴ다며
구청
넘어서
변신
캠프
오버
로마
무상
필리
##해도
##스타일
양반
##ᆻ다
가죽
모의
들어보
골드
플라스틱
on
##왜
알차
숟
생존
텔레
복숭아
불어민주당
##덴
수출
소원
남친
입력
불쌍
##륜
꺼지
의학
주어지
##무지
집사
펼쳐지
예민하
사년
라멘
한복
유모
매콤
교실
현미
##아서
영감
타격
카락
막내
망치
훼손
##ld
##ㅏㅏ
##로스
반전
##왓
십팔
##ᆼ어리
십이월
응급
##쥬얼
##ㄱㅋㄱㅋ
미용실
##흘
생물
유병
텐트
둘러보
유용
당분
필터
헷갈리
슬리
그레이
선진
##방송
##워지
관절
손질
귀요
일관
##구이
발휘
##웨어
정수
똑똑하
뷔페
어지
도발
라이트
덤
전날
영혼
감시
깔리
경기장
##지마
자몽
##딘
텐
향상
억지
혈액
##리필
보완
자산
##정도
작은
껴
습니당
인용
인재
구도
비트
당원
넘겨
보여
주연
스토
위대
씨발
길이
식단일기
아시
주거
그리스
매체
학과
플랫
##다시
##사비
##aby
세젤귀
스웨터
45
모발
##드름
배상
돌아보
활성화
어이
보건
정황
피의
당뇨
꿈꾸
아보카도
##세이
##비에스
그래픽
##바디
##매트
김대중
ㄷㄷ
고수
사인
조성
서양
부엌
레인
##ᆮ히
입원
데려오
복귀
품질
웹툰
##케이스
덩
강정
삼촌
첫줄
밤새
농장
거꾸로
사모
애국
타인
외모
##페인
엔진
트러블
광화문
면허
로션
굶
경비
영구
포스터
##레임
기울이
룰
그대
추구
##번호
##orea
해치우
저축
##괄
해내
식탁
창업
오리지
##뚱
여의도
##ᆯ레이
##ca
일치
무역
씨씨
호주
간단히
동아리
애쓰
잡지
브라운
박정희
be
##ht
##나다
정기
외우
스크린
##나리오
##ᆿㅋㅋ
예능
안드
미백
동성
배제
앰플
홀로
dieter
##ᆿㅋㅋㅋㅋㅋ
##나이
한남
민생
핫한
니깐요
##bs
##갔
피트
찍어먹
낯설
한창
과하
##힘
배신
##커피
다면서요
라기
세팅
잡이
독재
황당
##뇌
##로코
주간
##줌
유채
계좌
강요
꼼
존중
논쟁
폐기
살아남
70
그하
##곰
서귀
명품
권하
##초밥
cafe
300
이외
사탕
주머니
중반
레시피
2016
도치맘
꽁
이대로
시나리오
오바
수건
문어
회계
막걸리
콧
##ko
아휴
고프
##고루
수집
무서
새댁
자매
##국수
99
기적
대략
인문
중소
핸
해피
출동
##잖아
차림
##파티
싸이
흘러
쵸
아삭
무죄
진상
두툼
톱
##둠
##듭
파인
라이프
코코넛
썬
전골
출장
칠월
서귀포
닉
런치
브라우
travel
스리
인근
##버터
##룽
호르
창조
삭제
퀄리티
고무
피드
입증
전화번호
도망가
주류
김일
속이
올려놓
있는
생강
##진짜
##돼지
이재명
##ᅪᆼ
물티슈
불행
##합니다
엠비씨
##챠
갈라
고유
유형
##게티
순하
아들맘
##뜻
이지
다큐
대개
무사
집어
명분
속하
숙성
톡톡
마는
단맛
극단
자율
탕수
박지원
은퇴
페이스북
원숭이
자구
##오리
와우
김지
육년
심정
흥분
##ᆺ살
##이션
세이
때로
추측
아이구
##번에
마케팅
쩌
지상
자국
무척
까지ㄴ
팟
긴급
##묘하
cm
뿜
##뿜
거지
위생
갠
애인
목격
아아아
투입
08
##땡
##쫀
##te
사먹
##분하
메달
##다이어트
스노우
##good
소소
##부지
##찾
실시
잠실
급여
##길래
사면
기지
면맞팔
수비
상위
다는데요
손톱
와이프
##멀
분식
분양
금속
쫄깃
##ᆺ솔
##짠
오호
물어
##빠지
윤리
아리
다크
오케
노선
김기
엄지
##싱턴
##렬하
물러나
fr
##꾼
는듯
대접
##새우
브레이크
끈적
사원
##칩
연하
찾아내
씌
이스
교류
색감
오브
##초코
논술
온갖
##ofinstagram
호르몬
##한데
카페스타그램
어찌나
튼튼하
거두
서점
응답
짱짱
앓
우편
공직
라는데
경선
커뮤
##eaut
썸
##똥
오로
##빗
혹시나
낮잠
댁
테마
고등어
lov
일차
처분
중계
연령
딸스타그램
비쥬얼
동반
파크
강경
청산
끼치
웨이팅
instagood
댕댕이
하락
한때
미션
##대문
상가
##쉽
급식
고문
##돌리
세용
프라
십구
마음대로
##됨
##ᆺ다
##ㅅㅎ
##스킨
생후
놀리
중도
귀신
pr
먹을
살살
그라
##닐라
거칠
##사이
신중
감탄
##연하
최악
날개
##란다
묘하
불쌍하
유병언
mm
##iv
거주
색다르
앵커
랭
하하
면은
생방송
박원
태극
골고루
탈모
어유
네트
나온
호소
메르
##빨리
ㅂ니당
분류
걸이
웨딩
##냉
##ao
도하
##미래
##밀리
역량
행보
트로
허가
혐오
ㄹ래요
챙겨
##ub
한꺼
##한하
왤
매달리
철도
햇빛
즙
yumm
##로션
##어주
##도그
한방
소음
우정
##버거
##해줘
살피
뚱
##ᅣᆷ
가보
옴
수육
통보
협정
탐구
씹히
##다고
제형
내사랑
치아
##비아
개편
입법
월드컵
씨씨티비
콕
로드
인치
##한거
포항
메일
샷
찹쌀
하면
##고추
##oy
보충
서면
##벳
비대
공짜
##ᆯ릭
당면
코덕
손목
책스타그램
홍삼
승부
##캣
다네
##이너
평등
##ert
압력
케어
##ffee
usb
만일
해수
씬
직후
던데요
##썸
시신
감싸
발리
강연
증인
한꺼번에
깡
저하
사일
##그라
중년
##냅
##파이터
곁들이
##ok
##삐
들고
마인드
##아나
부천
##졸
체중
##할때
##퍼스
##art
더군다나
##ung
어묵
사시
과도
##타임
치열
장수
감당
##퐁
##칵
##자리
세안
비키
##모닝
팔월
금리
##sty
##ᆺ가루
ㄴ다니까
상영
진출
외계
봉투
벽돌
재능
용산
##oon
베이컨
숟가락
##av
을수
자제
주기
노릇
##성분
해체
휴무
##쿠아
왕자
봉지
코미디
se
##뛰
##hy
마포
여인
왔
성당
멕시
##파크
북쪽
런던
놔두
겹치
하필
좆
유학
넘어지
갈치
##앱
곤란
블루베리
##쫄
기둥
에게서
용도
으니깐
유기농
갇히
지옥
영광
임기
힐
협조
부딪히
쟁이
지진
천장
풍선
유저
공룡
카라
육회
petstagram
은거
##고나
유권
코디
염증
국내산
쇼핑몰
살아오
클린턴
굵
##게트
해봤
단골
통장
태풍
ㄹ려
보석
옵니다
분수
울타리
##org
어쩌다
##베이터
지리
조르
국면
물가
후추
아토
을듯
##야되
소지
구리
비즈
두유
##티디
재수
단속
싱가
시그
캐나다
김치찌개
뚝딱
cu
가위
일방
생생
연세
업데이트
뛰어다니
900
##뱅
##러쉬
한거
깍
입주
계곡
좌우
##클린
아카
드럼
##수있
방탄
특집
or
re
ㅎㅅㅎ
오락
##그러
드려
신당
최강
취급
##배기
견스타그램
두툼하
ㅜㅜㅜ
고모
##가리
부처
진입
왜케
##세스
발음
##팩트
징계
##ue
이념
다그램
사냥
화성
배낭
as
아몬드
닥
##이가
비중
발효
##즈니
판타
채용
험
##ᆺ지
이별
한일
차분
또다시
확산
아냐
갔
##리스트
##다하
세부
화나
##은거
첨가
만만하
김진
결합
삼각
메밀
첫날
궁합
나타내
지성
기원
주체
설립
명동
포스트
호기
양식
청원
프레임
할거
##샴푸
함부
슬슬
32
다먹
보복
여튼
##오오
ㄴ다니
와사비
해먹
뿌듯하
무한리필
오사카
##ww
교정
북스타그램
##특별
춘천
당분간
인수
치기
건대
히어
##쿵
띄우
파우더
ip
의존
기독
댄
##마을
차돌
##해봤
창의
##마리
안양
인민
백십
박히
##베큐
셨
닭발
림
##니어
수백
동상
토크
##어나오
벌금
서울특별
나뉘
십일월
오오티디
서울특별시
널
미스터
팔로
머릿속
뮤직
팽
##ct
엎
모닝
더러
말차
머물
벌레
뷰스타그램
어여
고래
##시스
일제
구축
비오
터미
펄
아픔
저항
마일
트레이
퇴직
##ᆯ거
##딴
유도
공방
평상
##덮
체인
블록
덮밥
마라톤
##eauty
사운드
예수
구워
세일
두께
집착
맥락
쭈꾸미
므로
##렉스
디제이
##같이
##ealth
이종
도리
##더스
합정
##패드
멀티
ㅠㅠㅠㅠㅠㅠ
빌딩
킥
##pg
여드름
##무르
상호
선전
발목
콤
십사
##ㅎㅎㅎㅎ
##닌
##어놓
제법
진료
관여
육즙
키로
잡아
견과
##틈
##ter
##니티
##다그램
##마켓
중대
추첨
포켓
##팝
순식
##시트
차기
검정
##슘
##겸
부스
##화물
구두
##소드
즐거움
박원순
함부로
도우
저리
야경
식이
힘드
유발
##프리카
악마
##ous
sc
서핑
ㄴ다던
법인
충실
혼밥
##랍
전신
##생각
출입
뒤쪽
디스
패널
업계
음료수
am
cg
hom
이치
수당
##수화물
알티
포트
설거지
속초
1000
뛰어넘
더더욱
처방
##밖
쓸데
여보세요
츄
장인
실종
질서
김일성
##펌
##싼
줍
인력
##무침
무장
번지
##창하
팍팍
짙
사료
서운
##트로
진주
몸매
워싱턴
예술가
상관없이
두근
응시
술스타그램
끊기
##페이스
다스
덩어리
##트라
경치
신메뉴
목살
엄마랑
패러
##플러스
승인
살아나
은하
나들
상인
경남
동카페
방치
##에프
허브
따라오
가리키
기한
전설
잘나
타워
디테일
경찰관
볼륨
브리핑
bl
쓴
서두르
밍
선명
새기
억제
지혜
나아지
라스
동아
왤케
툭
##👍🏻
##롱이
전직
전남
토너
내려놓
웅웅
흘러가
no
고집
##ᅥᆫ지
예매
정비
신화
매매
타자
얼큰
러닝
이르케
바른미래
neko
샤브샤브
오리지널
도중
##트롤
##바삭
발레
포르
메세지
코리아
마주치
##셈
초보
##이없
##ard
아미
마흔
실무
별거
질병
보내드리
컨디션
태극기
저분
여왕
부적
인디
차관
발매
cats
기독교
아재
시카
##ᆯ린지
양복
토핑
증정
꺾
동그
달려
코치
사용자
테크
컨텐츠
이재용
단단하
www
##sh
에그
사령
바닐라
모기
벌리
후후
건드리
폭로
드라구
블루투스
뻥
##ᆸ터
##닷
사주
진학
연수
드림
잠재
접속
대체로
빠져나가
kt
mar
지출
맛이
김동
천국
떨어뜨리
del
it
##얘
시크
보신
##스파
경호
감히
##월드
갈때
꼭대기
탄수화물
꾸덕
보고싶
클래스
##ᆺ는데
이놈
조그
으라
교도
양말
##브이
항의
타이틀
바이오
fff
의뢰
바구니
##랬
노후
업그
198
##썬
로즈
##힐
비건
엉엉
굿굿
핑계
yummy
##잎
개방
진리
##느낌
##ation
##ud
##욤
한자
로비
##아들
감안
키보드
패스트
복합
프로필
광안
스페셜
##eat
##for
##젤리
외관
디즈니
베리
바람직하
에스엔에스
##ᆸ하
다짐
보좌
적폐
장학
통통
##병우
농단
health
하키
사막
##저리
내밀
외과
압도
필라테스
##20
나도
롤러
반반
발달
빵빵
돌려주
##쿼
조항
##텍
다가가
##포트
휘두르
##엄마
드라이브
김종인
이비에스
지위
거론
오직
서부터
##아찌
세척
##인것
잘라
측근
내려다보
으려면
##벅지
크로스
마스터
부활
공복
##비전
분열
실현
따위
월세
트래
밀착
이집
하긴
##가스
몫
음성
후쿠
포착
##렌치
매니저
비즈니스
히어로
바른미래당
vs
서버
아이디
작정
막대기
아들스타그램
볼수
도망치
하단
뭐먹
유독
진로
호랑
충족
찌르
탄탄
즉시
찰떡
숭
모듬
공산
##키즈
잠수
향후
그만하
마이클
핫도그
주부스타그램
gs
령
지붕
##인증
선보이
##맨스
돌파
##샘
리조트
이득
부시
유죄
잊어버리
##뵈
나경
기쁨
라운드
드루
교양
느껴
##펫
##멘트
##걸이
펜션
##ᆯ런스
km
이수
##부모
분유
원조
##팁
후드
뒤늦
깨우
스벅
대게
정장
##마마
세균
##인플루
칫솔
알파
재난
##덩
ㅋㅋㅋㅋㅋㅋㅋㅋㅋㅋㅋㅋㅋㅋㅋ
워크
흑백
요가
동양
못먹
눈빛
ㅠㅜ
##ure
거듭
끌리
##ᆺ대
##쑥
도박
마우스
요원
일대
우병우
심플
려나
라하
로스
부패
안기
비극
장모
##짬뽕
플로
##ce
는게
##릭
인성
뱀
##코디
##월하
임자
육아그램
클라
옵션
퀘
주무시
##스콘
##야지
서명
내면
차장
비유
개운
원고
통상
좋아요
캘리
임무
품격
al
더욱더
햇살
##look
고시
시술
읍
오키
두드리
잘어
입양
감추
##콜라
줄기
독스타그램
집어넣
사위
기각
부품
델
빼놓
바꿔
택하
캠페인
에피소드
##ᆫ거
마블
##게하
장례
국밥
청담
육일
별명
##스트라
풍미
##꼭
곽
부문
##마크
개최
왠
결말
카트
카우
##와서
민감
##삼겹
슬픔
둘러싸이
들려주
이슬
선풍
장착
매출
##룽지
##갓
여ᄍ
일보
안산
믹스
화가
느라고
발명
베개
벨트
세젤예
연상
학대
##네일
한국어
취임
클로
멀쩌
스킬
01
조종
오타
구원
파주
##카드
##샌드
혼인
히트
짱맛
디자이너
ㅎㅎㅎㅎㅎ
카운터
##넌
지문
을수록
시티
정착
##진이
김한
식빵
드릴
판문
변수
병사
황후
##갈때
자영
서요
노예
반박
건네
홈메이드
##ork
꿇
두려움
콜라겐
##므로
la
ㄹ수
##ᆸ쓸
아드
주관
예의
감염
욕구
지자
부착
야지
해방
실업
##엿
##늄
##투어
##all
##클렌징
귀요미
럭
##퀘
딥
잔인
180
가상
보존
불판
덴
##호텔
친노
넘어오
챔
다이어트일기
폐쇄
퍽
미만
아서요
불닭
수시로
기상
개스타그램
밴
멜로
난이
쓱
이석
주고
전두
상업
상임
당내
참나
현직
떠들
어느새
##able
마라탕
02
##ᆺ수
##ju
##지말
담그
흐리
숙제
짐작
춤추
##uppy
ma
꾹
이건
마땅
천문
법관
##절미
스트레
하얀
##ᆿㅋㅋㅋㅋㅋㅋ
이왕
도장
리그램
넘넘
십육
꼬마
휴양
각도
윤기
흥행
가로지르
트렌드
여쭤
gao
##가루
##오카
원료
맞서
침묵
##eco
스피커
라던가
eat
하와이
제국
유대
ㄴ다면서
바삭바삭
##스티벌
윈도우
미끄러지
판타지
ss
일시
인다이어터
세련
유머
분해
배불
엄격
coffee
글로벌
puppy
수저
소용
미스
간부
눈길
산뜻하
웨이
수분크림
33
마켓
대우
유출
원리
투수
##one
##운데이션
ㄴ걸
아티
자취
수험
##사스
##모델
##넬
튀어나오
##볶음밥
반기문
나이트
엮
먹음
칙
김혜
허니
채택
억지로
##뜰
##스테이크
##줌마
##일구
십오
##꿍
재미없
##ㅠㅠㅠㅠㅠ
##꼴
매직
목포
##플레이스
붕괴
플랫폼
멕시코
##그룹
계신
리모
스타트
활약
##읍
랜드
깜빡
##ack
낡
네에
스콘
애교
##못하
데치
##임스
셔요
농도
싱글
일자
정면
비박
피지
김수
김용
##은편
##브라
##메일
어우러지
납득
##ling
##50
##아침
유부
##에이드
뜬
팡
는줄
고지
마요
로고
차려
트라
허벅지
착한
아뇨
사리
조아
화해
신동
통치
산타
축소
판문점
ㄹ라
##ㅇㅇ
##로이드
스승
바치
바베큐
먹짤
이제야
##비비
성남
특위
멘트
티라미
##lean
영원히
스님
##아웃
부각
부당
제자
샘플
어휴
조현
무침
공작
피크
행운
용의
어쩔
데일리그램
메르스
업그레이드
##둬
##껄
##zz
먹어
화사
상사
신데
반사
최신
누룽지
등심
굉장하
시켰
한숨
서브
##솥
체리
환불
중국어
눌러
유챌
cl
##고하
으리
대세
모험
인종
개조
장벽
왜곡
젊줌마
컨트롤
드루킹
사로
제임스
추세
앞쪽
용돈
스타베이비
##oun
서운하
그늘
지저
도심
전역
음반
패딩
싸먹
색소
혼나
블라
##볕
황당하
##리안
##저런
미네
알라
그네
삼사
열쇠
디엠
하하하
오케이
구현
섹스
청결
##머스
농사
탈북
나경원
##컥
이대
는것
스쿠
대권
##레이트
갑질
바이러스
##style
ps
거북
만점
정유
##줍
미드
관행
올바르
빼앗
##ffici
캣스타그램
lsc
지향
나비
소매
드물
유혹
첩
배구
맞아
강점
막말
십삼
글램
항목
199
탱글
알려드리
##가드
오류
유예
성실
음식스타그램
##렌저
알아듣
칵
##bc
##ᆺ줄
지연
기생
부하
상실
버블
##버트
관측
추행
불량
요리스타그램
홈카페
숨지
아오
고런
시중
요약
##마롱
남부
감수
##먹으
##ill
플라워
##fficial
##글리
하우
시진
시급
##데오
조립
조아하
##스프
세븐
##일랜드
문신
막창
풋
승객
센치
이정도
쟁점
속상하
사로잡
kore
나와
기어
붐비
##전하
장악
반죽
리라
행성
풍성하
퀸
ㄴ대요
찢어지
##캬
주석
창작
녹화
홈런
배고파
돋보이
##ᆸ싸
그닥
##부리
경로
추위
패치
바닷가
네네네
납치
은근히
##다닥
좀비
경북
선사
원주
신비
신규
매달
타이어
##호하
운행
ㄴ지라
민트
종전
권위
복원
슬라이
dailylook
쌩
가려
스틱
일각
##아다니
치명
해고
방사
불독
강렬하
립스
메가
본점
산성
톰
취직
자체가
철수
땅콩
##낮
수유
정무
소풍
내새끼
영수
폭염
창고
스케줄
외계인
저지
보러가
줌
대여
##래기
정국
내보내
##타인
##테리
등반
복구
머릿
선팔맞팔
뒷면
플레이어
밀크티
깃발
de
쇄
이쁜
보기
야간
상세
두루
현역
##등포
효능
텍사스
터미널
kat
는곳
시바
분쟁
괴물
##ick
염려
견제
탑승
브라우니
to
##캉
거르
사찰
대왕
##구정
더미
공모
문명
##넹
돌이
##케이션
꽂히
무난하
ex
인가
선임
파스
##펜스
터키
고춧가루
instadog
##ᆯ수
##댜
오메
오븐
한상
경사
##레오
학력
종북
##꼽
셋째
##me
이라
이삼
보편
부과
아니야
성수
타협
명단
파라
편견
##족발
법칙
조선일보
파우치
fit
보물
사형
##스렇
한눈
만세
야야
야무지
##모드
김장
간지
##역시
##끼리
필리핀
척하
보컬
일행
솥
##렷하
##당기
##소하
크루
불꽃
포크
다이빙
##고양이
거랑
예외
부치
남겨
코팅
길어지
형편
허위
충청
##언스
자칫
##uc
이마트
보람
일품
전선
분량
##한잔
파이팅
참사
2015
##바이오
섭섭
텀
##춤
으응
오뎅
##동물
양육
종료
가라앉
유전자
이마
실체
##워터
ㅋㅋㅋㅋㅋㅋㅋㅋㅋㅋㅋㅋㅋㅋㅋㅋ
악화
벗기
꼼꼼히
코믹
텔레비전
##쫄깃
##춰
안티
내역
이런저런
피씨
지만요
계층
출력
귀여워
화장품
##ㅋㅋㅋㅋㅋㅋㅋㅋㅋㅋㅋㅋㅋㅋㅋㅋㅋㅋㅋㅋㅋㅋㅋㅋㅋㅋㅋㅋㅋㅋㅋㅋ
##ᆯ렛
##띠맘
스위스
일일이
껄
##셰
다정
시금
비싼
무관
냐라고
##박하
##레이션
갑작
숙박
몰입
pl
시달리
기수
로하
널리
무덤
상단
영등포
김부
불호
##ㅠㅠㅠㅠㅠㅠㅠㅠㅠㅠㅠㅠㅠㅠㅠㅠ
up
##궐
에코
일식
정통
경상
물기
매실
명란
아주머니
##했는데
획득
이스라
수납
진작
##키스
날라
검진
좋아지
녹이
푸드파이터
##떡볶
웬일
전두환
neco
에드
보러
##스턴
동남
참으로
누가
##메틱
휴게
철저히
엘리베이터
오만
와플
화질
칠리
동굴
친척
디스크
##퉁
그림자
뿅
광안리
헤이
##if
도마
수산
정직
무력
타르트
교차
박영
##반사
##윽
##pa
고령
주행
인절미
더라면
별개
ㄹ려면
가계
스쿨
일리
아이패드
짜잔
슬로
퐁당
je
led
저랑
게스트
보정
기절
안대
미월
처지
건가
달하
머신
##워시
망가지
압구정
공화당
네트워크
립스틱
싱크
오년
##드라
노화
##붓
치키
##신분
감칠
성질
성취
##레싱
머무르
##적하
행진
표면
##할거
##투리
볼때
몰아
격차
##ᆼ구
오피스
##나서
칩
알코
식욕
정돈
손실
패배
김경수
meow
갸
##쏙
어벤
시댁
볼링
기금
조식
바리
한결
재질
김민
##ㅎㅎㅎ
록맨
칵테일
##ᅪᆸ
##쯤
할리
##다지
##라하
로맨스
##미하
셀러
비전
중력
섬세
시진핑
korean
good
##쓱
주주
##젓
바비
##래요
일등
##사진
개구리
해지
신세
##블러
틀림
플레이팅
ホメ
##mi
##ry
지명
내각
진동
연간
데우
특허
터널
활발
함정
알아내
엉망
멍청
낭만
쫀득하
시금치
corg
뉘
푼
##뒀
욤
오마
##는날
미스트
상점
성경
##테면
##코드
절약
페인트
풍기
침해
##닿
부들
제약
##렷
원자
##버그
김상
명시
약점
##페라
태자
숙주
쏠
##김밥
견해
좌파
katze
감칠맛
ㅈㄴ
👍👍
##뎌
이를
의류
##고싶
부러
섹시
너머
유자
비린
헝
##레스테
슴
##pl
가동
사적
미쳐
공지
동해
##노트
##앰플
취약
광대
칼칼
꾸리
덕질
dietfood
콜라보
지저분하
##ᆼ스
다요
기온
야되
제로
구간
관중
데스크
초청
잡채
충성
급격
클린식단
이스라엘
궤
에미
##다주
사라
마차
자문
수습
소름
음모
공수
신성
재우
##희정
백성
쫄깃쫄깃
이행
기재
서해
적립
영입
크레
##여자
삼계
운스타그램
산화
베란다
올리브영
맞춰
셰프
닥치
##껴
##se
##뼈
이메일
마니
##거나
수령
세럼
프렌치
별미
다이아
오프닝
##essert
무사히
이뻐
##닉스
##리뷰
습니다만
치유
중동
알레
피클
밸런스
군것
##은지
쿵
멀어지
##맹이
시시
몬스
말투
집값
민망
태요
헬스타그램
청양고추
sf
뽕
로그
서서
내기
비벼
앞뒤
목록
규명
굴리
숯불
좋아요반사
섭섭하
뱅
도달하
보름
전도
두세
##땜
룩
쑤
##뻑
조회
뱃살
김포
결승
파프리카
호호
코난
흐흐
##캠
콜레스테
멀쩡하
스캔
소신
해리
물품
불신
##팥
세월호
인증샷
뚫리
콜레스테롤
##ᆻ어
도미
##스레
##해라
연두
여성분
마이크로
갤러리
##플릭스
면은요
이를테면
쁘
##ᆺ말
수명
##태우
##현이
테라스
각오
협찬
흑돼지
부지런
##ᆻ잖
가량
보행
네요
아용
김재
교대
브영
욕실
##긴한데
마이너스
즉석
쌀쌀
낭비
스파게티
실리콘
##로케
전작
해제
해양
##모스
리듬
양성
찾아뵈
##팸
##ash
생생하
에세이
은혜
##로거
사소
대행
전지
비틀
공략
##술집
권고
냐면요
##톡스
무렵
##ight
ㄹ께요
cgv
참나원
04
지검
지랄
##저격
면도
서쪽
전후
까진
##물티슈
통째
현명
슬림
견과류
이일
어이없
아쿠아
을게요
##라기
되돌
##얌
구수
노벨
##세용
명의
교재
폴리
##름하
호로
##운지
용인
합법
온천
##광역시
맞팔해요
파트너
hd
싼
##ly
##der
다발
보글
로켓
말랑
치과
결단
단편
변명
권장
##육아
사이버
재미나
휴지
뿜뿜
of
##ain
이병
##하루
뭘
##국밥
추리
방수
##모습
호선
토스트
펑
##존맛
##oninstagram
모자라
150
껍데기
catsoninstagram
카우보이
알코올
ap
늑
마비
안성
까다
신속
성명
놀러가
꽃게
##줘야
이집트
##싫
##러기
네용
문득
##렉트
단기
최후
속옷
덧붙이
테이프
ar
그지
다툼
##핫
##가님
##고리
정세
닌
인쇄
야근
##미지
##그릇
##보스
무비
피터
##벗
해군
##의자
##바이트
토지
독도
합성
휠
넷플릭스
2000
요양
한화
모레
중화
##려나
국적
현관
코끼리
항소
논평
##our
쭉쭉
##댕
##팽
엊
에용
에여
##이이
자발
일명
일회
드라고
##해진
##두기
끌어내
즉각
묵직하
이산
##륵
세입
진전
입자
##두부
손자
본사
재밋
selca
득점
스탠
오라
해시
##디아
##티지
##윗
명백하
##펑
아기자기
케이티
##ne
얼리
하원
기호
인적
세정
때려
내시
##대하
진자
##엣
팔년
올인
농축
액수
##icious
비대위
55
사촌
눈앞
십자
캐스팅
찡
숙이
뷰티그램
스펙
##된다
생겨나
오로지
by
훠
이차
그간
자아
여신
##깜
##주스
밉
남용
맛난
배포
##레시피
강간
바로바로
본체
페미니
##빵집
정당하
씌우
스트레칭
몬스터
##갱
##썩
##io
##도록
대원
구년
윌리
공소
해상
신년
다고하
집가
토미
고깃집
템
##꿈
아스
가꾸
네티
주황
스푼
위성
물체
식민
타코
어젯
낙서
##맥주
delicious
쪄
##eb
이오
시야
나란히
마롱
여건
대용
소세지
유익
더라는
양승
초딩
축복
##혜원
루이
##흙
연락처
##떨어지
욱
##룰
하구
고가
지경
##다이
시다
줌마
면세
##비치
##두리
퍼레이드
광역
골든
솔솔
송이
캡슐
주고받
##clean
는날
다노
##났
대입
##수없
남산
##해하
애비
불거지
달려오
##포르
외면
할로
절도
##슐리
샤오
##ort
냉정
자꾸만
팬티
곤약
득템
wh
##ᇀ이
지표
지목
##유럽
동참
국산
국토
연동
##베르
창원
##atch
##ity
부적절하
ㄹ라고
##갱이
##ps
는대
도자
##래곤
##오래
내다보
나올
##세럼
##재료
리스
카이
양치
##oul
곧바로
졌
긋
안쓰
##연히
타운
참조
커리
체감
##밴드
태그
임원
foodf
미네랄
photo
블리
##ᆿㅋ
라라
상무
원두
재즈
양산
직구
##폴리
검거
##페어
출처
창출
비슷
탐방
##컬러
800
##퍽
는뎅
제철
신도
실용
친일
온몸
탈락
맘대로
어버
가자
고스
시비
일러
구독
근대
신인
양자
퇴사
##르륵
쌍둥이
네티즌
##gas
이국
아구
그루
다죠
만드
정우
부실
소련
소형
생태
노르
중립
##처럼
실물
날카
꼬막
송파
뉴스킨
ㅠㅠㅠㅠㅠㅠㅠ
이따가
한가득
dessert
##녹
이어가
기가
##라멘
대립
괌
##트먼트
##숭
화창하
동행
최일구
##점심
금강
글쓰
황태
##out
갈릭
love
34
얽
저작
사천
수호
생성
남다르
입금
심상
마음껏
감사한하
따라하
##블릿
두려워하
##깡
##80
에에
제대
미주
##카이
약자
##펙트
담요
##쟁이
##뚱하
스탠드
##ob
사우
예배
##굽
제육
그릴
상속
단짠
새삼
참모
양도
맛있다그램
직무
짜요
질기
께요
흩
##end
##아이스
아르바이트
후쿠오카
foodfic
어둠
자막
밧줄
과감하
살찌
##피츠
리포터
충남
페르
##필요
##ith
음음음
##ish
머릿결
칼칼하
ㅇㅅ
시나
##스토리
일날
안희정
우체
구별
##그레이
유성
버릇
##루션
하여간
톤업
묶이
서서히
##긔
지침
##로움
##가자
수퍼
부풀
##인줄
##랑이
단풍
간접
설사
귀국
폭주
황갈
폼페이
부들부
bre
🙏🏻
##요리
정류
##마시
안남
구미
무인
무술
피고
투기
안녕히
철거
##ate
쌈장
소프트웨어
cp
테이크
아일랜드
##지오
사내
야죠
##실하
신입
성형
리터
손등
복도
운동스타그램
##져스
어쩐지
밀어
다큐멘
찾아뵙
날카롭
##다운
##마사지
인턴
유난
선출
애슐리
발급
현안
법조
##먹방
##순이
##덕이
뽀뽀
굿즈
쫓겨
붉은
##어어어어
듀얼
bb
ms
껌
##ver
과실
로맨
##그레
##숲
얼룩
##덧
##ann
똑바로
코스메틱
스카프
스파이더
eatclean
##뤄
다우
시럽
기무
##돔
수천
전경
생략
동쪽
##해준
성우
##바스
최적
궁극
힌트
라던지
반짝반
is
min
##10
이경
이어서
으셨
한판
한옥
##아님
방콕
##프팅
최진
육성
총각
##챌린지
왕국
컴백
얼큰하
쌀쌀하
."
챠
ㄹ걸
##턱
가마
거야
사각
기뻐
수위
전교
전파
상수
아이러
애서
작사
달콤
간절
운동녀
##뉴얼
##커버
육아템
웨이트
스테이
엉뚱하
dogs
##ime
끌어들이
##룬
##ᆿㅋㅋㅋㅋㅋㅋㅋ
가습
우물
잘리
국경
레알
홈스타일
##ㅡㅡ
##ㅜㅠ
##기저귀
야끼
그런거
공인
까페
연료
##크리
파견
삼국
심의
패밀리
허허
뜻하
합병
##ant
##겁니다
망설
찰칵
횡령
까다롭
샹
거니
나르
삿
##마일
제정
비엔
씨앗
##영이
간첩
역전
필드
판정
줄줄
복사
생긴
환절
아랫
옥상
찜닭
집밥그램
메모리
스토어
스릴러
뜬금
훅
에버
도보
잦
일체
##치약
뭣
제어
죵
치사
원망
##해보
##학규
담아내
질투
##imb
baby
쩜
보태
여대
니당
##미스
비계
개미
##해볼
연희
실감
##세훈
##코기
손학규
본능
브루
창가
격려
스피드
##로콜리
쓸데없
먹음직
티라미수
sm
##뿔
수소
부수
##치노
우아하
전술
구우
계급
##한건
##두근
##접시
철판
햇볕
꾸준하
넘겨보
동남아
05
ㅇㅈ
조이
인체
##믹
##긍
먹둥
던거
살균
실적
재현
##른자
프린
순천
순례
수제비
스타푸드그램
쏙쏙
myung
할로윈
반짝반짝
br
##눌
아로
스며
대륙
소시지
유투
비단
상해
##틱스
민원
활기
텐데
잠자
깨어나
이천칠
액체
브라질
횡단
오바마
먹둥밍
kb
닷
##델링
모범
구상
냅
방위
단다
단정
불타
천지
드립
##종원
담보
절벽
##봣
워너
##일링
극적
콘크
myungstyle
그담
지분
##가득
사립
조율
오페라
면적
서포터
##마르
인싸
전적
적시
버무리
##첼
단발
통로
표명
염두
##잔하
촉진
##웰
깍두기
엊그
##랭이
여우
공익
실검
결의
##옆
초과
종목
##난다
다이어리
환하
업자
워킹
##테이션
03
##ks
##pic
아인
지퍼
을걸
붐
안무
관념
김해
불교
##조리
##덥
빨대
놀래
총회
항구
홍합
오십만
맞팔환영
에이드
물리학
스위치
다던데
커뮤니티
사물
오우
한라
내외
유효
빌라
비결
장아찌
해요
불매
따님
##담하
##막하
찐하
챔피
칙칙
이인
이준
아비
게으
보일러
주저
##보글
선착
##크로
맞은편
단식
식기
##노이
##ᆯ러리
암벽
##블링
새콤달
37
대파
##아삭
적자
노폐
먹을때
화내
위쪽
관료
##렐
파운데이션
메디
코엑스
편히
돌돌
출범
칼슘
베이징
##먼스
힙합
알라딘
긔
이쯤
자부
대감
바게트
##사이즈
입국
반가
김연
##은게
텅
절망
렌지
뜨거
합류
##혐
##핑크
클리어
지켜
취향저격
쫓겨나
콘크리트
ㅜㅜㅜㅜㅜ
##펀
다투
분기
필링
입고
감찰
##팜
언더
초상
천하
##애플
2014
뚜렷하
갈라지
##lov
그다지
시상
자수
여하
한양
전사
##우리
미나리
선동
연봉
명칭
##더기
친구랑
승진
##라이프
120
##ics
써니
엘지
플랜
레인지
싱가포르
rt
어트
자니
일련
노른자
추락
##피하
횟집
##프로
학업
파업
팔자
귀걸이
잠기
##귤
난간
##ell
좌절
훈제
스윙
##헐
아바
나리
되찾
으세요
구르
무치
중식
##신저
성숙
씨디
##여정
백악
##청소
열매
길가
만나보
##베개
광명
흉기
튜브
두근두근
다큐멘터리
스며들
gre
꿔
⠀⠀⠀⠀⠀⠀⠀⠀⠀
시체
라라고
만성
세로
적정
동전
집스타그램
변형
##날드
죄책
체험단
캡쳐
고스란히
at
##ᆼ기
##가서
조미
스터
소모
##는길
구형
먹히
까르
해독
연탄
살이
##안하
씁쓸
발행
포스
딜
응모
올드
##ine
##봉주
슬기
##캡
스텝
아삭아삭
피크닉
가오
도민
인건
전동
미수
동부
뱉
발굴
후속
건국
청량
청탁
헤매
##캐스트
젓갈
뚝배기
메이저
##튀김
탄탄하
##gasm
이소
을래
기득
##어스
정동
구구
미워하
무용
번님
물려
재개
김병
불고기
그놈
호감
려다가
일본어
흡연
의식단
솜씨
미끄럼
큼직하
##인플루언
플리
😭😭
##뱅이
##12
##アン
자가
구제
화물
빔
##부부
아임
간격
필자
dm
##ib
마누
네임
너네
맞히
단축
##토록
답니당
표고
토대
foodgasm
킬로미터
어버이
뺨
도주
기장
##어용
여친
서초
일어서
음원
무적
##차이즈
교토
리코
꼬이
킬
브로콜리
돌아서
폭포
귀여운
슬쩍
간식스타그램
뽑히
잊히
뺏기
갈아입
##덮밥
아티스트
48
##ラニ
보양
기다
으으
읍니다
스냅
안개
##르기
##려들
##여행
##감자
절로
사이클
광어
늘어지
##셔야
찝
ホメラニ
보글보글
ホメラニアン
38
가전
##하우스
##시마
만찬
일조
부두
##미나
##미스트
비에스
동창
담주
프로세스
이해찬
난방
##ese
바이올리
스티븐
활발하
가령
##니깐
도토
주전
##우마
개막
동계
재주
특혜
행태
샴
##케익
스카이
시그니
ㅇㅋ
##day
샀
##스르
대량
로우
모욕
미인
무단
입체
재무
학점
들어주
평택
출국
커튼
체질
브로
합동
승무
악수
넓히
렌치
개웃겨
korea
쩔
##baby
##eg
이화
이특
##데일리
##도시
정교
##마늘
더우
동대문
계파
단장
교훈
홀리
손쉽
다시마
풀이
찬물
김성태
백악관
##쿤
네모
대외
소감
##과자
해주
식재료
호점
쏠리
##김없이
쭈욱
catstagram
39
ok
글리
👉🏻
##눅
이한
이공
이례
시반
게이트
수컷
##숩
신앙
애완
##네즈
태평
생활비
아래쪽
액정
멘션
09
cook
쏴
##앵
##틀리
아치
고이
사당
기숙
##대학교
중재
경매
해줘
추경
##바보
본연
형수
엄마표
푸른
클라이
갱년
끈적이
조그맣
폼페이오
##ᆼ굴
##ᆨ션
##쯔
지각
지선
을꺼
마실
서부
부평
안오
아닌가
유쾌하
원서
##버드
김구
통영
코인
솔로
암살
##oll
스프링
애정하
이승만
넥타이
te
쯔
##ro
고의
고영
##그럽
믹
##려서
##티콘
명함
간혹
##네스
려니
##느님
태블릿
환기
굿모닝
천구백
둥글
랜덤
어지럽
여쭤보
로맨틱
이브
시공
의제
한도
##사이트
화살
윌
공예
원전
원산
맴
회피
##모로
학문
파장
발의
육개
손잡
순한
칠년
철회
스팀
퍽퍽
##꿈치
저격
드레싱
##인스타
원더
영토
##프라이
##카츠
증권
태권
##탱글
비키니
##아이스크림
400
sw
사단
##장난
##우동
차선
개국
국기
##솜
명성
군산
빨강
증말
블럭
맥도
윤석
##⠀⠀⠀
켄
이슬람
이현
##도하
면발
대포
바질
한끼
소독
야생
유력
알람
물씬
현수
팔찌
출전
어딜
프로포
##져서
향긋
밀도
셋팅
##곱창
는건가
and
마땅하
뜸
츠
아지
시동
들키
사백
대치
부츠
소망
유의
원단
동지
불륜
발색
##파리
백종원
##씽
임종
녹취
페어
레이저
망설이
뿔
뻘
하위
마녀
주한
##마니
우습
구일
진흙
해마
##딜
신임
배드
매치
재활
식전
청국
프랜
코어
##태그
##톨
시킬
베네
논현
불러일
new
피트니스
어저
다ㅠㅠ
주유
람
공적
동서
영남
##소년
양상
백두
##포니아
##펠
ㄴ다면은
##밀크
잇클린
스톤
땡큐
cut
기미
예컨
수거
먹는
중학
피카
문지르
실컷
회화
불빛
설문
느낌이
##oom
##ㅠㅠㅠㅠㅠㅠ
황소
한정식
팝콘
이점
이순
어다가
다신
주최
요래
대교
아님
구치
특권
라이언
##ite
수분감
심리학
캡틴
빠져들
마침내
##마스크팩
조깅
돌이키
이게
아부지
고독
##가방
##스틴
부가
센트
유심
장교
해볼
입안
아이유
반장
##레스트
##바지
손혜원
##팔리
놀르
랑해
뽐
##받침
흉내
섀
ㅂ시오
이력
어필
마술
네여
수립
정자
##마음
##오스
인내
세수
감량
김학
식히
메신저
다이어트맞팔
instagram
##찐
##충전
염소
헌재
빠져나오
펀드
안드로이드
##ᆺ어
##ᆸ시
하자
가산
고것
자이
과잉
모순
##아트
##미리
내눈
노랑
열기
갈래
##alt
##imbing
##ha
다듬
다낭
나요
사격
넵
으므로
정경
야말로
구호
북측
절이
##블랑
퍼포
걸레
혈당
에어팟
어벤져스
기침
##저녁
로케
##아파
미라
피치
교장
막판
프리스
복무
##ㅜㅜㅜ
꽤나
끌려가
다이소
집밥스타그램
띵
##긋나
한가운데
##캉스
서포터즈
불러일으키
##ym
는구
한시간
모금
##마루
전단
전라도
##보더
##티나
발상
점령
교섭
##맵
질주
복용
힝
긴하
##ott
될거
스웨덴
탱글탱글
book
아ᄂ
다방
일가
소변
상암
개빡
해드리
연루
배수
포털
##림프
##절로
헐리
베르
환호
카페인
페스티벌
숙취
##ass
닫히
평론가님
펫스타그램
덩치
기뻐하
07
##꽁
은비
보급
스치
바늘
모던
왈
상봉
치맥
##렘
현행
토로
언니랑
고마워
찜질
##베이커리
인친님
##잘하
cyc
work
꽈
보육
마장
대대
일억
##아메
안사
##전자
##겔
##낸
##테인
회관
타일
파운드
##에르
육군
설교
##먹지
독점
침입
반려동물
다운로드
##life
.”
600
sun
##펄
##photo
나사
오죽
수지
정갈
유인
잘생
매끄럽
##진하
발부
##코스
희귀
궁전
촉구
헬기
김영철
카라멜
시카고
##ᇂ게
저절로
##고잇
모모
니트
제인
적성
비자
똘
피규
감지
특사
행하
##공주
##블루
음식물
읽히
창당
농부
슬퍼
꿀잠
이태리
##렉션
캘리포니아
##30
이호
고인
바러
정봉주
적절
화상
비만
이런거
##킥
##티드
재배
##모자
김광
힘든
더라구용
업로드
빵소리
쿠롱이
칼럼
된거
곰팡
트라우마
유난히
gr
벅
핫하
##니스트
돔
구비
노원
상한
##음식
성산
열무
형부
꼬박
어릴때
엔엘
헌신
##official
거제
##스쿨
부끄
붕어
소외
무화
버려지
진열
입문
재혼
##모니
리치
백수
##은행
월남
키친
터펜스
활력
##악하
아마존
##밥상
##ely
##따르
에스케이
##헤치
끊어지
첨부
파인애플
##퀘어
##비빔
rpg
쫑
##korea
가야하
다채
##자나
##마이
소요
##보단
신장
느그
단서
파기
종사
헨
꼭꼭
##으리
##헤드
비엔나
빽
이완
는분
은걸
으악
노파
진도
##체어
리본
##호박
##카레
##토스트
활짝
펭
캠퍼스
탱탱
싹싹
##ㅌㅌㅌㅌ
호로록
그람
고교
##이나
기력
##라서
정복
안마
소니
유분
매입
호스
##토너
판교
ㄹ지라도
##김치
탐사
뚱뚱
un
ㄱㄱ
##뿐
##60
이조
가문
가공
##렀
##데미
으아
라임
##밑
공제
중복
##버섯
명소
강동
##학년
변비
각본
홈트
정신없
쫀쫀
이달
도피
바짝
수현
과외
##오프
인삼
솟
미성
유선
##텍스
실버
점차
아무렇
##더라
틴트
맥스
죄다
차이점
##arm
클리닉
을땐
쓸모
짭짤
##허허허허
윌리엄
ㅇㅅㅇ
정갈하
👏🏻
##를리
이백
시효
대마
정화
##것같
구절
내버리
분비
##디스
김여정
교복
백분
속보
임하
##grap
루트
끝내주
시리얼
##촵
##지노
자자
한명
정제
우거지
말라
공범
잘자
당초
신념
카다
박람
##네마
열대
충북
증세
증후
다이어트소통
커피스타그램
사고싶
멘탈
씁쓸하
65
ㄴㄴ
나갈
으네
서사
모찌
정품
제사
차근
비평
알콜
장마
##해줄
연재
성별
##ᅳᆨ하
회차
강수
하나같이
##땐
쪼개
걸어오
광복
업적
##ink
##패션
함량
##ᆯ로우
라이스
아랍
##룩하
융합
##쫀득
😍😍
##꾹
이색
나빠지
보송
사야
##얼리
라두
미팅
말레이
청장
##빅
연차
신곡
반론
직권
줄거리
병역
브러쉬
으려는
벗겨
맥도날드
3000
딤
##si
어긋나
시합
보살
정정
인격
미러
해적
백일
여러모로
응하
##플레
테레
석방
기름지
첨단
##베이스
도끼
사양
라운지
더구나
전북
생계
맛점
선반
##세제
##모션
군요
체결
순삭
퍼스트
악당
아시안
늑대
cd
안맞
##드림
##텀
##들리
선곡
영리
번거
입사
하남
귀리
취득
혼합
옆집
전화기
##항공
페북
농촌
탁월하
탈북자
##ashion
훠궈
쐬
지겹
##럿
스쿼
대서
부유
차트
##부인
공세
던전
두통
배트
타당
달구
누적
##노스
목동
짬
색고양
골반
##orld
칼라
##ock
엑소
저작권
바이올린
가평
가맹
##하이
##나와
##나잇
여주
수강
로버트
안동
미지
미투
까맣
알로
##찹
단원
백숙
프랭
앞장
체조
오래오래
##레이터
##으러
경제학
침착
엔터
뒷모습
겸손
##뭐먹지
커버력
스프레이
동그랗
##메이크업
이빨
가려지
고작
저주
게장
나쁜
기법
##드립
중성
동명
방침
매기
학위
메타
##본적
농업
센서
##튜디오
하여금
엇갈리
오프라인
이만큼
##바이오틱스
쏠쏘
##뜸
다ㅋㅋ
거스르
시식
나트
조은
수족
##래프트
서구
안하
소상
##대요
방북
받치
##루트
회수
통닭
역맛집
##매기
평점
키위
팸
풀어내
블로거
##패스
낙태
##rip
포켓몬
까르보
뒀
##ㅌㅋ
하체
그물
사표
##라라
##라피
됨
##저래
소박
소홀
재기
파파
파헤치
훑
포만
날아오
다니엘
난민
익명
섭외
장애물
후라이드
시크릿
양승태
아사
##요일
여고
##치아
구운
##보리
화산
##킴
계셨
달력
토니
기본찬
루비
루프
탐험
직장인
##팡이
이웃님
seoul
퍼포먼스
##늠
##cl
로데오
우파
얄
##숯
위헌
관장
그랜드
씨랑
물회
넘버
컸
준수
담임
이윤
깨알
홈스타그램
내려지
훌쩍
반짝이
김부선
쬐
거미
사대
기내
네덜
대본
수동
라벨
로제
만능
서치
##구려
##히히
알뜰
번길
물음
오늘뭐먹지
릴리
약국
헤엄
홍차
블러
##아아아아
필수템
ㅋㅋㅋㅋㅋㅋㅋㅋㅋㅋㅋㅋㅋㅋㅋㅋㅋㅋ
꼽히
아카데미
부들부들
다채롭
뇨
ㅁㅊ
##ness
고거
##저스
수레
과시
전무
당부
아이언
횟수
식량
달다
##준호
##겼
나이키
욕조
이리저리
텀블러
아인슈
쿠롱이마롱
💕💕
이원
다그
마스카
기조
##어준
스팸
미련
무튼
무효
남아
개꿀
해임
재고
보이스
역학
콜로
열흘
려다
효자
시켜먹
트리트먼트
펀치
깡패
사시미
ssd
일러스트
cpu
네덜란드
pm
랴
##툭
##ake
##eo
##11
이즈
이글
하람
##나물
안파
드실
유시
처형
무심
중점
알게되
맛깔
피스
입지
약물
##멍이
팔팔
법하
딱지
트이
복근
복판
에이치
헌데
##깨비
센텀
옹호
##스러운
금강산
kc
##뤼
##ve
지극
시가
도토리
졸라
면제
모짜
전격
##드려
세자
유족
경위
얘네
릴
체온
랬
뽀송
석유
##스토어
폼피츠
메이플
쿨링
텍스트
껴안
먹음직스럽
엊그제
육개장
프리스비
cc
빤
의리
수딩
부양
안방
우상
##인테리
공시
성대
배기
##레븐
김주
날씬
베베
겨냥
베이킹
라이딩
큐브
헤드폰
마누라
##아메리카
##ik
에바
에일리
##이짱
으신
자사
자루
한시
롤링
일거
구슬
내놨
와닿
유진
청중
박이
코스트
##노릇
속편
딸리
##ᆨ슥
잇님
👍🏻👍🏻
##프레소
궐
꿰
##ᆷ프
가속
지장
시력
##치미
적발
해준
아이콘
직선
빼내
2013
##앙스
봣
견환
액자
##메이트
star
소문나
healthy
챔피언
##ᆺ물
##ep
##ies
이부
사돈
인멸
위조
공군
동거
배달하
뱃속
못생기
박주
약정
프란
쪼꼬
퍼즐
워치
잔잔하
꺼리
숏
귀염
기자님
알아주
##ark
뒷받침
##뚜기
##쭉하
멍청하
시나몬
ㄹ세
ㅂ니
고립
지라
의욕
여서
라네
일심
##보니
화분
선장
원가
연산
심신
##포메
출생
담가
사랑해
##온다
압축
구성원
강남역
이랬
콜드
무지개
박지훈
부딪치
램프
생리대
잘어울리
알레르기
올인원
52
ac
tr
😂😂
🤦🏻
##ast
어기
하노이
한나라
부재
전집
구라
유래
유언
분산
개시
생각이
배틀
실사
파고
간신
특기
앉히
버린
글귀
이십만
육아일상
##턴트
싱겁
엘리트
끌어올리
마요네즈
얽히
dr
켠
##sm
익스
어치
도요
나는
##가볼
자백
대담
바래
한류
말이
무너
상정
공조
분할
경구
경품
관세
성립
반점
법사
표기
뜨끈하
건강스타그램
##헬
##헤어
오타쿠
여하튼
75
##메이크
가디
고난
의아
주가
정밀
제복
##우우
위자
중구
연시
##물리
못해
명작
통풍
메탈
티브이
독하
헹구
효도
암컷
그랬었
xxxx
페이퍼
go
레이스
##ᆯ프
##리단
시래기
도라
낱
나마
조롱
으라는
예스
##미아
비안
두산
경희
원천
간담
이야말로
손주
손가락
편성
터뜨리
쿠롱
관심사
##슐랭
노릇노릇
흩어지
윤석열
카다안
달다구리
##젼
가운
그제
##이벤트
지오
##다녀
시범
도넛
나열
마카오
기습
##자체
##얄
모터
##아프
ㅂ니다만
세여
##버전
불명
##때로
##경환
눈뜨
민사
꼬맹이
권유
오래가
##초딩
품절
꿀팁
매운거
방탄소년
댄서
스터디
도톰하
im
mus
넌
##fl
##follow
이시
그려
저염
겜
주상
오트
부러지
소량
공휴
분하
분배
개통
장하
입수
실하
충동
어리석
병행
술술
히로
##뜯
슬이짱
파티포메
와이파
##둘기
포토존
붙잡히
프랜차이즈
42
fil
##ear
지형
##장하
우러
우엉
세심
없어
위드
갤
진공
동이
매진
실세
##렐라
김선
단품
리틀
심야
갈매기
절임
합창
효소
맨발
찬양
핫플레이스
https
달라붙
아토피
예컨데
06
♡♡
ㅜㅠ
사후
##도리
모여
유로
동북
번쩍
재발
후다닥
강한
##조아
초장
쉰
창피
튕기
##뇽
오일팔
##like
김기춘
하얀색
for
##쓴
사투리
자재
##나미
대부
대창
수장
우드
얕
제트
유령
##비드
까스
아이엠
식용
캄
얼핏
숍
암시
침실
욕설
센티
김영삼
쉐이크
친박계
ㄴ디
들러
의석
기하
기후
조상
정윤
진통
동글
번화
추모
##십리
단추
발림
시간이
최민
교감
##ㅋㅋㅋㅋㅋㅋㅋㅋㅋ
등원
려요
환장
##졋
향신
190
##슬링
흘러나오
con
저만
사설
자석
스러
##치니
소라
소정
소셜
##그린
##간다
해법
신통
크라
반납
##엑
천정
출제
본래
잡아먹
별다르
채무
채권
잇몸
승용
퇴원
팬케이크
멍멍이
하이라이트
##ᆫ다
##쪄
거임
##걱
한겨
##무니
노노
상향
또래
##비밀
연못
느니
배정
아이티
회동
##모르
명심
통진
간주
직면
출간
꼬꼬
변동
총알
##라이스
뮤비
##좋아
썰매
##윤선
짭쪼
아드님
##도시락
son
##ox
##ᆸ니당
이니
이만하
아악
스톱
오스트
한수
제왕
##수도
무거
상쾌하
공론
공존
근력
##식빵
매니아
반팔
실명
파마
양지
약혼
형우
채니
빵지
##북도
딸바보
핵맛
##귄
극대
착륙
##ream
와이파이
곰탕
##irl
뉘앙스
fri
슨
##man
##70
##ㄱㅋㅋ
다아
보궐
##로니
마그
바둑
수감
라요
서장
정석
동력
파격
##울렛
속성
패티
##플라
온전히
송정
거짓말
하이킹
##플링
매트리스
##쉐이크
벼락
샌들
고유정
##얘기
차려입
쇄신
with
##ᆯ랑
##ug
그면
##서리
대피
한약
서퍼
정관
인계
미혼
차마
문항
##해봐야
물량
##차리
단말
후루
##운거
설날
별루
항해
업소
윤상
데이브
##웃겨
엔지
뻔뻔
짝꿍
크롬
쟁반
##forfollow
화장품스타그램
휠체어
댜
이온
도사
##시안
사은
##자연
정주
노소
노숙
##인거
버림
연유
연맹
받침
강서
허공
싸인
걔네
물리치
폼스타그램
##rist
##ᆯ레이션
전교조
헤엄치
44
?🏻
##ᅣᆫ
##먐
##ᆨ싱
다물
##링크
보온
조수
여정
우스
##그렇
차가
상장
공영
##겠
##디저트
연고
못지않
##짜장
김어준
포카
엄빠
간직
##켄
돈가스
##현진
글구
혼내
끼어들
##셔가지
##헨
곰돌이
멘토
잉글
부서지
둔산
싱가폴
koreanfood
번거롭
##ㄷㄷ
이너
아녀
가두
다능
##다듬
##기위
수첩
정글
##탓
노량
동갑
매뉴얼
##루미
불평
##바닥
##바퀴
##바게트
파전
팔일
산악
잡내
필요없
쉴
꼭지
##범위
##클렌저
##뇸
불가피하
신났
homec
멜로디
유시민
이식
에휴
시뮤
의결
때때로
음파
생애
차명
비지
비둘기
상원
알록
선대
원본
동호
식료
포럼
양국
양해
##ㅋㅋㅋㅋㅋㅋㅋㅋㅋㅋ
축적
온통
##int
암호
깨끗이
컵라면
픽업
yout
잭슨
day
꾀
##라비
소나무
미모
말티
화보
이럴때
남양
관건
연필
김관
백신
천팔
열일
검출
답장
##련하
광범위
찔리
##렌스
김정은이
##itt
리뷰보기
오케스트라
시그니처
hap
##her
그레
짖
##니언
들깨
##가슴
사춘
기전
한층
우측
전성분
유포
잘살
##딕
카니
박자
여럿
토르
느냐는
나뭇잎
##쳤
찬스
옥수
빈티지
갱신
59
😆😆
##ᆺ음
가늘
보너스
으실
바글
습하
부근
##일드
해줄
##해줬
씨름
##계절
##재미
따듯하
변기
몸통
란다
##ens
스틸
##ㄱㄱㄱㄱ
박영선
비벼먹
workout
턴
##uk
고만
여운
수세
전수
불쾌하
학부
명이
리드
통역
박상
독감
올때
##셔널
왕창
##던거
꿀잼
kbeauty
##인플루언서
##graphy
똬
사수
기밀
오디오
부검
##장어
전담
낸
경성
원정
원형
##티스
단절
최영
교황
##천사
##카라
책방
필기
형량
변태
쪽지
몸살
##ice
앙금
쥬스
pomstagram
쫀득쫀득
장성민
beauty
꼰
떄
##ᆺ나
이진
시멘트
되돌리
##제품
ㄴ다네
아닐
동백
문정
영하
국세
반숙
##루론
김미
학회
##코리아
육체
출현
떠돌
온수
소개팅
바지락
##데이터
##이가젤
한겨레
🤣🤣
##ᅭᆼ
다라
사케
웅장
구단
내연
말끔
유감
분자
선선
동동
근접
해줬
크크
##차근
실습
불필요
##바람
학살
호응
민중
존버
접대
밀어내
래서
석류
따라다니
푸드그램
깜놀
왼손
아메리
myd
꾸덕하
차근차근
한나라당
방탄소년단
##먐미
os
ph
이방
아씨
에디
시정
조약
대추
수확
안돼
우왕
미묘하
##일레븐
처녀
##음료
해놨
연도
성사
실크
타투
강호
참외
따끈하
청계
속임
##워즈
##날때
걷기
극한
컨설
낙하
##아이템
어떠셨
뮤지션
스무디
통진당
watch
나인
요로코
바빠
숱
##야끼
소다
소바
생신
드래곤
위상
중지
중순
개강
맛도
피시
두어
경유
선포
##바글
건성
양면
##카야
코딩
표창
##을거
브래
어느덧
탐나
훈훈
격하
핸드크림
씻기
쓸쓸
천안함
더블유
디스플레이
이석기
로그인
페미니즘
요로코롬
cj
pd
##ax
##리조
##어드
스모
대동
로망
인덕
##간장
치밀하
남포
##ᆯ리아
둥이
##렵
##겜
원활
##생일
##프터
포괄
##건강
프사
육지
북부
순진
복부
서울역
##독하
업종
마싯
대학로
했잖
뜻밖
사업자
비로소
트로트
팡팡
날라가
활기차
⠀⠀⠀⠀⠀⠀⠀⠀⠀⠀⠀⠀⠀
김구라
##를린
41
##ey
##co
아자
시러
기특
오구
예에
소울
##그때
미녀
먹엇
상어
분단
장만
살빼
##바라
발렌
강행
통행
##네시아
북적
눈여
금전
폭식
블락
##ᆯ러스
슝
굽히
초콜렛
칭구
빡빡
불러오
fitness
유투브
어트게
안팎
간신히
눅
뻑
##bl
##ner
이뿌
그이
고먐미
만든
일인
안면
##그림
노니
유세
많아
알러지
개이
진압
동경
##테크
아이큐
##진영
카메
양재
##질랜드
투성이
올레
##insta
왕복
대한항공
모자르
##old
격리
에어프라
납작
파이프
갈아타
po
##툴
이선
##니즘
거하
도라지
자야
자진
그러니
대조
비포
중개
##해봐
##냈
방영
김남
단자
리하
특가
##넨
본거
패권
겨자
급히
탄도
송도
##땀
##헤헤
써봤
ㅠㅠㅠㅠㅠㅠㅠㅠㅠㅠㅠㅠㅠ
겉절
##칼국수
틈틈
##ago
이민세
해시태그
85
쨍
##ᆺ한
이은
는법
고야
잣
##스냅
오동
모녀
부피
인프라
전진
전염
세라
세차
좋반
생수
비웃
분담
##용품
영자
해보
명상
특강
역삼
##카스
외할
산하
채팅
##ery
느냐고
##덕후
##밀히
봉봉
##던지
탑재
먹고싶
팟캐스트
bread
날씬하
ㅂ쇼
고성
사거리
요걸
##스튜디오
오디션
부침
인줄
개개
##테스트
집게
따끈
심쿵
려던
한테서
킬러
표출
복제
##망이
합당
울트라
라이너
ㅠㅠㅠㅠㅠㅠㅠㅠ
바디워시
##oss
365
슬리퍼
out
tt
##믈
##ㅅㅂ
이라고
어후
하수
##하니
나왔
보약
의캣
조영
전송
제의
구급
화합
번갈
당권
타고나
후퇴
포지
직관
코칭
캐논
폭격
뉴질랜드
골뱅이
늦어지
셀프바
도우미
오피스텔
si
##쑤
##쁠
이발
하실
마셔
수법
모리
더래도
무산
중세
해킹
입대
실은
김명
##바리
후유
심화
줄리
총괄
느냐라고
##친구
래도
악세
##찔
침몰
이천구
##틀랜드
##듯한
탁구
followme
댕기
##텨
이안
지팡이
의전
으냐
스페이스
로또
모형
더만
##그런
처제
화덕
공고
선관
선입
동결
문법
##햄
호환
초월
손흥
귀족
질량
헤치
브랜
폭스
##썽
믿기
반려묘
쫓아가
ㅎㅎㅎㅎㅎㅎ
요거트볼
멜론
잘어울
밀어붙이
##리단길
##22
이가
하태
##다오
겄
들려오
정전
##사이드
비명
분장
개수
영주
결집
건전
귀가
사이다
루이스
윤주
이천팔
디저트그램
##ree
띠아기
파이터
남매스타그램
49
그죠
##이불
의논
대국
소아
중산
개설
신전
##티아
##산책
명문
머금
백팩
초래
운반
푸석
폭신
품목
페퍼
침구
2012
아쉬웠
강아지스타그램
휩싸
짜릿
포메스타그램
스케일
틀림없
손흥민
##da
지름
사가
사사
오션
제맛
드류
말아먹
없는
##성장
신원
##ᆷ꺼
는지라
프로모션
##anc
탄소
곡물
##숙이
핫플
리조또
퀘스트
sat
뺑
##ba
##ght
가즈
시세
자정
슥슥
##래스
일환
안도
안부
야들
전방
##뭉
##무디
노점
공용
번개
매너
김보
타기
리라고
##노미
##은것
사진찍
##씹
질감
총재
베를린
##푸치노
빨리빨리
침투
뷰티템
혜자
두부스타그램
##eday
드라이버
##펜션
미친놈
넉넉
장성택
해수욕
스쿠터
뽐내
말레이시아
ㄱㅊ
##샹
##ᆷ성
##ust
##gy
도체
저요
##스하
한나
과천
서열
일출
소진
야심
유물
그릭
##부시
신작
신설
양손
##적인
##준영
농산
##are
빅데이터
레드벨
폴란드
쉐프
연남동
엿보
꼼짝
피드백
포르투
공수처
##루론산
dv
flow
##hd
이보
이되
아산
아픈
는길
은듯
사직
의구
의대
화끈
어때
경복
신라
추격
리버
양평
군침
디너
렌트
광채
홍수
울컥
떠먹
접어들
잇엇
##얼굴
정신없이
##했다
스트라이
넓어지
가리비
들려드리
엔엘엘
펭귄
쫀쫀하
하프
사흘
기성
드나
##전집
두리
##려보
동치미
##루프
김윤
리프팅
정도면
백업
손녀
손길
필스
눈가
종아리
레일
봄날
베이커리
척추
바글바글
43
cr
가발
##서야
거같
사치
기아
조세
조희
자질
바스
수프
습기
서랍
소명
적대
##우유
유적
##려구
##동생
##버니
연근
후딱
삼천
간간
특보
초미
##네요
북유럽
팔뚝
끝장
갈거
복권
##스트로
##으니
바라기
탄압
왕실
슈팅
신혼스타그램
는걸까
인도네시아
올려보
육아소통그램
예비맘
360
피규어
시뮬레이션
⠀⠀⠀⠀⠀⠀⠀⠀⠀⠀⠀⠀⠀⠀⠀⠀
fc
gb
##fit
이면
가드
그게
지완
##러시
주시
적금
유신
묽
추운
집합
##진거
##재현
삼키
순살
임상
채식
##퉁이
볼일
비롯
리코타
파고들
선선하
47
51
en
##햐
##ᆿㅋㅋㅋㅋㅋㅋㅋㅋㅋㅋㅋㅋㅋㅋㅋㅋ
대문
수월하
##미안
구사
생전
무능
알맞
동요
신축
성북
배후
실례
##세여
단면
단호하
통밀
간섭
간략
##추리
양극
##놀라
##톨릭
판례
응용
키트
잡티
터트리
##베스
트램
늦잠
##따끈
가득가득
##띠아기
탁발
건너가
뒤집어지
김성수
쾌적하
마포구
아이러니
게으르
mon
##ai
##끽
##★★
이과
하아
자두
자갈
오디
댓
일생
우발
구로
남해
버려
선하
관자
신림
왜이
타래
##탭
외로움
허전
취저
절제
빵투
##셔서
가져다주
##ich
좌식
가벼
점점더
##에이치
쫓기
##거같아
밝혀내
섀도우
휩싸이
nav
##aw
아낌
주무
모유
정진
##옵
소서
##는사람
구여
미약
##타르
분말
동맥
##민이
##개선
박탈
##멋
외신
용납
디디
밥집
캐치
존스
이천이
슛
##쥬르
들이대
짜증나
픽션
##브리드
빵순이
자존감
##홈트
콕콕
쏠쏠하
꼰대
5000
킴
🙋🏻
이장
지글
조연
요ㅠ
한심하
##면되
전분
전재
미롱
화폐
관할
매끈하
##윙
카르
카지노
얼그레이
청사
##예요
히알
잔혹
극찬
슬로우
고르곤
롯데월드
쿨하
ㅋㅋㅋㅋㅋㅋㅋㅋㅋㅋㅋㅋㅋㅋㅋㅋㅋㅋㅋㅋㅋㅋㅋㅋㅋㅋㅋㅋㅋㅋㅋㅋㅋㅋㅋㅋㅋㅋㅋㅋㅋ
##스테라
♥♥
어부
지뢰
##러브
사하
사발
##어쓰
주짓
어설프
##랙스
만석
모스크
일삼
우기
더덕
##드러지
해금
당직
연쇄
성찰
##틸
크래
김규
최상
리메이크
카누
카시트
친분
##파스
직진
시킨
휴학
옷장
끼니
솔아
쿼터
랭킹
꾹꾹
헨리
배트맨
지극히
❤❤
##👏🏻
##달라
의약
마루
##나기
##나보
바가지
##얗
로얄
일주
부도
전성
분사
실형
파랑
누누
##개지
책장
텃
##을수
폭파
붙여
##쿠키
##패딩
##꺼이
풍자
##긴했
으려나
런칭
ㅠㅠㅠㅠㅠㅠㅠㅠㅠ
메이커
놀러오
김현빈
happy
훈훈하
##떄
##뜬
##ft
어김없이
##지기
도안
저도
##가기
기리
잤
대놓
수렴
한중
일수
뭐지
덩이
제니
생소하
무식
장가
동자
맞물리
##모토
##프레스
점유
삼산
포옹
백지
박종
##머신
본적
##더더
쉼
익선
훈남
곤충
런닝
묵은지
##아아아
##ect
##뽑
물어봤
블라디
줌마그램
프린터
원산지
발림성
따끈따끈
ed
##ᆺ밤
##hc
아크
다ㅠ
##하여
사슴
마카
기우
주님
요ㅠㅠ
오미
##거스
어요ㅎㅎ
##치기
##오브
인위
소멸
##미묘
분주
##킬
반말
청포
##급하
##메디
트루
총수
광경
희한하
찾아다니
승마
농민
왕조
##골드
##액션
##큐브
고급진
##unch
##에이터
스위트
쑥쑥
엽서
단단히
리모델링
corgi
아늑하
앞장서
까르보나라
em
고루
시립
게살
마취
과반
서기
정문
정산
부합
##뭇
드뎌
노사
비염
비참
위력
경리
근사
##해여
불맛
##바나
##프렌즈
형광
##워졌
쉬림프
투척
증폭
##블라
골치
밀레
난로
##답니당
사골
석탄
스트리
찰스
250
20180
퓨어
요정쿠리
라온이가젤
엎드리
maroon
##장난감
기특하
95
mc
om
아포
고조
사보
조경
##어요
으다
자서
정청
##아르
내꺼
미키
비티
##해졌
신자
##통수
파동
간절하
특선
육천
외무
산행
디퓨
##송이
할당
플레인
침략
foodinsta
뿌듯
탐색
##맥스
홍대맛집
빅뱅
트레일러
짤리
덴마크
엔지니어
알록달
fl
뜰
##챙
##ᆺ날
가든
가급
다름
거슬리
도련
대면
수성
수신
랗
##오늘
##화점
내구
내쿠리
미처
노을
유입
선제
선두
동정
동선
근래
##말라
##핍
방망이
명사
명태
작아지
머니
한텐
사용법
디비
##남자
담화
러블리
티슈
걸맞
떳
##ind
##못해
밤중
##리스마
##흐흐
오른손
묘기
어이구
##ube
오메가
jeju
쁘띠
마장꾸
88
##멈
가기전
고딩
은쿠리
요요
오스
여전하
일당
더마
제비
비노
장남
입건
반신
##왈
##워요
항정
항아리
병아리
##커플
##라이브
냉전
솔루션
욕먹
쏘옥
어머나
객실
##빙수
##apan
20170
발라보
랍스터
김태우
최강미묘
##삼겹살
부풀리
랑해쿠리
마스카라
최강미묘쿠리
46
껀
##40
##com
##읽
##고가
##스시
오너
안될
전년
젤라
##드렸
##댐
##타르트
공평
##들기
해봐야
국군
##말랑
반주
애착
##레어
불태우
데코
포근하
백육
할일
글라스
총총
일상그램
깨달
온거
##존나
##ory
##찡
루시
송구
삼성전자
빈곤
##띵
패션스타그램
폴더
이정현
##ody
##타이저
룰루
미스터리
콤보
mydaily
선관위
epa
voll
##qu
이북
이혜
보강
주입
오세훈
대차
모하
더치
전철
무성하
공팔리
동탄
달아나
특급
심문
커트
톨
허무
프로바이오틱스
레기
레오
임마
잠옷
육아맞팔
극우
탈취
베이지
##듬뿍
하이브리드
쫄면
전주맛집
전주먹방
버거킹
펌핑
##ycat
배불러
한라산
찝찌
cycling
나트륨
알록달록
vollago
공팔리터
feat
##boy
이구
아싸
##리하
##다다
시한
오차
대패
##얀
인조
##타워
처장
윙
위꼴
버닝
잘나가
장담
문희
##버스터
감격
얘긴데
김준
데미지
발동
카리스마
날치
열광
설렁
뒤덮
답례
할매
절감
레슨
##커트
논하
골키
망신
맥북
클렌저
벽화
스윗
젖병
20190
##age
할리우드
도미노
벗겨지
정윤회
53
##하다
스폰
면회
##깍
과언
##굳
우회
##우트
유재
번들
##솟
물병
실점
건더기
박제
박찬
열풍
팔레
푸아
벌거
절박
베풀
억압
##먼지
빡치
##쫓
##초콜릿
쑤시
레드벨벳
고렇
거였
기세
기꺼이
자판
만끽
제압
미남
##타운
무스
상습
상급
선박
관악
##말리
##안되
매드
학창
발톱
백사
운용
##코트
##남도
절친
베드
웃긴
황사
쇼파
##필터
빡세
땡땡
키즈스타그램
펌프
짠하
새콤달콤하
미성년
700
##fc
다나
을게
으깨
라지
모토
모처럼
일탈
안달
소란
세무
치이
남미
분실
동산
국익
살포
방정
발송
삼자
리브
##학기
##너츠
종업
답게
어딨
임차
퍼먹
##귀비
층간
맘마
늦추
##드릴
미리미리
케이팝
##iew
파이브
팝업
떡볶이
아리랑
트레이닝
김한길
웨이브
야들야
ti
##푹
이물
잉크
가래
##이안
사르르
마스
서문
노회
무책
공립
선별
해경
##냄
배심
##민턴
후진
막장
다같이
다른곳
##란스
증오
프로틴
태연
항암
옷스타그램
##헛
instababy
다녀가
짱구
컬렉션
랍스타
크리미
ㄴ다던가
클라우드
청결제
정유라
아이언맨
웅장하
naver
##ah
##껀
하튼
##이님
은색
기승
되살
맛저
##유래
##디다
배꼽
못나
애월
앤드
애프터
데드
포용
친숙
##켈
변론
투썸
##플래
##을려
희희
하룻밤
빼먹
밀접
스트리트
##케이드
틀어
졸이
이래저래
##theday
스코틀랜드
외곽
크루즈
믹서
코스트코
##buc
아날
가무
가출
그건
고비
시드
나영
보구
##가니
##데스
주권
##낫
서럽
서술
서대문
화력
경보
##실거
선지
추후
##틴트
재해
김형
##여대
파탄
후자
후임
새싹
교원
##건데
부분이
머그
##란하
밥스타그램
증여
##블랙
태후
총기
101
녹두
농약
귀여우
왕십리
탈퇴
석촌
벽면
ㅇㅇㅇ
민정이
콧물
갠적
궤도
소상공
🙌🏻
이와
고글
거세
나랑
나으리
요미
##나베
##나봐
수련
모호하
소확
전구
와야
공업
##전드
##버블
입점
##테랑
단연
강철
최태
포차
작위
달까
심층
디션
토토
퉁
##언트
##군데
걷어
##꼬치
외국어
써먹
##ace
빡쳐
snap
이라크
백두산
쓸쓸하
야들야들
vip
쿄
팽이
다라면
##리얼
자장
자작
대역
정년
내정
드셨
비탈
공권
영이
영문
살려
##크루
##모리
불쾌
식별
후손
친밀
##브루
한국사
갈수
캐주얼
충무
##블럭
병력
##쉬가드
접종
승차
폐업
졸중
고려대
뻔히
##숑
스티브
납부
저번주
스킨케어
생물학
흘러내리
쩝
scott
삿포
부끄러
오스트리아
ㅋㅌ
이희
이봐
사방
##고오
##고파
수목
모둠
일원
##미식
미식
##댓글
치어
선행
면서요
맞대
발달하
최경환
호러
날아다니
##파이어
초벌
운송
##콧
##공기
금년
뒹굴
##넓
뜨개
혼술
브라이
샤이
팀원
칼집
##ett
굽네
캐리어
끊이
묵묵
##많이
나눔
ㅋㅋㅋㅋㅋㅋㅋㅋㅋㅋㅋㅋㅋㅋㅋㅋㅋㅋㅋㅋ
좁히
클로즈
헐리우드
짭짤하
보살피
starbuc
천정배
아낌없이
##썰
##짚
##지글
##시기
사도
사죄
오천
대폭
바램
한지
정육
안락
야자
세인트
연중
신지
감튀
##말이
물광
실상
통찰
##노래
##노총
힘차
그때그때
레고
둘레
브레드
##지막하
##슝
##풀이
퀵
오랫만
넘겨주
##oung
세븐일레븐
##size
팸퍼스
##sofinstagram
하기
아점
가미
##러하
보더
사서
조장
##어오르
주구
주력
##런스
일위
정계
부진
##미팅
구래
세미나
비장
신박
##소서
반환
누이
양측
십대
##강호
프로그래
틴
울음
알아차리
장난치
미래당
가만있
##뻔했
지수니
역대급
배드민턴
스쿼트
노량진
아메리칸
른
렇
틱
##les
이강
그든
마곡
기출
오솔
서리
인척
소중
중문
개울
두꺼
##해왔
계엄
김만
포커스
카테
현황
양양
머야
촘
편한
푸딩
담양
캐시
스타뷰티
프로듀
레즈
브레
##창호
라면사리
웜
##쿠롱
사업가
##겹살
##렁거리
빅토
돌려받
벨기
눌리
툭툭
오라버니
##아메리카노
골키퍼
아날로그
des
셜
훔
##ᆻ을때
하다
##이름
을라
시흥
자택
자켓
수년
뭘하
웅크
##수분
위법
##비누
중시
개척
장편
배가
실태
김문
파문
포화
막강
##추어
언능
##머거
북중
디톡스
갈이
레슬링
글케
총무
헬로
퍼펙트
승계
악몽
##ature
루머
알앗
끓여
크리스탈
##라인드
##띠아
꺅
##lder
그리스도
빼앗기
무비스타그램
cooking
##ᆷ껏
정청래
항정살
레깅스
오솔길
pa
##ii
거면
나두
기동
오레오
일전
안되
전라
구먼
빕스
치루
맞이
애용
후계
육백
금세
금새
##등심
독소
잠그
올라타
소리치
셔틀
볼만하
##슬기
빛깔
##똘
다이어터소통
이케아
는걸로
##에이징
명확히
틈새
##네이션
으셔도
팽창
패러디
youtube
scottish
##mon
##uj
이세
이목
아담하
고아
고로케
##데타
##기꾼
조례
예언
모텔
정선
##마라
인화
전과
전편
##미애
제격
세비
세세
드론
위축
해가지
##늘하
호떡
릴레이
촐랑
금고
완두
산모
##백화점
협치
협동
틀어지
올려다보
유니크
ㅋㅋㅋㅋㅋㅋㅋㅋㅋㅋㅋㅋㅋㅋㅋㅋㅋㅋㅋ
으셔야
민망하
스캔들
간절히
웅크리
lte
봬
가중
닳
다람
게재
나날
##로즈
마지
마니아
##도라
면담
대존맛
한하
영롱
연평
##진아
##바타
강북
##방지
카약
법리
복실
렛
혼수
빼돌리
극도
깔깔
##벌레
송영
##ary
살펴
다이어터그램
##퀴즈
170
몽골
김경래
맛난거
무너뜨리
카니발
드나들
소확행
64
##world
아찌
다간
##이오
자요
스미스
인명
구용
##인테리어
해도
쓰다듬
##바로우
명목
넘어
군주
평범
별일
허구
탭
각성
셧
관계없이
##셔도
##필드
뽀로
##린이
엔젤
류현진
##ㄱㅋㄱ
##클링
흉터
pomeraniansofinstagram
얌전
##ㅏㅏㅏㅏ
꽁꽁
새댁스타그램
kcal
ic
럼
##oh
아슬
고어
보들
자비
대수
소이
우디
##는거같
노스
유랑
국악
배변
##크로스
못가
반쪽
김소
김희
삼년
##엥
##ㅋㅋㅋㅋㅋㅋㅋㅋㅋㅋㅋ
##파일
손수
속내
딘
별장
##ᆫ트리
버릴
걸그룹
페리
쿠바
먹방녀
웅덩이
화이트닝
레이디
곰돌
납품
갓난
유튜버
스케치
가라데
공화국
##ᆿㅋㅋㅋㅋㅋㅋㅋㅋㅋ
웰시
험하
로스쿨
시급하
헝가리
해리포터
동북아
남양주
pi
pp
##꽉
가담
다히
돗
사슬
네비
##라임
됬
슥
##도안
바쁜
서촌
야단
구강
구애
미미
유방
경색
장단
##해용
씨유
방황
실전
##체크
팜
파르
강성
포진
달빛
역설
##코니
다시금
금연
꼬집
이상적
스타일링
보내주
사이언스
베라
각색
다이어트간식
온전하
창밖
##셧
왕따
##ons
##필수
데이비드
instasize
##했었
에이스
##릿지
세종시
from
히알루론산
ev
pic
례
기증
##곧
스마일
여느
대거
한성
습도
부턴
야기
세면
섹션
말구
노라
먹은
비프
##국물
감금
후지
친근하
특제
백제
군단
##맷
평온
##토랑
잡곡
즐겨
울집
각인
##봐서
래퍼
착오
루미
주인공
좌측
##놔서
강남구
앙버터
스코티
큼지막하
영구오일
김진태
##비빔밥
##믈렛
넉넉히
텃밭
노회찬
쩐
사지
마틴
기왕
습득
로이
안비밀
상주
위임
알렉
개장
두들기
##스타드
집계
배워
회상
재건
데스
사용감
형법
각서
셀기꾼
아쉬워
퇴진
졸귀
##텐데
굴러가
##파이브
팽팽
film
##가슴살
op
##ㅠㅜ
아놔
가늠
##시도
맘껏
스탈
소현
무궁
위해
두뇌
신조
추상
##피티
##행복
발령
손맛
팔백
완주
든데
투구
운동복
색칠
독성
범주
##끗
망명
라서요
숙면
움짤
에스프레소
##쥬스
핸드메이드
##테이너
어저께
하람이
starbucks
56
pow
##tv
곶
##어플
자락
자책
대령
예금
과다
로요
로운
서너
##마요
인장
인플루
소극
##보습
차차
화두
비기
##부름
상금
위례
공대
진흥
##ᆯ리즘
##동글
동구
동태
뱃
오늘의
재선
데모
강국
##울때
손색
군부
렴
##예뻐
변환
빨갱이
##살기
웃겨
힌
##넘기
best
비오는날
피씨방
뻔뻔하
##ᆨ저
##뀨
##ts
은폐
나왓
들뜨
댐
서현
정점
노골
##각각
두요
장래
해동
##키친
물결
반란
반항
##레나
##연어
타르
발판
얼어
막연하
끄덕이
설령
##워서
##라고한다
절실하
베테랑
##을듯
테두리
##erry
플러
플레
쿠데타
악역
볼턴
뚱이
강아지옷
가르키
베이비그램
즈음
캔디
##플리케이션
ㄴ다면서요
으리라
샤오미
맴돌
이순신
월남쌈
col
##팽이
##ky
이의
어스
하차
시너지
##지우
##하는
났
스퀘어
대항
라틴
과세
일사
일꾼
안해
##미션
제천
구명
음질
유서
유정
무당
남치니
분포
장려
장외
원유
물들
파손
발끝
삼청
교구
##에서
직책
약재
##페스
출혈
##란트
##꾸러기
짜르
각하
협약
잇따르
에잇
##냥이
##겟다
##퀸
르네
삐지
스탭
리필하
증후군
뙇
flower
웰시코기
89
ㅇㅎ
##farm
##닛
##리나
도깨비
##가족
예보
우월
야옹
너모
비아
무병
공교
##비엠
장대
근원
연민
밸
크레이
발길
누님
간사
양형
멧
돌입
##습관
본방
토이
##느질
카펫
삼십만
훈장
격자
##해야되
멸망
헬스장
떨어트리
럭키
태평양
저염식
개이득
지글지글
77
bar
japan
##즉
##ᆺ든
##ᆸ니까
##ㅎㅋ
어드
##지도
나의
사육
기말
요령
오예
어서오
라즈
일렉트
안중
내미
많은
상도
공판
공백
벙
##실때
동향
##디움
##팀
집필
재래
애미
강좌
##중앙
##파르
약화
확고하
눈데
금색
##베베
쌉
##배터리
티타임
효력
붙들
뛰어가
기업인
그르케
탐정
그린티
차돌박
틀림없이
다이아몬드
즉각적
스테이션
푸른색
에일린
##ae
가열
고심
을려고
##다임
도화
기엽
##젯
는데용
땐
##댔
##수니
비위
버텨
##해질
입당
방석
불길
##영어
특색
코르
등기
려는데
체코
종결
토스
##플러
헬리
퍼프
##푸리
풀무
##귀여
쇼크
라돈
뚜레
헌정
털어놓
##딸기
ㅜㅜㅜㅜ
오키나와
프로포즈
루프탑
오트밀
dvd
벨기에
쌔
지용
시연
나하
사명
주되
과태
모카
모티브
모퉁이
부쩍
##오니
##대박
먹자
##상스
유비
무드
##부자
재빨리
결성
식약
카피
양당
양현
##막걸리
태산
채취
챌린지
블레이드
##슈트
급기
홈케어
##ori
##꼬박
마리아
##ome
쫓아내
득표
##츄리
트러플
뾰족
꼼수
엄지척
달려들
첩보
꿔바로우
벅차
백분위
영이식단
공교롭
79
뀨
##빤
이적
이견
하이드
##하는데
조심히
자마
오도
한곳
한껏
과식
로거
모색
정차
니가
미트
유능
처치
갯
관두
국감
매혹
반도
##루스
##세일
##셀로
재학
엄니
다음주
열망
행적
뒤돌
는지요
충고
벨라
울림
셔야
##낄
홈플러스
##슬림
뒤집히
##ade
가야되
물러서
개웃기
트랜스
아인슈타인
옥수수
##미식회
uch
##쨔
##ura
그토록
조물
윽
##아슬
안목
##르츠
##믹스
미랑
빗속
선도
동인
동문
해가
성의
##안녕
물러가
실효
##프란
##조림
참신
엄두
특전
양주
심경
든요
종강
복음
텍스
밀면
쿠킹
루즈
곡선
송송
##ive
regr
패러다임
hdmi
펑펑
심상정
아로마
의캣초딩
하태경
##eet
##쩔
에반
도배
은평
조계
주파
그럭저
대인
모노
##치우
제스
너구리
내심
##그러지
경수
##게이트
라고하
문체
해서
##해본
##해져
##디자
방화
방출
##크스
식후
데려
##계란
발병
##추럴
직화
등교
##님이
##폴레
##페스티벌
커스터
할말
갈수록
더라고요
환율
##촘
철분
깔라
##죵
2010
##틀러
촉감
##흐흑
유닛
엑셀
다스리
깨달음
세세하
dx
mg
we
##bi
하지
가봤
에오
고삼
지피
도면
##도전
예감
바우
인맥
내요
밋
먹구
유람
상권
공표
피라미
##실히
당도
계량
##한맛
매월
형상
체류
월간
스타워즈
렉
사이좋
각별
풀어지
밤호박
악용
자연스레
##esh
콩콩
197
혜화
혁신위
보라카이
티켓팅
아아아아
uchal
##ye
하청
엘레
##하구
사계절
마린
대관
예르
바느질
##야해
로보
모란
구서
노년
와일드
무고
그리워하
치느님
##실수
선인
그래프
##신기
방면
재원
리기
따오
막막하
출출
십시
민영
마음먹
지나칠
팅
총체
희미하
빵덕
범계
##귀인
몰카
슈가
견인
뽑아내
타임즈
몽땅
뚝뚝
##ids
십이일
트로피
거듭나
상세하
해마다
꼬박꼬박
자사고
말티즈
디퓨저
그럭저럭
54
98
mac
run
##ㅡㅠ
##하러
대남
라스트
습격
일화
정형
##아오르
소면
미아
##뭇하
비정
공차
남은
버그
진수
선교
성급
김승
타겟
냐옹
##여서
명언
강박
건수
리빙
##조합
##파우
##포스
##준이
표결
빠뜨리
티알
병자
걸작
##erc
빼빼
젊음
윤종
숙명
123
요구르트
##완성
##바이스
타이거
doggy
들고다니
잡아당기
##캬캬
사우나
##프라이즈
##ist
가혹
엔드
있다
보선
사야하
기피
주범
스ᄂ
수식
##아빠
안지
더운
구기
상환
공안
가짐
방구
집추천
##모찌
김세
간거
메우
초조
군수
행방
평안
##맛있
설빙
판왕
산후
##브레드
순찰
얻어먹
몰아가
팬싸
마리오
썼
묘지
foodpics
엽떡
의정부
획기
무서워하
신세계
비롯되
간략하
regrann
ew
kbs
##ny
##콰
가심
지그
##니얼
겐
##겄
##걷
대칭
만한
만년
서강
일루
일몰
인스턴
차곡
말랭이
까불
##들어가
연신
신남
##키트
##소세지
추론
성신
##크래프트
단톡
발산
##경이
##경우
메트로
용감하
##샌
임의
베타
환전
웨스트
함박
꽃스타그램
김치볶음밥
베이글
탐지
휘발
을지로
엘에이
켜지
에프티
잉여
나눠봤
삽입
프라하
쓴맛
아드린
워너원
이준석
##테인먼트
72
pt
##land
이맘
##다음
기프
##깅
스아메리카노
수선
로지
정가
부속
인센
제습
##무기
말기
무어
##텅
위태
갬성
선원
원한
해질
해병
성동
##첫
배관
재앙
최재
통지
##건가
##파운드
프레스
심심
뒤통수
용접
##술하
##꾸덕
순방
토익
토마스
귀차
복싱
##막히
##새기
고기랑
환승
펍
걸어
빼주
암흑
에스컬
액상
징징
##놔야
붓기
##블린
엘리자
ㄴ다던지
훑어보
동글동글
포지션
can
ds
le
ro
👶🏻
##ple
아진짜
##가다
마하
조조
##스탄
오두
수혜
몹시
##드기
내보
미사
##댓
상체
중진
나올때
살구
성균
##의미
반미
파채
메기
박용
법령
존엄
께선
##플렉스
챕터
각기
흐릿
승자
##라이너
죄인
클렌즈
볼트
송금
이천오
샐러드바
흡사
##퓸
빈틈
##딱지
흥미진
알바생
벨벳
파리바게트
트렁크
립밤
핏줄
건네주
슬라이드
말랑말랑
정동영
이완구
젤라또
찝찝하
촘촘
풀무원
82
nail
ost
콰
훤
이다
이심
할라
가볼
지기
시호
조폭
##얹
그러므로
대망
수가
서빙
##오징어
인출
소맥
세훈
내걸
미로
노잼
유영
유라인
분이
##국대
개연
진미
피싱
##낼
살때
살코기
감명
추이
배터
배종
아이오
##여름
건만
##조각
카키
친문
##펙
##플로
듯요
레전드
블라인드
송강호
데이빗
치즈케이크
슈리
클립
너무너무너무
##그랬
##네이처
뜬금없이
눅눅
아슬아슬
dc
ko
쫘
##dp
핥
가는길
엣지
에릭
지가
저승
사제
잣대
주원
그럴때
만기
모션
정찰
우도
구출
##인이
상시
공허
두고
문과
영아
##신거
성지
성게
##테르
얘기냐
매수
결핍
학번
따스하
언뜻
코멘트
돌연
본토
체형
임진
뛰쳐
꾸며
탈색
##레스토랑
퇴임
숙녀
천십팔
지하철
##닭가슴살
척척
롯데리아
##벤더
foodpic
턱시도
엑스맨
##챱
부지런히
청계천
뚜레쥬르
##ost
##펴
##pr
이비
지망
을라고
도청
은요
##시미
보일
보훈
사나이
여리
예선
수직
수평
전차
##는곳
비더
상쾌
##실분
선로
선상
동등
번영
해라
연성
계승
##한우
집어먹
냐하
파이어
발코니
강변
참전
##건하
코스터
##입맛
산지
순정
허물
##달래
칠일
플루
착취
밑간
##ᆯ로지
##ench
##큐어
1500
찰나
##꾸미기
수요미식회
종로구
후드티
악세사리
포르투갈
김문수
예르몽
et
fashion
sal
##이치
거들
도무지
게리
나치
##가든
사악
주임
##스무디
오산
여파
한적하
부름
소보
우호
구박
음란
미흡
드렸
그리움
##비하
분짜
장부
원룸
번식
연정
살롱
감귤
##티켓
회로
쓰러
강자
호칭
리는
들어봤
친화
멍하
멜라
군복
##높
##감성
목장
용사
토종
빨아
##oof
태종
임용
쪽파
휴직
텔
떠다니
특히나
망상
극히
##etable
instalike
점점점
고사리
##스티커
라면서요
충청도
안쓰럽
붉은색
뻑뻑
무책임
보들보
dan
##bt
이디
하버드
가부
##서치
시큼
자궁
주심
주접
##도르
여가
수녀
##야채
일어
일석
안건
전임
##한게
방부
방배
오늘도
회고
##두유
막이
초창
코로
열악하
책정
필사
길들이
본가
답방
짜이
스타킹
흐트
##끓
##얼거리
몰려오
차이나
라이벌
징용
짐승
프린트
##앤비
기타리스트
옮겨
쫓아다니
ㅎㅎㅎㅎㅎㅎㅎㅎ
멸종
포토샵
사옵니다
골라먹
조현아
남겨지
슬로건
셰프님
식전빵
딤섬
아찔하
깔라만
인센티브
lfl
pv
툴
아참
##뎃
조원
##돋
대천
서적
모조리
어요ㅠㅠ
안종
##치오
인심
더듬
##밍하
제지
비준
무방
##려면
##려먹
장동
##식탁
살수
추어
##민트
아이씨
반값
결재
타령
교시
포티
따갑
카스
평평
완결
##강아지
잡아내
표절
귀중
증진
빻
흐뭇하
축산
##싸하
##퍼니
워커
밀양
돼지국밥
클리어하
미세먼지
웹사이트
트리플
듀오
##탐방
임산부
ㄷㄷㄷ
핸들
👍👍👍
시시각각
후루룩
homecook
다름없
흥미진진하
par
##ᆺ국
##99
가나
다길래
저가
사온
오줌
수급
한주
과대
정쟁
인강
소집
##트레이
세손
##정식
무모
개학
두명
두드러지
잘맞
동조
근교
연소
신의
##소득
김원
삼대
간과
청약
박해
박경
코카
손발
##출구
질질
복면
더라구여
사이판
##악산
울릉
급증
닭찌
떡국
인생템
팬미팅
견적
땅끄
큰거
불안정
녘
랄라
followforfollow
해야되
보스턴
퓨전
부추기
롱패딩
onth
김지은
팔로잉
엮이
결승전
물려받
엔터테인먼트
컨설팅
hot
션
촤
##br
##air
아키
가톨릭
에가
##니케이션
시ᄏ
나나
나노
기로
##깊
##랏
오아
##도로
##나게
대두
##화이트
세션
때우
미움
홧
##부러지
##비어
버드
잘안
어야지만
영사
국과
성년
배당
배급
반포
실정
재심
학종
타구
호화
리스크
##조선
##토마토
판자
딩
디어
담아보
빠른
##늉
첫눈
##쿠폰
찔
볼펜
에스엠
라이온
dailypic
큰술
##랄하
쌈싸
뜯어보
야식스타그램
##덜덜
아웃백
##뷔페
끌어안
썬크림
쌩얼
sony
에어프라이어
기프티콘
##헉
##뽁
##ge
하이트
아수
가물
곤드
다더니
거침
##욧
##러미
나폴레
네온
##어링
요법
##스톤
수두
한바
일흔
정거
우럭
제치
세르
유심히
위탁
갭
당론
##소바
##생이
##방통
삼백
호위
##파머스
##넴
##포드
목줄
##라고하
임팩트
휴전
##oodle
황군
냉이
착착
몰르
인생샷
바르셀로
##튬
찰리
들여오
##테이토
비트코
##okk
안티에이징
기다려
어딜가
임종석
슬퍼하
마그네
그든요
set
##릴
나루
마님
요한
오잉
면모
대낮
##주름
전향
##미랑
생고기
비가
비타
까마
동포
##식이
매각
실외
##루살
폴라
달팽이
누진
앞접시
##브랜드
딱인
갈증
복습
펑크
제주시
찌푸리
고민중
쿠팡
함수
뽈
2011
엠디
##아이디
조용필
인친환영
##iss
좋은게
꽉꽉
젠더
##ㄱㅋㄱㅋㄱㅋㄱㅋ
어지간
home
십육일
##라빈스
미롱식단
dp
ㅇㄴ
##괘
에디션
저소득
##시원
마피아
기모
기질
##라시
조문
오뚜기
##제리
대강
모사
##미용
내적
내맘
미앙
상견
원동
##식스
당구
그랫
신한
입덕
감흥
##크리스
반디
##횟집
식혜
건배
초고
코리안
육류
편향
법치
담구
##혜진
이천삼
##숍
건너뛰
과자스타그램
어마무시
스크래
##oday
아미노
블라우스
바비큐
라벨영
신통방통
외할머니
##루살렘
ft
##뚤
이직
이입
어매
어니언
##섞
마네
오더
라미
만료
우위
전념
##만큼
두분
두둥
영동
번복
##핸
학계
파산
발열
포로
포맷
호의
카스테라
특례
초선
외제
설경
용역
찍먹
항산
##으니까
접착
농가
##ile
##꼼
곡절
##고기집
긴팔
사십팔
초코맛
멍게
##ᆨ시트
160
흠뻑
ㅋㅋㅋㅋㅋㅋㅋㅋㅋㅋㅋㅋㅋㅋㅋㅋㅋㅋㅋㅋㅋ
김영란
##박스테이크
##브릭
카운트
으니깐요
슬라이스
한양대
김병준
다신샵
센트럴
뒤덮이
자판기
성균관
나폴레옹
ceo
trip
꽝
ㅁㅈ
##쾅
는맛
고명
고흐
##익스
##닮
시국
사쿠
사삼
의향
조형
자며
##나타
면하
예시
한스
로라
##마드
안자
##는것
제명
밀라
유가
유착
이러케
상륙
공분
중하
##ᆯ리스트
장원
##해지
입찰
방청
불토
불공
학급
강진
호치
현충
천막
코메디
용지
산양
증기
느낌적
병신
올케
각국
낄
닭띠맘
##취향
송년
##탈출
묻어나
##크림치즈
발라드
시집가
##스킨라빈스
놀림
에스컬레이터
배종찬
onthetable
57
man
vr
wed
딕
쭌
##na
이닝
이참
어가
그기
은밀하
##하트
##어트
되있
자각
옅
##아니
##장소
안토
인피
인질
##보니까
미묘
무휴
개업
선의
잘보
장구
##딧
연일
추미애
##피어
남자분
따뜻
##토퍼
눈꽃
이나마
산맥
##더마
킹크
할머
귀순
허세
항쟁
씩씩
뺐
침체
뷰스타
퇴장
##비슷
즉흥
싱어
##chu
했었잖
플래시
폼클렌징
냥이
##나옴
먹고살
맹세
카운티
하는여자
팔로워
##부모님
##zza
몰아치
##보스톡
클라이밍
땅끄부부
국과수
곤드레
바르셀로나
66
car
mp
늠
##씌
에사
에비
지면
지롱
을것
##니쉬
거닐
도약
저음
사신
##라노
##거임
여진
예루살렘
##자꾸
한대
한석
모지
##아두
##칫
세개
빙하
개구
선조
국고
##민석
재직
김창
##재민
홀릭
##번하
##경수
메추리
백팔
##와야
열병
열혈
심부름
외상
용맹
산불
##더블
디아
딜레
터무니
트와
##합니당
존예
존슨
다닐
테라
희롱
옆면
황상
##슐린
늘어서
##클래스
부드러
110
낙엽
새우장
휘말리
깨끗
##윤이
##ead
dietgram
올려주
##해야지
멘붕
트레킹
얌전히
트레이너
##키스탄
피카츄
말끔하
떳떠
삿포로
갓난아기
안종범
다빈
지칭
시벌
시완
##지금
보노
사학
주치
요로케
라뇨
섣
일선
인슐린
전전
전입
##트럭
##봅
##무진
노안
처먹
상콤
##터스
##버린
해답
##해놨
##단말
##생활
매도
##진우
반감
단가
##선크림
건의
리어
통령
박은
##넥
등신
확립
검열
십사일
민이
권총
털리
느낀
헤아리
아마추어
떠오
축축
황자
크림파스타
농성
##탄트
칼퇴
송혜
숙청
##풍기
엠마
than
cake
샌프란
게이밍
김한석
김혜경
비박계
블라디보스톡
gl
##퀄
이노
아연
아쿠
##서스
거다
##하늘
##시스코
사임
네오
주역
요고
댈러스
한장
일괄
ㅂ니다라고
우여
더냐
내수
##보송
생채
왁싱
알루미
동방
신학
##소니
추워지
##테나
##크레
못한
호평
부터ㄴ
백미
괴로
북촌
설비
힘겹
꼬시
종각
표본
할부
질의
절묘하
채점
칠팔
궁중
##썼
아들램
##킨스
잇츠
따라잡
깜깜
크리스피
예뿌
##부르크
맺히
고고씽
피디님
안좋아
##스테리
슬립
김지영
이호선
프랭크
벌거벗
킹크랩
mod
##페이지
##뻘
이뤄
지폐
##니트
도담
##하다가
##롯
##기스
조하
수량
로렌스
서태
모방
야쿠
세모
##정우
미장
노답
무례
무협
상생
치솟
경의
근황
국화
그래갖
신하
##필라
못할
리서치
##조심
##중기
보답
메론
손대
속담
체하
체면
키키
쉬운
는다라고
광교
쿠로
쇼킹
꽃잎
칼날
뷰덕
어머머
##own
찬반
벤처
아우르
겟잇
파이널
##eek
트릭
에프엠
기울어지
꺾이
쓱쓱
적절히
모여들
인덕션
조희팔
번들거리
ㄴ들
##좔
##ger
이송
이광
이베리
가고
고파
##렁이
보전
기껏
으믄
예우
수락
한파
만사
니하
ㅂ니다요
제곱
##수잇
비공
위키
선우
동감
##식품
번출구
##해물
신빙
##진호
불면
##바오
리퍼
하나가
간병
##근데
박성
박병
초당
##코프
앞으로
등판
출격
본선
목도
##언즈
##ool
베토
광산
##북스
범퍼
##슈즈
##렌디
풍요
ind
스트로
에이아이
케일
뒷부분
이릏게
뻣
상하이
엑스트라
둥둥
라온이
젠장
미숫
물음표
##리조트
떳떳하
송혜교
63
id
malt
so
##꿔
##pet
는고
에듀
고음
시련
나절
기류
##기하
으이
자태
자메이
오찬
오믈렛
##도없
바싹
수중
라비
전례
제때
미르
차고
무안
지금껏
또띠아
공헌
알림
개신
장문
장판
원목
관대
관통
##피드
##생리
배지
##크라
반격
반입
앨리스
교제
호모
리포트
##파니
등극
팔짱
민속
##워져
##블로
채찍
티몬
귀여움
착수
데일리코디
낙타
코스모스
보조배터리
##쉑
넥센
청양띠맘
시그널
라스베
all
메가박스
간지럽
##떡볶이
급격히
노르웨이
는구만
body
hp
off
##을리
##az
##ss
이든지
하객
##다라
나귀
자급
오보
옹이
바나
수표
수축
한발
서커스
모함
부랴
##주소
ㄴ다더니
##우진
미화
##댄스
말해
노태우
유흥
이럼
상고
원로
##스타인
신간
신변
##신문
살랑
방과
물감
##루루
애도
##옇
후면
삼선
포대
박살
초안
천상
##석희
##은희
##학생
##후기
대통령이
##메기
밥솥
투하
올리고
헿
풀어
##투맨
끼얹
견고
깜찍하
##흑흑
곰곰
##ecat
푹신
스킨케
공구오
french
##그라운드
지리산
꾸덕꾸덕
템포
피라미드
호치민
58
lab
vt
둬
ㅈㅅ
👏👏
##췌
##est
##쌰
##14
##sp
이효
가닥
에브리
시차
도출
보니
마른
오분
서재
안치
안일
내꿀
왁스
비겁
무수
##원피스
##키아
성완
방한
교직
포니
포천
작물
##홀릭
달인
코랄
코앞
열세
눈부시
##학부모
커녕
본문
##날리
토리
무슨일
허나
짜파
환갑
##커녕
찌꺼
몰려들
떠나가
남성분
ㅠㅠㅠㅠㅠㅠㅠㅠㅠㅠㅠㅠㅠㅠㅠㅠㅠㅠㅠㅠㅠ
##앗간
2009
낭낭
깃털
동그라미
내려다보이
크로스핏
대놓고
보들보들
69
dj
쁜
##kk
##iw
어카
아담
다온
지코
시속
은곳
나스
사차
사극
조류
주니어
오에스
##젖
한모
부팅
##마이드
소추
우라
##미친
##트윗
##드랑
내복
드니
먹물
상공
까칠
진지
원곡
신맛
감면
##윅
명가
##방기
호프
##건지
약초
설레이
팔구
바로잡
##습니다
고기스타그램
생김
자립
##할까
다이어트레시피
히말라
펜스
셀레
남편분
##샥
##쓰리
늦은
흑당
균열
굴러
찰지
앨런
미소천사
앵디
##ush
ㅋㅋㅋㅋㅋㅋㅋㅋㅋㅋㅋㅋㅋㅋㅋㅋㅋㅋㅋㅋㅋㅋㅋㅋㅋㅋㅋㅋㅋㅋㅋㅋㅋ
어린이날
##젠테이션
젠틀
연세대
수백만
ㄴ다던데
##ound
부러워하
보송보송
걷어차
클로즈업
라즈베리
급기야
6000
bm
##cam
어선
아여
가파르
지엠
도산
나른
들하
마꾸러기
되풀이
여든
한유
한없이
서정
부친
니께
안구
안할
우아
더빙
얍
전액
구내
##인형
유동
유공
화로
##부랴
상기
진창
##ᆯ림
장자연
영재
당대
신거
데님
발진
후라
강인
강세
삼분
작심
누비
머드
손꼽
##토스
외도
사진스타그램
꼬들
##웡
싸구려
항복
걸쭉하
밀치
웨어
##삼촌
함박스테이크
악단
암기
어쨋든
바껴
송중기
부산대
에스비에스
축구장
쌀밥
트윈
다이렉트
쫓아오
띠용
##뻥
엽기
끌어당기
귤디
pro
##그라들
오락가락
##arden
소용없
블링
톤업크림
김연아
느긋하
오동통
가뭄
얼어붙
르네상스
성완종
찌꺼기
늬
촥
##19
가브리
지중
##다섯
거인
시리아
##뎀
기집
기강
넬
조력
##나스
수잔
수줍
라마
부류
##사키
아니하
전산
##는다
구천
때매
유교
무명
무덥
중부
진성
##벙
##당하
성원
씽
씨지
방패
방탈출
##티스트
못봤
##섹
애가
##첵
라는데요
삼진
최지
호구
달랑
백발
앞세우
##네디
책추천
외형
금정
힘주
줄짓
환산
##ㅠㅠㅠㅠㅠㅠㅠ
밤늦
극혐
왕비
##즁
life
##each
신혼밥상
겸사
똥집
이탈리안
발랐
펀딩
내사랑조
##퐁당
청담동
왠만한
마땅히
광복절
셜록
알렉산
눅눅하
자메이카
라스베가스
부랴부랴
cio
##쨩
이철
에쓰
도모
보위
마운
기만
기발
요지
##거야
대성
##자마자
일박
소양
미오
말썽
##상수
##수제
중형
진진
연달
계실
으면요
##바바
타결
현타
##적거리
초심
등지
돌발
본드
본명
민폐
종족
월말
귀비
허기
죽을
절정
렙
병실
환수
찌질
샤넬
셀룰
##orable
악의
착석
낮술
##웨딩
아파하
섬기
팔로우미
강화도
뜯어내
스피츠
돌려보
##쭈꾸미
키로미터
케이티엑스
비슷비슷
이현종
미라클
##허허허허허허허허
인스턴트
히말라야
ai
tw
tmi
ㅆㅂ
💪🏻
🙆🏻
##18
##ーキ
아부
에리어
다중
##니오
은유
저때
저택
나여
##가시
##가없
기고
조급
##어진
스턴트
수작
소인
전대
버렸
동래
##내기
##피지
김흥
명곡
삼척
참쌤
특활
양정
백반
##코츠
등재
팔꿈치
목마
민세
##씻
표적
레저
홍문
배우님
뉴발
급변
석사
휙
##께요
##리어스
플레이트
배고픔
그저께
뭉클
링컨
##네이터
##new
bbq
sup
씀
##졍
이겨
이시간
가용
그정
##이야
거구
시들
##짖
도수
##시리
마더
기일
조커
오돌
라우
부결
닐
인접
야징
내스
내배
##무스
##붕어
공자
공황
어따
알갱이
경합
동교
문안
##곽
해롭
해왔
당산
신탁
매크로
##진않
결함
참숯
본성
##날두
토막
괜하
채리
퍼스
홍익
풀려나
카페라떼
밀폐
##ᆼ이면
루나
나뭇
케찹
파티컬러
이슈파이터
##뚫
유니클
짝짝
소화기
큐티
adorable
쟈나
skt
쓸데없이
밍밍하
인디언
주저앉
테레비
healthyfood
식약처
내꿀고양이
band
쿤
##uv
##dr
아두
지체
은디
마개
네팔
좃
스와
오빛
여객
예견
로되
##마카롱
전해
##드레
세명
##비싸
선릉
관상
국문
##해변
신정
감축
성심
방앗간
배분
##차곡
애트
##레미
후방
리베
끄집
출두
컬링
##더링
체내
디게
##현정
토욜
빨개지
트하
허술하
올만
잠잠
##순간
##ere
술마
젊은
악어
##ond
윤성
##던데
##웃기
밑바닥
에스앤
##바이벌
가르침
##베이킹
몽실
몽디
바디로션
##뽀송
캔버스
스카우트
##ㅜㅜㅜㅜㅜㅜㅜㅜ
이천십팔
튤립
beer
천문학
닌텐
센티미터
ewg
베토벤
fi
mb
sd
췌
이연
어휘
아고
에도
지주
시일
나갈때
사범
마산
주지
수없이
라벤더
부기
부사
##삶
소심하
##드린
먹기
유추
처남
화려
##붐
피난
계발
느닷
맷
불참
##밟
삼삼
교촌
특조
양조
코기
육식
민지
산부인
##ami
레코드
##득하
광해
잠복
떴
깨물
플로리
##불리
힐리
골절
죄수
바꿨
했을때
슈즈
버스킹
아내분
흡착
써야
음료스타그램
빌런
빌미
selstagram
핑거
##브리즈
에피타이저
쿠리네
커뮤니케이션
파크론
에드워드
😭😭😭
시드니
차곡차곡
흐트러지
아이씨비엠
딜레마
sbs
뚠
こい
##꽝
이언
지디
시전
##시픽
나들이
들락
한산
로컬
##마스터
인데
인과
우렁
제모
구부리
내성
내한
음향
차용
화석
이럴
어야징
장시
해조
연약
추방
성함
불상
후궁
보이콧
누락
현태
##파운데이션
코튼
설화
##먹자
##슨하
목회
꼬기
디젤
질소
##애나
##애애
떨치
홈케
난장
##길동
맨들
악취
어쨌
움켜
스트레이트
앙증
##냠냠
무시무시
##랭킷
##껍데기
##흔들
##ide
그립감
윗부분
필립스
##뛰드
킥보드
이건우
##핫플
물려주
곰돌이컷
조영남
살포시
오아시스
##미용실
샌프란시스코
뻣뻐
?”
eg
mbc
뤼
いぬ
##room
이질
이등
가뜩
##닙스
##다는
도포
사마
마사
깁
여캐
대명
랏
라더니
##자켓
한개
##장창
소프
경관
잘지
국한
연체
크런치
반품
실로
친서
막대하
머거
코피
##준비
잡수
허버
뜨끈
괜춘
##택배
태클
티저
홍어
홍조
##혔
폰케이스
협업
악플
동생마롱
흑미
에스테
혈통
콘센트
##itch
지도보기
징그럽
천연화장품
ㅇㅇㅇㅇ
비빔면
mychu
##ull
쟈니
색소폰
페미니스트
친일파
이베리코
4000
he
lc
net
##즐리
##ㄹㄹ
이맛
이딴
가도
에르
고보습
지탱
시판
##하고
나시
사역
마중
##라마
자위
주재
스몰
오조
##나르
대림
옐로우
수완
##마롱이
더워지
##댄
찮
와이드
유라
좀처럼
위스키
남주
경과
원시
동봉
##든가
아이간식
반칙
##레아
건들
호밀
호날두
들어간
열애
손짓
행각
##포티
##은데
용호
민나
##브르
변질
갖고
투사
레지
##ᆫ득
퍼붓
규격
맛집탐방
##era
혹여
플라이
접목
##쿠스
난동
믿고
슬레이트
악보
퇴치
퇴출
##허설
에스에프
##흉
##엄청
드러머
넘나들
아르헨
짭조
세이브
워킹맘
상암동
김광석
직장인스타그램
눈여기
간간히
빅토리아
maltese
こいぬ
phot
##꺽
##yo
##lr
이문
는단
저수
저질
##로잉
사조
사관
마블링
오요
오신
오육
##저곳
예용
##야마
한인
만주
서평
정적
정현
##주말
내치
##무룩
유화
비호
비엠
##부탁
치안
선비
연비
##한당
방점
##테라피
집보
##차드
뎅
명백
새마을
##두루
역풍
백년
운고양
약먹
프듀
천둥
코타
##포인트
북극
속속
금욜
뒤편
꼬숩
돈코츠
##육수
토닥
존대
##설주
색채
항생
헥
##할수있
폭우
폭언
##순대
##ans
워딩
래쉬가드
난데
떡집
자연유래
##던트
팬덤
스트립
낙관
찬찬
햇반
훌라
레이더
130
2008
고객님
메이드
깐요
라던데
치우치
같은게
꽁치
믹스견
럭비
알로에
주짓수
스트리밍
프로그래밍
설경구
nc
pe
rock
くり
ㅠㅡㅠ
다더라
나우
보틀
기린
##기대
스미
##스페
오기전
##나이트
롬
##런트
##구성
제리
제네
##대서
차도
공스타그램
장윤선
영통
영변
살치
성화
매칭
##셍
##모어
학술
새록
삼학년
최우
호출
리프트
엄중하
천명
금감
용이하
월요
키링
할애
다니요
더니만
황실
##ina
힐러리
망가
극심하
악성
탈탈
익산
멋진
##줘서
##클렌즈
멀미
곱슬
굿밤
불리우
무기력
##숏
##엉엉
##ise
돌려보내
예쁜고양
프라이머리
climbing
정우성
##어어어어어어어어
줄줄이
샴페인
무심코
뽀송뽀송
##헬스
리코타치즈
버닝썬
밋미
##파우더
서태지
62
din
##뭔
##쳐보
이륙
어캐
아울렛
가는
가왕
##답니다
도봉
있을
나면
보헤
마성
기와
조니
오목
오독
대란
바캉스
수진
라켓
서식
모음
정조
정개
안아
안된
야영
야망
세시
유희
치고
공덕
분권
필립
경연
##게이션
해봐
계피
##한끼
##텔라
##차이
##루니
재치
파절
점포
호강
리처
리허설
카야
얼그레
##갯
직캠
초유
천원
열사
평판
금수
꼬옥
##준하
넣어먹
벌떡
레터
색조
##되서
규슐랭
옆쪽
##ance
##병원
짱이
계란말
트럼펫
이곳저곳
덮치
중앙대
권력자
놔주
유니버
이모티콘
che
는건데
배불리
가렵
슬롯
똘똘
경희대
평평하
나뭇가지
에스앤에스
가뜩이나
아르헨티나
kim
##펀지
##껌
##hone
##cat
어하
하인
는사랑
가주
마담
여관
수반
라나
롯
서인
서늘하
모성
인저
우삼겹
구덩이
##우신
내전
##정말
유플러스
화하
상반
위층
공신
분정
버렷
알렉스
진우
경직
추워
매듭
##모색
강주
삼팔
##영미
모르겟
특화
직결
외투
확진
이낙
속살
법학
체스
월욜
딜러
할려
투약
헤비
아맞
폭동
##펄린
창구
싫어지
##귀엽
숄
##삼공
맨투맨
클러
뽀얗
아쉬워하
인사이드
##염색
롭스
촉발
모자이크
꿀꿀
좌표
격렬하
다이어터식단
벤츠
##블릭
##랭크
핑크퐁
무한도전
##ᆺ값
쟁여
쾌감
프라이빗
오리지날
동아시아
신데렐라
형편없
경상도
미쳣
되돌아가
이병헌
입체적
정경심
쓸모없
콜롬비
되살리
묵묵히
윤종신
닌텐도
vsc
##ᆷ이
##15
##ㅇㅋ
##뿅
##66
이회
아모
아코디
그새
고안
고데기
고구려
지네
시안
시향
##가분
기프트
자의
자선
##도어
##나온
수배
모름
##오공
##오빠
인양
야만
구백
##묻
말고
##만두
유진이
무도
그리하여
경이
장보
장국
당혹
연꽃
신은
신형
입성
##피닉스
##세롱
김도
단초
식스
타파
강압
릭
직영
초간
##석이
평행
확성
산거
형평
종신
할래
패미
글루
##불고기
##립스틱
##일리지
쇼트
슬랙스
나누기
지지도
##맞이
신경쓰
아름다
피자헛
바퀴벌레
안좋아하
트친소
오가닉
내사랑둥이
##icken
퐁당퐁당
닌자
노릇하
서장훈
김남국
트램펄린
소중히
장단점
위태롭
##생리대
쿠리네냐
뻣뻣하
아코디언
ab
cf
cap
mag
ta
top
홰
##ᆺ돈
##뤘
아껴
다독
거시
거장
##러리
나폴리
자덕
대지
라죠
과즙
모독
정준영
소생
##드라이
내공
내취향
드롭
말미
##인생
##인님
유유
유키
남남
남측
개똥
맛술
##게이
원어
근절
관저
##필링
님하
##민기
김우
파편
포수
현기
이걸
행렬
평촌
필연
이번달
산호
토기
귀환
##애기
태아
태교
태백
히든
히틀러
왕관
냉큼
떡밥
윤동
##클라
스트랩
케빈
콩팥
큰돈
구십팔
신혼일기
쉑
포메곰
ㅋㅋㅋㅋㅋㅋㅋㅋㅋㅋㅋㅋㅋㅋㅋㅋㅋㅋㅋㅋㅋㅋㅋㅋㅋㅋㅋㅋㅋㅋㅋㅋㅋㅋㅋㅋㅋㅋㅋㅋㅋㅋㅋㅋㅋㅋㅋㅋㅋㅋㅋㅋㅋㅋㅋㅋㅋ
핀란드
lovely
스쿠버
십삼일
cute
road
겟잇뷰티
ak
cct
gu
gp
궈
##ᆻ음
##씸
##ㅓㅓ
##..
하사
##니커
시부모
시네마
도어
저글리
보류
사만
의의
기종
읊
여요
한병
서영
서프라이즈
일간
부페
전이
##밋
내륙
##그냥
##타나
##일때
유후
비선
남경
##비오
분계
이런데
경마
경화
##동네
동점
근디
감청
##티크
##텐트
느슨하
못자
매형
실기
회기
식판
##연이
강필
삼시
포슬
누수
특종
역점
메시
군함
외환
##페르
돌담
출첵
좋아보이
종말
월정
푸틴
준하
퍼가
##풋
합작
##퍼드
난감하
걸림
봉준호
뜻대로
강아지산책
선팔환영
낙원
흰자
예쁨
라니요
불러내
삭발
##둘리
프레젠테이션
스페인어
불어넣
몰락
one
깡통
울릉도
지중해
민낯
밋밋하
78
꿨
쮸
##per
하마
고걸
다산
저두
맏
마미
마모
조인
##어리
##어여
자그
오겹살
예사
괄
만날
일이
정호
정량
어요ㅋㅋ
소자
더워
같아
전현
세밀하
생소
##만해도
##간지
알겟
장병
원세훈
문래
영접
##단하
추궁
물통
왜요
크레인
반년
강타
강용
호캉스
리액션
엄연히
친스타그램
메카
천육
##륭
완죠
##베스트
할만하
순차
##애자
##막창
##혼자
##할거같
##살이
칠판
딸랑
ㄴ다면요
셔터
##퍼런스
승강
밝기
##ord
내려주
바꿀
봉쇄
멋대로
##널드
컨테이너
##reet
빈번하
도와드리
중앙일보
묘미
빌보드
와이식단
네이비
자라나
마라샹
프라이팬
안들어가
밥먹으러
스릴
cutecat
##climbing
##기위해
김관진
쿄쿄
브라이언
이낙연
콜롬비아
67
##afe
##17
##my
어의
하심
아디다
아케이드
##서요
지질
사본
마찰
기스
##기름
주점
스누
예단
수순
서바이벌
정태
안감
##칫솔
야호
전락
제노
미나
##수정
##간만
영세
##티오
재물
애청
불화
명랑
발각
발짝
후르츠
샐러리
누드
직설
박태
천주
외장
##브러쉬
키티
잡아가
순전히
패주
사이코
팅하
##초등
##투명
온기
황홀
잔여
선물스타그램
##갈거
함덕
알아채
instaphoto
바뀐
사십만
혀니
굳어지
짧아지
##벨트
살아보
쳐지
칭따
젤네일
카카오닙스
삭감
박지성
##그릴
sky
동화책
당당히
썸머
##orgi
이건희
최진봉
삼국지
얄미
스트라이크
하이브리드견
카테고리
알루미늄
특활비
cctv
gt
mov
쾅
##fashion
이토록
하리
에일
##시네마
게하
마드리
마쟈
##고구마
##랍니다
조교
요괴
##나래
##야함
한그릇
로스트
일욜
부어
안식
우웅
더부
ㄴ다죠
세습
##우먼
내란
미시
공관
중량
개좋
피파
경악
##게뜨
잘해
##냇
##피뇨
씨엔
얘기잖
김라라
삼가
교보
통틀
멤
열량
##토피아
설기
금하
산재
첼로
줄서
대표가
##스트리
브로드
##셔리
셀럽
어야지요
inter
침범
탈수
변호사
아쉬운
##골레
##골목
##했잖
폐허
케미
열린
굳굳
##ᆯ링턴
객사
##쥴
빈대
앙상
빙글
##칼리
주방용품
단백질
그럴듯하
큼직
브이앱
자몽에이드
iphone
뱀파이어
스탠딩
뜨거워지
어땠
짜파게티
나른하
힐링하
av
da
if
뽁
##쟝
##ᆸ쓰
##킁
##ph
이단
어미
하재
하준
에라
다되
나일
보디
사색
자괴
자소서
##스푼
오감
대금
대의
예나
##야키
로빈
만취
부녀
부종
안뇽
##샀
##주리
##미디어
세미
넋
먹으
유미
치카
개판
피츠
피어나
##려요
장터
관철
배임
재화
재봉
##레몬
김범
훗날
폴리스
엄하
##발라
육사
넘쳐
군자
확연히
금품
본진
딛
빨랑
준거
##빠르
는다라는
취사
임박하
독학
걸까
블렌
품위
냉각
301
동생마롱이
##알못
뷰티블
낙마
휘젓
격투
##아이피
다이슨
##raw
둘러앉
연어초밥
독서스타그램
유기견
##센터
쉐킷
예예예예
넷째
하드웨어
##ᆿㅋㅋㅋㅋㅋㅋㅋㅋㅋㅋ
스코어
동성로
후쿠시마
공산당
art
마그네슘
ag
gh
time
름
메이크
ㅎㅁ
##corgi
아웅
아스파
다다
지고
도루
나빠
마나
네예
조청
되는
자하
주물
스커트
오피
오백
오답
수트
수여
모야
모아
모듀
일로
일과
일팔
정두
##마치
안봤
##오버
인어
##구하
같애
전광
차질
남도
남구
중딩
알콩
진위
피렌
##실러
해초
신천
신난
성주
성악
방전
왜그러
재연
##레일
단거
발하
강탈
따리
현송
양수
약품
천삼
##네여
북경
돌진
산림
디바
##웍
키워
자긴
프롬
중요한
벌어
태세
채워
브릿지
테라피
즐길
블랑
술먹
슬픈
##따로
폐암
마이데일리
치킨스타그램
초코칩
##냥하
##효진
찜찜
다잉
빌려
펜타
발사믹
옹기
##스코트
웰빙
첫줄안녕
탈모샴푸
테크노
느꼈
##지말자
리모컨
화장품그램
어버이날
siame
엘리자베스
패미콤
girl
캥
##iz
##je
##girl
어짜
하소
아역
가세
그맛
고군
의총
마일리지
기약
조달
되요
##야야
##야돼
과메기
서청
소나기
##주기
세컨
음미
##대장
차슈
차오르
처참
화병
화염
무진
위트
중기
개요
선뜻
원격
방귀
못살
반달
재민
단호
식도
발암
리딩
엄정
간소
양이
백구
괴담
박유
박준
초원
육상
편곡
외압
길드
출소
커밍
용암
체증
담담하
##엇는데
질타
쪼끄
독고
##컹
브러시
##star
희석
카페투어
효진
꺼풀
착즙
덕담
##클럽
능가
석양
콩나물
비교과
모이스
엠알
팩토리
우려내
뒤집어쓰
ㅋㅋㅋㅋㅋㅋㅋㅋㅋㅋㅋㅋㅋㅋㅋㅋㅋㅋㅋㅋㅋㅋ
앵무
앵글
제이티비
쾌적
충실히
##닷컴
jeon
모짜렐
music
브래드
겉절이
구급차
김흥국
앙증맞
집보물
강용석
피렌체
not
픈
👉🏼
##꺄
##ton
##25
이창
아리아
아앗
고층
지부
거액
스끼
요하
요트
오열
##나니
대맛집
모히
##아울렛
우익
전병
##화법
미미하
처가
화운
비문
상류
치켜
윙크
개천
진드기
피티
장안
연초
신첩
방이
##안나
집요
배그
배합
반문
##세미
애쉬
애플리케이션
단둘
학사
후문
교내
리우
막둥이
백탁
##와상
운치
천호
육질
심히
심근
##ᆯ라이
사용기
##란도
용병
##메리
표방
##베리아
빨라
ㄴ다는데요
존잘
##뱀
절충
##별곡
##살롱
몸속
떠넘기
황정
##활하
창립
아기의자
착지
##어보이
센타
깊숙이
던지라
뛰어놀
굳히
블랙헤드
##젤레스
혜원
##che
스포일러
브라더스
스펙트
##햇어
##ose
스테인
게시글
##뿌리
##ldog
귀욤
blog
동아일보
헤이즐
bookstagram
한명숙
깔라만시
내뱉
느닷없이
마드리드
김라라랜드
get
poodle
red
sy
uv
럴
킁
🤗🤗
##쫙
아흔
고물
다지만
##지근하
##가물
기묘하
되서
되도록
스텐
면스타그램
예리하
##래빗
한통
일오
정렬
닝
안진
##힙
제하
내쫓
노블
와일리
화법
무색
상여
위선
개많
경각
경산
##게리
잘가
문간
해삼
신논
감바스
못마
매스
실존
재희
앨리
김제
##바다
후니
리차드
##추가
백조
운운
열렬
법제
##먹이
뒤로
##감치
##너리
첼
푸짐
트라이
쪽쪽
품종
걱정없
찌라시
샤로
탄원
꽃길
풍성
봐보
오십일
##볼까
탐욕
빈센트
핸드백
홀더
흠집
catlov
팝송
제이슨
스노보더
피아니스트
##ulldog
##스러우
물어뜯
##브라운
기어오르
국토부
틈틈히
성북동
스폰서
##farmers
스크래치
트와이스
블링블링
찬찬히
sec
련
촵
ㅂㄷ
##뚠
##mas
아는
가없
그딴
##이모
##닦
시라
##지아
##시스트
나고
나흘
들썩
사부
맙
자잘하
##자세
한진
과열
모셔
부다
안써
안왔
우세
우르르
적법
유보
유관
무의미
상병
까치
##버려
연회
집무
재임
##렙
김은
타살
후하
최룡
포테이토
에게로
건방지
참담
멕
청순
##럼블
초라하
콜레
외박
커플링
십쇼
본의
변함
##질기
텁터
##팔팔
캐스터
캐롤
투박하
프로파
절단
레어
병장
겨루
##할인
##푸르
##으으
온건
폰트
페달
망토
밀어주
소통스타그램
잇템
##ath
##찌감치
송치
뿌려
데이타
석고
벽지
휘핑
코스프레
런거
ㅠㅠㅠㅠㅠㅠㅠㅠㅠㅠ
홀짝
##ᆷ플렉스
습관개선
stud
꼴찌
즐거워하
##ign
세종대
아시발
영구오
##고나서
catsofinstagram
냅두
이가희
집보물님
즘
햐
##ning
##끌리
이뽀
이학년
어영
하향
다오
시즈
##로운
##스민
오즈
##나도
여력
##까봐
수송
수없
한다
##아악
얀
야겠
구인
##정리
미스테리
차로
드셔
위한
버지
버킷
까만
개체
피어
연골
##소금
##피트
##피곤
방통
물류
아이소
학부모님
발탁
점잖
호빵
참말로
카풀
누명
머스타드
박미
등대
행주
끝난
##씰
월달
놓아주
##현미
패피
딱하
갈망
투여
증시
복당
##누르
칠레
워시
쿠쿠
난생
고마움
농협
냉채
다녀보
염치
깜박
##메이커
##edeat
닦이
2007
낭독
catofinstagram
안갔
알려주
스콧
몰랏
서양호
워크샵
일대일
파스텔
수딩젤
콜드브루
헬리코
단톡방
몽디에스
자괴감
ㅎㅁㅎ
73
oh
녕
子犬
##be
##nn
##쮸
##ih
##fr
아랑
고충
##이유
짊
시애
시끌
마들
##고왔
자바
##도넛
##나인
바오
한치
##런지
서신
안테나
야마
야해요
전가
##는법
##드래곤
굼
내비
내추럴
음흠
노비
위크
문질
가진
##신발
##내가
늪
회비
최다
교포
참배
특산
머슬
콤플렉스
심기
심아
십분
금천
월등
##질거
##베트
##앨
오래도록
규슐
2020
히비스
범하
커피랑
송환
##elsh
##린내
몰두
##알라
염통
액티비
라이터
징후
빈도
축하해
탁월
##를때
짝퉁
펴지
cosm
스태프
##프레드
그라운드
트랙터
비틀즈
챱
뜬금없
greedeat
team
##밀크티
omb
조경태
연평도
항산화
##elshcorgi
are
cam
gm
됴
##뤠
##gm
어라고
고건
다색
##다드
##다이스
겔
사선
넴
조타
조으
대석
로열
설리
모나
정병
##아라
##사각
구걸
냈
내의
내뿜
밀러
노영
먹게되
##분말
위증
위암
공문
분간
두말
장제
문경
관례
##티노
매점
회자
재회
단행
단련
##바나나
##프랑
명장
점이
초이스
앞날
육전
##매운
책자
설악산
길쭉하
##냐고
본색
종편
밥한
별이
질적
##밸리
보낼
오래간만
헹
테리
텔링
홍영
함흥
클레
##ater
윤곽
##헝
압류
케네디
헌터
##다보니
크리스토퍼
눕히
##겟지
##올때
몽글
스케이팅
##한다고
##쏠
랜선
윗선
black
##콜라겐
눌러보
으리라고
브라우니피닉스
##해봅니다
블러셔
뇸
이니셔
고먐미그램
틈틈이
소상공인
뵀
장시호
스펙트럼
96
today
ㄱㅋ
##쨍
##way
##90
이고
하게
가이
고산
거창하
나주
보게되
것이
사비
사억
조목
##거든
바바
라지만
##자너
과격
로펌
우먼
전범
세끼
노려보
상냥하
공갈
##비트
중위
까까
던걸
진가
잘부탁
장건강
원소
햅
방심
##테라
##테리아
아이즈
매개
크으
김가
결렬
단결
불순
파데
파토
발등
점퍼
최블리
작아
백현
박명
콤비
앞면
##머핀
편입
완공
산정
할미
##이어티
싸가지
증발
##stgram
##눕
올려지
접히
##꼬리
침공
이천일
슈크림
instapet
김정남
콘치즈
국정화
굴뚝
바이크
주부님
쌍용
##는거임
##벤션
스크롤
pomp
크로와상
chicken
먹고왔
부잣집
설렘
헤드셋
짠맛
웰컴
travelgram
이종걸
맞아떨어지
에코백
재활용
우러나
발렌타인
슝슝
까칠하
남경필
이니셔티브
74
hlder
md
mom
night
yes
⠀⠀
😁😁
##ber
##큭
##kr
##view
어수
어울
어림
어뀨
다저스
지평
지긋
##니랑
거뜬
##욘
##욥
##하려
나대
기점
##어놨
자처
오므
라자
만연
모델링
##마나
안한
안됐
##치료
ㄴ다길래
전생
전포
제동
구오
세례
내막
생연어
노아
노총
노이즈
상표
치부
윈드
중견
버겁
개의
추징
방방
##티라미
물냉
##렉터
파면
파키스탄
후우
삼부
삼차
교자
문제가
누워
간결
메리트
백합
##개비
박차
##와르
##코코
천칠
##네트
육박
##색상
군포
편백
출세
민수
체다
##브로
##질때
별녀
베니스
독창
##됩니다
울프
갑판
##슉
##걸음
잔류
##샤워
어쩌다가
뜻깊
봄철
긴박
뷰티인플루언서
섬뜩
빈둥
##빙글
##치즈케이크
step
좋은곳
줘야
##ummer
잠재우
럭셔리
신도림
아바타
이소라
플립
👏🏻👏🏻
🤣🤣🤣
문희상
윤동주
jeonju
84
but
ir
##잭
##눔
##땡이
##yp
##27
##ㅌㅋㅋ
##🙏🏻
어학
할리스
시구
사포
마스코트
조짐
으르
스펀지
##스케
오기
대작
##깎
수조
한포
한승
서글
일병
정몽
부제
##마블
소분
덧글
##주르
구부러지
세분
내피부
음색
##보자
처우
비방
이제서야
또먹
분거리
어떡
##들여
알약
진솔
잘만
국보
##소음
씨아이
##한옥
##테로
배역
##크라이
##루엣
김홍
단팥
타보
리즈
##에게
##건조
##근처
백색
언행
박하
약사
열람
열심
##노아
뒤꿈치
끝없이
산물
종양
줄리어스
디카
권익
밥알
충만
복고
##없다
##느니
티엠
항균
올거
업뎃
워하
뉴턴
슬라임
악재
봉골레
자연별곡
강아지모델
뷰티인스타
196
더욱이
케이트
완벽히
##쇼핑
수돗
##아내리
ㅋㅋㅋㅋㅋㅋㅋㅋㅋㅋㅋㅋㅋㅋㅋㅋㅋㅋㅋㅋㅋㅋㅋㅋ
땡초
이영자
무서움
우편물
보러오
green
해맑
캄보
윤상현
제스처
괴로워하
찜찜하
서청원
짊어지
어뀫
94
?"
bhc
★★★
##bo
##ᆷ없이
##쌩
##kin
어반
아련하
에고
에센
다급하
##지긋
도그
##시발
나아
##로이
사납
의붓
조윤선
요란
##스팟
예순
수긍
한문
##아시아
안고
뭐하
소액
더박스
전장
전등
적나라
생면
미제
미야
와이어
유타
화이
위인
공청
분란
분립
중전
해녀
해남
관문
성벽
배열
재량
단언
불의
타요
명명
삼육
교외
통기
통관
카사
##즈음
이거슨
##카니
직딩
박재
운거
##반찬
편도
외전
딱이
허허허
##합리
##oot
베어
퍼시픽
광택
홍시
홍게
홍천
홍길동
궁시
황토
##활성
급속
셀스타
##겨보
냉소
폐렴
##손님
휘둘리
대구광역시
케잌
##몽글
자극없이
##랄라
쓸수
##rac
레이드
끈끈하
덩달
톡톡히
##쿠아즈
달려라
##셰프
되돌아보
탁발준
dslr
이언주
리처드
아디다스
칭따오
빙글빙글
마들렌
##ᆸ타
##rl
##que
어촌
아귀
가챠
에리
지아
##니크
##다란
저쩌
##가봐
##어른
주진우
만땅
모세
##아치
##르담
##힌
전승
구정
적재
미행
미즈
먹어보
유에스
화목
무전
위약
##비안
까닭
던킨
피겨
잘때
원대
영도
영영
해용
연승
##말고
방조
방관
##테러
실속
김의
불어오
델리
파니
후레
강가
강구
포드
달큰
##년도
육칠
##먹하
산속
권투
##팔찌
허라
담날
담백
지나다니
러너
티케
헤라
폭넓
블유
##any
펠리
골동
밀수
꾸역
곡성
볼거
봐야하
##따라
##평가
팬츠
엔시티
##몬스터
뚜벅
##맞춤
##ene
뷰티인플루
훈녀
뿌링
##raft
와이에스
겟다
쌈무
안나오
##플레이트
미친거
윈윈
클렌징폼
갤럭시노트
매콤달
선진화법
텐션
밤샘
중도층
조그마하
상세히
전지현
쪼꼼
가급적
나영자
##걷기
##괜
낄낄
오에스티
한몫
7000
tue
릉
##멓
##16
##ma
##time
##ㅣㅣ
##ㅅㅋ
하찮
아차
거취
사들이
기정
스즈
오코
여타
##랙터
한분
과감
만원
##사장
제삼
세바퀴
넛
내방
생체
화비
상응
위염
깝
피서
경청
장손
##버님
영지
당충전
##소프트
씨에프
##크기
얘길하
왜냐
반다나
식상
##프스
타락
삼권
쵝
건륭
따름
막대
역동
백번
백설
열등
##반지
##포차
외화
##은곳
돌체
힘쓰
##더러
잡혀
##메인
토탈
몇일
##종일
질책
##컫
##할것
논설
범벅
행복해
망각
##라이딩
떡스타그램
루틴
루카스
##줫
석회
꿀떡
라이더
컨실러
랄지
찰랑
네이처
룸메
애정템
##갈비찜
기여워
your
shop
고릴라
슬리핑
닉슨
##hyura
메밀전
김상곤
타코야끼
게으름
sweet
피카소
가디건
friend
pizza
color
kohyura
비겁하
뜨끈뜨
마라샹궈
캥거
지긋지긋
win
끙
##ᆺ밥
##ike
##uit
##ping
##xx
어대
하난
가서
에러
에펠
그자체
고체
고베
고갈
고뇌
다락
도도
저널
##함께
##가격
##엎
욥
오부
옥스
여분
예랑이
수하
만장
만수
만난
모성이
일번
일베
안민석
인칭
더랬
##밈
내돈
##그로
미각
무민
##원장
치닫
버디
피쉬
경지
장내
원데이
원썬
원뿔
##동석
국사
추종
##티티
받들
크라이
##루지
##모집
김양
##첸
##바베큐
##프닝
명지
##방울
삼치
삼만
교향
통곡
참깨
막차
특파
현혹
직위
육억
뒤따르
##입니당
응징
키드
나가지
##종류
허접
는답니다
퉁이
복학
베일
병들
혼동
환타
##찬이
겨드랑
광선
합참
##쉴
온열
골골
난무
난관
##att
덕수
꿀피부
컨트리
컴터
뽑아
목소리
단체석
비비크림
굿나잇
굴곡
쨈
##튜브
구체화
유아전집
쥐어
##eck
공주님
해물찜
##랜서
petstgram
벼랑
여쭙
spons
십팔일
챙겨먹
토너먼트
동해안
모스크바
기승전
콩콩볼
쌈싸먹
현송월
어짜피
83
8000
97
ver
룬
👩🏻
##29
##con
이드
이체
어처
하품
하정우
가가
가설
다자
다반
##다구
시루
##시퍼
나위
나탈
사체
사채
사러가
의힘
마워
기변
자퇴
자아내
여워
수아
서경
서툴
모친
일컫
부작
##주머니
전속
제빵
섹
미카
유류
비열
이러이
또르르
진한
피맥
근심
계집
성소
##물회
배울
실루엣
##세자
##모카
##프루프
명부
명물
파울
통학
달짝
정독
특공
눈감
##학원
커리어
그걸
##덩어리
트립
는다구
질운
충주
프로토
절절
##ᆫ듯
러버
티나
독려
##밥집
휴스턴
맛집추천
온실
황원
밤낮
협재
##갈래
알아가
봐오
자주가
##alk
##검색
졸음
##돈까스
덮개
꺼내보
##닥치
240
##햇는데
캡처
알바하
크로아
스탬프
##폴드
얌희
##만한곳
##뱅크
max
다욧
데스크탑
서해안
msx
글리터
미지근하
빡세게
스코티쉬
할라피뇨
##ooftheday
가물가물
한바탕
photooftheday
아스파라
몽글몽글
68
ii
rid
##푀
##fa
에로
에세
그깐
##리오
시로
저버리
있어
게용
나용
나은
봅
보지
들통
마가
네버
##라벨
자색
오드리
여아
예봄
수교
모서
모차
부림
부흥
소동
제휴
미자
미쓰
##타입
화기
비니
공들이
남짓
개각
이런것
경부
원샷
동주
##식초
##디쉬
당한
##키나
살충
##회식
타고
어떻든
새하
강당
강산
##두고
리설주
##중훈
청각
백기
백석
괴리
약수
코다리
앞당기
손끝
심도
려니까
돌판
커네
패하
투덜
복한
죽전
놀아
티백
##큼직
##져요
올랐
##ano
##겻
##철이
##ored
송어
송편
##허브
흑자
슈트
석기
##훈아
탐내
##큐리
끓어오르
신기방기
독일어
퀴어
##야하는데
빙빙
나눴
street
장비빨
ㅋㅋㅋㅋㅋㅋㅋㅋㅋㅋㅋㅋㅋㅋㅋㅋㅋㅋㅋㅋㅋㅋㅋ
앤디
##orning
##츄럴
는건지
둥지
쾌락
##ᆿㅋㅋㅋㅋㅋㅋㅋㅋㅋㅋㅋ
빵집투
숟갈
터미네이터
전신샷
불닭볶음
매실청
페르시
한라봉
소홀히
그제서야
짭쪼름
정관장
데이브레이크
화덕피자
힌두
안중근
촵촵
최룡해
텁텁하
헬리콥터
act
mi
롸
##쩜
##ux
이양
도매
나보
의거
의날
자화
자캐
요점
##스윗
오물
오승
##나루
##자분
한적
만만
일개
일광
정은
우즈
우롱
비어
비관
위배
공명
분신
진호
진달래
피신
경협
선스틱
##게인
##게임
관습
신라면
입가
씨티
물의
물증
배부
배너
매표
재편
##레트
##체험
학비
타월
파출
참패
들어갈
##ㅋㅋㅋㅋㅋㅋㅋㅋㅋㅋㅋㅋ
##ᆷ꼬
##카타
괴로움
행군
외침
##은요
속삭
민짱
형아
줄곧
월화
잡스
필요한
쉬웠
태안
환급
퍼센
홍석
규현
규탄
빵수니
##ero
##싸움
##불가
바닷물
나이스
##ato
봉합
내리막
상대편
컨벤션
##척하
195
엉터리
비하인드
##튠
미니멀
sty
##쪼록
불러들이
깐깐
##쉘
윈도
깎이
##ult
캣맘
가자미
브루스
구구절
네모나
😍😍😍
가즈아
정진석
슬로우다이어터
김규리
빨아들이
플로리다
##니커즈
버지니아
어처구니
황원찬
bit
kids
zz
😅😅
##ᆯ트
##ᆺ목
##ᆻ는데
##ll
아실
아후
는진
시종
보실
기포
##어묵
##도되
면맞
여니
일때
안착
인선
더민주
세관
적어지
##보노
드래
##타올
##상자
유무
무신
남앗
##빌리
버즈
진저
##유아
잘나오
문턱
가지런
##핸드
연사
계통
##말하
불능
불쑥
파생
최승
포레스트
통수
얼집
역류
박세
##와사비
천이
열받
행세
북방
##씨드
의원이
사이비
총사
##찬스
광양
합니당
칠칠
##봐요
밀려오
꽃밭
##ᆫ스키
윤서
스트릿
염병
덜덜
마이쭈
율량
이사람
에어로
굴복
맵기
쌈밥
듬뿍듬뿍
christ
쿨러
낚싯대
김기식
두근거리
조현병
play
김부겸
##love
정제수
프랭클린
지오디
이방카
만든거
이희호
비정상
귀차니즘
프로파일러
jt
official
pap
퀄
ㅋㄱ
👍🏼
##콸
아따
고종
고귀
다량
은닉
##시브
나간
사분
기인
으앙
자한당
라오스
##자키
니콜라
우크라이
구직
구설
세뇌
적외
내드리
찻
와규
##일수
비수
위메
##음ㅋㅋ
두구
##유산
장작
장발
원점
동무
영덕
##해선
신흥
방대하
##의길
물밑
배타
맞붙
##세상
##세끼
김인
김가루
단수
탔
거든여
##방법
교동
##호떡
카자
끄적
날려
##개월
박시
북어
북구
##은듯
뒤섞
##더슨
형이
형국
종인
##브스
답사
잡초
밥맛
##어나가
쪼그리
##블로그
병풀
##을것
히터
찌들
언니가
승소
왕성
소스랑
몰아내
가져보
시원시원
에이미
##헿
으려구
##itz
##몽드
##윤정
젓가락
2006
폄하
이정희
##플레이션
스팟
잉글리
프레디
##해줌
샌디
쓰리디
브라우저
치아바타
photography
쯧
쉴드
푸석푸
앤드류
김만흠
양현석
스낵
주원홈트
super
뜨끈뜨끈
87
aa
abs
do
ebs
핳
고온
다카
지독하
거점
시몬
도가니
##싯
사구
사심
사바
의중
주세
주둔
스칼
오대
예물
수국
한마
일찌감치
##마침
뭐야
소견
##르드
더디
야스
##미백
##트니
##화되
내셔널
##보틀
생사
##들어오
장화
장정
원빈
##벌리
나옴
입각
##피탈
씰
씨제
물꼬
못사
실온
##세척
재계
결실
단열
불문
불확
##호수
##에요
##엘라
따따
카터
양질
운하
천일
넘모
책육아
##페스토
눈알
길목
금산
킬링
밥값
순면
증식
총평
베스킨라빈스
##눙
읽기
워프
극중
농심
클라스
암울
알아봤
##쳐서
떠나보
10000
긴밀하
좌지우
낙인
휩
찬사
##깨우
굴욕
개봉기
탁하
끈질기
##랜베리
먹고나서
##찜닭
듀엣
김현철
멜젓
팟타이
##okyo
험난
림프
발레리나
아로니아
잘생겼
낸시
쉼터
살펴봤
플러그
한유총
홍문종
dinner
쉑쉑
브라우니피닉스쿠리
과감히
캥거루
af
goo
ky
kia
per
rx
ㅤㅤ
##ble
##book
##box
##췄
##ᆺ빛
##21
##ㅗㅗ
##☆☆
이스트
하게되
아항
에밀리
다ㅋ
##지게
도성
도적
저온
##러닝
게되
사줬
기막히
##고마
스캐
요ㅎㅎ
##슥
대위
##래드
서천
일면
소피
덤비
##힝
차주
남캐
분원
문무
영미
##키니
감식
##티셔츠
배탈
실트
김석
결핵
데용
명복
명쾌하
강물
교리
포커
건초
리퀴
리뉴얼
누설
간헐
직급
##와와
프론
육포
평면
##포즈
외주
눈이
완충
본전
산수
변이
킵
잡기
##꿉
##메르
쉿
담론
갖은
캐랙터
빠빠
북한산
사이먼
괜차
##득이
##살랑
딸램
온화
접점
접견
워드
뺄
창설
싫어
아기물티슈
짓밟
탈세
오십삼
숙련
##클러
따로따로
##ict
에이전
194
엉키
곤혹
받아먹
파티션
신혼일상
겁먹
##눈물
140
뜯기
가로막
청주시
포토북
쌤스타그램
##ocol
쫙쫙
끊임없
로드맵
1987
스타트업
탈북민
한상균
진작에
정세균
break
거니와
브로커
프로듀서
event
까마귀
인피니티
이효리
애틋하
명백히
뽁뽁
박유천
##티라미수
캄보디아
##ᆸ타이드
우크라이나
푸석푸석
bus
##돠
##af
이까
그득
##다면
##러블
보배
자너
##거진
대타
수화
##랫
과소
서원
부케
전거
구장
구태
때깔
미끼
##무서
##무라
무해
또렷하
남방
버금
##들레
원상
원론
문단
국빈
##해짐
##디즈
연잇
성안
방비
물자
매화
##차별
씁
호우
##영아
카타르
양적
메종
완판
##냐고하
본품
목재
종부
짰
어리둥
##스트레
쪼그
보내오
임창
러쉬
올르
블로
잔고
##친다
망언
난감
꿍
루테인
##etics
알아들
능숙하
##텔스
혈전
낙찰
휘어지
능력치
뗏목
브라이트
##된장
##쾌히
쏟아내
##듕
이정미
##어어어
350
덤불
오로라
ktx
슬라이딩
다노샵
가마솥
페어링
##altokk
헐리웃
강동원
뺑소니
주구장창
렇게
bandaltokk
큼직큼직
모듈
불확실
좌지우지
air
sea
wom
wind
멱
쩍
##och
##뫄
##23
##pc
##ㄴㄴ
이끌리
하모니
아그
아플
##이제
은날
##가야
읭
의경
##델리
마운드
기이
조승
바운
수로
만보
서지
일국
안창
인신
인텔
제제
##트럴
셉
생크림
미호
와구
유어
화자
무속
중임
알싸하
장염
동심
문헌
##버시
해머
해골
##딥
물엿
##세븐
##명하
학벌
발치
호적
##번님
프렌
천리
심적
외지
외삼촌
뒤쳐지
잡음
순조
딱새우
허그
빠진
빠질
##스트리트
##stra
총액
독보
혼돈
다닐때
퍼뜨리
테일러
히스
##립밤
##친절
샥
밀당
쇼케이스
극명
함대
칼로
##쓰기
##알바
##슬쩍
팬분
끌어오
견뎌
##ᆯ로기
##맞아
##케이프
15000
블루래빗
씹어먹
셀카그램
척결
ㅎㅎㅎㅎㅎㅎㅎ
롯데시네마
헤어팩
스크럽
스탠스
쉐이
돋우
레벨업
킬로그램
아몬드브리즈
이종훈
##ouse
##먹으러
기어이
이경애
아지트
아사히
낱나
##챙겨
하다못해
곶감
두고두고
정두언
히비스커스
뇸뇸
달큰하
sponsored
불닭볶음면
깐깐하
mil
틔
##by
##쌔
##ial
##uff
##❤❤
이봉
하동
는겨
에뭐
에뛰드
그말
고스트
다트
다를
시노
도정
도너츠
##실리
나미
나약
##가요
샅
사카
사또
##고자
조또
##어머
##스피
##스퀘어
대공
수액
과금
로다
서래
일분
정재
소폭
더블린
##주현
제과
구스
너의
내쉬
##봅니다
미끄럽
화백
무우
칡
##텁
남이
분만
분별
개명
잘놀
장자
동혁
영직
까집
그래놀라
##단지
애타
단적
불사
명당
후세
점원
작별
##졸라
##에몽
카프
현빈
머핀
##ㅋㅋㅋㅋㅋㅋㅋㅋㅋㅋㅋㅋㅋ
박동
##포크
필모
들어가보
민박
터프
푸들
트레이드
쌉싸
캐서
##스트레이트
##플란트
놀란
글쿤
잠금
홍성
몸스타그램
빵터
떨구
본인이
황혼
접이
##채기
##립트
최고죠
아기화장품
죄질
꾸러기
어쩌구
송가
보고오
부산광역시
##잡하
꿈틀
능동
마이너
좔
클리앙
컴퍼니
##룩스
곱씹
청소기
싱그럽
옥자
강력히
전기세
##아리움
##ape
푹푹
##데이션
넷플
##그래서
돋보기
발라먹
##쩡
프리미어
몬테
예뻐지
둔하
게이지
들고오
널널
몰아넣
##derroom
서초구
powderroom
에스테틱
이회창
하재근
챱챱
이러이러하
93
kitt
summer
큭
##훼
##ᆺ거리
##ment
어쿠
아으
에끌
다분
##다노
시방
저걸
##시작
사와
조나
주꾸미
오는
오종
댔
일교
어욤
안와
안입
야해
##화하
구실
내놔
내몸
미학
미디움
놋
유격
비냉
##원료
상용
##터치
위젯
남대문
알츠
알맹이
경시
경멸
선쿠션
해부
관전
입속
감초
추우
방토
##크래
##심이
##체스
결점
단합
샛
삼억
호전
리라는
통깨
따끔
카모
여깄
##파트
박진
초인
초크
편파
팔이
완치
잡아보
마음홈트
할배
투영
광기
흐흑
제주살
밀푀
닭한
꽃등심
ins
자꾸자꾸
윤아
윤정
봉우리
숙회
쏘쏘
굽굽
127
놀라움
탕진
##웬
흥하
푸드트럭
##led
타이핑
##트릭
프로젝터
220
불러보
먹고나
ㅋㅋㅋㅋㅋㅋㅋㅋㅋㅋㅋㅋㅋㅋㅋㅋㅋㅋㅋㅋㅋㅋㅋㅋㅋㅋㅋ
##갈릭
이자카야
##ㄱㄱㄱ
##oftheday
벼르
팥죽
필라프
소프트볼
왓슨
케어해주
들고가
##오오오
##스파게티
멀쩡
베네치아
윌리엄스
미러리스
강서구
쨍쨍
canon
살랑살랑
짭조름하
킁킁
장제원
모차르트
abc
ji
xs
꺽
쨔
##ᆺ카이
##탱이
##꽈
이데오
는애
가재
고상
고선
고메
다ㅜ
지법
지끔
##데르
마파
으휴
으뜸
오랑
바게뜨
수구
라길래
로사
로키
만삭
모밀
정대
정해
안어
안장
야수
전처
구질
구냥
세배
때마침
##상선
##수리
처신
무마
##빔
##들하
피스타
장로
국선
##디니
신데요
계면
방역
##물쇠
아이가
##진다
김말
김은지
타석
새집
강대
호야
리사
리셋
달아
문젠데
얼떨
특감
양푼
메꾸
청동
초면
경우도
금성
산미
답안
##침대
나가사키
트랩
갈대
글쿠
올린
채끝
베끼
##을까
퍼플
퍼트리
##풋하
향료
홍상수
##eric
억양
래미
크림치즈
##철하
칼질
칼륨
##곡동
##따미
꿀벌
##헷
##큘
초코파이
묵시
프리랜서
휴대성
싹쓸
쭈니
##act
펜싱
앵콜
헛간
크리에이터
3500
게이머
450
바닐라라떼
어쩔수
디엠지
파라다이스
##폴리오
##하이머
박주선
장하성
차명진
비지니스
##ittle
poke
##냄새
거침없이
##필라테스
알렉산더
움켜쥐
횃불
movie
알콩달
back
dd
ios
oo
떤
뮈
✌🏻
😘😘
##뉘
##bm
##숴
##👈🏻
이팔
이층
는커녕
고은
고함
##이네
지압
시하
시퍼
##시가지
##러버
##럭스
나선
##로랑
사교
마데
마초
기요
조제
조마
##어져
##스리
오니
옴마
대미
과속
모네
모를
안국
인파
##구미
더래
아닝
##미소
제수
적격
내친구
처절
비번
비술
공강
##비타민
어떨
이렇게
진부하
맛남
동술집
해파리
관종
국외
당해
##소디
##생크림
집꾸미기
얘가
배민
##크크
앰
##몰리
단양
단종
뎁
발현
점성
강적
최병
교착
포격
리니
참혹
따돌리
##영수
##건디
머쓱
다른분
청하
직속
##와라
##토미
##습니까
판명
용하
쳇
꼬소
##브레
##베어
##종기
트렌디
허겁
캐번
놀람
##ster
폭침
합산
희주
##덕지
밀집
승려
승현
짓수
슬럼
칼리
봉인
뿌옇
다리기
정상근
##캐슬
액세
돼지고기
돼지껍데기
긴머리
혜성
빈집
라디오스타
##트리트먼트
likeforfollow
헉헉
레몬에이드
검은콩
정성껏
쟤네
골랐
보여줬
씐
강경화
##야되는데
알파벳
왠만하
아스날
아스팔
송파구
건국대
이글스
센텀시티
😂😂😂
김관영
층간소음
박용진
사쿠라
뚠뚠
전현무
##초등학교
씨엔엔
안진걸
첼시
적나라하
낱낱이
cbt
jpg
part
ts
world
녜
쏭
🤩🤩
##훌
##츰
어중
하워드
가태
에너
지령
을줄
시부
도리어
나훈아
##가게
의민
요상
오비
오존
##도현
수료
수혈
한탄
한팩
정인
부록
소사
야돼
##드레싱
내과
드로잉
말없이
유태
비숑
공과
피리
동공
연화
매물
실지
재력
결별
발랄하
점장
삼양
최따미
교무
교역
리미
리턴
릴레
끗
초연
등분
말씀드리
##노바
금기
민노총
산삼
체격
월경
디제
엄마가
잡아주
##꾸역
##꾸라지
토트
갈기
증강
복종
얼마전
레미
레디
활어
총격
환생
광희
깼
##ᆯ렁
아들그램
##inc
급수
잔해
기분이
밀봉
웨이크
쇼콜라
탈의
주말스타그램
부산시
##크림파스타
견학
떠나보내
##다니엘
켈리
혈세
##훈이
##돼서
엠씨
팩스
##바이크
추억팔
매운걸
척도
레이싱
##뮤지
소주한잔
코코아
꽂이
다지요
프레시
똑똑히
챙피
실화냐
린다
메릴
굶주리
후춧가루
김혜수
꽈배기
유재석
팔레스타인
부끄러움
벙커
pvp
어지간하
##뚤어지
개신교
labely
우라늄
끄집어내
앙상블
동생마롱이쿠롱
간결하
어댑터
boy
fe
tea
yog
뫼
##먀
##ᆺ감
##롸
##pn
##ート
어폰
가축
다보
다ㅋㅋㅋ
##리즘
##지겁
보우
마티
긱
조준
으란
자해
자생
자물쇠
주춤
오공
대진
한낮
한조각
일깨우
##아도
부전
니라
##마인드
안본
안잡
우중
더웠
전조
전류
너라
유수
유망
##부러
남색
분발
개량
피코
##게용
장이
원액
문양
##식물
번창
연지
연내
감행
감경
감형
성서
##티엔
##차지
애호
김신
불향
불투명
타먹
발포
홉
리콜
문제다
얼스타
청운
백운
박보
초복
코바
육안
책속
외대
##페스트
눈바디
길냥
커미션
종자
##편지
변강
응가
##날레
##난이
빠이
##밴
임플란트
티오
어렸을때
##누스
광진
홍진영
칠백
몸짓
업주
갑상선
뉴트리
페루
##겨울
승화
풍금
풍족
탈주
볼래
흔쾌히
석상
##잔아
폐해
혈증
빈혈
다이나
우주인
##솔트
들이받
##ase
엘베
끈기
카카오프렌즈
삘
꽉차
붉어지
갤러리아
돋구
마마무
##하하하하
헛되
##쥔
pomeranianworld
엿보이
이중섭
으셔서
브이아이피
이영애
매콤한
작은거
갠차
오롯이
iptv
디즈니랜드
티라미슈
하하하하
껄껄
유의미
눈여겨보
##ㅎㅋㅎㅋ
유라인스튜디오
낭낭하
췌장
얄밉
궁시렁
스코티쉬스트레이트
이데올로기
아스팔트
labelyoung
86
ly
over
ㄱㅅ
ㅇㅁ
##back
##ᆯ까
##ᆺ꾸
##13
##mun
##lc
##de
어사
어정
어메이
하림
아크리
는ㄷ
가림
가긴
그로
그자
그란
다뤄
거름
##짓하
도난
저너
보솜
사려
마임
조양
되짚
자니까
그러믄
한소
로리
서산
서두
정이
부응
부스터
안그
##오티
인방
소총
우치
우째
야탑
##드로
생가
찼
##인더
화소
화랑
비엘
까망
잘햇
해커
연명
신진
입덧
추산
성시
성희
집앞
물총
왜안
회유
불씨
학식
##여주
파행
최정
교인
##에야
카오
눙
##발루
머지
청렴
백병
직종
##론하
심재
심폐
넘좋
외래
팔공
##박히
민혁
산적
산만하
할것
토양
토란
담번
충치
스타키즈
복직
쫒
티트리
다니깐
잠적
향연
철없
갑옷
늘어놓
급성
꺼꾸로
찔러
밀항
홈즈
탄두
꽃집
여름휴
꿋꾸
##찍이
염원
봄맞이
땅굴
##웰링턴
꿀꺽
균일
옥션
ㅠㅠㅠㅠㅠㅠㅠㅠㅠㅠㅠ
스포트
프랑스어
건너오
##올리브
##벤처
##뚝뚝
늙은이
##ema
##테이프
빗대
##ongb
나눠먹
프라이버시
락앤
spf
20160
삼각형
통상적
리모콘
풋풋하
이산화
##촵촵
프란체
들러보
김명수
##더더더더
청포도
커스텀
뛰쳐나가
무방하
다빈치
축축하
야쿠르트
##news
퍼스널
잘지내
더부룩하
시애틀
서글프
꾸역꾸역
style
알츠하이머
cal
fun
춰
😚😚
##sun
##iel
##jj
##port
아다
그랑
고흥
고딕
지소
을텐데
거등
##지못
도없
은건
##시장
##롤라
##가내
사줘
깅
##기분
되가
으아아
자숙
오글
여도
대견
예식
수뇌
##야님
한기
과민
서가
일터
안바
야대
##주방
##힐링
세간
노가다
##인터
화정
비꼬
무주
##문어
위급
중장
중증
피에
생각해
경질
선점
선율
##겡
잘모르
동사
##버러
영희
번가
국도
신종
##키우
##키호
계류
성도
##민당
재범
##렌트
김호
불복
새거
강지
포상
리바
참이
카바
친목
얼추
직감
초계
##코르
행장
##먹고
터보
순종
별반
취준
빠트리
##느끼
##밸
총애
병동
헤딩
퍼퓸
##푸딩
##으려
입장문
궁리
올라서
관계없
황궁
급급하
쇼미
탄성
궁금한
##ily
아빠랑
기업가
알리오
팬픽
##캐리
에스유
깊숙하
##긴해
오르내리
케냐
경험담
가게되
벗어
곧장
흡족
청소년
##텐더
##퇴근
썰렁
앙녕
롯데백화점
뜯어먹
렌탈
스핀
##쌈밥
만지작
##콜드
녹차맛
지인분
프레쉬
봤을때
벼룩
빗물
킹스
헤헷
프라이머
생겼
yummi
왠일
한결같이
마이크로닷
찡그리
비슷한
##청소기
다니엘웰링턴
쿨링감
끓여먹
scottishstra
로지텍
시완이
스트로베리
들락날
존댓말
클러치
스누피
어수선
오붓하
피스타치오
scottishstraight
er
god
lee
ny
nature
뱅기
##헤이
##tm
##xt
어무
아세
가우
고되
시오
시무룩
저서
사절
사줄
마왕
기괴
네다섯
되가지
주선
주얼리
##젝트
대니
대해
예지
##깝
과탐
##ᅯᆫ스
모락
정미
부글
안그러
##오름
뭐뭐
##굼
우대
구려
미끌
##무드
유수분
비글
상부
##터카
남돌
중원
진나라
진득하
선구
##게된
##성공
원만하
영종
국자
씨드
씨피
매생이
회오리
애드
##모밀
단문
타이트
팠
파람
파열
포터
참견
엄선
땋
카네이션
양띠
머랭
메커
약관
코지
열성
필로
##토크
확고
팔라
돌출
금주
용감
민병
끝맛
##넝
##준다
캐슬
준비해봤
괘씸
러운
##누구
겨누
궁궐
낑
급진
급박
녹용
##줄기
귀여웠
닭꼬치
빠짐없이
퇴행
##알티
케어하
존잼
연락주
낙선
##맨날
프린스
##받이
제시카
들여놓
히힛
##프라푸치노
##igh
##pyder
쎈
캬캬캬
킹콩
jmtgr
워터프루프
더더군
달달한
##cake
무서워
먹을거
숭실
딥클렌징
make
가려움
##눌레
반가웠
##쯧
homecafe
추운날
솔아성장
오스만
영롱하
밀라노
참쌤스쿨
옹기종기
버킷리스트
위메프
밀푀유
비술채
허겁지겁
el
뀌
둑
ㅎㄷㄷ
👧🏻
##쪙
##son
이신
이니스
아람
다ㅎㅎ
##이당
징크
시저
##가나
기체
##기도하
조진
조와
되새기
자상
주르륵
욧
요러
요동
##스태
##스파이
오영
대식
수해
수의
수란
라파
##자극
##얍
한전
한림
서독
모태
일축
정립
정겹
안됨
인실
소질
야나
야밤
전학
적색
내서
좋을
생식
미달
##대진
차후
유린
비온
무쌈
상쇄
위엄
공채
##국제
개서
개비
개관
피넛
경차
경량
선처
연석
입니당
추신
추월
너무좋
느와르
밸리
얘길
재채기
김이
김두
단비
덱
##위크
새요
간염
메로
메마르
청첩
운항
프루
##태현
##맛나
##페너
종식
가능할
##현주
할꺼
##향기
순돌이
##종이
트롤
이상한
담장
ㅋㅋㄱ
질식
##설록
렁
총력
##누나
##레이저
폭락
홍제
규카츠
각광
내용이
딸맘
플스
온리
온대
느냐면
##채소
붙히
찾아봐야
##쿠버
아기로션
밀려나
홈파티
난처
민주노총
##elon
익혀
##잡이
움츠
흑발
맡아보
맥주스타그램
고양시
##텐션
빈손
하이볼
정의용
레이어드
아시아나
시켜봤
전주한옥
플래너
김영남
들여보내
##클릭
든든히
찐빵
벼슬
퓨리
더더기
생겻
왓챠
이영학
주걱
핸디
서귀포시
갔을때
느껴져
발명가
ㄴ걸까
두루두루
이뻐지
호호호
최진녕
새콤달콤
ㅇㅋㅇㅋ
프로폴리스
열일하
떄문
브랜딩
##ghts
cross
충무로
샤이니
리기학부모
연신내
리얼리티
아쿠아리움
포니테일
양정철
오므라이스
에펠탑
jtbc
어쿠스틱
pokemon
ele
lunch
pop
qu
🙇🏻
##먄
##됴
##댕기
##nail
##케이블
##끙
##hi
이길
이부분
하시
하버
하겐
다사
다진
지워
을뿐
거물
거위
거죠
시베리아
도지
도표
##하지
보듬
보냉
의인
##기적
##고다니
으라면
으쌰
주무르
요시
오나
##도착
대물
대질
바루
수플레
##자주
##자랑
모피
모리스
정색
##맑
안햇
구동
##그치
##그리아
##보라
노중훈
처돌
비료
치중
치와와
또하
버라
피나
문센
관용
당정
연패
신포
##랑크
##처리
크랜베리
실비
앤트
결석
단한
##바그
새송이
##둥하
최성
호일
린스
##좆
카리
##경대
얼렁
역적
양궁
백승
박인
콜리
코숏
##매장
##포츠
필러
##역사
목화
첸
누구누구
돈벌
디스코
권태
##남기
투병
충당
먼치
존속
##플라이
몸소
각지
맛집스타그램
궁녀
됏
플루트
108
##봐도
온가족
녹슬
대학생
탄자
왕후
##atte
##얼하
##ᆼ잇
맘스
알아두
슈탄트
굽기
는거랑
119
땅값
##enc
짱나
##낙지
휩쓸
##링스
플레이오프
파티폼
타이머
환자분
겉옷
스키니
##에이션
2500
컬러감
삐약
##뽈
흘려
파워업
제이크
##빼기
봐야되
##쉐프
순대국밥
##aka
긁어먹
##네이드
하는사람
획일
퐁듀
썬더
##찾기
프라임
사일구
##그라피
갔잖
엎어지
##퀄리티
숭늉
랜드마크
##스프레이
##ifi
몰아붙이
줌마스타그램
뜨거운
자이언
희귀하
희귀모색
우상호
낱말
😆😆😆
최영일
밀레니얼
데드풀
인플루언
홧팅
꼬들꼬
화운프
헤이즐넛
박명수
종부세
마파두부
들락날락
파티폼피츠
nas
vi
welshcorgi
쒸
##쏭
##ding
##fo
이도
이변
이롭
아울
가기
엑시트
고픈
다있
거보
##하자
##로제
##로프
##가가
사다
사우스
마동석
기찬
네거
##라멜
자만
주워
오설록
##나요
면밀하
면밀히
여잔
한건
한줄
과로
로저
서약
서클
일육
정연
정파
ㄴ다라면
##그니
생와사비
미숙
위계
##들러
알선
진척
둠
##유니
동독
##식감
##버림
해프닝
##디셔
감돌
방도
물구나
배척
##크랩
맞닿
매끈
회생
##짜증
김유
타지
점막
최장
포부
##조물
참을
달이
막론하
언팔
박항
박쥐
초롱
코스타
심려
경우가
편식
##본거
##토닥
팔천
금괴
##먹기
뒤적
산도
가능한
자기전
귓
귀농
허탈
담아
충원
##독서
헤테로
환원
##할듯
브레이
규범
울퉁
##북적
깻
혹하
술한잔
위원장
빼기
혼잡
이용료
닭띠아기
암만
침패
바꾼
봉명
##린다
덜미
에이에스
흥정
꿀조합
마이펫
콘셉
클리너
식단인증
천십이
런지
플레이스
공감글
취향껏
then
펼쳐
쭈리
펴내
파이썬
국정원장
컷오프
ㅋㅋㅋㅋㅋㅋㅋㅋㅋㅋㅋㅋㅋㅋㅋㅋㅋㅋㅋㅋㅋㅋㅋㅋㅋㅋ
스케쥴
##ocam
필라이트
우승자
안들어
다던가
몰랐
스파이시
트로이
##해줘서
##ave
팔로미
포르테
김동연
숭배
김수현
##셸
무관심
마이크로소프트
what
청량리
윌슨
감량녀
스러운
이너뷰티
바빴
이혜정
최태원
둘레길
갯벌
코카콜라
시퀀스
곰곰이
##ーキー
조인성
시즈닝
홍영표
window
쌉싸름
캐서린
좔좔
닭한마리
메커니즘
ha
hy
land
mr
コーキー
##즤
##bulldog
##ㅡㅜ
##뀌
##sa
##⭐⭐
어진
고열
다잡
다쿠아즈
##이뽀
##다공
시큰
도되
나래
봇
의성
##덱
마오
##라카
조서
조속
자양
요ㅋㅋ
오스카
수타
수갑
한아
과음
안갈
##치않
##오키
인바디
##구치
우버
우뚝
전우
##는걸
##미오
구토
내디
내비치
생색
미숙하
##무버
말년
##수자
##수길
비약
공법
공팔
분쇄
개오
두발
##게더
원금
원통
원호
##동맛집
동유럽
동국대
##램블
연안
연임
입욕
감미
성룡
씨푸드
집결
받아가
느므
오늘아침
반등
단돈
타오
파내
강령
삼조
최희
호사
##양말
##양파
##조금
간당
머글
날로
청도
##카나
평준
##포머
출사
커브
판넬
판도라
돈키호
순발
허점
쌌
##빠이
태생
헤르
겸하
울고
흐물
술탄
갑갑
##불퉁
부르스
워셔
페미
##orpg
떡순
##꽂
루크
견주
헬요일
뮤트
조심조심
가르시
족욕
핸드폰
##끈적
쳐주
아우라
탁자
앙블랑
생산량
빙상
엑스포
새해복
갱도
최애템
매니큐어
그레이트
꼈
싸이클
세이버
물어봐
어묵탕
판타스틱
쓴거
후후후
으라구
요가복
하와이안
어쩔수없
사로잡히
미쳤
크레딧
찡찡
유익균
라라랜드
텅텅
꽈리
거제도
송정애
##coffee
##멋대로
제니퍼
corgigram
##블라썸
웰시코기호
frenchbulldog
동교동
vscocam
포메곰돌이
체다치즈
액세서리
울퉁불퉁
침팬지
92
ez
gdp
nct
쬬
##bb
##촬
##ᆺ개
##쫑
##gh
##gan
이관
이규
엌
에머
그랭
고든
고현정
고단하
지에스
##다른
시어
도르
도트
은수
겡
나그
나유
##롤러
마키
조공
자초
오인
오매
오창
여과
여실히
대검
예복
바끼
라영
한샘
서혜
서훈
모티
정발
##아ㅏ
ㅂ니닷
##마당
전한
내포
미완성
##만지
노상
유한
유빈
남극
##용기
선미
장태
신가
씨하
##테마
집이
너무예뻐
아이피
아이슬
매거진
불황
식탐
냔
파노
강렬
삼덕
건립
작자
홋카이
##양념
친근
양껏
##파인
##파파
청해
괴수
행인
평수
금토
완도
본관
민들레
형이랑
답글
디오
##현희
곳이
헠
갈아주
캐슈
프로페
##ᆫ듯한
올릴
독해
##됬
퍼내
##할수
폭팔
건강한
빵모닝
하루종일
축가
##ini
힛
##슈타인
녹지
##돌프
페스
페트
꽃피
왕좌
##탄불
침낭
##필름
봉화
먹방샷
석진
에이즈
컴플렉스
##잇음
엠보
걔랑
오른팔
대전맛집
##rain
##eak
이명희
쌍방
오오오
킨텍스
##팍하
붕붕
싸이코
지상렬
스노우보더
이스탄불
왔을때
펄쩍
트레이더스
americ
포르노
경상북도
##육아일기
만드셨
페르시아
뜸하
알뜰폰
세라마이드
마카로니
etnews
손꼽히
훌라후
빈둥거리
달짝지근하
이니스프리
네거티브
sl
쏜
⠀⠀⠀⠀
👉👈
##gd
어나
어물
아틀
가형
다야
##이래
지성이
시제
시조
돛
저저
저울
있어용
보르
##고생
조응
오면
##저냥
면목
여심
대꾸
대흥
일류
정예
##아녀
부업
##사과
소담
더네이처
죠아
세번
미온
##일것
화단
위해서
남김없이
분분
분투
##들은
개화
개소
피오
##성애자
장본
근간
##버튼
성품
성탄
##랑카
씨이오
##안주
아이보리
매미
매료
실거
단군
##여야
##두개
작두
리가
카일
역모
백패
운정
천도
앞산
##네스코
열여
등불
책무
외적
##공간
금상
금손
민락
산문
권은희
##벨리
이상민
담달
투정
복선
##배추
##배달
##언정
##등급
서울숲
항일
꼭두
어렴푸
##레이즈
##커버리
이십일
풀어주
철강
##ane
##맛집추천
먹스타그램촵촵
골다공
극세
나이프
의미심
악명
##얼마
볼만한
윤신
봉급
알아봐야
인사동
석쇠
##놧
묵히
다이어터맞팔
레이건
thu
무릅쓰
얇아지
슈퍼푸드
##ㅌㅌㅌ
수원시
트레드
##뚝배기
유행어
스파클링
옵니까
네일샵
짤막하
예뻐하
삼일절
뾰루지
